<pad>	0
<unk>	0
<s>	0
</s>	0
<mask>	0
<0x00>	0
<0x01>	0
<0x02>	0
<0x03>	0
<0x04>	0
<0x05>	0
<0x06>	0
<0x07>	0
<0x08>	0
<0x09>	0
<0x0A>	0
<0x0B>	0
<0x0C>	0
<0x0D>	0
<0x0E>	0
<0x0F>	0
<0x10>	0
<0x11>	0
<0x12>	0
<0x13>	0
<0x14>	0
<0x15>	0
<0x16>	0
<0x17>	0
<0x18>	0
<0x19>	0
<0x1A>	0
<0x1B>	0
<0x1C>	0
<0x1D>	0
<0x1E>	0
<0x1F>	0
<0x20>	0
<0x21>	0
<0x22>	0
<0x23>	0
<0x24>	0
<0x25>	0
<0x26>	0
<0x27>	0
<0x28>	0
<0x29>	0
<0x2A>	0
<0x2B>	0
<0x2C>	0
<0x2D>	0
<0x2E>	0
<0x2F>	0
<0x30>	0
<0x31>	0
<0x32>	0
<0x33>	0
<0x34>	0
<0x35>	0
<0x36>	0
<0x37>	0
<0x38>	0
<0x39>	0
<0x3A>	0
<0x3B>	0
<0x3C>	0
<0x3D>	0
<0x3E>	0
<0x3F>	0
<0x40>	0
<0x41>	0
<0x42>	0
<0x43>	0
<0x44>	0
<0x45>	0
<0x46>	0
<0x47>	0
<0x48>	0
<0x49>	0
<0x4A>	0
<0x4B>	0
<0x4C>	0
<0x4D>	0
<0x4E>	0
<0x4F>	0
<0x50>	0
<0x51>	0
<0x52>	0
<0x53>	0
<0x54>	0
<0x55>	0
<0x56>	0
<0x57>	0
<0x58>	0
<0x59>	0
<0x5A>	0
<0x5B>	0
<0x5C>	0
<0x5D>	0
<0x5E>	0
<0x5F>	0
<0x60>	0
<0x61>	0
<0x62>	0
<0x63>	0
<0x64>	0
<0x65>	0
<0x66>	0
<0x67>	0
<0x68>	0
<0x69>	0
<0x6A>	0
<0x6B>	0
<0x6C>	0
<0x6D>	0
<0x6E>	0
<0x6F>	0
<0x70>	0
<0x71>	0
<0x72>	0
<0x73>	0
<0x74>	0
<0x75>	0
<0x76>	0
<0x77>	0
<0x78>	0
<0x79>	0
<0x7A>	0
<0x7B>	0
<0x7C>	0
<0x7D>	0
<0x7E>	0
<0x7F>	0
<0x80>	0
<0x81>	0
<0x82>	0
<0x83>	0
<0x84>	0
<0x85>	0
<0x86>	0
<0x87>	0
<0x88>	0
<0x89>	0
<0x8A>	0
<0x8B>	0
<0x8C>	0
<0x8D>	0
<0x8E>	0
<0x8F>	0
<0x90>	0
<0x91>	0
<0x92>	0
<0x93>	0
<0x94>	0
<0x95>	0
<0x96>	0
<0x97>	0
<0x98>	0
<0x99>	0
<0x9A>	0
<0x9B>	0
<0x9C>	0
<0x9D>	0
<0x9E>	0
<0x9F>	0
<0xA0>	0
<0xA1>	0
<0xA2>	0
<0xA3>	0
<0xA4>	0
<0xA5>	0
<0xA6>	0
<0xA7>	0
<0xA8>	0
<0xA9>	0
<0xAA>	0
<0xAB>	0
<0xAC>	0
<0xAD>	0
<0xAE>	0
<0xAF>	0
<0xB0>	0
<0xB1>	0
<0xB2>	0
<0xB3>	0
<0xB4>	0
<0xB5>	0
<0xB6>	0
<0xB7>	0
<0xB8>	0
<0xB9>	0
<0xBA>	0
<0xBB>	0
<0xBC>	0
<0xBD>	0
<0xBE>	0
<0xBF>	0
<0xC0>	0
<0xC1>	0
<0xC2>	0
<0xC3>	0
<0xC4>	0
<0xC5>	0
<0xC6>	0
<0xC7>	0
<0xC8>	0
<0xC9>	0
<0xCA>	0
<0xCB>	0
<0xCC>	0
<0xCD>	0
<0xCE>	0
<0xCF>	0
<0xD0>	0
<0xD1>	0
<0xD2>	0
<0xD3>	0
<0xD4>	0
<0xD5>	0
<0xD6>	0
<0xD7>	0
<0xD8>	0
<0xD9>	0
<0xDA>	0
<0xDB>	0
<0xDC>	0
<0xDD>	0
<0xDE>	0
<0xDF>	0
<0xE0>	0
<0xE1>	0
<0xE2>	0
<0xE3>	0
<0xE4>	0
<0xE5>	0
<0xE6>	0
<0xE7>	0
<0xE8>	0
<0xE9>	0
<0xEA>	0
<0xEB>	0
<0xEC>	0
<0xED>	0
<0xEE>	0
<0xEF>	0
<0xF0>	0
<0xF1>	0
<0xF2>	0
<0xF3>	0
<0xF4>	0
<0xF5>	0
<0xF6>	0
<0xF7>	0
<0xF8>	0
<0xF9>	0
<0xFA>	0
<0xFB>	0
<0xFC>	0
<0xFD>	0
<0xFE>	0
<0xFF>	0
ու	-0
ան	-1
ար	-2
եր	-3
ակ	-4
այ	-5
▁հ	-6
ին	-7
որ	-8
ում	-9
ել	-10
▁է	-11
ներ	-12
ութ	-13
▁մ	-14
ությ	-15
▁ե	-16
ամ	-17
▁կ	-18
ուն	-19
ատ	-20
աս	-21
ական	-22
ավ	-23
են	-24
▁ն	-25
աց	-26
ություն	-27
ով	-28
ետ	-29
▁ա	-30
ող	-31
▁տ	-32
▁Ա	-33
▁պ	-34
ած	-35
▁Հ	-36
▁գ	-37
▁դ	-38
իր	-39
▁որ	-40
▁բ	-41
▁եւ	-42
ագ	-43
ության	-44
ների	-45
ահ	-46
ալ	-47
▁ս	-48
ես	-49
եւ	-50
անի	-51
▁վ	-52
ման	-53
▁են	-54
▁այ	-55
ախ	-56
▁«	-57
առ	-58
ապ	-59
եղ	-60
▁ան	-61
▁թ	-62
ոն	-63
յան	-64
ված	-65
▁համ	-66
աղ	-67
ից	-68
աստ	-69
եց	-70
▁ք	-71
▁ու	-72
▁խ	-73
իս	-74
ային	-75
ազ	-76
▁մի	-77
▁չ	-78
▁Մ	-79
ըն	-80
եկ	-81
ուր	-82
▁շ	-83
▁եր	-84
▁լ	-85
աշ	-86
ադ	-87
▁ար	-88
▁իր	-89
▁առ	-90
ները	-91
աք	-92
իկ	-93
ույ	-94
ավոր	-95
▁Ս	-96
վել	-97
▁հետ	-98
▁ըն	-99
երի	-100
▁փ	-101
ործ	-102
աբ	-103
ոս	-104
▁օ	-105
..	-106
▁Ե	-107
▁կար	-108
▁մաս	-109
իտ	-110
▁ին	-111
րան	-112
իմ	-113
ուս	-114
արկ	-115
եմ	-116
քի	-117
▁Հայ	-118
▁Ն	-119
▁նախ	-120
▁պատ	-121
ությունը	-122
ոլ	-123
▁(	-124
ելու	-125
▁հայ	-126
աջ	-127
▁զ	-128
▁Կ	-129
անակ	-130
վում	-131
րա	-132
ոց	-133
ամբ	-134
▁տար	-135
▁համար	-136
▁ծ	-137
այն	-138
արդ	-139
շխ	-140
▁հան	-141
եռ	-142
ագր	-143
▁գործ	-144
▁վեր	-145
▁ժ	-146
այի	-147
▁Բ	-148
անում	-149
արգ	-150
▁Գ	-151
ստ	-152
▁-	-153
րդ	-154
▁ներ	-155
▁մե	-156
▁Հայաստ	-157
տր	-158
ուց	-159
▁Ի	-160
▁Վ	-161
ավար	-162
▁հար	-163
ելի	-164
յանը	-165
▁տեղ	-166
ենք	-167
պես	-168
▁առաջ	-169
եք	-170
ազմ	-171
տն	-172
▁ինչ	-173
▁օր	-174
▁ձ	-175
▁նա	-176
ադր	-177
երը	-178
ակց	-179
որդ	-180
▁ուն	-181
▁Ար	-182
▁աշխ	-183
արար	-184
▁ամ	-185
ապետ	-186
▁այն	-187
աղաք	-188
▁երկ	-189
▁Այ	-190
▁Դ	-191
ոտ	-192
▁պետ	-193
▁էր	-194
արտ	-195
քում	-196
անց	-197
արձ	-198
▁Պ	-199
ոխ	-200
▁ավ	-201
▁ժամ	-202
իվ	-203
նում	-204
▁միջ	-205
անկ	-206
ատար	-207
▁ստ	-208
▁մասին	-209
...	-210
▁ց	-211
կայ	-212
▁այս	-213
րի	-214
նել	-215
իչ	-216
▁Լ	-217
ոչ	-218
նդ	-219
ափ	-220
անք	-221
ությունների	-222
▁քաղաք	-223
▁ապ	-224
▁ՀՀ	-225
աթ	-226
ներին	-227
▁այդ	-228
եպ	-229
▁_	-230
▁կարող	-231
ույն	-232
▁թե	-233
անգ	-234
ոշ	-235
▁Եր	-236
անդ	-237
▁աս	-238
▁աշխատ	-239
▁Տ	-240
յալ	-241
▁մեկ	-242
▁Թ	-243
աշտ	-244
ությամբ	-245
▁Հայաստանի	-246
յանի	-247
պան	-248
աժ	-249
▁էլ	-250
նչ	-251
▁նաեւ	-252
րամ	-253
շտ	-254
▁ընդ	-255
րջ	-256
քը	-257
օր	-258
ՈՒ	-259
▁Ռ	-260
▁ֆ	-261
ություններ	-262
▁ճ	-263
որհ	-264
ոլոր	-265
▁արդ	-266
▁գր	-267
նակ	-268
բեր	-269
արի	-270
աբեր	-271
▁եմ	-272
ԱՆ	-273
ումը	-274
լի	-275
▁ներկայ	-276
▁ազ	-277
▁Ո	-278
▁նշ	-279
▁այլ	-280
▁չի	-281
եզ	-282
արզ	-283
▁կամ	-284
ոգ	-285
ացի	-286
▁նախագ	-287
ողմ	-288
▁ի	-289
▁արտ	-290
արհ	-291
արան	-292
կեր	-293
դի	-294
▁մարդ	-295
▁ժամանակ	-296
ակի	-297
յու	-298
▁նոր	-299
▁հաս	-300
▁ներկայաց	-301
ողով	-302
▁վար	-303
▁հարց	-304
▁կազմ	-305
վական	-306
▁Ք	-307
▁ոչ	-308
▁ռ	-309
ոմ	-310
անր	-311
▁հիմ	-312
նական	-313
ուտ	-314
▁պահ	-315
խան	-316
▁կողմ	-317
իսկ	-318
թե	-319
▁Այս	-320
թաց	-321
ագործ	-322
ենց	-323
▁տես	-324
երպ	-325
▁մասն	-326
▁պաշտ	-327
▁կառ	-328
գային	-329
▁հավ	-330
դր	-331
աձ	-332
▁իրավ	-333
յուն	-334
▁նրան	-335
»,	-336
▁Փ	-337
յուր	-338
▁ամեն	-339
▁մեր	-340
▁հայտն	-341
ուկ	-342
am	-343
մբ	-344
▁ուղ	-345
▁լին	-346
▁պետք	-347
գամ	-348
▁մեջ	-349
▁Է	-350
▁օգ	-351
նն	-352
անը	-353
▁շատ	-354
▁ենք	-355
իստ	-356
▁Խ	-357
▁դեպ	-358
ուլ	-359
ելով	-360
արակ	-361
աճ	-362
ոյ	-363
այր	-364
▁Շ	-365
վող	-366
ույթ	-367
ոդ	-368
վի	-369
ներում	-370
ալի	-371
▁կր	-372
▁նախագահ	-373
ահման	-374
▁շրջ	-375
▁բաց	-376
▁փոխ	-377
իսի	-378
նի	-379
▁խաղ	-380
ակարգ	-381
▁շար	-382
ապես	-383
▁ավելի	-384
այց	-385
տես	-386
▁որոն	-387
▁կատար	-388
▁անց	-389
▁հր	-390
▁Երեւ	-391
ությունները	-392
▁թվական	-393
▁որոշ	-394
ույց	-395
▁ես	-396
իճ	-397
իլ	-398
▁պայ	-399
րագր	-400
▁չէ	-401
▁խոս	-402
▁իրական	-403
այում	-404
▁որը	-405
▁բոլոր	-406
աչ	-407
ներից	-408
սկ	-409
րել	-410
▁ունեց	-411
ինչ	-412
ողջ	-413
▁ընտր	-414
▁կան	-415
▁վրա	-416
ակերպ	-417
▁իսկ	-418
իշ	-419
ացել	-420
րո	-421
▁Հանր	-422
եղծ	-423
եւոր	-424
երին	-425
ակում	-426
տրոն	-427
▁եղ	-428
վեց	-429
ացման	-430
▁հետո	-431
▁Օ	-432
▁կայ	-433
▁կեն	-434
ոք	-435
▁սկ	-436
▁կողմից	-437
▁մեծ	-438
ասխան	-439
ոկ	-440
▁նախարար	-441
առայ	-442
▁անհ	-443
քն	-444
▁երկր	-445
▁ինչպես	-446
▁անվ	-447
▁էին	-448
րաստ	-449
▁նկ	-450
▁խորհ	-451
▁մարզ	-452
▁տարած	-453
▁սահման	-454
ձն	-455
▁կապ	-456
▁խնդ	-457
▁Հանրապետ	-458
երթ	-459
նար	-460
վա	-461
▁ընթաց	-462
ներով	-463
▁հայտ	-464
▁վարչ	-465
▁բան	-466
▁մոտ	-467
▁Մի	-468
▁միջոց	-469
յա	-470
տեմ	-471
▁հատ	-472
▁տեղեկ	-473
▁եք	-474
րանք	-475
▁վերջ	-476
▁երբ	-477
▁Ֆ	-478
բերի	-479
արմ	-480
ոստ	-481
որձ	-482
ակը	-483
▁հաղ	-484
▁կառավար	-485
▁սպ	-486
եյ	-487
▁տն	-488
լխ	-489
er	-490
▁կազմակերպ	-491
եռն	-492
▁անձ	-493
մամբ	-494
քեր	-495
▁ջ	-496
իզ	-497
▁իրենց	-498
ապատ	-499
▁քանի	-500
րց	-501
ուք	-502
▁եկ	-503
յութ	-504
իայի	-505
կական	-506
իք	-507
▁գիտ	-508
▁լավ	-509
▁Զ	-510
ներն	-511
▁աշխատանք	-512
▁Ան	-513
ությանը	-514
պր	-515
▁առաջին	-516
ԱԿ	-517
ատես	-518
եջ	-519
▁հայտարար	-520
▁հեռ	-521
աբան	-522
հան	-523
▁որպես	-524
շակ	-525
▁ծառայ	-526
ագիր	-527
▁ընկեր	-528
ունք	-529
▁գն	-530
նարավոր	-531
▁հետեւ	-532
▁բայց	-533
անալ	-534
ագույն	-535
▁վերաբեր	-536
յուղ	-537
ատակ	-538
եխ	-539
▁նրա	-540
▁հաշ	-541
▁պաշտոն	-542
▁քնն	-543
ԱՐ	-544
▁միայն	-545
▁Ու	-546
մեն	-547
▁խմբ	-548
տի	-549
▁անգամ	-550
▁ուս	-551
ակալ	-552
▁ազատ	-553
▁փորձ	-554
▁Կար	-555
▁խորհրդ	-556
նելու	-557
գր	-558
ագիտ	-559
▁որոնք	-560
▁արդյուն	-561
▁իմ	-562
▁բարձ	-563
▁Չ	-564
լին	-565
▁ունեն	-566
▁հանր	-567
ումների	-568
տեղ	-569
ացած	-570
▁Հանրապետության	-571
ուհ	-572
▁հնարավոր	-573
▁կարգ	-574
ությունն	-575
▁Եվ	-576
▁աղ	-577
▁մտ	-578
▁ժողով	-579
ը՝	-580
▁ղ	-581
▁չեն	-582
▁բնակ	-583
ակայն	-584
ոցի	-585
▁գտն	-586
▁տարբեր	-587
▁Ձ	-588
▁աշխարհ	-589
at	-590
առն	-591
ոփ	-592
▁հանդի	-593
դամ	-594
▁Սարգ	-595
▁օգտ	-596
▁մինչ	-597
▁հանդիպ	-598
in	-599
▁պայման	-600
▁ստեղծ	-601
▁դր	-602
եցին	-603
իթ	-604
▁իրականաց	-605
րաժ	-606
▁ճան	-607
▁ընթացքում	-608
▁A	-609
▁մրց	-610
▁տեղի	-611
աշին	-612
լխավոր	-613
▁ակ	-614
»:	-615
»-	-616
ահատ	-617
ուծ	-618
▁պետական	-619
▁նվ	-620
▁նպ	-621
▁պատմ	-622
եշտ	-623
▁Ը	-624
▁ցանկ	-625
▁ընդուն	-626
▁մասնակց	-627
ուշ	-628
րանց	-629
▁Սարգս	-630
▁դատ	-631
քան	-632
ԵՐ	-633
▁կենտրոն	-634
կա	-635
▁քաղաքական	-636
▁ղեկ	-637
▁ծրագր	-638
▁Ինչ	-639
ումներ	-640
▁տալ	-641
▁դիմ	-642
տեմբերի	-643
▁համակարգ	-644
▁նույն	-645
կաց	-646
an	-647
բեջ	-648
ՄՆ	-649
▁եթե	-650
▁խնդիր	-651
սի	-652
▁ուղղ	-653
յուս	-654
»,-	-655
▁ղեկավար	-656
ակից	-657
րոպ	-658
▁ցուց	-659
▁հիմն	-660
ակցության	-661
անջ	-662
ոռ	-663
աձայն	-664
▁ով	-665
▁հանդ	-666
երում	-667
ոհ	-668
▁բարձր	-669
եփ	-670
▁ուժ	-671
▁տարի	-672
▁պատճ	-673
ասն	-674
▁–	-675
▁դեմ	-676
դրբեջ	-677
նորհ	-678
▁զարգ	-679
▁սկս	-680
մի	-681
▁դա	-682
ազգային	-683
▁դաս	-684
ուղ	-685
▁Ռուս	-686
ճար	-687
ինակ	-688
այտ	-689
▁բաժ	-690
▁C	-691
▁ամբ	-692
▁անդամ	-693
▁ունի	-694
իան	-695
▁թվականի	-696
կին	-697
on	-698
▁պատասխան	-699
ոդված	-700
պանության	-701
▁սիր	-702
ումն	-703
յանն	-704
▁բար	-705
▁մենք	-706
▁նրանց	-707
եգ	-708
երն	-709
▁փաստ	-710
▁եղել	-711
արանի	-712
քով	-713
▁արդեն	-714
▁ձեր	-715
իկան	-716
▁ԱՄՆ	-717
▁մինչեւ	-718
▁դրամ	-719
▁դարձ	-720
▁լր	-721
ատվ	-722
▁այսօր	-723
երով	-724
վար	-725
ո՞	-726
▁նկատ	-727
▁Ծ	-728
▁Առ	-729
ապարակ	-730
ունակ	-731
),	-732
ատր	-733
▁S	-734
աժողով	-735
▁պարտ	-736
ուրջ	-737
ուրս	-738
▁Նախ	-739
▁պար	-740
ասան	-741
ուցիչ	-742
անկար	-743
ապահ	-744
▁Նա	-745
իա	-746
իպ	-747
▁պատճառ	-748
եստ	-749
▁կյան	-750
ողների	-751
▁դպր	-752
▁երկու	-753
▁Հայաստանում	-754
ությունից	-755
▁դեպքում	-756
▁մարմ	-757
տանգ	-758
▁կարծ	-759
▁ձեռ	-760
աստատ	-761
անից	-762
ացին	-763
ուրդ	-764
ar	-765
▁գյուղ	-766
en	-767
▁հակ	-768
▁համաձայն	-769
▁արժ	-770
▁Ջ	-771
ետր	-772
▁գլխավոր	-773
▁Ազ	-774
▁հաշվ	-775
▁Հար	-776
երեն	-777
▁նման	-778
ոբ	-779
ՈՒԹ	-780
▁պատրաստ	-781
շխան	-782
րե	-783
▁նշանակ	-784
▁հոգ	-785
▁ենթ	-786
▁սակայն	-787
▁ձեւ	-788
▁բեր	-789
վելու	-790
▁զին	-791
▁Ռուսաստ	-792
ուստ	-793
▁—	-794
▁միջազգային	-795
▁օրեն	-796
▁N	-797
ափոխ	-798
▁վերջին	-799
ահով	-800
ադարձ	-801
կր	-802
▁մարդկ	-803
▁Ղ	-804
▁քննարկ	-805
ոնի	-806
ագետ	-807
ոզ	-808
▁հավաք	-809
ոթ	-810
ուժ	-811
▁նպատակ	-812
այլ	-813
▁բն	-814
կան	-815
▁ասաց	-816
յանին	-817
▁M	-818
աշրջ	-819
▁վերաբերյալ	-820
անյութ	-821
ապարհ	-822
▁պարզ	-823
▁ծն	-824
ոփոխ	-825
▁ամբողջ	-826
▁տնտես	-827
ազար	-828
▁ինձ	-829
աշխ	-830
om	-831
որեն	-832
▁հանձն	-833
▁հաստատ	-834
▁Երեւանի	-835
▁Յ	-836
▁Սեր	-837
ադիր	-838
▁մշակ	-839
▁կլին	-840
▁...	-841
▁կարեւոր	-842
մանը	-843
թեր	-844
▁արձ	-845
▁Թուր	-846
▁հոդված	-847
ացնել	-848
▁համայն	-849
▁զբ	-850
քին	-851
իգ	-852
▁որի	-853
▁էջ	-854
ԻՆ	-855
ինը	-856
▁Ադրբեջ	-857
▁T	-858
▁այց	-859
or	-860
▁ը	-861
▁պահանջ	-862
▁վարչապետ	-863
▁մեկն	-864
եղեց	-865
իտաս	-866
▁գործըն	-867
▁Նոր	-868
▁զգ	-869
▁ապահով	-870
աբար	-871
▁գործող	-872
յակ	-873
▁ինքն	-874
▁հաղորդ	-875
▁»	-876
երից	-877
ացնում	-878
երմ	-879
▁փոփոխ	-880
աքր	-881
▁հաջ	-882
ԱՅ	-883
եծ	-884
▁շնորհ	-885
▁Հայաստան	-886
es	-887
▁գալ	-888
al	-889
▁ասել	-890
▁առաջն	-891
▁օգտագործ	-892
րաժեշտ	-893
ՈՒԹՅ	-894
▁հրապարակ	-895
▁դեռ	-896
▁Փաշին	-897
Ար	-898
ցախ	-899
ավել	-900
ունե	-901
րկ	-902
՞նչ	-903
▁տվ	-904
անս	-905
▁իշխան	-906
եկան	-907
տում	-908
ամի	-909
▁հարկ	-910
անական	-911
զի	-912
եւէ	-913
▁առաջարկ	-914
▁Իր	-915
▁սպաս	-916
▁Այդ	-917
▁դուրս	-918
▁որտեղ	-919
▁P	-920
ուգ	-921
▁իրավունք	-922
▁քան	-923
▁հաղթ	-924
եխն	-925
▁հասարակ	-926
▁Ես	-927
Հայ	-928
▁չեմ	-929
▁Այն	-930
▁փող	-931
ոսի	-932
իքի	-933
▁չափ	-934
▁մեղ	-935
▁Ալ	-936
▁ապա	-937
▁անկ	-938
▁մարդկանց	-939
ովոր	-940
».	-941
▁Թուրքի	-942
▁Համ	-943
եի	-944
▁Արցախ	-945
անչ	-946
▁տվյալ	-947
ագրել	-948
▁/	-949
▁ընտ	-950
▁դպրոց	-951
▁համալ	-952
ուսանկար	-953
ԱՍ	-954
ավարտ	-955
ակայ	-956
պե	-957
ումները	-958
▁ոլոր	-959
▁վիճ	-960
▁տրամ	-961
▁գործունե	-962
▁հեղ	-963
▁Ժ	-964
▁հուն	-965
իտասարդ	-966
եխան	-967
▁անհրաժեշտ	-968
զում	-969
րույց	-970
ահար	-971
▁անցկաց	-972
▁կա	-973
նած	-974
ոքր	-975
ԱՏ	-976
▁ոստ	-977
ությունում	-978
▁ազգային	-979
ետեւ	-980
▁ճանապարհ	-981
րանս	-982
▁Հով	-983
▁տալիս	-984
▁B	-985
▁կրթ	-986
▁մն	-987
▁Նիկ	-988
▁դուք	-989
գի	-990
թի	-991
անքի	-992
▁մեզ	-993
ամյա	-994
իոն	-995
▁հարաբեր	-996
ավորման	-997
արժ	-998
▁հաճ	-999
▁Իսկ	-1000
▁մահ	-1001
▁համապատ	-1002
ուրեր	-1003
▁նկար	-1004
▁հիշ	-1005
▁տարին	-1006
▁շարունակ	-1007
▁ոստիկան	-1008
բոլ	-1009
ույլ	-1010
պիսի	-1011
▁ունեցել	-1012
▁աստ	-1013
▁Եթե	-1014
▁նախատես	-1015
▁ավտ	-1016
▁մարտ	-1017
նես	-1018
▁գեր	-1019
▁լուծ	-1020
րեն	-1021
▁աջ	-1022
աքրք	-1023
տիվ	-1024
▁Ավ	-1025
վարի	-1026
▁ասում	-1027
ահայտ	-1028
▁ավել	-1029
անիշ	-1030
ողական	-1031
քների	-1032
եդ	-1033
le	-1034
վեն	-1035
▁Արտ	-1036
▁չուն	-1037
▁Երեւան	-1038
▁կոչ	-1039
▁որեւէ	-1040
▁կուս	-1041
▁կոմ	-1042
▁թող	-1043
▁կիր	-1044
▁շրջանակ	-1045
▁Ստ	-1046
▁հիմնական	-1047
▁տղ	-1048
▁առանց	-1049
▁նիստ	-1050
ելը	-1051
▁զարգացման	-1052
որի	-1053
▁օրենք	-1054
րեց	-1055
▁նկատմամբ	-1056
▁կն	-1057
▁բազմ	-1058
զբ	-1059
իական	-1060
▁երեխան	-1061
աճառ	-1062
▁հայկական	-1063
արը	-1064
▁դատար	-1065
▁լի	-1066
ույթի	-1067
▁Նիկոլ	-1068
▁,	-1069
▁զբաղ	-1070
▁ժողովրդ	-1071
եհ	-1072
ոսկ	-1073
▁Ձեր	-1074
կետ	-1075
▁նախկին	-1076
ասիր	-1077
▁ձեռք	-1078
▁Աստ	-1079
▁ներկայացուցիչ	-1080
անա	-1081
հանուր	-1082
գն	-1083
▁շուրջ	-1084
▁շահ	-1085
▁մակ	-1086
▁գում	-1087
ինանս	-1088
▁երիտասարդ	-1089
իկական	-1090
▁միջեւ	-1091
պետ	-1092
▁բանակ	-1093
▁սովոր	-1094
▁Արմեն	-1095
▁յուր	-1096
ռն	-1097
▁ավարտ	-1098
ուտբոլ	-1099
ին՝	-1100
ախոս	-1101
▁Սերժ	-1102
իվանդ	-1103
▁Վեր	-1104
ագահ	-1105
▁որոնց	-1106
րում	-1107
արկել	-1108
ուլի	-1109
▁ռազմ	-1110
▁առան	-1111
▁թույլ	-1112
նելով	-1113
ոջ	-1114
գամավոր	-1115
▁ժամը	-1116
կար	-1117
▁լինի	-1118
▁տարվա	-1119
իւ	-1120
):	-1121
▁նրանք	-1122
▁թիվ	-1123
▁կառավարության	-1124
▁ուշ	-1125
▁տրամադր	-1126
▁մեկը	-1127
եան	-1128
րահ	-1129
իծ	-1130
ատի	-1131
երիկ	-1132
ch	-1133
ստեղ	-1134
▁տնօր	-1135
▁վճար	-1136
առում	-1137
ություններին	-1138
ացված	-1139
ուզ	-1140
արք	-1141
▁Ամ	-1142
ՈՒՆ	-1143
▁համագործ	-1144
ույս	-1145
▁կարելի	-1146
▁համապատասխան	-1147
ատվական	-1148
▁ԱԺ	-1149
▁ընտանի	-1150
ախտ	-1151
▁երգ	-1152
▁իրավիճ	-1153
▁ճանաչ	-1154
▁անուն	-1155
▁տեխն	-1156
▁կառուց	-1157
ագիրը	-1158
▁եւս	-1159
▁ըստ	-1160
▁լինել	-1161
▁հայտնի	-1162
▁հիվանդ	-1163
առնալ	-1164
▁շրջան	-1165
▁Ինչպես	-1166
վե	-1167
▁ձեզ	-1168
նակից	-1169
▁թվականին	-1170
▁I	-1171
ԱՄ	-1172
▁հետաքրք	-1173
▁ուր	-1174
▁մատ	-1175
st	-1176
արաբ	-1177
եւս	-1178
▁պատգամավոր	-1179
▁ստոր	-1180
▁գնահատ	-1181
▁է՝	-1182
▁օրը	-1183
▁Հայաստանից	-1184
▁գաղ	-1185
▁նվիր	-1186
▁F	-1187
որտ	-1188
ահան	-1189
it	-1190
ավորված	-1191
▁Ց	-1192
▁օրենս	-1193
եփական	-1194
▁փոքր	-1195
եբ	-1196
▁հազար	-1197
ԱԿԱՆ	-1198
գոր	-1199
▁դժ	-1200
եթ	-1201
ոցիալ	-1202
ողի	-1203
▁կոր	-1204
եքս	-1205
ինգ	-1206
▁դիտ	-1207
իդ	-1208
ամաս	-1209
ՈՐ	-1210
▁թեկ	-1211
▁G	-1212
▁մլ	-1213
▁կմ	-1214
ամարտ	-1215
▁անվտանգ	-1216
▁վայր	-1217
▁անվան	-1218
▁տոկ	-1219
▁հերթ	-1220
▁պայք	-1221
▁Այսօր	-1222
նաս	-1223
իշտ	-1224
ԱՀ	-1225
▁լեզ	-1226
▁բժ	-1227
ou	-1228
▁քայլ	-1229
արաբաղ	-1230
▁ռուս	-1231
ագիտական	-1232
▁դրա	-1233
տար	-1234
անին	-1235
ոլոգ	-1236
▁Մեր	-1237
▁ընկ	-1238
▁ամս	-1239
▁Գրի	-1240
▁աշխարհի	-1241
ատեղ	-1242
արս	-1243
▁որով	-1244
երտ	-1245
▁շարք	-1246
տեսանյութ	-1247
▁տնօրեն	-1248
աքանչ	-1249
▁կոն	-1250
▁H	-1251
▁հասց	-1252
▁հանգ	-1253
▁սեփական	-1254
▁մայր	-1255
▁իրեն	-1256
▁կլինի	-1257
▁ներդր	-1258
▁առավել	-1259
ոյի	-1260
ղթ	-1261
▁Բայց	-1262
▁մարդիկ	-1263
▁հետեւյալ	-1264
▁ֆինանս	-1265
▁ֆուտբոլ	-1266
աքանչյուր	-1267
▁Որ	-1268
▁Եվրոպ	-1269
▁բառ	-1270
▁հաջող	-1271
▁ունենալ	-1272
▁հանձնաժողով	-1273
▁Սա	-1274
ստահ	-1275
▁հաճախ	-1276
արին	-1277
▁ունեցող	-1278
▁դոլ	-1279
▁Ազգային	-1280
▁ո	-1281
▁բանկ	-1282
▁մյուս	-1283
▁կերպ	-1284
ոյեմ	-1285
▁որն	-1286
երազմ	-1287
դիա	-1288
▁պատվ	-1289
▁երկրորդ	-1290
այել	-1291
▁ուզում	-1292
▁ֆիլ	-1293
▁հենց	-1294
նող	-1295
▁նյութ	-1296
ed	-1297
ուբ	-1298
▁Ռուսաստանի	-1299
նախ	-1300
▁Մարտ	-1301
▁L	-1302
▁O	-1303
անալու	-1304
▁կապված	-1305
ամեն	-1306
նենք	-1307
աստան	-1308
▁համալս	-1309
եւան	-1310
երս	-1311
▁սկզբ	-1312
▁քրե	-1313
▁ել	-1314
▁պաշտպան	-1315
▁թեկնած	-1316
▁երկար	-1317
որոշ	-1318
▁միջոցով	-1319
ինի	-1320
▁Մենք	-1321
ո՞ւ	-1322
.-	-1323
ումբ	-1324
▁պատճառով	-1325
ում՝	-1326
▁երկրի	-1327
▁նախագահի	-1328
▁կին	-1329
▁թիմ	-1330
▁ահ	-1331
աքին	-1332
ուրբ	-1333
▁կհ	-1334
▁հիմնադր	-1335
▁առողջ	-1336
▁ազդ	-1337
▁որպեսզի	-1338
▁եզ	-1339
▁տր	-1340
▁տոկոս	-1341
▁վնաս	-1342
անոց	-1343
▁ընդհանուր	-1344
քային	-1345
քերի	-1346
ավիր	-1347
▁գրանց	-1348
▁լավագույն	-1349
▁Ման	-1350
▁թվում	-1351
արյանը	-1352
▁ովքեր	-1353
ենան	-1354
▁տնտեսական	-1355
▁Իս	-1356
▁մամ	-1357
▁Սարգսյանը	-1358
▁վաղ	-1359
▁խոր	-1360
▁անել	-1361
▁լրագր	-1362
▁աճ	-1363
▁նշել	-1364
ացավ	-1365
ew	-1366
▁ապրի	-1367
ընդ	-1368
▁լինելու	-1369
▁Ճ	-1370
▁Գրիգոր	-1371
▁տարեկան	-1372
▁Հովհան	-1373
ացում	-1374
վան	-1375
▁նախատեսված	-1376
▁նախագծ	-1377
▁հետեւանք	-1378
▁﻿	-1379
վոր	-1380
▁զոհ	-1381
աբաթ	-1382
ավական	-1383
▁կիրառ	-1384
▁ի՞նչ	-1385
ժմ	-1386
»։	-1387
▁պատերազմ	-1388
իտի	-1389
▁այցել	-1390
վեր	-1391
ենյ	-1392
ավետ	-1393
▁աջակց	-1394
▁կատարել	-1395
▁սոցիալ	-1396
▁պատկեր	-1397
▁պահպան	-1398
▁դու	-1399
▁հայտնել	-1400
▁ակտիվ	-1401
▁զոր	-1402
ահանգ	-1403
▁Պատ	-1404
▁սահմանված	-1405
ոնը	-1406
աւ	-1407
ավորում	-1408
▁վիր	-1409
▁քաղաքապետ	-1410
ականի	-1411
▁հայտարարել	-1412
ՈՒՄ	-1413
▁R	-1414
▁տեղափոխ	-1415
▁պաշտպանության	-1416
ՐԵ	-1417
▁դրանց	-1418
▁դես	-1419
▁մարմին	-1420
արում	-1421
▁փողոց	-1422
ՆԵՐ	-1423
▁Վարդ	-1424
▁միլի	-1425
▁Սիր	-1426
▁մտած	-1427
▁ՀՀԿ	-1428
▁երեք	-1429
▁հյուր	-1430
ԱՊ	-1431
▁քարտ	-1432
▁Առաջ	-1433
ՈՒԹՅԱՆ	-1434
▁Ադրբեջանի	-1435
▁Օր	-1436
▁քաղաքի	-1437
▁սր	-1438
ացող	-1439
ջոց	-1440
▁ցույց	-1441
▁ժամկետ	-1442
▁Աբ	-1443
▁ձեռն	-1444
▁Երեւանում	-1445
▁Արցախի	-1446
▁մարզի	-1447
▁D	-1448
▁վաճառ	-1449
քերը	-1450
▁Պետ	-1451
▁հատուկ	-1452
▁հանդես	-1453
▁քաղաքացին	-1454
▁տակ	-1455
ացրել	-1456
▁շարժ	-1457
▁դեր	-1458
▁վարկ	-1459
▁Լուրեր	-1460
▁ռե	-1461
ադրության	-1462
is	-1463
▁լուսանկար	-1464
▁Դուք	-1465
հետեւ	-1466
▁հղ	-1467
▁Դավ	-1468
▁փոխանց	-1469
ահայ	-1470
▁չէր	-1471
▁կազմում	-1472
արանում	-1473
աքնն	-1474
▁Հայոց	-1475
պեր	-1476
տնի	-1477
ութիւ	-1478
▁նշեց	-1479
▁մասնակից	-1480
ատու	-1481
▁գործընթաց	-1482
եին	-1483
▁Խաչ	-1484
քներ	-1485
▁քրեական	-1486
▁երեւ	-1487
▁Ղարաբաղ	-1488
ամարդ	-1489
▁ավագ	-1490
▁քեզ	-1491
▁կիս	-1492
գել	-1493
▁քաղաքացի	-1494
ոկտեմբերի	-1495
▁Վրաստ	-1496
▁էի	-1497
▁գործակալ	-1498
▁նախաձ	-1499
ենա	-1500
▁եվ	-1501
▁ծառայության	-1502
▁Վիքի	-1503
re	-1504
▁հնարավորություն	-1505
▁հանդիս	-1506
com	-1507
ուհի	-1508
▁լս	-1509
▁կետ	-1510
ուլիսի	-1511
▁դրանք	-1512
ագրի	-1513
▁փաստաթ	-1514
ե՞	-1515
ամանակ	-1516
քից	-1517
եցի	-1518
▁կանոն	-1519
▁Ին	-1520
եպտեմբերի	-1521
▁այստեղ	-1522
▁դիր	-1523
▁յուրաքանչյուր	-1524
▁ընդունել	-1525
▁Ամեն	-1526
▁նախարարության	-1527
եկտ	-1528
▁չկա	-1529
քները	-1530
թուր	-1531
▁հիմա	-1532
ոնական	-1533
▁Ըն	-1534
▁ողջ	-1535
▁վստահ	-1536
▁Հայաստանը	-1537
▁Հակ	-1538
աքս	-1539
▁Աս	-1540
▁միշտ	-1541
ովի	-1542
▁Հուն	-1543
▁արագ	-1544
▁ծրագրի	-1545
▁անձանց	-1546
եմատ	-1547
▁գումար	-1548
▁բռն	-1549
▁խորհրդի	-1550
▁Թուրքիայի	-1551
▁[	-1552
▁եկել	-1553
անն	-1554
▁միջոցառ	-1555
▁գալիս	-1556
▁մարդու	-1557
իլի	-1558
ութիւն	-1559
▁Բր	-1560
րաժար	-1561
մար	-1562
րած	-1563
▁նպատակով	-1564
ավեր	-1565
▁կաս	-1566
ակների	-1567
▁երեկ	-1568
▁հատկ	-1569
Այ	-1570
▁շաբաթ	-1571
▁ծան	-1572
de	-1573
▁պաշտոնական	-1574
առնում	-1575
▁արտասան	-1576
▁ամիս	-1577
▁Սակայն	-1578
եղաս	-1579
▁ծր	-1580
ավայր	-1581
▁մանկ	-1582
աստանի	-1583
ենտրոն	-1584
▁հայտնում	-1585
▁աղջ	-1586
եկտեմբերի	-1587
▁Ըստ	-1588
▁Հարություն	-1589
▁ման	-1590
ews	-1591
▁գտնվում	-1592
յում	-1593
▁V	-1594
իզնես	-1595
▁ցանկանում	-1596
այիսի	-1597
եւել	-1598
ենի	-1599
▁զրույց	-1600
▁անվտանգության	-1601
▁Մեծ	-1602
արկում	-1603
ջին	-1604
▁կգ	-1605
իկի	-1606
▁անդր	-1607
ագրական	-1608
իկայի	-1609
▁առանձն	-1610
▁դեպի	-1611
ոպ	-1612
et	-1613
▁ուսումն	-1614
▁քիչ	-1615
▁Աշխ	-1616
ic	-1617
ություններից	-1618
աթիվ	-1619
▁կառավարման	-1620
▁նախաձեռն	-1621
▁հրաժար	-1622
առավար	-1623
ակումբ	-1624
իկա	-1625
▁արտաքին	-1626
ադատ	-1627
▁հի	-1628
▁Վիքիպե	-1629
▁թվ	-1630
▁հանրագիտ	-1631
ազոտ	-1632
▁բող	-1633
▁այնպես	-1634
ակն	-1635
ԵՏ	-1636
▁ճիշտ	-1637
▁երեխ	-1638
անշ	-1639
չության	-1640
▁դեսպան	-1641
▁գտնվող	-1642
տեմբեր	-1643
▁Սարգսյանի	-1644
րիստ	-1645
▁ակումբ	-1646
▁ունեցած	-1647
▁թեկնածու	-1648
▁անում	-1649
րորդ	-1650
ol	-1651
▁կանխ	-1652
ing	-1653
րիշ	-1654
▁հոդվածի	-1655
▁որովհետեւ	-1656
ԱՎ	-1657
ուսն	-1658
րուց	-1659
▁սա	-1660
ոյեմբերի	-1661
▁Ar	-1662
▁մլն	-1663
▁սոցիալական	-1664
վեցին	-1665
աբանական	-1666
▁օրենքի	-1667
men	-1668
▁գրում	-1669
ունակում	-1670
▁հանրագիտարան	-1671
ունդ	-1672
▁ստացել	-1673
▁շրջանակներում	-1674
▁Ապ	-1675
▁թեմ	-1676
▁արդյունքում	-1677
ություններով	-1678
աշխարհ	-1679
▁աշխատանքային	-1680
el	-1681
ողները	-1682
▁գործունեության	-1683
ուպ	-1684
▁կանգ	-1685
ացվել	-1686
արյանի	-1687
▁Կարապետ	-1688
ուխ	-1689
▁ներկայացնում	-1690
▁մեք	-1691
▁:	-1692
իկը	-1693
նտես	-1694
▁բացառ	-1695
▁W	-1696
նամ	-1697
▁դժվար	-1698
ներգ	-1699
ազոր	-1700
▁երաժ	-1701
▁բժշ	-1702
Եր	-1703
ԵԼ	-1704
▁Վիքիպեդիա	-1705
անձ	-1706
▁եկեղեց	-1707
▁հավել	-1708
▁հատված	-1709
▁նվիրված	-1710
▁քն	-1711
այով	-1712
առակ	-1713
▁օգն	-1714
▁առեւ	-1715
▁ֆիլմ	-1716
▁ուսան	-1717
չի	-1718
▁Վար	-1719
▁հեղինակ	-1720
ակա	-1721
▁երկրների	-1722
▁Կարեն	-1723
▁կտ	-1724
▁մասնակցել	-1725
ադար	-1726
րին	-1727
▁Մոսկ	-1728
▁տուն	-1729
ՈՒԹՅՈՒՆ	-1730
ուդ	-1731
▁գույ	-1732
▁անկախ	-1733
▁Նշ	-1734
▁խմբի	-1735
ԱԾ	-1736
▁հրամ	-1737
ավորապես	-1738
ութային	-1739
▁Վիքիպեդիա՝	-1740
▁նվազ	-1741
▁Ձեզ	-1742
▁"	-1743
▁Նրա	-1744
▁փակ	-1745
▁աշխարհում	-1746
il	-1747
▁կուն	-1748
▁մակարդ	-1749
▁Հետ	-1750
▁ընկերության	-1751
մտ	-1752
▁աշխատանքի	-1753
▁ՌԴ	-1754
▁Նախագահ	-1755
▁միաս	-1756
ոշոր	-1757
▁հեռուստ	-1758
▁տղամարդ	-1759
▁ակն	-1760
▁քո	-1761
▁տան	-1762
▁քար	-1763
կալ	-1764
▁Արդ	-1765
▁այնքան	-1766
▁տվել	-1767
▁հայրեն	-1768
ադրել	-1769
,-	-1770
ավալ	-1771
▁նստ	-1772
ԵՆ	-1773
յուջ	-1774
▁թուր	-1775
▁Երբ	-1776
▁ուրիշ	-1777
▁կոդ	-1778
▁վարչական	-1779
)։	-1780
▁կյանքի	-1781
ակազմ	-1782
լայն	-1783
▁դոլար	-1784
այից	-1785
ելուց	-1786
▁պր	-1787
արանը	-1788
▁փուլ	-1789
կած	-1790
▁հասկ	-1791
▁կարծում	-1792
▁գործում	-1793
▁արդար	-1794
▁խորհուրդ	-1795
▁համայնքի	-1796
▁բավական	-1797
▁որոշում	-1798
▁Տար	-1799
ություններում	-1800
ur	-1801
▁կուսակց	-1802
▁դարձել	-1803
▁կոմիտ	-1804
ակատար	-1805
▁Հակոբ	-1806
խալ	-1807
▁արվ	-1808
▁ձայն	-1809
▁Աղ	-1810
▁օրինակ	-1811
▁ռեժ	-1812
▁արժեք	-1813
նչական	-1814
▁հայտնաբեր	-1815
նայ	-1816
▁ավտոմ	-1817
եմն	-1818
անտ	-1819
ԱԳ	-1820
▁հեր	-1821
ստիտ	-1822
ենտ	-1823
▁Հայկական	-1824
▁նույնիսկ	-1825
▁տեղեկատվ	-1826
▁Էջ	-1827
▁E	-1828
▁զանգ	-1829
▁մամուլի	-1830
▁պիտի	-1831
▁խոսքով	-1832
▁Փաշինյանը	-1833
▁ուսումնասիր	-1834
ակար	-1835
▁միլիոն	-1836
▁աչ	-1837
▁Հիշ	-1838
▁կարծիք	-1839
▁ոստիկանության	-1840
▁Էդ	-1841
ացնելու	-1842
▁տուր	-1843
բյուր	-1844
▁խաղաղ	-1845
փակ	-1846
ություններն	-1847
▁օրվա	-1848
▁Երկ	-1849
ապարտ	-1850
ագայում	-1851
▁օդ	-1852
ընթաց	-1853
ողը	-1854
▁սն	-1855
եռնային	-1856
չական	-1857
րանսի	-1858
▁Սուրբ	-1859
oo	-1860
▁ներկայացրել	-1861
▁գեղեց	-1862
դալ	-1863
▁երկիր	-1864
շտական	-1865
ay	-1866
▁ԱՐ	-1867
▁համակարգի	-1868
▁միավոր	-1869
իրակ	-1870
ag	-1871
▁Վարդան	-1872
▁քվե	-1873
այք	-1874
▁հարցը	-1875
եցնում	-1876
ազանց	-1877
▁Հիմ	-1878
ումով	-1879
ետրվարի	-1880
▁ապրիլի	-1881
աբեկ	-1882
▁որդ	-1883
▁ծախ	-1884
ականը	-1885
առատ	-1886
ութեան	-1887
ետի	-1888
▁արգել	-1889
▁արձան	-1890
▁զինվոր	-1891
▁սույն	-1892
նիս	-1893
երձ	-1894
▁լրատվական	-1895
որդը	-1896
աֆ	-1897
գործ	-1898
▁Արթուր	-1899
▁գնում	-1900
▁ինտ	-1901
՞ս	-1902
աշխարհային	-1903
▁հուշ	-1904
ազրույց	-1905
▁յ	-1906
▁իրավունքների	-1907
▁տարածքում	-1908
յուսիս	-1909
▁Ընդ	-1910
▁Ավել	-1911
իների	-1912
▁բնակիչ	-1913
անդակ	-1914
▁p	-1915
հարկ	-1916
▁ուղղությամբ	-1917
ասար	-1918
▁բազմաթիվ	-1919
▁վտանգ	-1920
▁բնակարան	-1921
աթի	-1922
անիայի	-1923
▁հետեւանքով	-1924
▁չոր	-1925
որհրդ	-1926
ոստոսի	-1927
նեն	-1928
տրական	-1929
▁հանդիպում	-1930
անու	-1931
ողության	-1932
ia	-1933
▁հարձ	-1934
▁Ներ	-1935
▁հաջորդ	-1936
▁նշված	-1937
▁Գլխավոր	-1938
▁բուժ	-1939
▁պլ	-1940
ադի	-1941
▁շրջանում	-1942
▁ցանկացած	-1943
▁զրույցում	-1944
արեն	-1945
ամիջոց	-1946
▁գործընկեր	-1947
ստիտուտ	-1948
▁գրել	-1949
▁արտադր	-1950
ion	-1951
▁մարտի	-1952
▁ինչը	-1953
▁Դա	-1954
ազան	-1955
մատ	-1956
ԱՆԻ	-1957
▁խումբ	-1958
պիս	-1959
▁Խաղ	-1960
ովը	-1961
ատեր	-1962
▁լիազոր	-1963
▁վերահ	-1964
chat	-1965
▁Կան	-1966
▁արդյունավետ	-1967
▁Քոչ	-1968
եւի	-1969
▁տոն	-1970
ոսյանը	-1971
▁“	-1972
խիթ	-1973
ացումը	-1974
.,	-1975
▁հոր	-1976
▁հետազոտ	-1977
աքաղաք	-1978
▁աշխատակից	-1979
▁կուսակցության	-1980
եցնել	-1981
▁բացահայտ	-1982
▁մրցանակ	-1983
սեն	-1984
▁կենս	-1985
մունք	-1986
▁ազգ	-1987
ԱԼ	-1988
▁Քաղաք	-1989
▁հանրապետ	-1990
▁մասնագետ	-1991
▁Անդ	-1992
▁Կենտրոն	-1993
ահակ	-1994
▁չունի	-1995
▁ազդեց	-1996
▁ծանր	-1997
կն	-1998
▁գծ	-1999
ենդ	-2000
▁Ռո	-2001
▁համագործակցության	-2002
▁տարածաշրջ	-2003
▁հասարակական	-2004
▁ծախս	-2005
▁բյուջ	-2006
▁հանց	-2007
▁պահին	-2008
ռչ	-2009
▁Ի՞նչ	-2010
▁բաժան	-2011
ա՞	-2012
լուծ	-2013
▁կոդը	-2014
▁բանակց	-2015
աքել	-2016
▁բերել	-2017
ac	-2018
▁սեր	-2019
պատ	-2020
գտ	-2021
անան	-2022
անդես	-2023
▁վատ	-2024
▁Լեւ	-2025
▁հավատ	-2026
▁շենք	-2027
րթ	-2028
արանական	-2029
▁գիշ	-2030
▁վերց	-2031
միած	-2032
▁նշանակում	-2033
▁այլն	-2034
հատ	-2035
▁առկա	-2036
▁համագործակց	-2037
▁Գյում	-2038
▁համատեղ	-2039
ՊՀ	-2040
▁Դավիթ	-2041
▁հանձնաժողովի	-2042
▁պարտավոր	-2043
▁ընդդ	-2044
▁տրանս	-2045
▁ցեղաս	-2046
▁Տեղ	-2047
▁էլեկ	-2048
ik	-2049
▁ավանդ	-2050
ողներին	-2051
▁կատարելու	-2052
▁ենթարկ	-2053
ոյան	-2054
կի	-2055
▁հրաման	-2056
▁տեխնոլոգ	-2057
ստակ	-2058
ադրանք	-2059
▁հարցերի	-2060
▁շին	-2061
ացյալ	-2062
▁խոշոր	-2063
իջ	-2064
քս	-2065
երգ	-2066
▁ապրանք	-2067
աչափ	-2068
▁ոլորտում	-2069
ով՝	-2070
ովին	-2071
հարկե	-2072
ախազ	-2073
ունքի	-2074
▁Վան	-2075
անելի	-2076
▁դար	-2077
▁ձեռնարկ	-2078
▁արար	-2079
▁չենք	-2080
▁քննչական	-2081
▁Արամ	-2082
▁բնական	-2083
▁աստիճ	-2084
թն	-2085
բերտ	-2086
վազ	-2087
▁սկսել	-2088
▁խմբագրել	-2089
միջ	-2090
րամփ	-2091
գծ	-2092
▁ռազմական	-2093
▁սեպտեմբերի	-2094
▁րոպ	-2095
▁սպան	-2096
▁ուղղված	-2097
▁վերադարձ	-2098
▁Աստված	-2099
▁դեկտեմբերի	-2100
▁Ալեքս	-2101
▁մասը	-2102
▁լուրջ	-2103
չապետ	-2104
▁վարչության	-2105
ինքն	-2106
Ես	-2107
▁Հովհաննիս	-2108
▁տեսակ	-2109
ացիայի	-2110
եցնենք	-2111
ագն	-2112
▁Սպ	-2113
▁դառնալ	-2114
ինական	-2115
ուլտ	-2116
ադառնալ	-2117
իգրան	-2118
▁հոկտեմբերի	-2119
պե՞ս	-2120
▁Արար	-2121
▁խաղում	-2122
▁Լեռնային	-2123
▁առաջնորդ	-2124
▁ինստիտուտ	-2125
▁հաղթանակ	-2126
▁կարգով	-2127
▁տպ	-2128
▁բիզնես	-2129
▁ծավալ	-2130
▁հրավիր	-2131
te	-2132
▁կենդ	-2133
ԱՍՏ	-2134
▁Էջմիած	-2135
▁գրաս	-2136
ագա	-2137
ՄԱՆ	-2138
ad	-2139
▁ֆուտբոլիստ	-2140
▁ստեղծագործ	-2141
▁օպեր	-2142
իտակ	-2143
▁փորձում	-2144
un	-2145
▁շարունակում	-2146
ճի	-2147
եյս	-2148
եստի	-2149
▁Թրամփ	-2150
▁արտահայտ	-2151
▁ելույթ	-2152
▁մայիսի	-2153
▁հարցում	-2154
▁ատ	-2155
▁որակ	-2156
▁կենտրոնի	-2157
անոր	-2158
▁վկայ	-2159
▁կառույց	-2160
▁Թերթ	-2161
ir	-2162
▁Մարդ	-2163
▁մուտ	-2164
ազդ	-2165
▁ամերիկ	-2166
▁քաղաքում	-2167
ատոր	-2168
աղթ	-2169
▁թերթ	-2170
▁ջր	-2171
▁սխալ	-2172
▁առեւտր	-2173
քական	-2174
▁հերթական	-2175
▁կազմակերպության	-2176
ալու	-2177
▁նախորդ	-2178
as	-2179
▁Հայր	-2180
▁ՀԱՅ	-2181
▁եռ	-2182
▁•	-2183
ահամ	-2184
▁խախտ	-2185
▁կտր	-2186
▁մտն	-2187
ծառայ	-2188
ավորել	-2189
ԵՍ	-2190
▁ժողովրդի	-2191
▁կես	-2192
▁ամուսն	-2193
▁արել	-2194
hat	-2195
յուռ	-2196
▁մանրամ	-2197
նշ	-2198
▁կայքում	-2199
▁հետաքրքր	-2200
▁օրենսգր	-2201
▁Ազատ	-2202
▁Տիգրան	-2203
ադրական	-2204
▁թափ	-2205
▁ֆինանսական	-2206
▁Մին	-2207
▁ում	-2208
▁Նրանք	-2209
▁նույնպես	-2210
ts	-2211
▁աշխատում	-2212
▁այժմ	-2213
▁այնտեղ	-2214
Ու	-2215
անցի	-2216
▁դատական	-2217
▁երեխաների	-2218
ատնտես	-2219
▁ոլորտ	-2220
▁կնոջ	-2221
▁Գերմ	-2222
եթե	-2223
▁գազ	-2224
▁վերական	-2225
▁ցավ	-2226
▁սիրում	-2227
▁փրկ	-2228
ենյակ	-2229
▁պրո	-2230
աշն	-2231
▁պատմության	-2232
▁շփ	-2233
▁օտար	-2234
ro	-2235
he	-2236
գրկ	-2237
▁Եղ	-2238
աձեւ	-2239
▁ինքը	-2240
▁Գագ	-2241
▁վարչապետի	-2242
▁Լեւոն	-2243
▁Աշ	-2244
▁Իրանի	-2245
▁հատկապես	-2246
▁չգ	-2247
▁ԵՄ	-2248
▁գաղափ	-2249
▁հուլիսի	-2250
▁Մեկ	-2251
▁t	-2252
արկման	-2253
▁արդյ	-2254
ոնդ	-2255
▁ունեցավ	-2256
▁կո	-2257
▁բաղ	-2258
ահերթ	-2259
անային	-2260
▁Ֆրանս	-2261
▁համարում	-2262
▁դաշտ	-2263
▁կանանց	-2264
▁հունիսի	-2265
▁արձակ	-2266
▁Գեւոր	-2267
▁հակամարտ	-2268
▁ինչի	-2269
▁Հաս	-2270
▁դիմել	-2271
▁վերահսկ	-2272
▁համոզ	-2273
րափակ	-2274
▁խոստ	-2275
▁Պաշտ	-2276
▁տեսնում	-2277
փյուռ	-2278
եմի	-2279
▁Սահման	-2280
▁Հիշեցնենք	-2281
իղ	-2282
▁քաղաքացիական	-2283
նայած	-2284
▁ներկա	-2285
▁ալ	-2286
▁գոյ	-2287
▁որքան	-2288
ide	-2289
ոֆ	-2290
ագրության	-2291
▁Գր	-2292
արման	-2293
▁աշխատել	-2294
▁հարաբերությունների	-2295
▁ԼՂ	-2296
▁դատախազ	-2297
▁չհ	-2298
▁նախագիծ	-2299
▁տեղեկացնում	-2300
ակցությամբ	-2301
ամենը	-2302
▁անվճար	-2303
▁արժան	-2304
▁քաղ	-2305
▁.	-2306
թիվ	-2307
▁ավտոմեք	-2308
ի՝	-2309
իտալ	-2310
ացույց	-2311
▁Հր	-2312
▁դադար	-2313
▁Շատ	-2314
▁նոյեմբերի	-2315
▁խմ	-2316
առուկ	-2317
ումնական	-2318
▁Առաջին	-2319
▁ֆիզ	-2320
իկների	-2321
▁կրթության	-2322
ազգ	-2323
ե՛	-2324
▁Սահակ	-2325
▁բարեկ	-2326
▁իրավական	-2327
▁տեղակալ	-2328
ենքի	-2329
ոնե	-2330
▁բժշկական	-2331
▁Բաղ	-2332
▁դպրոցի	-2333
ցի	-2334
▁հաղորդում	-2335
այրի	-2336
▁հունվարի	-2337
▁ներքին	-2338
ոյանը	-2339
ԱՌ	-2340
▁Գեւորգ	-2341
▁ստանալ	-2342
▁պատասխանատվ	-2343
▁աշխատակազմ	-2344
անքը	-2345
բակալ	-2346
▁ուրախ	-2347
կրա	-2348
▁ջերմ	-2349
▁հող	-2350
ագծ	-2351
ապատրաստ	-2352
ակով	-2353
▁երկրում	-2354
▁այդպես	-2355
ինք	-2356
ԵԿ	-2357
ուսի	-2358
▁շնորհիվ	-2359
▁փաստաթղթ	-2360
▁գլ	-2361
▁հեռախոս	-2362
▁դատարանի	-2363
▁հետաքրքիր	-2364
▁Արմ	-2365
▁ադրբեջ	-2366
նախարար	-2367
▁համալսարանի	-2368
ափակ	-2369
▁լինում	-2370
ԱՑ	-2371
▁անձի	-2372
▁կաթ	-2373
ացու	-2374
▁նպաստ	-2375
▁խաղը	-2376
▁մշակույթի	-2377
▁քանակ	-2378
ուհին	-2379
լուսանկար	-2380
▁Խաչատր	-2381
▁ապրում	-2382
▁ժողովի	-2383
▁ներք	-2384
արկի	-2385
▁ընդգծ	-2386
▁գրական	-2387
իչը	-2388
▁առաջադր	-2389
▁անհատ	-2390
▁էներգ	-2391
▁Պետր	-2392
▁Արտասան	-2393
▁հանգամ	-2394
անիկ	-2395
▁օրենքով	-2396
▁ներառ	-2397
անել	-2398
▁մարմնի	-2399
օրյա	-2400
ացվում	-2401
▁Մոսկվ	-2402
▁գործով	-2403
▁ընդգրկ	-2404
▁մատուց	-2405
▁#	-2406
խմբ	-2407
▁ստուգ	-2408
▁դաշին	-2409
ՈՂ	-2410
▁նամ	-2411
▁նշում	-2412
աշար	-2413
▁դրան	-2414
ականների	-2415
ոնալ	-2416
▁գլխ	-2417
▁Եվրոպայի	-2418
▁քարտուղ	-2419
ությունը՝	-2420
թերց	-2421
▁արձանագր	-2422
▁Մխիթ	-2423
▁ԵՎ	-2424
▁հարձակ	-2425
ավարար	-2426
▁երրորդ	-2427
ոմս	-2428
▁համաշխարհային	-2429
▁ստիպ	-2430
ունի	-2431
▁ԱԳ	-2432
ideo	-2433
ամուտ	-2434
▁հստակ	-2435
▁դիվ	-2436
▁խոսել	-2437
▁հանդիպել	-2438
▁Գագիկ	-2439
▁ստորագր	-2440
▁Սամ	-2441
▁վախ	-2442
▁տիր	-2443
փոփ	-2444
▁երբեք	-2445
խտ	-2446
▁Մար	-2447
▁օրենսդր	-2448
ադրություն	-2449
▁շտ	-2450
▁Ամերիկ	-2451
▁որոշակի	-2452
ստի	-2453
▁պայմանավորված	-2454
us	-2455
ումից	-2456
▁գրավ	-2457
▁կրկին	-2458
▁կենտրոնում	-2459
▁կալ	-2460
▁Մինչ	-2461
▁դեպքեր	-2462
▁իրականացման	-2463
▁ժողովուրդ	-2464
▁Գիտ	-2465
ագավոր	-2466
▁Վերջին	-2467
ատիվ	-2468
▁դեռեւս	-2469
▁թթ	-2470
ջեւ	-2471
▁գոտ	-2472
▁դեղ	-2473
).	-2474
ab	-2475
ակառ	-2476
▁կող	-2477
▁Կառավար	-2478
Արմեն	-2479
▁մեն	-2480
▁Տեր	-2481
▁կարիք	-2482
▁աղբյուր	-2483
▁նախագահը	-2484
▁հնչ	-2485
ավոտ	-2486
▁ստեղծել	-2487
ադրում	-2488
▁այնպիսի	-2489
ազատ	-2490
▁խաղի	-2491
իի	-2492
▁անգ	-2493
▁Մարգ	-2494
▁որին	-2495
այման	-2496
▁վարձ	-2497
զմ	-2498
▁համեմատ	-2499
լիմ	-2500
▁Ռոբերտ	-2501
▁հաշվի	-2502
▁նախարարի	-2503
▁դիմաց	-2504
▁ավագանու	-2505
▁արձագ	-2506
թեւ	-2507
▁եղբ	-2508
▁Քրիստ	-2509
ապնդ	-2510
▁Ստեփ	-2511
աժամ	-2512
▁կապակցությամբ	-2513
▁հանդիպման	-2514
ադեպ	-2515
անների	-2516
▁վերաբերում	-2517
▁ռուսական	-2518
im	-2519
անավոր	-2520
▁դառնում	-2521
▁հագ	-2522
▁կախ	-2523
ատուն	-2524
▁ծանոթ	-2525
▁այլեւ	-2526
▁կոմիտեի	-2527
▁Վրաստանի	-2528
▁ամր	-2529
▁արեւ	-2530
եյսբ	-2531
▁սեղ	-2532
▁կունենա	-2533
▁ձերբակալ	-2534
▁իրադարձ	-2535
ինե	-2536
ավարժ	-2537
▁մոտեց	-2538
▁ինչու	-2539
▁Պուտ	-2540
րբ	-2541
եշ	-2542
▁թատր	-2543
որը	-2544
▁ընդդիմ	-2545
▁ՄԻ	-2546
ույթը	-2547
ահանդես	-2548
▁ընդամենը	-2549
▁ծառ	-2550
ter	-2551
ագրով	-2552
▁ո՞	-2553
արյան	-2554
▁մեկի	-2555
▁Փաշինյանի	-2556
av	-2557
▁ՄԱԿ	-2558
▁կորց	-2559
անյանը	-2560
▁իրենք	-2561
▁պարբեր	-2562
▁փետրվարի	-2563
ավաք	-2564
%-	-2565
▁լրաց	-2566
▁ուժերի	-2567
անավ	-2568
▁ներկայացված	-2569
▁Տես	-2570
▁ուսուց	-2571
ադեմ	-2572
խմբագրել	-2573
▁տասն	-2574
իաների	-2575
▁ռեժիմ	-2576
▁Աշոտ	-2577
շակերտ	-2578
▁զինծառայ	-2579
▁հարմար	-2580
▁լուս	-2581
▁ունենք	-2582
կրաին	-2583
▁վերլուծ	-2584
▁Միացյալ	-2585
եցինք	-2586
ավառ	-2587
▁կդ	-2588
պանի	-2589
▁գործերի	-2590
պիոն	-2591
եալ	-2592
▁մեկնաբան	-2593
▁նավ	-2594
▁սենյ	-2595
եներ	-2596
արձակ	-2597
▁Հոդված	-2598
▁հիման	-2599
▁գործի	-2600
▁որում	-2601
աստի	-2602
▁առնչ	-2603
▁անդրադարձ	-2604
ադիմ	-2605
▁միջն	-2606
▁հանրային	-2607
ունքը	-2608
▁թիվը	-2609
▁դերասան	-2610
համ	-2611
▁օրերին	-2612
▁լայն	-2613
ուլիս	-2614
▁բաժնի	-2615
▁հաշվետ	-2616
▁ընտրությունների	-2617
▁առանձ	-2618
▁հրապարակել	-2619
ողիկ	-2620
▁Հայկ	-2621
եքստ	-2622
▁անձնական	-2623
▁խնդիրներ	-2624
ուրգ	-2625
ասխ	-2626
ույր	-2627
Ազ	-2628
▁դրական	-2629
iv	-2630
▁շուտ	-2631
ոքի	-2632
▁Սեւ	-2633
ախմբ	-2634
▁―	-2635
▁գնալ	-2636
նա	-2637
▁երազ	-2638
▁միասին	-2639
որդի	-2640
ակատ	-2641
▁Y	-2642
▁chat	-2643
▁Աստծ	-2644
▁խոսում	-2645
▁հարցեր	-2646
▁հասարակության	-2647
▁եղանակ	-2648
▁միության	-2649
անդիպ	-2650
ստիկան	-2651
▁այցելել	-2652
▁ծննդ	-2653
▁ՄԱՍ	-2654
որտի	-2655
▁Բաբ	-2656
եւն	-2657
երկր	-2658
▁ծրագրերի	-2659
▁խմբակցության	-2660
▁կասկած	-2661
▁կարողանում	-2662
▁պետության	-2663
թթ	-2664
▁Բացի	-2665
▁դիմում	-2666
էն	-2667
▁համարվում	-2668
▁վիճակ	-2669
▁զբոս	-2670
ԲԸ	-2671
▁մշակութային	-2672
ՆԵՐԻ	-2673
▁Հարց	-2674
▁էջում	-2675
▁հերոս	-2676
▁գեղեցիկ	-2677
▁Մայր	-2678
ընտ	-2679
▁հայր	-2680
Մենք	-2681
▁ուղղակի	-2682
▁ունենում	-2683
▁Արեւ	-2684
▁ընկերությունը	-2685
▁հանցագործ	-2686
ելիք	-2687
իբ	-2688
▁օգոստոսի	-2689
▁Ավետ	-2690
ահատված	-2691
▁Աթ	-2692
▁թեր	-2693
▁էինք	-2694
աժողովի	-2695
▁գործիչ	-2696
ՎԱՆ	-2697
▁քարոզ	-2698
ատարակ	-2699
▁մայրաքաղաք	-2700
ակները	-2701
ot	-2702
ՀԿ	-2703
իները	-2704
▁որոշումը	-2705
▁պատվիրակ	-2706
ալիք	-2707
էջ	-2708
▁պնդ	-2709
▁մասնագիտական	-2710
▁մարմինների	-2711
ողություն	-2712
ավարձ	-2713
▁գնդ	-2714
ընկեր	-2715
▁կյանքը	-2716
▁թաղ	-2717
▁լրագրողների	-2718
▁խնդիրների	-2719
որում	-2720
գրավ	-2721
▁որոշման	-2722
▁Իմ	-2723
▁հակառակ	-2724
առանգ	-2725
▁դատապարտ	-2726
▁քվեարկ	-2727
արգման	-2728
▁սարք	-2729
ԱՀԿ	-2730
▁Անգ	-2731
▁լուրեր	-2732
▁միջին	-2733
անձն	-2734
▁իմաստ	-2735
▁զրուց	-2736
▁հարուց	-2737
▁ստանալու	-2738
▁ներկայացնել	-2739
▁գրեթե	-2740
▁հեշտ	-2741
▁պրոֆ	-2742
▁խորհրդարանական	-2743
▁ուսումնական	-2744
▁տեսանյութ	-2745
▁բացի	-2746
▁րոպե	-2747
ակտ	-2748
▁տրանսպ	-2749
▁ինք	-2750
տրոնային	-2751
.)	-2752
յակի	-2753
զոր	-2754
▁կնք	-2755
▁հույս	-2756
թար	-2757
▁ոչինչ	-2758
▁անմիջ	-2759
րոպական	-2760
▁վիրավոր	-2761
▁մասնավորապես	-2762
▁առն	-2763
իշկ	-2764
ացրեց	-2765
all	-2766
▁առթիվ	-2767
▁Միջ	-2768
վելով	-2769
▁ծրագիրը	-2770
ուցե	-2771
▁հարթ	-2772
▁դարձավ	-2773
▁կազմել	-2774
▁գիտական	-2775
▁Ապրի	-2776
▁առիթ	-2777
եղեցին	-2778
▁մարզպետ	-2779
ԱՅԻՆ	-2780
ապաշտ	-2781
▁աշակերտ	-2782
շավ	-2783
րահամ	-2784
ֆոր	-2785
անյան	-2786
▁Վահ	-2787
▁բախ	-2788
ավարական	-2789
▁պատժ	-2790
▁թանգ	-2791
պաս	-2792
▁քաղաքականության	-2793
ոռուպ	-2794
▁ՈՒ	-2795
▁շրջանի	-2796
▁աշխատանքների	-2797
աստեղծ	-2798
▁Գործ	-2799
▁առարկ	-2800
▁լրատվ	-2801
ՐՈ	-2802
▁քաշ	-2803
▁այլեւս	-2804
▁ընդհ	-2805
ak	-2806
աների	-2807
▁Ոստիկան	-2808
▁Նորություններ	-2809
արվ	-2810
▁բարդ	-2811
▁Շիր	-2812
▁իշխանության	-2813
▁իման	-2814
որտային	-2815
▁հոս	-2816
▁սպառ	-2817
▁են՝	-2818
▁Ահ	-2819
▁անունը	-2820
ագիտության	-2821
▁աստղ	-2822
▁մեկնարկ	-2823
ՅԱՆ	-2824
▁Ղարաբաղի	-2825
ողներ	-2826
լանդ	-2827
▁հարցազրույց	-2828
▁հայտնվել	-2829
ակաս	-2830
աբթի	-2831
▁կազմակերպությունների	-2832
շի	-2833
▁ուժեղ	-2834
▁պարզապես	-2835
▁տվյալների	-2836
▁բավարար	-2837
▁բլ	-2838
▁նահանգ	-2839
▁առանձին	-2840
օրինակ	-2841
▁խաչ	-2842
▁կարճ	-2843
ները՝	-2844
ադատության	-2845
▁դրս	-2846
▁հիմնադրամի	-2847
▁տեղադր	-2848
▁մոդ	-2849
անեկան	-2850
▁դիրք	-2851
▁առումով	-2852
կաս	-2853
տել	-2854
լերեն	-2855
▁J	-2856
ակներ	-2857
▁առջեւ	-2858
▁պատահ	-2859
սկի	-2860
արսել	-2861
▁պատրաստվում	-2862
▁հինգ	-2863
▁եզրափակ	-2864
ուի	-2865
▁պատերազմի	-2866
▁Էլ	-2867
▁Լավ	-2868
ատակարար	-2869
▁տարիներին	-2870
▁Հաջ	-2871
▁գիր	-2872
▁Աշխատ	-2873
արարական	-2874
իրի	-2875
ացուց	-2876
▁Պար	-2877
▁խնդիրը	-2878
▁հարգ	-2879
▁մաքս	-2880
ԱԽ	-2881
▁հին	-2882
▁Խորհրդ	-2883
▁Ֆրանսիայի	-2884
▁ծառայությունների	-2885
▁ակտ	-2886
արգեւ	-2887
ոռուպց	-2888
ավիճ	-2889
ոնալդ	-2890
▁պայքար	-2891
▁Գար	-2892
ահոգ	-2893
▁ծաղ	-2894
▁փոխարեն	-2895
Հայաստանի	-2896
▁ցուցանիշ	-2897
▁Ուկրաին	-2898
▁Վանաձ	-2899
▁Կոն	-2900
▁մեքենան	-2901
▁փոփոխություններ	-2902
▁Գեղ	-2903
անուն	-2904
▁տուժ	-2905
▁թեմայով	-2906
▁միակ	-2907
Ան	-2908
▁ապր	-2909
▁ցանց	-2910
▁հավաքականի	-2911
ենս	-2912
կամ	-2913
արձր	-2914
▁ստանում	-2915
▁ուղարկ	-2916
▁մասի	-2917
ուսափ	-2918
ուհետեւ	-2919
▁մասնակցելու	-2920
կրտ	-2921
▁հեղափոխ	-2922
▁տեղական	-2923
▁ԵՐԵ	-2924
▁գյուղի	-2925
▁մրցույթ	-2926
▁Աբրահամ	-2927
լուսանկարներ	-2928
▁կկ	-2929
▁ժամանակահատված	-2930
▁Վարչապետ	-2931
այական	-2932
▁ծրագիր	-2933
▁ընթերց	-2934
▁Բել	-2935
▁ընտանիքի	-2936
վածք	-2937
▁Գյումրի	-2938
▁զեկ	-2939
▁ոգ	-2940
յուսիսային	-2941
▁գործակալություն	-2942
▁Բրիտ	-2943
▁Մանուկ	-2944
եսի	-2945
▁որից	-2946
▁մասնակցում	-2947
ացիոն	-2948
▁K	-2949
եցրել	-2950
▁արդյոք	-2951
▁վր	-2952
եֆ	-2953
▁կառավարությունը	-2954
▁Ֆրանսի	-2955
▁գտնել	-2956
▁գոլ	-2957
▁Ոչ	-2958
▁Հովհաննես	-2959
▁Բոլոր	-2960
▁սպասվում	-2961
ենում	-2962
▁ամփոփ	-2963
▁հոգեւոր	-2964
▁ուժի	-2965
▁միջոցների	-2966
▁Ալի	-2967
▁Անդր	-2968
նտր	-2969
եքի	-2970
▁Հայրապետ	-2971
▁շնորհակալ	-2972
▁ՀԱՄ	-2973
▁շուկ	-2974
▁գործարար	-2975
...]	-2976
ողությունը	-2977
որդների	-2978
▁խնդիրները	-2979
ողովուրդ	-2980
]։	-2981
▁ցեղասպանության	-2982
ակուլտ	-2983
անապարհ	-2984
▁կստ	-2985
▁երաժշտ	-2986
էս	-2987
▁Վլ	-2988
եւելյան	-2989
▁գյուղատնտես	-2990
▁մեթ	-2991
▁ապրել	-2992
▁հանդիպումը	-2993
▁լույս	-2994
▁օրենսգրքի	-2995
▁Երկր	-2996
▁ՀԱՆ	-2997
առնա	-2998
▁իրար	-2999
lo	-3000
AM	-3001
իկն	-3002
▁ԵԱՀԿ	-3003
▁տեսակի	-3004
▁մարզում	-3005
▁տրվում	-3006
անորոգ	-3007
այթ	-3008
ասպ	-3009
▁ճշ	-3010
▁s	-3011
▁Իտ	-3012
▁թե՞	-3013
▁մերժ	-3014
▁հանդեպ	-3015
▁շրջանակում	-3016
▁զինված	-3017
աշարժ	-3018
▁ջուր	-3019
▁կրակ	-3020
▁աշխատանքները	-3021
ավային	-3022
▁պակաս	-3023
եյսբուք	-3024
▁սկզբունք	-3025
▁այսպես	-3026
▁անտ	-3027
▁կարգավոր	-3028
իկին	-3029
աժամանակ	-3030
▁կրթական	-3031
▁Յուր	-3032
▁գաղափար	-3033
▁>	-3034
ոսյան	-3035
▁հարված	-3036
▁պրոֆես	-3037
▁ահաբեկ	-3038
ահաս	-3039
ՀՀ	-3040
▁Ավելի	-3041
ճռ	-3042
▁բանկի	-3043
▁մնում	-3044
անդր	-3045
▁իրականացնում	-3046
աներ	-3047
▁քննարկել	-3048
▁տեղափոխվել	-3049
▁դի	-3050
ԱԶ	-3051
▁չար	-3052
▁արդյունք	-3053
▁դիվան	-3054
]:	-3055
▁U	-3056
▁Սամվել	-3057
ԵՐԻ	-3058
ամը	-3059
▁կարգավորման	-3060
ակային	-3061
եփոխ	-3062
▁աշխատանքը	-3063
▁ԱՆ	-3064
▁գեղ	-3065
նլայն	-3066
պրես	-3067
▁մահացել	-3068
▁on	-3069
▁նախըն	-3070
▁ակց	-3071
▁Մասն	-3072
▁Եկ	-3073
▁գրասենյ	-3074
▁անվանում	-3075
▁քաղաքացիների	-3076
▁Նահանգ	-3077
▁սպասում	-3078
▁ֆակուլտ	-3079
▁Նշենք	-3080
▁հավասար	-3081
ոսյանի	-3082
▁‎	-3083
▁աշխատակազմի	-3084
▁Բաք	-3085
▁անցել	-3086
▁ներգրավ	-3087
▁որոշել	-3088
▁Com	-3089
▁հիմնականում	-3090
▁եկամուտ	-3091
րակ	-3092
իկներ	-3093
ոնում	-3094
ut	-3095
▁No	-3096
▁լեզու	-3097
▁արտահերթ	-3098
▁In	-3099
ադրան	-3100
անման	-3101
իայում	-3102
▁ավելին	-3103
▁արտակարգ	-3104
ՈՎ	-3105
▁առաջարկում	-3106
▁հոգեբ	-3107
▁տարածք	-3108
Այս	-3109
ամյակ	-3110
▁փառատ	-3111
▁էս	-3112
▁բողոք	-3113
▁եկեղեցու	-3114
լիմպ	-3115
▁մեթոդ	-3116
արտար	-3117
▁հայերեն	-3118
▁հիվանդանոց	-3119
աբաժ	-3120
▁թե՛	-3121
▁բաժին	-3122
արսելոն	-3123
▁չեք	-3124
▁Չին	-3125
▁իրականացնել	-3126
▁ՄԱՍԻՆ	-3127
▁Իրան	-3128
ապահության	-3129
պարտ	-3130
▁ոլորտի	-3131
▁երեխայի	-3132
▁ցուցահանդես	-3133
▁մշտական	-3134
▁արտասանություն	-3135
▁m	-3136
տը	-3137
ation	-3138
ազանգ	-3139
կարող	-3140
▁հաշվարկ	-3141
▁հրաշ	-3142
▁փախ	-3143
▁Ծառուկ	-3144
▁դատավոր	-3145
▁ճակատ	-3146
▁ընտրական	-3147
▁աստիճան	-3148
րաթ	-3149
▁ԵՊՀ	-3150
▁f	-3151
եւնույն	-3152
▁միտ	-3153
▁Մարի	-3154
կայում	-3155
▁պատմական	-3156
▁չգիտ	-3157
▁մասով	-3158
▁հարաբերությունները	-3159
ետիկ	-3160
անչես	-3161
▁կյանքում	-3162
յանը՝	-3163
▁կայուն	-3164
▁ԼՂՀ	-3165
▁Կոմ	-3166
▁ժամանակակից	-3167
▁պարտադիր	-3168
▁բարեփոխ	-3169
▁մնալ	-3170
▁[...]	-3171
▁համայնք	-3172
▁ձեւավոր	-3173
ine	-3174
▁Աշխարհ	-3175
րանից	-3176
եցված	-3177
▁ջանք	-3178
▁ունենալու	-3179
ԵՄ	-3180
եկց	-3181
▁Թե	-3182
ոսը	-3183
▁սննդ	-3184
▁բավականին	-3185
▁սահմաններում	-3186
▁Զրուց	-3187
ադիմիր	-3188
այիս	-3189
▁հով	-3190
▁կապերի	-3191
▁արդյունքները	-3192
աւոր	-3193
▁Բնակ	-3194
աթիռ	-3195
▁հասցե	-3196
▁Իսր	-3197
....	-3198
▁կատարված	-3199
▁ներդրում	-3200
▁էլեկտրոնային	-3201
▁եվրոպական	-3202
▁նախագծի	-3203
▁հրատարակ	-3204
նակի	-3205
րու	-3206
▁պող	-3207
արժեք	-3208
րապարակ	-3209
առը	-3210
յանց	-3211
▁Գեր	-3212
Առ	-3213
մտյան	-3214
▁իհարկե	-3215
▁հեռուստա	-3216
▁բաժն	-3217
անյանի	-3218
▁հերթին	-3219
ՄԵՆ	-3220
▁նորմ	-3221
▁գերազանց	-3222
▁լինեն	-3223
▁տալու	-3224
▁տարիների	-3225
▁կատարվում	-3226
▁հարցին	-3227
հայտ	-3228
▁արձագանք	-3229
▁տեղում	-3230
▁Կենտրոնական	-3231
ացական	-3232
▁պահանջում	-3233
բյ	-3234
▁առանձնահատ	-3235
ff	-3236
▁աշխատավարձ	-3237
▁բարել	-3238
▁էկ	-3239
ամս	-3240
▁օգտագործել	-3241
▁Բար	-3242
▁հաշվետվ	-3243
ՅԴ	-3244
▁Արտասանել	-3245
▁եկեղեցին	-3246
▁դասընթաց	-3247
ՍՀ	-3248
▁ոսկ	-3249
▁Կարող	-3250
ոճ	-3251
▁պարգեւ	-3252
▁հանգամանք	-3253
▁արվեստ	-3254
▁տեսնել	-3255
▁հասկանում	-3256
վազն	-3257
▁անընդ	-3258
▁Վլադիմիր	-3259
▁Հանդիպ	-3260
▁տեխնիկական	-3261
՛չ	-3262
▁Դաշն	-3263
Ինչ	-3264
ատուր	-3265
▁Ո՞	-3266
▁սեռ	-3267
▁ակադեմ	-3268
▁խոսքով՝	-3269
նջ	-3270
▁բժիշկ	-3271
▁փորձագետ	-3272
▁Կոր	-3273
▁Մարտի	-3274
ri	-3275
տոր	-3276
▁ոտ	-3277
▁Պող	-3278
▁անձն	-3279
▁ԵՐԵՎԱՆ	-3280
ԱՊԵՏ	-3281
րեք	-3282
պիսին	-3283
▁զուգ	-3284
անիզմ	-3285
▁լուր	-3286
▁մտահոգ	-3287
ապաշտպան	-3288
▁կառուցված	-3289
քերով	-3290
եգր	-3291
▁գույքի	-3292
▁բարեկամ	-3293
▁մասնագիտ	-3294
ներ՝	-3295
րատ	-3296
իներ	-3297
երային	-3298
ովանդակ	-3299
▁տեղեկատվական	-3300
▁կայացած	-3301
արված	-3302
թացի	-3303
▁News	-3304
ադրությունը	-3305
▁առավոտ	-3306
▁գործողությունների	-3307
ագում	-3308
▁կանց	-3309
բր	-3310
ԻՐ	-3311
րդող	-3312
▁թարգման	-3313
▁լիգ	-3314
▁պատասխանատու	-3315
անութ	-3316
▁գործել	-3317
▁հայտարարեց	-3318
ականոց	-3319
▁ուղեւոր	-3320
▁տեղեկատվության	-3321
՛ր	-3322
▁զենք	-3323
▁արվեստի	-3324
▁ՊՆ	-3325
▁Մկրտ	-3326
▁հն	-3327
ացեք	-3328
▁ասած	-3329
▁ոք	-3330
ԵԼՈՒ	-3331
▁իրավիճակը	-3332
▁Եվր	-3333
իչների	-3334
սում	-3335
▁հարկային	-3336
▁երաշխ	-3337
▁Սկ	-3338
իկները	-3339
▁հանգիստ	-3340
րամի	-3341
▁օնլայն	-3342
▁առաջնության	-3343
▁հարեւան	-3344
ազրկ	-3345
ծում	-3346
▁ՀԱՅԱՍՏ	-3347
▁թեման	-3348
ո՞ւմ	-3349
▁ճնշ	-3350
▁Լուս	-3351
ամտ	-3352
▁պալ	-3353
▁գլուխ	-3354
▁մեղադրանք	-3355
▁կատարում	-3356
▁կպ	-3357
ռչակ	-3358
ուշի	-3359
▁իս	-3360
▁շու	-3361
▁ղեկավարի	-3362
▁փնտր	-3363
▁օգտագործման	-3364
եյսբուքյան	-3365
ասխանում	-3366
▁պայմաններում	-3367
▁անշ	-3368
▁կայքը	-3369
▁կատարած	-3370
եւը	-3371
ենզ	-3372
խոս	-3373
ակցի	-3374
▁մարդը	-3375
▁մեդալ	-3376
▁եղբայր	-3377
▁ընտրել	-3378
▁միջոցառումների	-3379
▁պայքարի	-3380
▁Օգ	-3381
▁Արարատ	-3382
Ժողովուրդ	-3383
▁կախված	-3384
▁քարտուղար	-3385
▁օրգ	-3386
▁հզոր	-3387
▁փաթ	-3388
▁Հիմա	-3389
▁հայոց	-3390
▁նորից	-3391
▁կարգի	-3392
▁հսկ	-3393
ետը	-3394
▁Կր	-3395
▁չափով	-3396
▁Մարտիր	-3397
▁երջ	-3398
▁ՀԿ	-3399
▁խոսքը	-3400
▁b	-3401
ատեգ	-3402
Հայաստան	-3403
▁Հարությունյանը	-3404
▁Ռուբ	-3405
▁դրանից	-3406
▁պատկ	-3407
▁եւ՛	-3408
▁Սերգ	-3409
▁վերած	-3410
▁իրականացվում	-3411
▁փոխարին	-3412
▁գործունեությունը	-3413
առաջ	-3414
▁իրավաս	-3415
▁օրակարգ	-3416
ացնի	-3417
▁սեւ	-3418
ess	-3419
▁ընտրություններին	-3420
ցանց	-3421
▁Խոս	-3422
▁գով	-3423
▁անդամների	-3424
▁էջը	-3425
▁թագավոր	-3426
ավարության	-3427
▁նախապատրաստ	-3428
▁օբյ	-3429
▁չորս	-3430
▁Եվրոպական	-3431
▁Լոռ	-3432
▁h	-3433
▁o	-3434
պետք	-3435
ալից	-3436
▁ական	-3437
▁բնակչության	-3438
▁համերգ	-3439
let	-3440
▁Med	-3441
▁բանաստեղծ	-3442
▁անս	-3443
▁բր	-3444
▁առաքել	-3445
ավանդ	-3446
▁ափ	-3447
նդիր	-3448
▁մլրդ	-3449
▁զբոսաշրջ	-3450
▁էդ	-3451
▁առնվազն	-3452
ավայրի	-3453
ագրություն	-3454
▁գիտության	-3455
▁ստացվել	-3456
▁առաջատար	-3457
բերգ	-3458
▁Մաս	-3459
▁ուղիղ	-3460
▁սենյականոց	-3461
▁ող	-3462
▁Էրդող	-3463
▁գործը	-3464
▁առնելով	-3465
▁Շահ	-3466
▁հասկաց	-3467
▁ընդլայն	-3468
▁Զրուցարան	-3469
▁Ընկեր	-3470
▁մոռ	-3471
▁Սույն	-3472
եստական	-3473
▁վերականգն	-3474
▁քննարկում	-3475
▁նախագիծը	-3476
▁Նույն	-3477
▁կենտրոնական	-3478
▁ՀՅԴ	-3479
▁ընդհանր	-3480
ներկայ	-3481
▁բնագ	-3482
▁զինվորական	-3483
աշեն	-3484
▁կարդ	-3485
▁կարգավիճ	-3486
ասաց	-3487
▁օդանավ	-3488
▁իրավունքի	-3489
▁ֆիզիկական	-3490
ru	-3491
▁կը	-3492
ԱՂ	-3493
▁հետագա	-3494
,—	-3495
▁Գալ	-3496
▁եկավ	-3497
▁ծնվել	-3498
▁դեպքի	-3499
▁կլինեն	-3500
▁խուսափ	-3501
▁մանրամաս	-3502
▁ամերիկյան	-3503
▁Աթոռ	-3504
▁տվեց	-3505
ԱԴ	-3506
▁Յուն	-3507
▁չունեն	-3508
▁տարածքային	-3509
▁Արա	-3510
▁Ուս	-3511
▁հազ	-3512
առման	-3513
▁զանգված	-3514
▁հակամարտության	-3515
▁դրսեւոր	-3516
▁վաստ	-3517
րաթերթ	-3518
▁Շնորհ	-3519
▁զգում	-3520
▁կեղծ	-3521
▁շենքի	-3522
▁նախարարությունը	-3523
մամբ՝	-3524
անչեսթեր	-3525
▁կինը	-3526
▁թվականից	-3527
▁սկսում	-3528
▁հասել	-3529
▁թուրքական	-3530
րաֆ	-3531
▁համակարգը	-3532
▁բողոքի	-3533
աստանյան	-3534
▁՝	-3535
ընտրանք	-3536
▁դեպքերում	-3537
ԻՍ	-3538
▁պես	-3539
▁սահմանափակ	-3540
▁մետ	-3541
▁կապի	-3542
▁ծննդյան	-3543
▁տնտեսության	-3544
որս	-3545
անգլ	-3546
եցնելու	-3547
▁հայտնեց	-3548
▁ձեռքբեր	-3549
▁վերանորոգ	-3550
այս	-3551
▁մնացել	-3552
▁պայմանագր	-3553
ակիր	-3554
ենայի	-3555
▁Կարապետյանը	-3556
ՈՒԼ	-3557
ո՛	-3558
վարդ	-3559
▁տեխնոլոգիաների	-3560
▁Շիրակի	-3561
▁X	-3562
▁Իտալի	-3563
▁փողոցում	-3564
▁ՍՊ	-3565
▁ցած	-3566
ments	-3567
▁Այստեղ	-3568
եգործ	-3569
ակին	-3570
▁ԱԱԾ	-3571
▁վառ	-3572
▁ֆեյսբուքյան	-3573
▁մտածում	-3574
▁դպրոցում	-3575
▁►	-3576
▁Սյուն	-3577
▁հավանական	-3578
իքը	-3579
▁բազ	-3580
▁տեւ	-3581
▁Կաթ	-3582
▁գավ	-3583
ասական	-3584
ակցությունը	-3585
ացան	-3586
and	-3587
րդեհ	-3588
▁ամենը	-3589
▁Մամ	-3590
ՐԵՍ	-3591
▁բաները	-3592
▁հարազատ	-3593
ողին	-3594
▁անձինք	-3595
▁թիմի	-3596
▁Chat	-3597
▁ՀԱՆՐ	-3598
արտարապետ	-3599
ակո	-3600
▁բոլորը	-3601
▁բովանդակ	-3602
▁ունեմ	-3603
▁բարի	-3604
eb	-3605
▁տանը	-3606
▁ծառայությունը	-3607
ալով	-3608
▁խիստ	-3609
▁Չեմ	-3610
▁վիճակում	-3611
ադառնալով	-3612
▁դիրքորոշ	-3613
▁հանդիսանում	-3614
▁ԱՐՄԵՆ	-3615
ովս	-3616
▁ստեղծված	-3617
▁դրությամբ	-3618
մուծ	-3619
▁Նրանց	-3620
▁հարցի	-3621
▁երկրներում	-3622
▁Պարզ	-3623
▁դեպք	-3624
▁մահվան	-3625
աթոշ	-3626
▁չես	-3627
ոնյան	-3628
▁Բանկ	-3629
▁ՓԲԸ	-3630
▁ենթակա	-3631
▁քննադատ	-3632
ալբ	-3633
eg	-3634
▁արտասանել	-3635
ովկաս	-3636
▁ամենա	-3637
▁վիճակը	-3638
աբանության	-3639
▁Կապ	-3640
ոնիայի	-3641
ագործման	-3642
ոմի	-3643
ՊՐԵՍ	-3644
նց	-3645
ատան	-3646
▁ադրբեջանական	-3647
▁փոքրիկ	-3648
▁i	-3649
միր	-3650
Արմենպրես	-3651
▁քառ	-3652
▁Դիտ	-3653
աշվի	-3654
▁Միք	-3655
▁ժառանգ	-3656
▁Սերգեյ	-3657
▁լրատվամիջոց	-3658
▁լից	-3659
եռնել	-3660
▁միջնորդ	-3661
▁Հոկտեմբերի	-3662
րաձ	-3663
Իմ	-3664
▁իրավաբանական	-3665
եսը	-3666
▁կարծես	-3667
ագաթ	-3668
▁պայթ	-3669
▁այդքան	-3670
ԱՇ	-3671
▁քաղց	-3672
▁այգ	-3673
ահավաք	-3674
▁անի	-3675
▁թանկ	-3676
▁Անվ	-3677
կանց	-3678
▁կեր	-3679
▁Արմավիր	-3680
▁կշ	-3681
▁Սարգսյանն	-3682
աղորդ	-3683
▁Արաբ	-3684
▁հուշարձ	-3685
▁հաշվով	-3686
▁նպատակն	-3687
▁կբ	-3688
▁նախարարը	-3689
ent	-3690
▁Sp	-3691
▁տեղը	-3692
▁անցյալ	-3693
ԵՂ	-3694
▁ձգ	-3695
▁ամսվա	-3696
▁հարցերով	-3697
ակցություն	-3698
▁ինքնակ	-3699
▁մեխ	-3700
▁Sh	-3701
▁հասանելի	-3702
▁Մրց	-3703
ագիծ	-3704
▁անմ	-3705
լամ	-3706
աղաքական	-3707
▁Arm	-3708
ասարակ	-3709
▁պատկան	-3710
ելիս	-3711
շաբթի	-3712
նձ	-3713
▁տեսել	-3714
մուտ	-3715
▁դարի	-3716
▁նիստը	-3717
ավորության	-3718
ենը	-3719
կրետ	-3720
lette	-3721
ածկ	-3722
իոնալ	-3723
▁երկիրը	-3724
▁ընթ	-3725
▁Թուրքիան	-3726
▁պարտական	-3727
▁c	-3728
վանից	-3729
▁գործիք	-3730
▁Ալեքսանդր	-3731
▁Հատ	-3732
▁թղթ	-3733
▁մարզիչ	-3734
▁դատարան	-3735
▁ստիպված	-3736
ոլով	-3737
oulette	-3738
▁ահազանգ	-3739
▁մնացած	-3740
Ել	-3741
▁տառ	-3742
ոչընդ	-3743
▁թշ	-3744
▁բնապահ	-3745
▁հայերի	-3746
▁Ակ	-3747
▁ինչո՞ւ	-3748
▁բացատր	-3749
եպտեմբեր	-3750
▁տարիներ	-3751
▁Անգլի	-3752
▁պայմանագիր	-3753
▁հրապարակում	-3754
▁հայտնաբերվել	-3755
այքի	-3756
ացիան	-3757
▁դատարանը	-3758
▁ինչպե՞ս	-3759
▁երգչ	-3760
աճյուղ	-3761
▁օգտակար	-3762
▁հանձ	-3763
ատը	-3764
▁Սարգսյան	-3765
▁պատճառը	-3766
▁Պր	-3767
▁խել	-3768
▁գագաթ	-3769
▁փորձել	-3770
▁այլընտրանք	-3771
▁համալսարան	-3772
ուսը	-3773
▁կայան	-3774
▁այսինքն	-3775
▁հանգստ	-3776
▁համալիր	-3777
▁խնամ	-3778
անախ	-3779
▁արք	-3780
▁թարմ	-3781
▁սպառն	-3782
ոչընդոտ	-3783
▁ակումբի	-3784
ուռ	-3785
▁ռես	-3786
▁գործադիր	-3787
ահլի	-3788
▁հասնել	-3789
▁չպետք	-3790
▁կերպով	-3791
՞ն	-3792
սը	-3793
▁գոյություն	-3794
ԻԿ	-3795
ագրված	-3796
▁ներկայացուցիչների	-3797
ոյեմբեր	-3798
▁Սիմ	-3799
▁ձեւով	-3800
▁Ադրբեջանը	-3801
ail	-3802
▁խանութ	-3803
▁Պետք	-3804
▁անցնում	-3805
▁ցուցաբեր	-3806
▁ամբողջական	-3807
▁բերում	-3808
ահեղ	-3809
ting	-3810
▁մեղադր	-3811
▁Հանրային	-3812
ատակը	-3813
▁չեմպիոն	-3814
▁գար	-3815
▁Սուր	-3816
▁հարյուր	-3817
▁Մակ	-3818
անգստ	-3819
▁Հեն	-3820
▁Պետական	-3821
▁հրամանատար	-3822
▁Գերմանիայի	-3823
▁թաք	-3824
▁ինչպիսի	-3825
▁կոռուպց	-3826
▁Էջմիածնի	-3827
Բարսելոն	-3828
▁օրին	-3829
um	-3830
▁սկսած	-3831
անգամ	-3832
ինա	-3833
ագրում	-3834
▁չնայած	-3835
երբ	-3836
▁չլին	-3837
▁մեկնել	-3838
ույք	-3839
▁դրամի	-3840
os	-3841
▁պապ	-3842
Մանչեսթեր	-3843
▁ջրի	-3844
▁ՀԱՆՐԱՊԵՏ	-3845
▁գիտնական	-3846
▁Սեպտեմբերի	-3847
վարճ	-3848
▁հավան	-3849
իզբ	-3850
▁գիշեր	-3851
▁Հայտնի	-3852
▁եզրակ	-3853
▁Ավետիս	-3854
▁հիշատակ	-3855
անաք	-3856
▁Ուր	-3857
ետային	-3858
ուալ	-3859
իստր	-3860
▁ոչնչ	-3861
▁հատկաց	-3862
▁Ռուսաստանը	-3863
▁Comments	-3864
▁կազմակերպել	-3865
▁ծնված	-3866
▁անցած	-3867
չափ	-3868
▁շեշտ	-3869
▁պատասխանեց	-3870
ww	-3871
▁pp	-3872
▁Տեղեկ	-3873
▁ավտոմեքենան	-3874
▁նայ	-3875
▁պողոտ	-3876
▁լրացուցիչ	-3877
▁կց	-3878
▁տաք	-3879
▁մշտ	-3880
▁կրկ	-3881
ագրությունը	-3882
▁նկարահան	-3883
▁նվաճ	-3884
▁ապահովման	-3885
▁պահպանման	-3886
▁Հարավային	-3887
▁գործընթացը	-3888
▁+	-3889
▁տվյալներով	-3890
▁Գերմանի	-3891
▁ԱՐՄԵՆՊՐԵՍ	-3892
▁Հյուսիսային	-3893
ԱՏՕ	-3894
▁Անկ	-3895
▁ռադի	-3896
▁կատարվել	-3897
▁Off	-3898
ահր	-3899
▁Ծն	-3900
▁Երեկ	-3901
ատարած	-3902
▁իսկապես	-3903
▁հավելված	-3904
▁(«	-3905
▁լց	-3906
▁նախնական	-3907
Ազատ	-3908
▁Այլ	-3909
ուած	-3910
▁Բաղդ	-3911
▁պահել	-3912
▁ուսուցիչ	-3913
▁աշխատանքներ	-3914
▁բարելավ	-3915
▁տվյալները	-3916
ավան	-3917
ոնին	-3918
▁միասնական	-3919
▁սրտ	-3920
▁մաքսային	-3921
▁բացակայ	-3922
ոկտեմբեր	-3923
▁խնդրում	-3924
▁Ուղ	-3925
եյն	-3926
ակրթ	-3927
նախագահ	-3928
թը	-3929
այթե	-3930
▁անմիջապես	-3931
▁պաշտոնյան	-3932
եցման	-3933
ուսական	-3934
պտ	-3935
▁նշան	-3936
ev	-3937
ացվի	-3938
Երեւան	-3939
սին	-3940
▁Փաստ	-3941
ատիր	-3942
ակառուց	-3943
▁կատարման	-3944
հար	-3945
ոտո	-3946
▁միջոցներ	-3947
▁սակ	-3948
▁Առաքել	-3949
▁մանր	-3950
ա՛	-3951
▁պտ	-3952
▁Ապրիլի	-3953
գործնախարար	-3954
ոյանի	-3955
▁կանայք	-3956
երը՝	-3957
այան	-3958
iam	-3959
ալը	-3960
մանդամ	-3961
▁խոչընդոտ	-3962
աձգ	-3963
իստական	-3964
ահամալ	-3965
▁մուտք	-3966
▁կոնկրետ	-3967
▁​	-3968
ացանց	-3969
▁անհատական	-3970
▁վերջնական	-3971
▁ԱԳՆ	-3972
▁ցուցադր	-3973
աքննության	-3974
▁գաղտնի	-3975
▁ամբողջությամբ	-3976
▁Լր	-3977
իկայում	-3978
▁ինտերն	-3979
արեկ	-3980
երան	-3981
ուների	-3982
▁Անն	-3983
▁փուլում	-3984
▁ո՛չ	-3985
▁կուտ	-3986
▁մասնաճյուղ	-3987
ահլիճ	-3988
▁տարել	-3989
անշանակ	-3990
▁Փոքր	-3991
փյուռքի	-3992
▁Ինչպե՞ս	-3993
▁The	-3994
▁բեմ	-3995
ճատ	-3996
▁արտաս	-3997
▁բարձրագույն	-3998
Նոր	-3999
ալբանդ	-4000
▁կողմը	-4001
ություն՝	-4002
▁իրականացնելու	-4003
em	-4004
▁բլոգ	-4005
▁դիտարկ	-4006
▁ապօր	-4007
▁Միքայել	-4008
▁որոշմամբ	-4009
ՔԻ	-4010
ԱՊԿ	-4011
▁դոլարի	-4012
▁դասախոս	-4013
▁բանակի	-4014
ասեր	-4015
▁մատակարար	-4016
▁Մկրտչ	-4017
▁Դատ	-4018
ՈՆ	-4019
ul	-4020
▁սար	-4021
ազմակերպ	-4022
▁`	-4023
▁Հռ	-4024
▁մոլոր	-4025
իժ	-4026
ook	-4027
▁զգալի	-4028
▁քրիստ	-4029
▁Հովհաննիսյանը	-4030
ամենայն	-4031
ստր	-4032
▁միեւնույն	-4033
▁իջ	-4034
▁ամրապնդ	-4035
▁Դանի	-4036
▁շրջանառ	-4037
▁նշվում	-4038
լիմպիական	-4039
▁Փարի	-4040
▁Մել	-4041
▁փոխել	-4042
▁այդպիսի	-4043
ագած	-4044
ադաշտ	-4045
▁Թում	-4046
ատիպ	-4047
▁Video	-4048
▁սենյակ	-4049
Հրապարակ	-4050
▁երաժշտական	-4051
▁անձը	-4052
▁Ռուբեն	-4053
▁գյուղում	-4054
▁վտանգավոր	-4055
▁շարունակվում	-4056
▁միմ	-4057
▁խանգ	-4058
▁օգնել	-4059
▁զվարճ	-4060
ացիական	-4061
▁մէջ	-4062
ian	-4063
ասը	-4064
ինգի	-4065
ամասն	-4066
▁հետագայում	-4067
▁նիստի	-4068
▁կարգը	-4069
▁Կառավարության	-4070
պիսով	-4071
▁Հոգ	-4072
▁առաջիկա	-4073
▁հաստատել	-4074
▁Ինձ	-4075
▁վաստակ	-4076
▁հավատար	-4077
աշնորհ	-4078
▁→	-4079
անկյուն	-4080
▁երեկոյան	-4081
ո՞ք	-4082
▁ապագ	-4083
▁հեռու	-4084
ուհետ	-4085
մեր	-4086
ուչ	-4087
▁Նոյեմբերի	-4088
▁An	-4089
▁բաղադր	-4090
ասրահ	-4091
աժամկետ	-4092
▁կռ	-4093
▁տեքստ	-4094
եկտեմբեր	-4095
պագ	-4096
▁Պատմ	-4097
▁ուղերձ	-4098
▁շախ	-4099
▁ՀԱՅԱՍՏԱՆԻ	-4100
▁Նալբանդ	-4101
Մի	-4102
▁կօ	-4103
աբոր	-4104
▁ձախ	-4105
▁ընկած	-4106
ասյանը	-4107
▁ե՞	-4108
▁որոնցից	-4109
▁ռեսուրս	-4110
ահարել	-4111
▁գալու	-4112
առային	-4113
ավորական	-4114
▁Սիրիայի	-4115
▁օպերատիվ	-4116
ՎԱԾ	-4117
▁չկան	-4118
▁հիմնադիր	-4119
▁արդարադատության	-4120
աշրջանի	-4121
▁մարտական	-4122
▁իրականում	-4123
ութիւնը	-4124
▁գրադ	-4125
▁մաքր	-4126
▁սահմանադրական	-4127
ժեք	-4128
ապար	-4129
ացիա	-4130
▁գործառ	-4131
ub	-4132
▁առանձնահատկ	-4133
▁ռիսկ	-4134
եդեր	-4135
▁in	-4136
▁բջ	-4137
▁Հիս	-4138
ատեգոր	-4139
թեւեկ	-4140
▁ՆԱՏՕ	-4141
▁ինստիտուտի	-4142
▁պատմություն	-4143
▁ՄԱՐ	-4144
մանի	-4145
▁ժողովրդական	-4146
▁Ահա	-4147
▁օրն	-4148
▁ունենա	-4149
▁Կաթողիկ	-4150
ուամենայն	-4151
▁ապահովել	-4152
▁մաշ	-4153
▁ընդհանրապես	-4154
▁Տավ	-4155
▁Լոռու	-4156
▁հաշիվ	-4157
▁ներմուծ	-4158
▁ցածր	-4159
▁գաղտն	-4160
▁անդամները	-4161
oc	-4162
▁արհ	-4163
▁միմյանց	-4164
ՈՍ	-4165
▁Մես	-4166
աները	-4167
▁մեկին	-4168
▁սիրելի	-4169
ասիրական	-4170
ակոչ	-4171
▁տեր	-4172
▁ճարտարապետ	-4173
__	-4174
▁դասարան	-4175
▁առեւտրային	-4176
▁բնակչ	-4177
▁Մոսկվայի	-4178
▁ջան	-4179
▁տեղեկություններ	-4180
▁›	-4181
սեր	-4182
▁եմ՝	-4183
▁սպիտակ	-4184
▁առկայ	-4185
▁հանձնարար	-4186
▁ծեծ	-4187
ախուզ	-4188
Եվ	-4189
▁Մալ	-4190
▁սուր	-4191
▁ապրանքների	-4192
▁չէին	-4193
▁Ծրագր	-4194
ուամենայնիվ	-4195
▁իրականացվող	-4196
▁↑	-4197
▁ընդունում	-4198
ow	-4199
▁թուրք	-4200
▁փոփոխվել	-4201
per	-4202
թափ	-4203
▁ԳԱ	-4204
▁փոխանակ	-4205
ընկալ	-4206
▁տպավոր	-4207
▁զեկույց	-4208
▁նշանակվել	-4209
աբանում	-4210
▁մանրամասն	-4211
▁առավելագույն	-4212
ովան	-4213
▁հաց	-4214
▁նիստում	-4215
▁հյուրանոց	-4216
▁ՀԱՆՐԱՊԵՏՈՒԹՅԱՆ	-4217
▁ժամանակահատվածում	-4218
ամթեր	-4219
▁պատմում	-4220
▁վավեր	-4221
ապահական	-4222
▁պատշ	-4223
▁թվում՝	-4224
▁կանգնած	-4225
▁տոկոսը	-4226
չելի	-4227
▁արտոն	-4228
▁Հանրապետությունում	-4229
ԱՏՄ	-4230
▁երեխա	-4231
▁լեզվ	-4232
▁ծով	-4233
յակը	-4234
▁կարծիքով	-4235
ՈՒՐ	-4236
գար	-4237
▁Որոշ	-4238
▁իրականացնող	-4239
▁թերթը	-4240
Ելք	-4241
աշվ	-4242
▁կրում	-4243
▁կայք	-4244
▁St	-4245
անախագահ	-4246
▁փոխնախագահ	-4247
▁խոսնակ	-4248
▁քննարկման	-4249
▁խորհրդարանի	-4250
եղի	-4251
մարտ	-4252
▁Թրամփը	-4253
կոն	-4254
▁հայտարարություն	-4255
▁կլ	-4256
▁անդրադարձել	-4257
նակարգ	-4258
▁կենդանին	-4259
▁ախտ	-4260
▁ուղեկց	-4261
▁արտահան	-4262
▁օրինական	-4263
▁Վալ	-4264
▁ներքո	-4265
▁պաշտոնակատար	-4266
▁միջավայր	-4267
▁իբր	-4268
▁ծրագրեր	-4269
▁ենթարկվել	-4270
ra	-4271
ինս	-4272
նեմ	-4273
▁d	-4274
Եթե	-4275
▁Քոչարյանի	-4276
▁Միջազգային	-4277
▁ստեղծվել	-4278
▁հայաստանյան	-4279
▁Մովս	-4280
▁մրցաշ	-4281
▁լարված	-4282
ոնյանը	-4283
▁ar	-4284
▁Mediam	-4285
▁խնդրի	-4286
▁Թուրքիայում	-4287
ովյան	-4288
▁ուներ	-4289
▁երբեմն	-4290
▁իշխանությունների	-4291
▁ոճ	-4292
▁գին	-4293
▁գոնե	-4294
▁Գրիգորյանը	-4295
ost	-4296
եխնիկական	-4297
▁Ներկայ	-4298
▁արտադրության	-4299
Ժամանակ	-4300
▁մտնում	-4301
▁պաշտոնում	-4302
▁վարչապետը	-4303
ԱԲ	-4304
▁խումբը	-4305
իսոր	-4306
▁Դաս	-4307
▁միանգամ	-4308
▁հայց	-4309
▁Նախարար	-4310
ig	-4311
իոնի	-4312
▁հասկան	-4313
▁երեւույթ	-4314
▁բռ	-4315
եմին	-4316
▁գեներ	-4317
▁վճռ	-4318
▁կփ	-4319
▁շտապ	-4320
▁կանչ	-4321
▁ապացուց	-4322
▁պետությունների	-4323
▁եզրակաց	-4324
▁Յունայթե	-4325
▁հանրապետության	-4326
▁միաժամանակ	-4327
▁ղեկավարը	-4328
ից՝	-4329
▁Զոհ	-4330
▁հասկանալ	-4331
▁մարմինը	-4332
իտոր	-4333
ասուն	-4334
▁Լոնդ	-4335
▁տուգ	-4336
▁արտգործնախարար	-4337
▁տաղ	-4338
▁Աֆ	-4339
▁պայմանագրի	-4340
▁գումարը	-4341
ուրի	-4342
▁Մայիսի	-4343
▁Երկրորդ	-4344
▁Կամ	-4345
▁հրդեհ	-4346
▁ընկերությունների	-4347
▁փոփոխությունների	-4348
▁թռչ	-4349
▁վիճակի	-4350
▁չափազանց	-4351
▁անգլերեն	-4352
\\	-4353
ԱՔ	-4354
▁ՀԱՊԿ	-4355
▁նշելով	-4356
պանում	-4357
imes	-4358
▁ինքնաթիռ	-4359
▁գետ	-4360
▁Խաղալ	-4361
▁կտա	-4362
պանական	-4363
▁մետր	-4364
▁անպ	-4365
▁ծխ	-4366
▁առեւտրի	-4367
▁երթեւեկ	-4368
▁մասնակցությամբ	-4369
աջող	-4370
▁գիտելի	-4371
▁գրանցվել	-4372
աստանում	-4373
▁պաշտոնը	-4374
▁տեղակայ	-4375
▁ընտրության	-4376
▁լեզվի	-4377
▁ֆիլմի	-4378
▁լուծում	-4379
▁Մեկն	-4380
ert	-4381
▁ներկայացնելու	-4382
▁v	-4383
▁լսել	-4384
▁վերականգ	-4385
▁Նման	-4386
▁ֆրանսի	-4387
▁Արսեն	-4388
▁Բաց	-4389
ԼՄ	-4390
▁ԲՀԿ	-4391
▁Նյու	-4392
▁վայել	-4393
▁պատմել	-4394
ունկ	-4395
▁Հրան	-4396
▁հուս	-4397
արդյուն	-4398
▁Հաջորդ	-4399
ենգ	-4400
▁չկ	-4401
եգին	-4402
▁ամենամ	-4403
▁գերման	-4404
▁մոր	-4405
▁տեղեկաց	-4406
▁ճանաչում	-4407
▁զոհերի	-4408
▁ներկայացուց	-4409
▁ՄԱՄ	-4410
Ալ	-4411
▁Այժմ	-4412
▁թռ	-4413
ակցական	-4414
▁իշխանությունները	-4415
երո	-4416
▁Դեկտեմբերի	-4417
րն	-4418
▁Ամենայն	-4419
▁ստորաբաժ	-4420
II	-4421
րաբ	-4422
▁Re	-4423
աժան	-4424
▁սրահ	-4425
դեռ	-4426
▁Մն	-4427
արշավ	-4428
▁նախկինում	-4429
▁պատմությունը	-4430
▁գիտությունների	-4431
▁Armen	-4432
▁Կոտ	-4433
ելյան	-4434
ԻՏ	-4435
ադաս	-4436
▁զրկ	-4437
ակարգի	-4438
id	-4439
իչի	-4440
ունչ	-4441
▁ուղարկել	-4442
▁մարդկային	-4443
▁առավոտյան	-4444
ard	-4445
ամփ	-4446
թնոլոր	-4447
▁ամուս	-4448
▁Չնայած	-4449
ree	-4450
▁գնել	-4451
▁հարցերը	-4452
▁հավաքական	-4453
Իր	-4454
եզեր	-4455
▁թշնամ	-4456
▁համաժողով	-4457
գոհ	-4458
▁հում	-4459
▁մասնավոր	-4460
▁փաստաբան	-4461
▁ապահովում	-4462
▁մեկում	-4463
▁շնորհակալություն	-4464
▁մշտապես	-4465
ֆորմ	-4466
▁կրճատ	-4467
ացնելով	-4468
▁հեռանկար	-4469
▁դե	-4470
վեյ	-4471
▁այսօրվա	-4472
▁պատասխանել	-4473
ամին	-4474
պրոց	-4475
աշխատ	-4476
▁մակեր	-4477
▁ՄԱՄՈՒԼ	-4478
▁մտածել	-4479
▁ապօրինի	-4480
▁Դու	-4481
▁պլան	-4482
ղզ	-4483
▁Ցանկ	-4484
▁պնդում	-4485
▁հա	-4486
▁Հեղ	-4487
▁դահլիճ	-4488
▁կողքին	-4489
տվ	-4490
▁հրաժարվել	-4491
▁Դրա	-4492
ե՛ք	-4493
ույգ	-4494
▁բալ	-4495
▁մաք	-4496
աստիճ	-4497
եկտիվ	-4498
▁ներկայացուցիչները	-4499
▁Սարգսյանին	-4500
▁նվազագույն	-4501
▁լռ	-4502
գրես	-4503
▁հայտարարում	-4504
pp	-4505
աքար	-4506
բիլ	-4507
▁ՍՊԸ	-4508
արգել	-4509
ակետ	-4510
▁կոշ	-4511
▁Ղազար	-4512
▁երկաթ	-4513
▁ուրեմն	-4514
▁գրառում	-4515
▁Մանվել	-4516
▁փողոցի	-4517
▁հարկավոր	-4518
▁երեխաներին	-4519
րիխ	-4520
▁էն	-4521
ացմանը	-4522
▁աղջիկ	-4523
▁փաթեթ	-4524
▁ընտանիք	-4525
արդար	-4526
▁Եվրամի	-4527
▁միջնակարգ	-4528
ածին	-4529
ստանի	-4530
▁թվով	-4531
▁ճանապարհը	-4532
▁դաշինքի	-4533
▁Արմավիրի	-4534
▁ահա	-4535
▁սովորել	-4536
▁կանխատես	-4537
ասի	-4538
▁եթ	-4539
ասնա	-4540
▁գծով	-4541
աբնակ	-4542
ացիների	-4543
roulette	-4544
▁ուժերը	-4545
▁կներկայ	-4546
եական	-4547
▁բյուջեի	-4548
▁անբ	-4549
▁շինարար	-4550
▁Chatroulette	-4551
▁ետ	-4552
▁Այսինքն	-4553
▁Միր	-4554
▁կրկն	-4555
ախտում	-4556
▁Ժողով	-4557
▁անելու	-4558
▁ցեղասպան	-4559
▁ավարտել	-4560
▁դիզ	-4561
▁Արման	-4562
▁բնակավայր	-4563
▁պարագայում	-4564
▁հայաց	-4565
▁վերաբերող	-4566
▁ճգն	-4567
▁լուծման	-4568
վածության	-4569
▁բաժնետ	-4570
▁Արցախում	-4571
▁ընդդիմադիր	-4572
▁Գյուղ	-4573
▁ծայր	-4574
▁Օրինակ	-4575
ոլի	-4576
▁ակնկալ	-4577
▁ընկալ	-4578
▁Դոնալդ	-4579
▁Ղարաբաղից	-4580
րը	-4581
իծաղ	-4582
▁վեց	-4583
▁կայքի	-4584
▁մանկավարժ	-4585
ԱՐԳ	-4586
▁շրջապատ	-4587
ունը	-4588
ատոմս	-4589
▁գտնում	-4590
▁ստեղծման	-4591
▁խթ	-4592
▁մակարդակի	-4593
▁Բալ	-4594
▁վնասված	-4595
▁մթնոլոր	-4596
▁Հեռ	-4597
▁եվրո	-4598
ցեն	-4599
▁կյանք	-4600
լավ	-4601
քնն	-4602
▁թաղամաս	-4603
▁միջոցառում	-4604
▁շարունակել	-4605
կյան	-4606
▁փոփոխություն	-4607
Մեր	-4608
▁համակարգում	-4609
▁արդյունքների	-4610
▁բյուջե	-4611
առլ	-4612
▁ստացած	-4613
▁տա	-4614
▁Գոր	-4615
▁դժգոհ	-4616
▁իրավիճակ	-4617
▁քաղաքապետարանի	-4618
▁բոլորին	-4619
▁Մարդու	-4620
▁արդյունաբեր	-4621
▁Շարմ	-4622
▁Քնն	-4623
▁Ամերիկայի	-4624
▁միլիարդ	-4625
ռը	-4626
▁ծագ	-4627
մեռ	-4628
▁տված	-4629
▁մասում	-4630
▁օդանավակայ	-4631
▁օժ	-4632
▁Պապ	-4633
▁ինչն	-4634
▁հարցերին	-4635
▁մասնակիցների	-4636
▁Տարոն	-4637
▁մրցույթի	-4638
Արսեն	-4639
▁կոնֆ	-4640
այնության	-4641
աբաշխ	-4642
▁մակնի	-4643
ոնտ	-4644
▁կարի	-4645
▁օգնում	-4646
▁նշանակություն	-4647
ome	-4648
▁Աստծո	-4649
▁զարման	-4650
▁բաժնում	-4651
▁կազմակերպման	-4652
նից	-4653
▁մարզային	-4654
▁շրջանների	-4655
▁հարուստ	-4656
ՈԱԿ	-4657
▁վարժ	-4658
▁Արարատի	-4659
fo	-4660
ՈՒՅ	-4661
▁ԽՍՀ	-4662
▁Իհարկե	-4663
▁երկրպագ	-4664
▁Ուկրաինայի	-4665
▁Քանի	-4666
ist	-4667
▁գուցե	-4668
­­	-4669
▁Վանաձորի	-4670
▁ծառայություն	-4671
▁անունով	-4672
▁հետեւում	-4673
▁տարբերակը	-4674
▁տրված	-4675
▁ժամանակը	-4676
▁գործնական	-4677
երկրյա	-4678
▁կարդալ	-4679
▁ժամանակին	-4680
▁Սյունիքի	-4681
▁ուշադրություն	-4682
▁արմատ	-4683
▁ժողովրդին	-4684
▁վերջո	-4685
▁Հուլիսի	-4686
▁Հունիսի	-4687
սպ	-4688
▁համանախագահ	-4689
▁մոդել	-4690
ավաճ	-4691
▁հարս	-4692
▁օգնության	-4693
▁պայքարում	-4694
Արական	-4695
▁գեղեցկ	-4696
▁ֆուտբոլի	-4697
▁երթ	-4698
▁չէի	-4699
▁մեծամասն	-4700
▁քաղաքապետի	-4701
▁Կբ	-4702
News	-4703
ույժ	-4704
ուարդ	-4705
ոճանապարհ	-4706
▁հորիզ	-4707
▁հատվածում	-4708
ԻՄ	-4709
▁կենսաթոշ	-4710
▁ներկայացվել	-4711
▁նախաձեռնությամբ	-4712
▁առողջապահության	-4713
եճ	-4714
▁հիմնախ	-4715
▁դարձնել	-4716
▁Փաշինյան	-4717
▁նախագահական	-4718
ov	-4719
▁Արդեն	-4720
▁որակի	-4721
▁Հայաստանին	-4722
ԱԺ	-4723
▁պատժամիջոց	-4724
▁ճաշ	-4725
ներս	-4726
▁Ինչո՞ւ	-4727
▁հիշում	-4728
▁հանրության	-4729
▁Շարմազան	-4730
▁գնահատում	-4731
▁Գրիգորյանի	-4732
▁հայտարարությունը	-4733
▁Կի	-4734
▁սկսվել	-4735
▁միջադեպ	-4736
▁մղ	-4737
ոհան	-4738
կայական	-4739
▁զբաղվում	-4740
▁Ժամանակ	-4741
▁գիշերը	-4742
▁ժողովուրդը	-4743
▁Դե	-4744
▁մեղավոր	-4745
▁Mediamall	-4746
▁Խմբ	-4747
▁լիգայի	-4748
▁սկիզբ	-4749
ամյակի	-4750
▁ծածկ	-4751
▁ակնհայտ	-4752
րիկ	-4753
▁Ոստիկանության	-4754
▁Չար	-4755
ամարտի	-4756
▁տոկոսով	-4757
▁հարուցվել	-4758
▁տարբերակ	-4759
քատ	-4760
▁հաճելի	-4761
Հայկական	-4762
▁հաղթել	-4763
▁ավտոճանապարհ	-4764
վեք	-4765
րանում	-4766
▁Միայն	-4767
▁մակնիշի	-4768
▁նպատակը	-4769
ուցման	-4770
▁Սահակյանը	-4771
▁Կարդ	-4772
▁Մոսկվայում	-4773
▁համայնքների	-4774
Ռեալ	-4775
▁գող	-4776
▁բացասական	-4777
▁օգտագործում	-4778
▁նախընտրական	-4779
▁աջակցության	-4780
ի՞	-4781
▁Գարեգին	-4782
իպտ	-4783
▁Տարած	-4784
▁բանի	-4785
▁Ընդհանուր	-4786
▁հեղին	-4787
▁Էջմիածին	-4788
▁Բարձր	-4789
▁Իսրայ	-4790
▁բացառիկ	-4791
▁խփ	-4792
ահայկական	-4793
▁ներառում	-4794
ացիները	-4795
op	-4796
▁թանգարան	-4797
▁գտել	-4798
արկային	-4799
լո	-4800
ներին՝	-4801
▁ասուլիս	-4802
▁երիտասարդական	-4803
ish	-4804
▁ԱՌ	-4805
▁դուր	-4806
▁մտադիր	-4807
news	-4808
▁հիմք	-4809
▁գործընթացի	-4810
լյան	-4811
▁կարմիր	-4812
▁Հայաստանն	-4813
ագրման	-4814
▁նախատեսվում	-4815
▁թէ	-4816
▁գյուղատնտեսության	-4817
▁ԶԼՄ	-4818
▁թեեւ	-4819
ացնող	-4820
▁նրանից	-4821
▁առաջադրվել	-4822
Համ	-4823
▁Անց	-4824
ամշակ	-4825
▁հաշմանդամ	-4826
▁առողջության	-4827
▁գազի	-4828
▁արարող	-4829
▁Փորձ	-4830
իչները	-4831
կողմ	-4832
▁Վերջ	-4833
▁անշարժ	-4834
▁աղոթ	-4835
▁տարում	-4836
EW	-4837
ՈՐԾ	-4838
▁Արագած	-4839
▁ազատության	-4840
▁*	-4841
▁տնօրենի	-4842
▁շարժման	-4843
▁իրավունքը	-4844
▁կազմակերպված	-4845
վագ	-4846
▁ընդգծել	-4847
▁որդին	-4848
▁եղած	-4849
արկվել	-4850
▁զբաղվել	-4851
▁պարզել	-4852
ախց	-4853
սր	-4854
աբի	-4855
ոկրատ	-4856
արունակ	-4857
▁անհանգստ	-4858
▁երեւում	-4859
▁վերջերս	-4860
▁Free	-4861
▁ստորագրել	-4862
ուհու	-4863
▁ներկայացրեց	-4864
▁բնութ	-4865
▁շուկայում	-4866
▁խաղալ	-4867
▁Մինսկի	-4868
▁միջավայրի	-4869
արսափ	-4870
▁Գեղարք	-4871
▁հարձակվող	-4872
ավատ	-4873
▁դաշ	-4874
▁Որպես	-4875
▁առաջարկել	-4876
▁գրասենյակի	-4877
նակազմ	-4878
▁Էդուարդ	-4879
▁Մինչեւ	-4880
▁դրույթ	-4881
▁Կարծում	-4882
az	-4883
ածու	-4884
Կամ	-4885
ավորվել	-4886
▁սպասարկման	-4887
արատ	-4888
▁սեռական	-4889
▁ուշադրության	-4890
արմիր	-4891
▁աճել	-4892
▁գիտակց	-4893
▁Կոմիտաս	-4894
▁Կրթ	-4895
▁կանցկաց	-4896
yan	-4897
▁Ճապ	-4898
▁կոմպ	-4899
աշրջանում	-4900
▁Նախագահի	-4901
▁Փետրվարի	-4902
ct	-4903
▁Ch	-4904
▁թիմը	-4905
▁գույն	-4906
աստիարակ	-4907
ենցի	-4908
ջային	-4909
▁Օգոստոսի	-4910
▁of	-4911
ոթաց	-4912
գիպտ	-4913
▁կադր	-4914
▁Միջոց	-4915
աթեմատ	-4916
▁Թրամփի	-4917
▁մազ	-4918
▁ապագա	-4919
▁վերադառնալ	-4920
▁հեռուստաընկեր	-4921
▁զավ	-4922
ետրվար	-4923
▁բարեգործ	-4924
ոլդ	-4925
եստոր	-4926
one	-4927
հայ	-4928
ոնց	-4929
▁սկսեց	-4930
▁իրականացվել	-4931
▁Բելառ	-4932
▁հղում	-4933
▁Նախորդ	-4934
▁Հովիկ	-4935
նին	-4936
ուկային	-4937
▁տրամադրել	-4938
▁ամենամեծ	-4939
երոիդ	-4940
▁պետի	-4941
▁նայում	-4942
թարի	-4943
ֆի	-4944
երորդ	-4945
ադրանքի	-4946
▁ճանապարհով	-4947
ղջ	-4948
▁Արտակ	-4949
▁հռչակ	-4950
▁հաշվին	-4951
▁շուտով	-4952
▁օրենքում	-4953
ահանջ	-4954
արմար	-4955
▁բեռն	-4956
յալների	-4957
▁Ռուսաստանում	-4958
▁Հակոբյանը	-4959
▁ընդունված	-4960
▁սովորական	-4961
itik	-4962
▁հմտ	-4963
▁արժեքը	-4964
▁գեղարվ	-4965
▁Արծ	-4966
▁Նարեկ	-4967
▁անտառ	-4968
▁երկխոս	-4969
ողն	-4970
▁չէ՞	-4971
▁նյութեր	-4972
▁վերան	-4973
աբորատոր	-4974
▁Վարձ	-4975
▁համաձայն՝	-4976
իմն	-4977
իլմ	-4978
աշառ	-4979
▁ժամանակի	-4980
▁վարորդ	-4981
▁տուժած	-4982
▁ստեղծում	-4983
▁Համբ	-4984
▁ժամանակավոր	-4985
▁ձեւակերպ	-4986
ավի	-4987
խիվ	-4988
▁խր	-4989
▁հորդ	-4990
▁սեղմ	-4991
▁գրանցման	-4992
▁դիվանագիտական	-4993
▁ներդրումների	-4994
▁փաստաթղ	-4995
ա՜	-4996
իանալի	-4997
▁ենթարկել	-4998
ազին	-4999
լամական	-5000
▁պատկանող	-5001
ելն	-5002
▁գրված	-5003
▁Տավուշի	-5004
▁chatting	-5005
▁հյուրընկալ	-5006
▁Times	-5007
▁դեպքերի	-5008
▁ճանապարհին	-5009
▁աջակցություն	-5010
▁տեղեկատվություն	-5011
րեբ	-5012
▁Ջոն	-5013
ախմբի	-5014
ատեւ	-5015
▁զարգաց	-5016
▁տեղեկացրել	-5017
▁գործողությունները	-5018
երծ	-5019
անալով	-5020
ort	-5021
▁զոհվել	-5022
ՈՏ	-5023
▁հոդվածը	-5024
▁եղավ	-5025
▁խորհուրդը	-5026
▁ներդ	-5027
▁Մելիք	-5028
յարդ	-5029
▁զորամաս	-5030
▁ազատազրկ	-5031
▁պարունակում	-5032
ст	-5033
▁կոչվում	-5034
▁Ստեփանակ	-5035
ալին	-5036
▁քիմ	-5037
▁ՊՈԱԿ	-5038
▁Օհան	-5039
▁հունվար	-5040
▁իշխանությունը	-5041
ոջը	-5042
▁նվագ	-5043
▁ժամկետում	-5044
▁ԸՆ	-5045
ԱՎՈՐ	-5046
▁Դավթ	-5047
▁երեխաները	-5048
▁ձայ	-5049
▁աչքի	-5050
▁պատճեն	-5051
▁գործունեություն	-5052
▁մնաց	-5053
▁բախվել	-5054
▁կենտրոնը	-5055
▁այնուհետեւ	-5056
▁սպանության	-5057
▁ջերմաստիճ	-5058
▁́	-5059
իեզեր	-5060
րանկ	-5061
▁տղամարդկանց	-5062
▁Երկու	-5063
▁Հունվարի	-5064
▁նետ	-5065
այանը	-5066
▁գտնվել	-5067
▁կրծ	-5068
իդի	-5069
▁գրասենյակ	-5070
EWS	-5071
▁պարոն	-5072
▁ընթացիկ	-5073
▁ստացված	-5074
▁ազդեցություն	-5075
▁հանրապետական	-5076
▁էլի	-5077
▁ավանդական	-5078
քերն	-5079
▁քաղաքը	-5080
պէս	-5081
▁Վայ	-5082
▁շփման	-5083
▁լուծել	-5084
▁անընդհատ	-5085
▁ալի	-5086
▁աղբ	-5087
▁լեռ	-5088
▁Գասպ	-5089
▁զվարճալի	-5090
▁ստորաբաժանում	-5091
▁տարեկ	-5092
▁ինքնակառավար	-5093
▁Մադր	-5094
մոն	-5095
ամյակին	-5096
▁Զոհրաբ	-5097
▁աշխարհը	-5098
աշատ	-5099
իլիս	-5100
▁Տնտես	-5101
▁ինչքան	-5102
▁հավատում	-5103
▁տեսանկյուն	-5104
▁իրավիճակի	-5105
▁կիսապաշտպան	-5106
առու	-5107
կարծ	-5108
▁խոսք	-5109
▁Կոտայքի	-5110
▁ավարտին	-5111
▁բերելու	-5112
▁աստերոիդ	-5113
▁խախտում	-5114
▁իրավապահ	-5115
▁ընտանեկան	-5116
մին	-5117
Սասնա	-5118
▁Աննա	-5119
▁հասնում	-5120
▁ճանաչել	-5121
ուլում	-5122
▁Արեւել	-5123
▁g	-5124
▁աշ	-5125
▁Յոր	-5126
▁վարկային	-5127
իթի	-5128
▁Մտ	-5129
▁չվ	-5130
▁ԽՍՀՄ	-5131
▁Կանադ	-5132
▁գովազդ	-5133
AN	-5134
▁քայլը	-5135
▁երկրաշարժ	-5136
ԱՆՅ	-5137
▁անձր	-5138
▁օրենքը	-5139
▁ոլորտներում	-5140
▁ուսանողների	-5141
▁Սան	-5142
▁Ավագ	-5143
▁Հենց	-5144
▁բացել	-5145
արգելի	-5146
▁աստված	-5147
▁անկախության	-5148
▁թվականներին	-5149
▁Գեղարքուն	-5150
▁ՔԿ	-5151
▁բոլորի	-5152
▁հրաշալի	-5153
▁համապատասխանում	-5154
▁տարածաշրջանային	-5155
▁հանդիպմանը	-5156
▁պատվիր	-5157
▁հպարտ	-5158
▁բռնության	-5159
▁տրանսպորտի	-5160
նավ	-5161
▁հուզ	-5162
▁ֆեդեր	-5163
▁եզրափակիչ	-5164
▁տրանսպորտային	-5165
ասում	-5166
▁կվեր	-5167
▁վաղուց	-5168
▁Աշխարհի	-5169
▁հարակից	-5170
▁հյուսիս	-5171
նեք	-5172
▁դարպաս	-5173
▁թատրոնի	-5174
▁ո՞վ	-5175
▁Զին	-5176
▁բաներ	-5177
▁թեթեւ	-5178
▁ողջուն	-5179
ոստոս	-5180
▁քր	-5181
ատալ	-5182
եմիեր	-5183
չում	-5184
▁Դեմ	-5185
▁դրված	-5186
▁Հասարակ	-5187
▁ընդգրկված	-5188
▁հորիզոնական	-5189
▁հանել	-5190
թիռ	-5191
▁Սար	-5192
բիլիսի	-5193
▁մեխանիզմ	-5194
▁օբյեկտ	-5195
▁ՆԱԽ	-5196
▁թույլտվ	-5197
▁Ռուսաստան	-5198
▁‎‡	-5199
▁Ընտր	-5200
▁զգաց	-5201
▁օգնություն	-5202
▁Յուրաքանչյուր	-5203
▁Իլ	-5204
ebook	-5205
▁ժամանել	-5206
▁Բակո	-5207
▁ընդունվել	-5208
▁Մե	-5209
▁Վահան	-5210
▁կազմակերպում	-5211
▁ներդրումային	-5212
▁օրաթերթ	-5213
▁նորմալ	-5214
▁այցի	-5215
ականության	-5216
▁սիրո	-5217
▁Ցեղաս	-5218
▁ներկայիս	-5219
▁համար՝	-5220
ank	-5221
եւում	-5222
▁երգի	-5223
նդի	-5224
▁Մարկ	-5225
ast	-5226
▁տարր	-5227
))	-5228
լա	-5229
▁Լիլի	-5230
▁արժանի	-5231
▁կուսակցությունը	-5232
եբաստ	-5233
▁տանում	-5234
ութե	-5235
▁սահ	-5236
▁գրականության	-5237
▁Fac	-5238
▁ծանոթաց	-5239
▁ունեք	-5240
▁Անհ	-5241
▁Մուր	-5242
▁Օրեն	-5243
▁ծրագրերը	-5244
Ph	-5245
ագծի	-5246
▁կայանալիք	-5247
▁հավաքականը	-5248
ե՞լ	-5249
ուստր	-5250
▁Մարզ	-5251
▁փոխանցում	-5252
▁ապահովելու	-5253
վեյց	-5254
շռ	-5255
▁Դեպ	-5256
▁ըմբ	-5257
▁նեղ	-5258
քերից	-5259
▁գեներալ	-5260
▁կկարող	-5261
▁պահպանել	-5262
▁Վաղ	-5263
ենային	-5264
ասիական	-5265
մատի	-5266
եցրեց	-5267
ավառում	-5268
▁անհնար	-5269
▁արյուն	-5270
▁սրբ	-5271
▁ԵԱՏՄ	-5272
▁անցկացնել	-5273
▁իսկական	-5274
▁մատչելի	-5275
երկ	-5276
▁Ֆուտբոլ	-5277
▁տիրապետ	-5278
▁մանկական	-5279
▁իրավունքները	-5280
անակը	-5281
ՈՑ	-5282
▁գործար	-5283
▁հետախուզ	-5284
▁գործառույթ	-5285
▁Հանրապետական	-5286
▁խնդր	-5287
▁բերված	-5288
▁պատշաճ	-5289
▁հետապնդ	-5290
▁փաստաթղթերի	-5291
▁գոհ	-5292
▁Հենրիխ	-5293
մունքի	-5294
▁եռամս	-5295
ահանում	-5296
▁հրաժարական	-5297
▁Մեզ	-5298
▁նամակ	-5299
▁իրավիճակների	-5300
՛՛	-5301
տուր	-5302
▁շատերը	-5303
▁դռ	-5304
րդական	-5305
ուկի	-5306
▁ծիծաղ	-5307
ալս	-5308
▁գրքի	-5309
▁ֆոտ	-5310
ահոլով	-5311
ակարեւոր	-5312
▁լիարժեք	-5313
▁Մատ	-5314
▁համացանց	-5315
▁քննարկվել	-5316
▁աշխատակիցների	-5317
▁տեղեկություններով	-5318
սկս	-5319
▁Լիբ	-5320
▁ընտրություններում	-5321
ԱԳՐ	-5322
բան	-5323
▁հս	-5324
▁աղքատ	-5325
▁անկեղծ	-5326
EN	-5327
ֆոտո	-5328
▁մարդուն	-5329
▁իրականացված	-5330
▁ընտրությունները	-5331
▁Բարս	-5332
▁հասնելու	-5333
▁Փաշինյանն	-5334
▁վճարել	-5335
երտի	-5336
▁կողմն	-5337
od	-5338
▁Վիգ	-5339
▁առաք	-5340
▁հարկի	-5341
▁վաճառքի	-5342
▁Անտ	-5343
աշրջան	-5344
քերում	-5345
▁հանուն	-5346
▁առնչվող	-5347
▁գլխավորությամբ	-5348
▁լող	-5349
▁նահանգի	-5350
▁պատկանում	-5351
▁տապ	-5352
անդարտ	-5353
▁ապացույց	-5354
անակի	-5355
անանք	-5356
▁Իրաք	-5357
▁կորուստ	-5358
▁վիրահատ	-5359
▁Կովկաս	-5360
▁Սուրեն	-5361
▁ռեժիսոր	-5362
▁ձերբակալվել	-5363
▁ազատվել	-5364
նե	-5365
ազախ	-5366
▁ասպ	-5367
▁փորձը	-5368
▁ներառյալ	-5369
▁տարածաշրջանում	-5370
▁լք	-5371
▁ե՞ք	-5372
▁խաղերի	-5373
▁անձնակազմ	-5374
Կար	-5375
ազեկ	-5376
▁գրավոր	-5377
▁տեսքով	-5378
▁Սեյ	-5379
ոլոգիական	-5380
▁զարգացում	-5381
▁քննության	-5382
անաչ	-5383
▁Քոչարյանը	-5384
կացած	-5385
ցնել	-5386
▁լիցենզ	-5387
▁զրուցել	-5388
est	-5389
▁ԳԱԱ	-5390
▁Կարապետյանի	-5391
այիկ	-5392
▁ՊԵԿ	-5393
▁գրող	-5394
▁անհայտ	-5395
▁անցկացրել	-5396
▁y	-5397
յուլ	-5398
▁համոզված	-5399
▁ֆիլմը	-5400
▁տեսանկյունից	-5401
ers	-5402
լիկ	-5403
ԱՎԱՐ	-5404
անոթ	-5405
▁Home	-5406
▁Համայն	-5407
▁մասնակիցները	-5408
անքների	-5409
▁սուբ	-5410
▁վկայում	-5411
▁Սիրիայում	-5412
▁շք	-5413
▁տասնյակ	-5414
▁արժանացել	-5415
▁ստեղծելու	-5416
ափն	-5417
▁կործ	-5418
▁առիթով	-5419
▁երջանիկ	-5420
▁պրոֆեսոր	-5421
ել՝	-5422
▁բացման	-5423
▁գրառ	-5424
▁նվեր	-5425
ետական	-5426
▁կողմի	-5427
ահամալիր	-5428
ատեգորիա	-5429
▁ձեւաչափ	-5430
▁ծառայություններ	-5431
▁առմամբ	-5432
ահեռ	-5433
▁Կազմակերպ	-5434
▁Մխիթարյանը	-5435
ոստի	-5436
▁զիջ	-5437
▁Գեղարքունիքի	-5438
▁ընտրություններ	-5439
կը	-5440
մա	-5441
▁ունենալով	-5442
RM	-5443
▁չտ	-5444
▁Դրանք	-5445
▁ընտրվել	-5446
▁զգուշ	-5447
▁Գյումրու	-5448
▁համագործակցությունը	-5449
▁մշ	-5450
▁փորձի	-5451
▁ծառայությունից	-5452
▁ինքնակառավարման	-5453
▁աջակցությամբ	-5454
▁պահպանության	-5455
ԻՔ	-5456
▁բուհ	-5457
▁մետաղ	-5458
gle	-5459
անկտ	-5460
▁ներկայացնող	-5461
▁պատասխանատվության	-5462
հն	-5463
▁​​	-5464
ախումբ	-5465
▁օգտվել	-5466
▁կետի	-5467
▁կանաչ	-5468
▁լրագրող	-5469
▁չափանիշ	-5470
▁Բիզնես	-5471
ամիտ	-5472
▁անակն	-5473
▁գործոն	-5474
▁հանկարծ	-5475
▁գտ	-5476
▁Գաբ	-5477
▁նյութերի	-5478
▁դաստիարակ	-5479
▁Գյումրիում	-5480
▁հայտարարության	-5481
աքրքիր	-5482
▁բերման	-5483
ex	-5484
▁կոլ	-5485
▁տղան	-5486
▁Եկեղեց	-5487
▁կրակոց	-5488
▁հարցով	-5489
▁փոխվել	-5490
▁Պուտինը	-5491
▁ծռ	-5492
այժմ	-5493
ԱՆՅՈՒԹ	-5494
ությա՞	-5495
▁փուլի	-5496
▁պաշտոնատար	-5497
▁միջոցառումներ	-5498
▁անցկ	-5499
▁Համաձայն	-5500
▁մեկնարկել	-5501
▁փաստաթուղ	-5502
▁ղարաբաղ	-5503
ուշտ	-5504
▁ընթանում	-5505
▁օգտագործվում	-5506
▁վարպետ	-5507
▁ավի	-5508
▁Հիմն	-5509
Երկ	-5510
▁Վազգ	-5511
▁ընկել	-5512
▁ժաման	-5513
▁ուստի	-5514
▁հայտնաբերել	-5515
▁չեղ	-5516
▁ճշմարտ	-5517
▁անչափ	-5518
ՍՏ	-5519
▁Չէ	-5520
▁արտասահման	-5521
ավախ	-5522
▁ղեկավարների	-5523
▁ներսում	-5524
▁կկայ	-5525
▁բաղկացած	-5526
▁Անկախ	-5527
▁համարել	-5528
▁իրավասության	-5529
▁հնար	-5530
արյանին	-5531
▁բնագավառում	-5532
պաստ	-5533
▁պետություն	-5534
▁չմ	-5535
աճախ	-5536
ոգան	-5537
▁խառն	-5538
▁համեր	-5539
▁հասարակայնության	-5540
▁Բեր	-5541
▁գինը	-5542
▁դերը	-5543
ուրույն	-5544
ԵՍԱՆՅՈՒԹ	-5545
▁Արեւելյան	-5546
▁Եւ	-5547
ումի	-5548
▁այսպիսի	-5549
▁անպայման	-5550
▁Փաշինյանին	-5551
▁գործակալության	-5552
յաց	-5553
▁այր	-5554
▁հանրաք	-5555
▁պատահական	-5556
▁դնել	-5557
յակում	-5558
][	-5559
ո՞վ	-5560
▁գրանցված	-5561
անցիկ	-5562
▁քայլեր	-5563
ոյում	-5564
▁դաշտում	-5565
ագրավ	-5566
art	-5567
▁վարդ	-5568
▁պայմանները	-5569
▁մատն	-5570
▁Հայրեն	-5571
▁Երիտասարդ	-5572
ress	-5573
Պետր	-5574
▁Մշակ	-5575
▁դրոշ	-5576
▁ներկայում	-5577
▁անկյուն	-5578
▁լուսանկարներ	-5579
▁բարեփոխումների	-5580
▁Լեհ	-5581
▁ասոցի	-5582
▁բջջային	-5583
▁ներկայացուցիչներ	-5584
oogle	-5585
▁Աման	-5586
▁Բարսեղ	-5587
Տես	-5588
▁գանձ	-5589
▁Վայոց	-5590
▁Խաչատրյանը	-5591
▁երկն	-5592
▁հատկանիշ	-5593
▁տունը	-5594
▁քանակը	-5595
վարչապետ	-5596
▁երկկողմ	-5597
▁բանկային	-5598
ԵՎ	-5599
▁Վիգեն	-5600
գտագործ	-5601
▁հագուստ	-5602
այդ	-5603
▁գնաց	-5604
▁ամրագր	-5605
▁սահմանում	-5606
երժ	-5607
եայի	-5608
▁պաշտոնապես	-5609
▁նիստին	-5610
▁Pol	-5611
ԱՐԿ	-5612
▁իշխ	-5613
▁օրեր	-5614
աստանը	-5615
▁հիանալի	-5616
սկե	-5617
երեկ	-5618
արանների	-5619
ակողմ	-5620
▁Հնարավոր	-5621
▁Վրաստանում	-5622
▁քաղաքականությունը	-5623
ակամ	-5624
անքային	-5625
▁կազմված	-5626
գենտ	-5627
▁թռիչ	-5628
▁կարողացել	-5629
▁կանխարգել	-5630
▁լվ	-5631
▁Նով	-5632
▁կից	-5633
▁Պետերբ	-5634
▁Արդյուն	-5635
եւանի	-5636
▁մար	-5637
▁այցով	-5638
ափակում	-5639
▁ամսագիր	-5640
▁դնում	-5641
▁լիներ	-5642
▁Մոն	-5643
ոցը	-5644
ու՞	-5645
▁էության	-5646
▁Սարգիս	-5647
եքիաթ	-5648
▁զարգացմանը	-5649
if	-5650
ցե	-5651
տին	-5652
▁դիպ	-5653
▁փաստաթղթերը	-5654
մայ	-5655
▁փառ	-5656
▁պարունակ	-5657
▁միջոցները	-5658
▁աշխատակիցները	-5659
կել	-5660
ուցում	-5661
▁ողբերգ	-5662
▁լեգ	-5663
▁ժամկետը	-5664
▁Արեւմտյան	-5665
▁մաղթ	-5666
աքննիչ	-5667
▁Սանկտ	-5668
▁հարստ	-5669
▁Ռոնալդ	-5670
▁ռեստոր	-5671
▁դարձնում	-5672
▁դրամական	-5673
իճան	-5674
▁Facebook	-5675
▁Կիր	-5676
▁ասված	-5677
▁խնդրել	-5678
▁սառ	-5679
▁Փոխ	-5680
▁Արայիկ	-5681
▁տարածքը	-5682
որդները	-5683
▁պարգեւատր	-5684
▁պարբերաբար	-5685
▁ստաց	-5686
իլիսոփ	-5687
ոյական	-5688
▁Վաշին	-5689
▁գիրքը	-5690
նդկ	-5691
▁մոն	-5692
▁Ցուց	-5693
▁միանգամից	-5694
Ին	-5695
ությա՞մբ	-5696
▁ընկերություն	-5697
ram	-5698
աստիկ	-5699
▁եկամուտների	-5700
▁տեղեկություն	-5701
ջախ	-5702
ահիտ	-5703
մանն	-5704
ՎԱԿԱՆ	-5705
▁դատարանում	-5706
▁թուն	-5707
▁առցանց	-5708
▁հարավ	-5709
▁բնորոշ	-5710
ակայքում	-5711
▁ավարտվել	-5712
▁քս	-5713
ոյին	-5714
▁քաղաքային	-5715
▁մրցաշար	-5716
▁սերունդ	-5717
▁տարածել	-5718
▁ավտով	-5719
ժան	-5720
իրական	-5721
▁վերադ	-5722
▁հիմնարկ	-5723
▁ռեկ	-5724
▁զարմ	-5725
▁սպորտի	-5726
▁ֆինանսների	-5727
Ծառուկ	-5728
▁անցնել	-5729
ֆոն	-5730
▁ինքնուրույն	-5731
▁Մաքս	-5732
▁առոգան	-5733
մունքը	-5734
▁փոխհատ	-5735
▁սարքավոր	-5736
▁կդառնա	-5737
▁Արագածո	-5738
▁Կատեգորիա	-5739
Ինչպես	-5740
▁լինելով	-5741
▁մասնագետների	-5742
▁վարկանիշ	-5743
▁Ադրբեջանում	-5744
▁կառույցների	-5745
▁հետազոտությունների	-5746
▁տխ	-5747
▁Լիգ	-5748
▁դրել	-5749
▁անհետ	-5750
▁Թբիլիսի	-5751
ԻԱ	-5752
▁դոկ	-5753
▁յոթ	-5754
▁Մաշտ	-5755
▁ասվում	-5756
ույտ	-5757
Վեր	-5758
բաց	-5759
▁ուժը	-5760
▁պայթյուն	-5761
▁գործողություններ	-5762
ինն	-5763
▁տեսակետ	-5764
▁տարբերություն	-5765
▁Tert	-5766
▁Մանկ	-5767
մարթ	-5768
▁You	-5769
▁օրս	-5770
▁լսում	-5771
ադրությամբ	-5772
եյմ	-5773
ոտի	-5774
▁թողնում	-5775
▁տեղակայված	-5776
▁Իշխան	-5777
արական	-5778
▁հարաբերություններ	-5779
erk	-5780
▁Շուշ	-5781
▁սարսափ	-5782
▁դպրոցը	-5783
▁Այնուհետեւ	-5784
▁գնահատական	-5785
▁ցանկություն	-5786
ստեր	-5787
▁տեղյակ	-5788
դը	-5789
▁վնասվածք	-5790
▁հանրահավաք	-5791
▁համակարգերի	-5792
▁կգա	-5793
▁մարտահր	-5794
▁Հոլ	-5795
ադարի	-5796
▁վերն	-5797
▁Վազգեն	-5798
▁անցկացնելու	-5799
▁պայմանագիրը	-5800
ուել	-5801
օնական	-5802
ովայի	-5803
▁վայրում	-5804
▁գերեզ	-5805
▁Արտասանեք	-5806
▁առոգանությա՞մբ	-5807
աթեւ	-5808
▁Դիմ	-5809
▁Բրիտանիայի	-5810
▁օտարերկրյա	-5811
▁l	-5812
▁Ծաղ	-5813
Նա	-5814
▁Գլ	-5815
▁լրիվ	-5816
▁զույգ	-5817
▁աղյուս	-5818
▁անդ	-5819
▁անձամբ	-5820
▁անցկացման	-5821
ացրած	-5822
տնտես	-5823
▁Be	-5824
▁ճամբ	-5825
▁հոդվածով	-5826
▁նախագահին	-5827
ոլիկ	-5828
անքով	-5829
▁ԱԻՆ	-5830
▁խափ	-5831
▁Պուտինի	-5832
▁գնահատման	-5833
կո	-5834
▁Անջ	-5835
▁պաշար	-5836
արիայի	-5837
▁տառապ	-5838
▁Չեմպիոն	-5839
▁Սահմանադրության	-5840
լու	-5841
▁Իրավ	-5842
▁ասելով	-5843
▁Այո	-5844
▁քույր	-5845
▁Google	-5846
▁բանաձեւ	-5847
▁համաձայնագրի	-5848
▁ռազմավարական	-5849
եվ	-5850
▁Միլ	-5851
▁աղմ	-5852
էներգ	-5853
▁հետեւել	-5854
լը	-5855
նան	-5856
րեբունի	-5857
▁նախընտր	-5858
Ծառուկյան	-5859
▁n	-5860
log	-5861
▁դրամով	-5862
▁բիզնեսի	-5863
իսկոպ	-5864
փյուռք	-5865
▁զոհված	-5866
▁պահում	-5867
▁կաթողիկ	-5868
▁Տոն	-5869
▁ամենակարեւոր	-5870
▁Z	-5871
▁Իրական	-5872
▁Մնացական	-5873
▁խորագրով	-5874
▁սեպտեմբեր	-5875
եո	-5876
▁ԿԳ	-5877
▁տո	-5878
▁Բաղրամ	-5879
▁իմանալ	-5880
▁աշխատելու	-5881
▁կրթություն	-5882
▁կազմակերպությունը	-5883
▁ԱՊՀ	-5884
ասպան	-5885
▁Ստամբ	-5886
չությունը	-5887
▁պրոֆեսիոնալ	-5888
ձավոր	-5889
▁երեւի	-5890
▁մշակույթ	-5891
ուկը	-5892
▁երեխային	-5893
▁մակարդակը	-5894
▁բարեգործական	-5895
ՈՒՄՆ	-5896
▁տեղեկությունների	-5897
▁գնացել	-5898
ողությամբ	-5899
ce	-5900
info	-5901
▁Իսպ	-5902
չային	-5903
▁Անգլիայի	-5904
▁գնահատել	-5905
▁անհրաժեշտության	-5906
▁կոտր	-5907
▁օգնական	-5908
▁օգնությամբ	-5909
▁Միրզ	-5910
▁սցեն	-5911
▁տարիք	-5912
▁Էդվարդ	-5913
▁անակնկալ	-5914
ap	-5915
▁հղի	-5916
օգն	-5917
▁ծեր	-5918
▁արյան	-5919
▁նկատի	-5920
▁ընդունեց	-5921
▁տարածված	-5922
▁հեռուստատես	-5923
▁Դեռ	-5924
▁Թագավոր	-5925
▁նրանցից	-5926
▁սկսվում	-5927
▁հաստատված	-5928
▁գեղարվեստական	-5929
ուռն	-5930
ատեքստ	-5931
▁եվր	-5932
▁պալատի	-5933
▁աշխատող	-5934
▁հաստատելու	-5935
▁իրականացրել	-5936
▁Ր	-5937
▁ԱՇ	-5938
▁դիմումը	-5939
▁երիտասարդների	-5940
▁օրերի	-5941
▁խաղաղության	-5942
▁արծ	-5943
▁հարձակում	-5944
ԵՑ	-5945
▁գց	-5946
▁Առողջ	-5947
թող	-5948
որտուգ	-5949
ue	-5950
▁ՀՔ	-5951
իրախ	-5952
▁Անահիտ	-5953
▁Բաղդաս	-5954
▁կենդանի	-5955
տեր	-5956
ապետական	-5957
▁կերպար	-5958
▁հիմնադրամ	-5959
nik	-5960
րաչ	-5961
▁բխ	-5962
կում	-5963
▁ֆակուլտետի	-5964
ագրերը	-5965
▁կարեւորագույն	-5966
իցս	-5967
ativ	-5968
աբուժ	-5969
արարների	-5970
▁Քաղաքական	-5971
▁քարոզարշավ	-5972
▁վազ	-5973
ատվություն	-5974
▁անմիջական	-5975
▁փաստը	-5976
▁քաղաքացու	-5977
▁վերապատրաստ	-5978
▁ստեղծագործական	-5979
▁տաճ	-5980
իսը	-5981
▁օգտատեր	-5982
▁ընկերների	-5983
▁զինծառայող	-5984
▁պայմանների	-5985
ադրբեջ	-5986
▁կայացել	-5987
▁Al	-5988
▁տիպ	-5989
▁ասեմ	-5990
եւին	-5991
▁ՎԵՐ	-5992
▁ԻՐ	-5993
▁Օս	-5994
րաստիճան	-5995
▁ֆակուլտետ	-5996
▁ՊԵՏ	-5997
ակտիվ	-5998
▁մաքուր	-5999
▁պատասխանը	-6000
իաներ	-6001
▁լեռն	-6002
▁հոգի	-6003
▁Նազար	-6004
▁կմասն	-6005
▁Վարձով	-6006
▁քարտեզ	-6007
▁հետաքնն	-6008
եկտոր	-6009
▁Հետո	-6010
▁դաշն	-6011
▁հաստ	-6012
▁սեքս	-6013
▁ճանապարհի	-6014
Փաստ	-6015
▁նշանակության	-6016
ահետ	-6017
վածքների	-6018
▁տարելից	-6019
▁դառնալու	-6020
ont	-6021
▁աշխատանքից	-6022
ore	-6023
անթ	-6024
ւած	-6025
▁Հովս	-6026
▁պահանջները	-6027
▁քմ	-6028
▁կազմի	-6029
▁Իսրայելի	-6030
▁հաշվառման	-6031
▁անդրադառնալով	-6032
▁մասնակցության	-6033
▁ԱՊ	-6034
▁պղ	-6035
▁Կայ	-6036
իչներ	-6037
▁ճանաչվել	-6038
▁փոխնախարար	-6039
ԱՅՆ	-6040
▁Ով	-6041
abat	-6042
▁Պոլ	-6043
▁Երկիր	-6044
▁կանգն	-6045
▁մշակման	-6046
▁յուրահատ	-6047
ա՞ն	-6048
կային	-6049
անքում	-6050
▁Հրանտ	-6051
▁մայիս	-6052
▁գումարի	-6053
▁տեղադրված	-6054
▁զանգվածային	-6055
իեն	-6056
ավճար	-6057
▁փայլ	-6058
▁քանդ	-6059
▁էական	-6060
▁Հովսեփ	-6061
▁առողջական	-6062
▁վեբ	-6063
▁իմաց	-6064
րաձայն	-6065
ասկ	-6066
▁սուրբ	-6067
▁տարածքի	-6068
ե՞ք	-6069
▁այցը	-6070
▁տիկին	-6071
▁զուգահեռ	-6072
▁Տղ	-6073
▁պատրաստել	-6074
▁տարածաշրջանի	-6075
Հանր	-6076
▁Անի	-6077
▁պահանջել	-6078
▁Կոստ	-6079
ուդյան	-6080
▁կայսր	-6081
▁քաղցկ	-6082
▁Մարգարյանը	-6083
ուներ	-6084
▁արտասանությունը	-6085
մաս	-6086
▁միջուկային	-6087
▁Ամբ	-6088
ավորումը	-6089
▁եկեղեցի	-6090
▁դասավանդ	-6091
ելին	-6092
▁Երգ	-6093
▁այսօր՝	-6094
▁Քիմ	-6095
▁բանտ	-6096
▁Ղազախ	-6097
▁սակագ	-6098
▁հանձնաժողովը	-6099
ber	-6100
այտն	-6101
ագիծը	-6102
չություն	-6103
▁հաղորդագր	-6104
▁պաշտոնից	-6105
▁Թող	-6106
▁Համաշխարհային	-6107
▁հնարավորությունները	-6108
ուդի	-6109
▁ռադիո	-6110
▁կտրուկ	-6111
▁հավաստ	-6112
▁Սաֆ	-6113
▁արդյո՞ք	-6114
▁պայքարը	-6115
▁հղումներ	-6116
ջատ	-6117
րեցին	-6118
▁մեղմ	-6119
▁թվի	-6120
▁երաժշտության	-6121
ատրել	-6122
▁նվազել	-6123
ադրբեջանական	-6124
▁ոստիկանությունը	-6125
▁համբ	-6126
▁սրտի	-6127
▁Երեխան	-6128
▁շրջակա	-6129
▁շուկայի	-6130
▁նախաձեռնության	-6131
IN	-6132
իրա	-6133
▁ԱՄ	-6134
▁Բագր	-6135
▁արեց	-6136
▁բնույթ	-6137
▁հանձնել	-6138
▁Այսպիսով	-6139
▁խորհրդարանում	-6140
րանսպ	-6141
▁Արմենիա	-6142
▁ընկնում	-6143
▁հավատարմ	-6144
▁Չեմպիոնների	-6145
ուշակ	-6146
▁հետ՝	-6147
▁ավտոբ	-6148
ակրթական	-6149
▁սփյուռքի	-6150
▁Շնորհակալ	-6151
▁Մահ	-6152
▁կմեկ	-6153
▁Անվճար	-6154
▁տեսահոլով	-6155
▁օրենսդրական	-6156
ft	-6157
▁կետով	-6158
▁Shabat	-6159
▁կլիներ	-6160
Նախ	-6161
▁Թոր	-6162
▁Մեղ	-6163
▁Գաբրի	-6164
▁ստանդարտ	-6165
աբանություն	-6166
▁ՈՐՈ	-6167
▁ֆոր	-6168
▁անունից	-6169
▁ունակ	-6170
line	-6171
▁հրթիռ	-6172
▁գիրք	-6173
▁Պետրոսյանը	-6174
ԱԴՐ	-6175
ամար	-6176
▁խոն	-6177
▁կոչված	-6178
▁Հարությունյանի	-6179
▁վերահսկողության	-6180
ռանը	-6181
▁ճյուղ	-6182
ապարտեզ	-6183
ետիկայի	-6184
▁Վաշինգտ	-6185
▁տաղանդ	-6186
▁քվեարկության	-6187
▁ԵՆ	-6188
▁դին	-6189
▁հղել	-6190
▁կոմպոզ	-6191
▁Եվրամիության	-6192
▁օրենսդրությամբ	-6193
.«	-6194
աշահ	-6195
▁Սեյրան	-6196
▁համալսարանում	-6197
▁Բլ	-6198
▁կերակ	-6199
▁խաղացել	-6200
▁ծախսերի	-6201
իզմ	-6202
▁ԵՐ	-6203
▁ՄԻՋ	-6204
▁Արդյ	-6205
▁Եգիպտ	-6206
▁դրանով	-6207
▁Սրբ	-6208
▁շնչ	-6209
▁թույլատր	-6210
▁ԱՀ	-6211
ուլը	-6212
ութեամբ	-6213
▁հիմնված	-6214
▁բացարձակ	-6215
▁ինչպիսին	-6216
▁կրոնական	-6217
▁հաջողության	-6218
Ռուս	-6219
▁կալանավոր	-6220
▁բանակցությունների	-6221
▁Հանձն	-6222
▁համայնքում	-6223
▁շահագործման	-6224
չին	-6225
իլիջ	-6226
▁տիեզեր	-6227
ՆԵՐԸ	-6228
▁վերջում	-6229
▁արդիական	-6230
▁անցկացվում	-6231
▁քաղաքականություն	-6232
▁Ֆրանկ	-6233
▁խոհան	-6234
ԵՊ	-6235
ուստի	-6236
▁կոմս	-6237
▁վերջինս	-6238
▁Իսպանիայի	-6239
▁բառը	-6240
▁Բրյուս	-6241
▁ընտանիքը	-6242
▁պատրաստված	-6243
ՐԴ	-6244
▁Չեխ	-6245
▁ազն	-6246
▁ճամփ	-6247
հասարակ	-6248
▁Նահանգների	-6249
ստրի	-6250
▁Ավտ	-6251
▁Ստեփան	-6252
▁Հանդիպման	-6253
ԻՑ	-6254
Որ	-6255
▁Մինաս	-6256
▁գագաթն	-6257
▁լրացնել	-6258
▁իրագործ	-6259
▁զարգացումը	-6260
նկ	-6261
գական	-6262
թուրքական	-6263
ԱՐԱՐ	-6264
▁իտալ	-6265
▁տոնական	-6266
▁հրավիրել	-6267
▁շարունակելու	-6268
▁ծախսերը	-6269
▁վերջինիս	-6270
▁ներգրավված	-6271
▁պատվիրակության	-6272
ԱԹ	-6273
խաղ	-6274
▁օղ	-6275
▁ինտեգր	-6276
▁փոխադր	-6277
ումներով	-6278
▁ցուցակում	-6279
ատիկ	-6280
▁ԵԽ	-6281
▁Սբ	-6282
▁գերատես	-6283
▁Խաչատուր	-6284
▁աւ	-6285
ԱՏԱՐ	-6286
ագրերի	-6287
▁Հետեւ	-6288
▁բուժման	-6289
▁ամերիկացի	-6290
▁հիմնախնդիր	-6291
▁Մասնավորապես	-6292
զմի	-6293
▁Բն	-6294
▁Սու	-6295
▁աճի	-6296
▁Վաճառ	-6297
որակ	-6298
▁թուլ	-6299
ելյանը	-6300
▁Ֆինանս	-6301
▁ուսանող	-6302
▁ռուսերեն	-6303
▁հասցրել	-6304
▁Արագածոտնի	-6305
▁Պրեմիեր	-6306
▁Էրդողանը	-6307
▁Քրիստոսի	-6308
դա	-6309
▁Արփ	-6310
▁Խնդ	-6311
ունկց	-6312
▁նախօր	-6313
▁Սպիտակ	-6314
եժ	-6315
▁ՙ	-6316
▁անխ	-6317
▁փնտրում	-6318
▁մակարդակով	-6319
▁Վիր	-6320
▁Տիր	-6321
▁պրոց	-6322
ատեսակ	-6323
▁մրցակից	-6324
▁Նրան	-6325
▁Կարմիր	-6326
▁արտիստ	-6327
▁կանոնակարգ	-6328
▁մարտահրավեր	-6329
▁Պաշտպանության	-6330
▁թիրախ	-6331
▁ակումբը	-6332
▁ազդեցության	-6333
▁ուզ	-6334
աններ	-6335
▁հանք	-6336
▁Armenia	-6337
▁կապիտալ	-6338
▁երջանկ	-6339
▁վարձակալ	-6340
▁զբաղեցնում	-6341
▁k	-6342
ԱՆԿ	-6343
երթի	-6344
▁Հրաչ	-6345
▁զբաղեց	-6346
▁ինտերնետ	-6347
գիտ	-6348
մանք	-6349
եդարձ	-6350
▁չափը	-6351
▁Ծառայ	-6352
▁օրվանից	-6353
ակատարողական	-6354
քար	-6355
ապետի	-6356
եկտրա	-6357
▁ձգտում	-6358
եալի	-6359
ույսի	-6360
▁մթեր	-6361
▁աջակցել	-6362
▁բացառապես	-6363
▁դերակատար	-6364
▁պայմաններ	-6365
իո	-6366
▁Բժ	-6367
▁սեն	-6368
Քաղաք	-6369
վածքը	-6370
▁պահի	-6371
▁կողմերի	-6372
▁չկարող	-6373
▁Խաչատրյանի	-6374
▁բացվել	-6375
▁նկատել	-6376
▁փաստացի	-6377
ов	-6378
լով	-6379
ընտր	-6380
▁զորքերի	-6381
թուն	-6382
▁ամբիոնի	-6383
▁պահելու	-6384
▁ենթակառուց	-6385
ավարի	-6386
▁Post	-6387
▁անվանումը	-6388
ախաղ	-6389
որդներին	-6390
▁Պաշտօնական	-6391
▁ավազ	-6392
▁ձայնը	-6393
▁կուտակ	-6394
▁ընթացակարգ	-6395
▁Հեր	-6396
▁Հայտ	-6397
▁տրամադրում	-6398
oun	-6399
▁գա	-6400
▁Աթոռոյ	-6401
▁վճարման	-6402
▁Հարությունյան	-6403
▁այնուամենայնիվ	-6404
րես	-6405
▁մենակ	-6406
▁ենթադր	-6407
▁թերեւս	-6408
▁կոմուն	-6409
▁նախարարություն	-6410
erkir	-6411
▁Ներս	-6412
▁Բրիտանի	-6413
▁դեկտեմբեր	-6414
▁նյութական	-6415
ձակ	-6416
ԵՌ	-6417
▁App	-6418
ազարդ	-6419
▁ապրող	-6420
▁սեփականության	-6421
▁Politik	-6422
▁առաջանում	-6423
»,–	-6424
▁Mar	-6425
անոցի	-6426
▁անձրեւ	-6427
▁պատասխանատվություն	-6428
▁ուտ	-6429
ացնեն	-6430
▁Հաղորդ	-6431
▁ամսական	-6432
▁Մարտիրոսյանը	-6433
ոնն	-6434
▁ԳՈՐԾ	-6435
▁խաղացող	-6436
▁մշակում	-6437
▁տարեդարձ	-6438
▁առանձնահատկությունները	-6439
og	-6440
▁որդու	-6441
▁ընդդեմ	-6442
▁հազարավոր	-6443
▁ձեւավորման	-6444
▁թմ	-6445
▁թողել	-6446
ասկան	-6447
▁Գրիգորյան	-6448
ոու	-6449
▁մագ	-6450
▁Հնդկ	-6451
▁ցանկը	-6452
▁հրավիրում	-6453
▁արշավ	-6454
▁ՀԱԿ	-6455
▁ավանդույթ	-6456
▁նյարդ	-6457
▁բառերը	-6458
▁հաստատում	-6459
utnik	-6460
▁սահմանել	-6461
--	-6462
ie	-6463
▁մտել	-6464
▁առաջացնում	-6465
պահ	-6466
▁Բարի	-6467
▁գույք	-6468
▁Մուրադ	-6469
▁թողարկ	-6470
▁կահ	-6471
▁ամենայն	-6472
▁առաջիկայում	-6473
▁ցնց	-6474
▁ներուժ	-6475
▁տեղամաս	-6476
▁Հին	-6477
▁թեմի	-6478
▁նստած	-6479
▁վայրի	-6480
▁ելնելով	-6481
▁հոգեբան	-6482
▁էր՝	-6483
▁փակել	-6484
եքշաբթի	-6485
▁ամբիոն	-6486
▁սովորաբար	-6487
▁ամպ	-6488
▁յուղ	-6489
▁չունեց	-6490
▁կղզ	-6491
▁ակտերի	-6492
▁կունենան	-6493
▁Մոսկվա	-6494
▁Հակոբյան	-6495
se	-6496
ձեռ	-6497
տու	-6498
աննա	-6499
▁ԱՇԽ	-6500
▁խաղեր	-6501
▁չգիտեմ	-6502
▁Իսրայել	-6503
▁Նոյեմբեր	-6504
▁մեռ	-6505
▁սերի	-6506
▁ոգեւոր	-6507
▁վարում	-6508
▁օժանդակ	-6509
▁ՀԱՐ	-6510
▁կառուցել	-6511
▁զեղ	-6512
▁իրոք	-6513
▁գոտում	-6514
▁լրացումներ	-6515
▁վաղը	-6516
▁կարծիքը	-6517
▁հաղթահար	-6518
հետ	-6519
▁հարցրեց	-6520
▁վարորդը	-6521
▁պետությունը	-6522
ՈԼ	-6523
ame	-6524
արագ	-6525
▁ամենաբ	-6526
▁բեռնել	-6527
sh	-6528
եմը	-6529
urer	-6530
ագրեր	-6531
▁սննդի	-6532
▁բնության	-6533
▁հանդիսատես	-6534
▁փոխվարչապետ	-6535
▁սմարթ	-6536
▁կամավոր	-6537
▁հեղինակը	-6538
▁տվյալներ	-6539
на	-6540
our	-6541
ուլղ	-6542
▁քաջ	-6543
▁աղջիկը	-6544
▁անելով	-6545
▁սիրահար	-6546
▁բացառությամբ	-6547
եդի	-6548
▁գուն	-6549
▁համայնքային	-6550
▁փոփոխությունները	-6551
▁խրախ	-6552
▁պրակտ	-6553
▁հանդիպումներ	-6554
երիմ	-6555
▁կիրառման	-6556
▁համաձայնագիրը	-6557
▁սահմանափակում	-6558
▁CO	-6559
▁բժշկ	-6560
▁եկած	-6561
▁խորհրդական	-6562
▁հեն	-6563
▁ճգնաժամ	-6564
Արց	-6565
▁տղամարդու	-6566
▁շնորհավորել	-6567
ոլեջ	-6568
▁բողո	-6569
▁ներկայացրած	-6570
Պատ	-6571
ոման	-6572
▁հոբ	-6573
▁օգտին	-6574
▁կոալից	-6575
▁Խոր	-6576
▁Պարոն	-6577
▁վարույթ	-6578
▁գլխավորած	-6579
www	-6580
▁Մարուք	-6581
▁հաղթող	-6582
▁հեքիաթ	-6583
աշարի	-6584
▁Ծրագրի	-6585
▁պատճենեք	-6586
▁հնարավորինս	-6587
▁ֆուտբոլային	-6588
▁քաղաքացիներին	-6589
արեւ	-6590
որդին	-6591
▁Կատար	-6592
▁վերջապես	-6593
▁խեղ	-6594
▁ՈՐՈՇ	-6595
▁ճշգր	-6596
անիտար	-6597
▁ուսուցման	-6598
▁Սահմանադրական	-6599
▁երբեւէ	-6600
▁թողնել	-6601
▁ժամկետով	-6602
▁ինչպիսիք	-6603
▁գոր	-6604
▁զգեստ	-6605
ացուցիչ	-6606
▁աշխատատեղ	-6607
Արցախ	-6608
▁զենքի	-6609
▁փախստ	-6610
▁բնագավառ	-6611
ադրված	-6612
▁Lurer	-6613
▁Ասում	-6614
▁խնդիրն	-6615
▁դասական	-6616
▁ընկերներին	-6617
▁գործողության	-6618
կապ	-6619
▁Ջր	-6620
▁հետաձգ	-6621
▁Հեղինակ	-6622
էր	-6623
օդ	-6624
ո՞ղ	-6625
▁աստիճանի	-6626
արյանն	-6627
▁դարում	-6628
▁ծայրահեղ	-6629
▁տեղեկացրին	-6630
▁երիտասարդության	-6631
միկ	-6632
առության	-6633
▁շաբաթվա	-6634
▁ենթադրում	-6635
▁հոկտեմբեր	-6636
րեական	-6637
▁կայացավ	-6638
▁կիրառել	-6639
▁Հովհաննիսյան	-6640
եթի	-6641
եւից	-6642
▁ցանցի	-6643
պետական	-6644
օղ	-6645
▁ՏԱՐ	-6646
▁սոց	-6647
իսկոպոս	-6648
▁շախմատի	-6649
ովն	-6650
յալի	-6651
▁խաբ	-6652
▁երկրներից	-6653
▁վիճակագրական	-6654
▁քաղաքացիները	-6655
▁գործակալությունը	-6656
աձոր	-6657
▁դուստր	-6658
▁առաջնահերթ	-6659
բանկ	-6660
վիր	-6661
▁ԱՅ	-6662
▁Շվեյց	-6663
▁փիլիսոփ	-6664
▁էք	-6665
ավազ	-6666
▁շահագր	-6667
▁կենդանիների	-6668
▁հիվանդությունների	-6669
▁լեզուն	-6670
անդի	-6671
▁ամիսներին	-6672
▁ծանոթանալ	-6673
ոցիալական	-6674
▁հարմարավետ	-6675
▁շրջաններում	-6676
կոտ	-6677
▁ԼՐ	-6678
▁մայրը	-6679
▁տնօրին	-6680
▁կողմերը	-6681
▁մանկապարտեզ	-6682
ն՝	-6683
▁երգը	-6684
▁Սովոր	-6685
▁դաժան	-6686
▁իբրեւ	-6687
ադրանքը	-6688
▁ընդառաջ	-6689
▁գերեզման	-6690
ax	-6691
եգեր	-6692
ամերձ	-6693
▁Լիլիթ	-6694
▁տրանսֆ	-6695
▁տեսք	-6696
ational	-6697
▁նմանատիպ	-6698
▁մանրամասներ	-6699
օս	-6700
ովա	-6701
մուշ	-6702
ատակի	-6703
▁հոգեբանական	-6704
▁առաջնությունում	-6705
▁Ել	-6706
▁Կարդալ	-6707
▁հարթակ	-6708
▁մարզերում	-6709
▁տեղափոխել	-6710
արթ	-6711
աման	-6712
▁Բրազ	-6713
եկտրաէներգ	-6714
▁Ռազմ	-6715
▁Հատուկ	-6716
▁հավաքել	-6717
մուն	-6718
▁ցերեկ	-6719
▁արված	-6720
▁օրգանիզմ	-6721
▁ավելացնել	-6722
!!	-6723
▁տղա	-6724
▁վախենում	-6725
ադադարի	-6726
▁խմբերի	-6727
▁հայրենիք	-6728
▁Կաթողիկոս	-6729
ենին	-6730
▁բեռ	-6731
▁ներս	-6732
▁Վահրամ	-6733
▁առնչությամբ	-6734
▁կոմսություն	-6735
ենցաղ	-6736
▁գիտեմ	-6737
▁շահերի	-6738
▁Օբ	-6739
▁սիրով	-6740
▁իրազեկ	-6741
▁ընդգծեց	-6742
▁Էր	-6743
Առաջ	-6744
▁լեզվով	-6745
▁կունեն	-6746
▁երաժիշտ	-6747
▁Չինաստանի	-6748
▁Սեն	-6749
▁Պետրոս	-6750
▁միջամտ	-6751
▁նախագահն	-6752
▁Եվրասիական	-6753
կիր	-6754
▁խոց	-6755
աժողովը	-6756
▁Են	-6757
▁համախմբ	-6758
▁ազդեցությունը	-6759
Սա	-6760
ունց	-6761
▁հսկայական	-6762
▁շնորհավոր	-6763
▁անդամներին	-6764
▁պարզաբանում	-6765
▁նախապես	-6766
▁անօր	-6767
▁երես	-6768
րամասն	-6769
▁սպանել	-6770
քաղաքական	-6771
իզմի	-6772
▁տարօրինակ	-6773
իկոս	-6774
▁վիզ	-6775
վածքի	-6776
▁թվականը	-6777
▁հայրենի	-6778
▁սպառնալի	-6779
▁պատգամավորների	-6780
▁Ռաֆ	-6781
վաճառ	-6782
▁իմաստով	-6783
▁գյուղական	-6784
▁յուրահատուկ	-6785
▁գյուղատնտեսական	-6786
ran	-6787
ընկ	-6788
▁Հալ	-6789
▁գետի	-6790
ատների	-6791
▁Միջին	-6792
▁աղջկա	-6793
▁ամենահ	-6794
▁հայերը	-6795
▁համատեքստ	-6796
▁նախատեսում	-6797
▁համաձայնության	-6798
նված	-6799
▁պատիվ	-6800
▁ընդունման	-6801
▁օլիմպիական	-6802
▁վերաբերվում	-6803
▁Oper	-6804
▁անհամ	-6805
▁գիտեն	-6806
▁տրվել	-6807
▁բարձրաստիճան	-6808
▁Ադ	-6809
ուսաղ	-6810
▁էլեկտր	-6811
▁ծրագրով	-6812
pt	-6813
▁Ո՞վ	-6814
▁Լիբան	-6815
▁Պայման	-6816
▁մեջբեր	-6817
▁պահպանում	-6818
ԵՄԲ	-6819
▁Թեհ	-6820
▁լիովին	-6821
▁սկզբում	-6822
▁կոռուպցիայի	-6823
▁պահանջներին	-6824
▁կնոջը	-6825
▁բնակիչների	-6826
ge	-6827
▁\\	-6828
▁Էմ	-6829
ուրժ	-6830
▁տոմս	-6831
▁ծնողների	-6832
▁կս	-6833
ԱՆԱԿ	-6834
ագրվել	-6835
▁խաչմեր	-6836
▁շարքում	-6837
▁ղարաբաղյան	-6838
▁ԻՆ	-6839
▁համառ	-6840
▁այցելու	-6841
Արարատ	-6842
▁Անջել	-6843
▁դպրոցների	-6844
րուն	-6845
▁Բան	-6846
ատեսիլ	-6847
▁ամենամյա	-6848
▁բարձրաձայն	-6849
▁ՊԲ	-6850
ելով՝	-6851
▁Մյուս	-6852
▁խմբագիր	-6853
▁հնարավորությունը	-6854
▁Դեր	-6855
ունակի	-6856
▁չորրորդ	-6857
▁լաբորատոր	-6858
▁ՀՔԾ	-6859
▁բնույթի	-6860
մահ	-6861
եղեն	-6862
▁Վիլ	-6863
գենտին	-6864
▁Աստվածաշ	-6865
▁Հիմնական	-6866
▁Հետաքրքիր	-6867
evan	-6868
անները	-6869
▁դիտել	-6870
▁ավտովթար	-6871
▁քաղաքներում	-6872
ացոլ	-6873
▁ոնց	-6874
▁հայեց	-6875
▁Ավելին	-6876
▁համահայկական	-6877
զգ	-6878
▁Շրջ	-6879
ումը՝	-6880
▁տուրում	-6881
▁ստացվում	-6882
▁Մանուկյանը	-6883
իֆ	-6884
եցած	-6885
▁ոտն	-6886
ափառ	-6887
▁սով	-6888
▁տոնի	-6889
▁ծրագրում	-6890
▁անցկացվել	-6891
▁ճանապարհային	-6892
▁Հանրապետություն	-6893
▁փոստ	-6894
իստների	-6895
▁Համբարձ	-6896
▁առաջինը	-6897
Իսկ	-6898
▁անջատ	-6899
▁դադարեց	-6900
արկության	-6901
▁էլ՝	-6902
▁ինքներ	-6903
▁Իտալիայի	-6904
▁ապագայում	-6905
▁կծ	-6906
▁հաղթեց	-6907
▁Վերջինս	-6908
▁հրահանգ	-6909
էտ	-6910
ուրին	-6911
▁ամենից	-6912
▁չարաշահ	-6913
▁ամառային	-6914
ղի	-6915
▁ԿԱՌ	-6916
▁ջոկ	-6917
▁Դատար	-6918
▁հաջողվել	-6919
▁խորհրդային	-6920
▁հայրը	-6921
▁կկայանա	-6922
▁բարձրացման	-6923
ուսով	-6924
▁մուտքի	-6925
▁բնակելի	-6926
▁Արտակարգ	-6927
▁ռեժիմում	-6928
▁Բաղրամյան	-6929
▁զգացմունք	-6930
▁բրիտ	-6931
▁ԹՎԱԿԱՆ	-6932
▁քաղաքագետ	-6933
▁պատրաստակամ	-6934
▁Ունեն	-6935
▁Սեբաստ	-6936
▁կիրակի	-6937
▁Միության	-6938
▁այսինքն՝	-6939
▁արարողությունը	-6940
▁մասնակցությունը	-6941
Ամ	-6942
ունդը	-6943
▁Ազնավ	-6944
▁Խաչատրյան	-6945
▁ներկայացվում	-6946
▁հեղափոխության	-6947
ասել	-6948
▁դոկտոր	-6949
ec	-6950
գնի	-6951
▁(←	-6952
▁գնա	-6953
▁թատեր	-6954
▁պատասխանում	-6955
▁թագ	-6956
▁Քարդ	-6957
ուրը	-6958
▁անփ	-6959
▁բանից	-6960
ԷԿ	-6961
ՈՐՏ	-6962
ընթացի	-6963
▁Հաճախ	-6964
անքները	-6965
▁հայտնվում	-6966
ind	-6967
Հար	-6968
▁փլ	-6969
ամյակը	-6970
BC	-6971
գետ	-6972
▁վարել	-6973
▁ավելորդ	-6974
▁մրցանակի	-6975
hats	-6976
ացնենք	-6977
▁սեմին	-6978
▁Իսպանի	-6979
▁հեռախոսահամ	-6980
▁բնապահպանական	-6981
▁Օրվա	-6982
▁կապում	-6983
▁մինչդեռ	-6984
▁հավանաբար	-6985
▁Աբրահամյանը	-6986
ճարի	-6987
▁ՏԵՍԱՆՅՈՒԹ	-6988
▁միջոցներով	-6989
ոյն	-6990
▁կաշառ	-6991
▁Հարգելի	-6992
▁մահացած	-6993
▁գտնվելու	-6994
Ավ	-6995
▁շքեղ	-6996
▁քանզի	-6997
▁ինֆորմ	-6998
▁կիսվել	-6999
▁գործընթացում	-7000
ՅՈՒ	-7001
▁պան	-7002
▁բաշխ	-7003
▁ախտորոշ	-7004
▁կառուցման	-7005
▁հետեւաբար	-7006
ացության	-7007
▁մոտենում	-7008
▁հանդիսավոր	-7009
▁ժպ	-7010
թանգ	-7011
▁մաթեմատ	-7012
▁Զաք	-7013
▁Վեն	-7014
▁ո՞ր	-7015
▁սերտ	-7016
▁ամուր	-7017
▁սուբյ	-7018
▁կարողանա	-7019
▁որակավորման	-7020
▁փոփոխության	-7021
▁ֆոնդ	-7022
▁հակառ	-7023
արարները	-7024
▁Կարեւոր	-7025
▁իրադարձությունների	-7026
ապաղ	-7027
▁կորպ	-7028
▁Արդար	-7029
▁Ադրբեջանին	-7030
▁w	-7031
▁Պահ	-7032
erevan	-7033
խորհրդ	-7034
▁արխիվ	-7035
▁զեկուց	-7036
▁Նախագահը	-7037
▁Ախ	-7038
▁գործադր	-7039
▁ներկայումս	-7040
ry	-7041
▁Մհ	-7042
▁Ժամը	-7043
▁ընտանիքում	-7044
ճառ	-7045
▁պաշտպանի	-7046
▁վերականգնման	-7047
▁խոսքի	-7048
ուշաբթի	-7049
▁եթերում	-7050
▁երեխաներ	-7051
▁թափանցիկ	-7052
▁Հայրապետական	-7053
վենց	-7054
▁հավաստի	-7055
▁առաջընթաց	-7056
▁Խորհրդային	-7057
th	-7058
▁Զար	-7059
▁կիլ	-7060
▁Որքան	-7061
▁անցկացնում	-7062
▁տարբերվում	-7063
ադիտ	-7064
▁Փոստ	-7065
▁սահմանին	-7066
▁Ընկերության	-7067
վեդ	-7068
▁ճշտ	-7069
isher	-7070
անիշի	-7071
▁արցախ	-7072
▁գործած	-7073
▁երթուղ	-7074
▁Լուսանկար	-7075
▁հոդվածներ	-7076
▁Օլիմպիական	-7077
▁Աջ	-7078
▁the	-7079
▁ազգի	-7080
▁շրջանավարտ	-7081
ՐԵՆ	-7082
▁Իլհամ	-7083
արաններ	-7084
▁պահեստ	-7085
▁ծրագրային	-7086
▁գործընկերների	-7087
ՖԱ	-7088
գռ	-7089
ակցել	-7090
▁Operativ	-7091
▁հովանավոր	-7092
▁Քաղաքացիական	-7093
▁հաղորդագրության	-7094
▁կրել	-7095
▁Երուսաղ	-7096
▁սովորում	-7097
▁տեղադրել	-7098
▁բոլորովին	-7099
▁տրամադրված	-7100
նք	-7101
▁Գն	-7102
▁Հիսուս	-7103
▁Sputnik	-7104
▁ընտրված	-7105
ԱՆՑ	-7106
▁ահաբեկչական	-7107
▁հիաս	-7108
▁Whats	-7109
▁հոգու	-7110
▁Այնպես	-7111
▁բոլորն	-7112
▁տնօրենը	-7113
▁Դաշնության	-7114
▁ՏՏ	-7115
▁անիմ	-7116
▁նոյեմբեր	-7117
▁Ղր	-7118
▁Նաիրա	-7119
▁ոսկե	-7120
▁www	-7121
▁Նավ	-7122
▁գործերը	-7123
▁։	-7124
▁գաղտնիք	-7125
▁դասարանի	-7126
▁առաջնային	-7127
▁Եվրոպայում	-7128
ill	-7129
▁կազմը	-7130
▁երեւան	-7131
▁մեքենա	-7132
նը	-7133
▁ծիր	-7134
▁Մեդիա	-7135
ԽՎ	-7136
▁տասը	-7137
▁կալան	-7138
▁Այսօր՝	-7139
▁Մարդիկ	-7140
▁քրիստոնե	-7141
▁Կյան	-7142
▁Նկար	-7143
արտուղ	-7144
▁հիմնադրամը	-7145
▁Այսպես	-7146
▁խոստով	-7147
▁ապագայի	-7148
▁հիմնավոր	-7149
▁շարունակական	-7150
▁ԵՏ	-7151
▁մեքեն	-7152
ունգ	-7153
▁Հարկ	-7154
▁պարապ	-7155
▁հավելյալ	-7156
▁հարցազրույցում	-7157
▁հնարավորություններ	-7158
▁Վահե	-7159
▁վաճառք	-7160
▁Ատ	-7161
ագին	-7162
քանշ	-7163
▁գործընկերության	-7164
օթ	-7165
եինք	-7166
ոբալ	-7167
▁Անձ	-7168
▁հաշտ	-7169
▁խորհրդանշ	-7170
▁բացահայտել	-7171
▁վերադարձել	-7172
ՈՒՑ	-7173
▁de	-7174
▁Լի	-7175
խիթար	-7176
▁Քարդաշ	-7177
▁դահլիճում	-7178
▁ամբողջովին	-7179
ен	-7180
Ոսկե	-7181
▁դառնա	-7182
▁արտացոլ	-7183
▁զորավարժ	-7184
▁արտադրանքի	-7185
▁հարաբերություններում	-7186
SS	-7187
▁Դի	-7188
տանի	-7189
»)	-7190
▁անտես	-7191
ամթերքի	-7192
ումային	-7193
▁լինելը	-7194
▁խափանման	-7195
▁էներգետիկ	-7196
▁մարզադաշտ	-7197
▁բացակայության	-7198
▁շերտ	-7199
▁կոչում	-7200
ականները	-7201
▁սպառնում	-7202
▁փոխարինել	-7203
akh	-7204
▁Բաժ	-7205
ապետը	-7206
▁բաժինը	-7207
ուղղ	-7208
▁պարզվել	-7209
▁հաղորդել	-7210
▁քվեարկել	-7211
▁ընտրությունը	-7212
▁համատեքստում	-7213
▁սերը	-7214
▁խմբեր	-7215
▁չունեմ	-7216
▁կորցրել	-7217
▁նպաստում	-7218
▁հանգամանքը	-7219
▁Ուշ	-7220
▁Ղուկ	-7221
▁կպատ	-7222
▁ապահովագրական	-7223
▁բնապահպանության	-7224
ամետ	-7225
▁անգլի	-7226
▁փոխանցել	-7227
▁Ալավեր	-7228
,,	-7229
լոր	-7230
Տեսանյութ	-7231
▁անցնելու	-7232
▁ակադեմիայի	-7233
Այդ	-7234
Այն	-7235
▁Ամիր	-7236
արների	-7237
▁ներկր	-7238
▁ընթացքը	-7239
▁չունենք	-7240
▁Էս	-7241
▁ՄԱՐԶ	-7242
▁հակաս	-7243
▁Ֆրանսիա	-7244
արդյունաբեր	-7245
▁հանդիսացող	-7246
▁А	-7247
ack	-7248
▁Tag	-7249
▁առըն	-7250
անքներ	-7251
▁վերցնել	-7252
▁Խմբագրական	-7253
ob	-7254
▁Հրազդ	-7255
▁ստանձն	-7256
▁ընթացող	-7257
▁շահագործ	-7258
▁բնակիչները	-7259
▁հանրությանը	-7260
▁$	-7261
ոգման	-7262
ուրդի	-7263
այսուհետ	-7264
▁խուսափել	-7265
▁Վարդանյանը	-7266
տոտ	-7267
▁Մայիս	-7268
որդական	-7269
▁Օրաթերթ	-7270
ate	-7271
▁գիծ	-7272
▁ձմեռ	-7273
▁սկզբին	-7274
▁ժողովում	-7275
Բան	-7276
▁վեպ	-7277
ումներից	-7278
▁Կոմիտասի	-7279
տանգության	-7280
▁կազմակերպություն	-7281
եոն	-7282
▁Մոտ	-7283
▁Նիդ	-7284
▁ասացի	-7285
▁կուրս	-7286
աբանների	-7287
▁Անդրանիկ	-7288
Երբ	-7289
արժան	-7290
▁պահից	-7291
▁ստանձ	-7292
անայի	-7293
▁երկաթուղ	-7294
արկետ	-7295
▁Արշակ	-7296
▁ֆրանսիական	-7297
Ar	-7298
▁փոր	-7299
▁Մարին	-7300
▁Եվրոպա	-7301
▁Անգլերեն	-7302
▁Քո	-7303
▁ութ	-7304
▁իրենից	-7305
▁անդամներ	-7306
▁պո	-7307
արկը	-7308
▁կուր	-7309
▁հողի	-7310
▁սկանդ	-7311
▁բոլորս	-7312
▁ծառայությունները	-7313
յուզ	-7314
▁հեծ	-7315
ատում	-7316
▁Inst	-7317
▁Աղբյուր	-7318
▁անվանակ	-7319
▁Ցավ	-7320
▁Apple	-7321
▁Ստեղծ	-7322
▁բանկը	-7323
▁Մարիամ	-7324
▁խրախուս	-7325
▁լուծելու	-7326
▁Չի	-7327
▁չկար	-7328
▁փաստաթղթեր	-7329
▁տեխնոլոգիական	-7330
սել	-7331
▁ած	-7332
▁չդ	-7333
ՅԱՆԻ	-7334
ահոս	-7335
▁կօգնի	-7336
ռուսական	-7337
▁ցանկալի	-7338
▁տղամարդը	-7339
▁Կոլ	-7340
իկտոր	-7341
▁զեղչ	-7342
▁կտոր	-7343
տարբեր	-7344
▁վայրը	-7345
▁հեռավոր	-7346
▁Լուսավոր	-7347
▁աջակցում	-7348
▁հարձակման	-7349
▁պաշտպանել	-7350
▁տեղեկատվությունը	-7351
որթ	-7352
ուրգի	-7353
պասելի	-7354
ումներին	-7355
▁Ճանապարհ	-7356
▁մեքենայի	-7357
▁նախագծերի	-7358
▁քրեակատարողական	-7359
ոռն	-7360
▁Հայելի	-7361
▁փառատոնի	-7362
▁էլեկտրական	-7363
ոնա	-7364
▁Լու	-7365
▁ՔԱՂ	-7366
▁մասին՝	-7367
սկու	-7368
▁ներկայացուցիչը	-7369
▁re	-7370
▁Հա	-7371
▁թեւ	-7372
▁List	-7373
▁վարք	-7374
▁Սասուն	-7375
▁շրջանառության	-7376
ave	-7377
արտի	-7378
▁NEWS	-7379
ոնյանի	-7380
▁շախմատ	-7381
▁Ռուսական	-7382
▁ֆեդերացիայի	-7383
Թուր	-7384
իանա	-7385
ւում	-7386
▁ապրան	-7387
▁դատարկ	-7388
▁նկատեց	-7389
▁նկարիչ	-7390
▁Անդրադառնալով	-7391
▁քոլեջ	-7392
▁նորաձեւ	-7393
▁Ծառուկյանը	-7394
▁ՀԱ	-7395
▁Բրազիլի	-7396
▁Պողոսյանը	-7397
▁կիրառվում	-7398
▁ֆրանս	-7399
▁ֆունկց	-7400
▁ընտրություն	-7401
▁հետեւողական	-7402
▁ներկայացման	-7403
իմի	-7404
բախտ	-7405
▁օրհն	-7406
▁Մովսիս	-7407
մեկ	-7408
▁yerkir	-7409
▁Նշվում	-7410
անկարժեք	-7411
▁Յունայթեդ	-7412
▁Համբարձում	-7413
sk	-7414
էլ	-7415
▁Me	-7416
▁կոպ	-7417
▁զգալ	-7418
▁արքայ	-7419
▁հայեր	-7420
ությանը՝	-7421
▁Միջոցառ	-7422
▁կրկնակի	-7423
▁իրավիճակում	-7424
▁Նախկին	-7425
▁որտեղից	-7426
ացա	-7427
▁տոնը	-7428
▁վթարի	-7429
▁Պետերբուրգ	-7430
▁շնորհանդես	-7431
ՈՏՈ	-7432
▁քամ	-7433
ականներին	-7434
▁հսկողության	-7435
անվ	-7436
▁ճար	-7437
▁հատվածի	-7438
ուբար	-7439
ապահով	-7440
▁փուլը	-7441
▁առընթեր	-7442
▁նշանակել	-7443
▁a	-7444
ros	-7445
▁ԳՐ	-7446
▁կտես	-7447
արտամեն	-7448
▁խանգար	-7449
ալուծ	-7450
▁հրատ	-7451
▁Հայտն	-7452
▁աշխատանքներին	-7453
Ռեալի	-7454
▁մասնակիցներին	-7455
անե	-7456
▁մաշկի	-7457
▁պատիժ	-7458
▁համարժեք	-7459
ant	-7460
ԱԼԻՔ	-7461
▁Սալ	-7462
իկյան	-7463
▁Իրանը	-7464
▁Հռոմի	-7465
▁Հիմնադր	-7466
▁էլեկտրաէներգ	-7467
ash	-7468
ment	-7469
▁Լոս	-7470
▁Շամ	-7471
▁զարդ	-7472
▁Մաշտոցի	-7473
ագիտություն	-7474
▁ընտանիքների	-7475
▁Բեռ	-7476
▁նաեւ՝	-7477
▁Պատասխան	-7478
▁հեռավորության	-7479
ԱԶՄ	-7480
լեր	-7481
Իգական	-7482
▁թերթի	-7483
▁խմբակց	-7484
▁կոմիտե	-7485
▁համալր	-7486
▁Պորտուգ	-7487
▁հեռարձակ	-7488
▁ուսումնասիրել	-7489
քը՝	-7490
▁Դր	-7491
անցիների	-7492
▁արեւմտյան	-7493
▁արձակուրդ	-7494
▁ժամանակով	-7495
▁Բարձրագույն	-7496
▁ազատազրկման	-7497
ity	-7498
▁Ողջ	-7499
▁գրավել	-7500
▁դարձած	-7501
▁ավտոմատ	-7502
▁Մեկնաբան	-7503
▁Բելառուսի	-7504
▁Երեւանը	-7505
▁ցուցակը	-7506
որջ	-7507
Phone	-7508
▁Ալիեւը	-7509
▁կողմնորոշ	-7510
▁Ծաղկ	-7511
▁Ծառուկյանի	-7512
▁որոշումներ	-7513
▁տարածքների	-7514
արով	-7515
▁Gisher	-7516
▁հաղթանակի	-7517
▁th	-7518
իաները	-7519
▁Բագրատ	-7520
▁ապրելու	-7521
▁գալուստ	-7522
▁Հայտարար	-7523
▁դերասանուհի	-7524
▁իրականացումը	-7525
բեկ	-7526
ադրույ	-7527
▁գործարք	-7528
▁կամուրջ	-7529
▁ռեսուրսների	-7530
▁դիրքորոշումը	-7531
▁կազմակերպելու	-7532
րով	-7533
ամաք	-7534
▁Թով	-7535
▁բարձրացնել	-7536
արեզ	-7537
▁վեհ	-7538
▁թեստ	-7539
▁մանդ	-7540
▁բերվել	-7541
▁բազմիցս	-7542
▁երաշխիք	-7543
▁առաջադրված	-7544
▁փոխանցմամբ	-7545
▁Հաշվ	-7546
▁լեզվում	-7547
▁թաքց	-7548
իներին	-7549
▁Երկրի	-7550
▁Գերման	-7551
▁երկրներ	-7552
▁արտահանման	-7553
▁աթ	-7554
երեւ	-7555
▁Հավ	-7556
անդերձ	-7557
▁զբաղված	-7558
▁ակնկալում	-7559
▁կփոխ	-7560
▁պարագ	-7561
▁տալով	-7562
ությանն	-7563
▁խմբագր	-7564
▁անվանել	-7565
▁ծառայել	-7566
▁արհեստական	-7567
rav	-7568
▁Աստծուն	-7569
▁կառուցվել	-7570
▁Էն	-7571
▁մր	-7572
Chat	-7573
▁Աստղ	-7574
▁Բանկի	-7575
▁պատու	-7576
ՐՈՆ	-7577
▁ԱՎ	-7578
▁Ինքն	-7579
▁կուզ	-7580
▁Դիլիջ	-7581
▁Լրագր	-7582
▁ջերմաստիճանը	-7583
▁Վարկ	-7584
▁Արտաշ	-7585
տնտեսական	-7586
▁մեքենաների	-7587
Արմ	-7588
ոնների	-7589
▁գծում	-7590
▁Լոնդոնի	-7591
▁ապրիլյան	-7592
▁ժամանակն	-7593
▁դարձնելու	-7594
▁թեյ	-7595
▁ինչից	-7596
▁նայել	-7597
▁ավարտվեց	-7598
▁հալ	-7599
▁ռեժիմի	-7600
▁զր	-7601
կալի	-7602
ացուն	-7603
▁բանակը	-7604
ՈՒԹՅՈՒՆԸ	-7605
▁միայնակ	-7606
▁հարցնում	-7607
ակայության	-7608
▁մանկավարժական	-7609
բի	-7610
եցնի	-7611
▁Դրանց	-7612
▁Հոկտեմբեր	-7613
agram	-7614
▁դիզայն	-7615
▁մշակել	-7616
▁Ամերիկյան	-7617
▁հաստատությունների	-7618
AR	-7619
բլ	-7620
▁Hay	-7621
▁տատ	-7622
▁եկան	-7623
▁գնալու	-7624
▁Թեր	-7625
▁Ստոր	-7626
▁Այվազ	-7627
▁նիստերի	-7628
▁վաճառել	-7629
▁փոք	-7630
▁Յուրի	-7631
ածը	-7632
▁ախ	-7633
egle	-7634
▁վթար	-7635
▁ԹՎԱԿԱՆԻ	-7636
▁բառերով	-7637
▁Մերձավոր	-7638
▁պատերազմը	-7639
▁շինարարության	-7640
▁ԱԶ	-7641
▁ադ	-7642
արանն	-7643
Արդ	-7644
եր՝	-7645
աթերթ	-7646
old	-7647
▁ԿԲ	-7648
սկին	-7649
▁հուլիս	-7650
▁դրանցից	-7651
▁վերցրել	-7652
▁On	-7653
▁Ավստրի	-7654
▁հավաքած	-7655
▁գործերով	-7656
▁փոխադարձ	-7657
▁քիմիական	-7658
▁WhatsChat	-7659
▁կանոնները	-7660
վեի	-7661
անդաղ	-7662
ների՝	-7663
▁սպասել	-7664
▁սահմանվում	-7665
ույզ	-7666
▁ռեկորդ	-7667
▁պարզելու	-7668
▁երկրպագու	-7669
▁ճանաչելու	-7670
ԻՍԻ	-7671
▁Թաթ	-7672
▁տիկն	-7673
▁վարիչ	-7674
▁խաչմերուկ	-7675
անհ	-7676
▁ԵԿ	-7677
աթափ	-7678
ինին	-7679
▁երդ	-7680
ոսում	-7681
▁ձեռքը	-7682
▁Մադրիդի	-7683
ուհանդերձ	-7684
▁հասցեում	-7685
▁եկեղեցում	-7686
▁միանշանակ	-7687
▁օրենսդրության	-7688
ազի	-7689
▁Մո	-7690
արոն	-7691
▁գավաթ	-7692
▁ծավալը	-7693
▁զբաղվող	-7694
▁զորակոչ	-7695
▁հավելեց	-7696
ell	-7697
ապտ	-7698
video	-7699
ապատվ	-7700
▁արվել	-7701
▁առայժմ	-7702
էկ	-7703
ետա	-7704
▁Ժիր	-7705
▁Թեեւ	-7706
▁մակերես	-7707
▁Արեւմուտ	-7708
▁մարմինները	-7709
▁պարտականությունները	-7710
▁թվային	-7711
▁ջրային	-7712
▁ներառված	-7713
▁հաղթանակը	-7714
Արմենիա	-7715
▁դոլարով	-7716
▁տեղաշարժ	-7717
օտ	-7718
արներ	-7719
▁անցավ	-7720
▁միջոցառման	-7721
▁քննարկումների	-7722
▁ժողովրդավարական	-7723
անամ	-7724
▁Հակոբյանի	-7725
▁հայրենիքի	-7726
▁հասկանալի	-7727
▁Ցեղասպանության	-7728
▁թափուր	-7729
աշինության	-7730
▁Տեսանյութ	-7731
▁տեղեկությունները	-7732
րեդ	-7733
▁նոտ	-7734
▁տու	-7735
▁Քրեական	-7736
▁հարսանի	-7737
▁նորանշանակ	-7738
▁պարբերական	-7739
▁դատախազության	-7740
▁կուսակցությունների	-7741
եդր	-7742
իտալի	-7743
▁արեւել	-7744
▁պատրաստում	-7745
▁հրապարակված	-7746
յո	-7747
▁խաղաց	-7748
▁ընկերներ	-7749
▁տարբերակները	-7750
ip	-7751
ere	-7752
▁միգ	-7753
▁փայտ	-7754
▁Տեգեր	-7755
▁բնակվող	-7756
▁Հրապարակ	-7757
▁առաջացել	-7758
▁շինարարական	-7759
▁կխ	-7760
▁տանի	-7761
▁ականջ	-7762
▁խախտել	-7763
▁խոսքերը	-7764
▁պաշտոնի	-7765
▁ճանաչված	-7766
▁կոմպոզիտոր	-7767
▁Անշ	-7768
▁Նորք	-7769
▁հաշվառ	-7770
▁ուշադիր	-7771
▁տրամադրման	-7772
▁Հովհաննիսյանի	-7773
▁վարչությունից	-7774
ագրային	-7775
▁կրթահամալիր	-7776
▁դատավարության	-7777
ord	-7778
▁ՓՈ	-7779
առուց	-7780
տային	-7781
ընդուն	-7782
ակառույց	-7783
▁Սփյուռքի	-7784
Ազատություն	-7785
▁մայրաքաղաքի	-7786
ՈՒՍ	-7787
եսթ	-7788
▁ՄԵ	-7789
▁բռնկ	-7790
ալյանը	-7791
▁փետրվար	-7792
▁երկրները	-7793
▁անունները	-7794
▁բանակցային	-7795
▁Ph	-7796
▁Ագ	-7797
ոսին	-7798
▁Կողմ	-7799
▁գնով	-7800
▁շտաբի	-7801
▁մտերիմ	-7802
▁տղամարդիկ	-7803
▁աշխատավարձի	-7804
▁լրագրողներին	-7805
ոնշ	-7806
▁դդ	-7807
▁Ակն	-7808
▁Երրորդ	-7809
▁արժեքի	-7810
▁պայքարել	-7811
▁հիշատակին	-7812
▁առկայության	-7813
▁համացանցում	-7814
▁խստ	-7815
ԵՄԲԵՐԻ	-7816
▁Ասատր	-7817
▁Դպրոց	-7818
▁վերջն	-7819
▁մարմնական	-7820
▁հայրենակից	-7821
▁հաճախորդների	-7822
իտր	-7823
▁որոշումների	-7824
▁Րաֆ	-7825
▁դասակարգ	-7826
▁հարեւանությամբ	-7827
vis	-7828
▁նրբ	-7829
▁իշխող	-7830
▁կնքված	-7831
▁շենքում	-7832
▁թեկնածուն	-7833
▁նախագծում	-7834
▁անօրինական	-7835
▁լուսանկարները	-7836
այանի	-7837
▁հիմքում	-7838
▁քաղաքացիներ	-7839
▁պատվիրակությունը	-7840
ԻՎ	-7841
▁Լյու	-7842
▁էժան	-7843
▁կատակ	-7844
▁տնային	-7845
▁ծնողները	-7846
ազն	-7847
վելուց	-7848
▁շքանշ	-7849
▁Մկրտչյանը	-7850
▁տարեկանում	-7851
▁ԵՏՄ	-7852
ակայում	-7853
▁կենցաղ	-7854
▁ավելացել	-7855
▁Դեպքի	-7856
▁ավարտից	-7857
▁եղանակով	-7858
▁կազմակերպվել	-7859
____	-7860
▁Ինտ	-7861
▁Գալուստ	-7862
▁արեւելյան	-7863
▁արձանագրել	-7864
իվերպ	-7865
▁տանել	-7866
▁սահմանը	-7867
ԱՄՆ	-7868
ե՞ր	-7869
ազգի	-7870
Լուրեր	-7871
▁ջուրը	-7872
▁օգուտ	-7873
▁կյանքին	-7874
▁համարձակ	-7875
Բարսելոնայի	-7876
ենդի	-7877
▁կգն	-7878
▁արթն	-7879
▁հատվածը	-7880
▁խանգարում	-7881
▁կողմնակից	-7882
▁Ադամ	-7883
▁Մելք	-7884
ննչական	-7885
▁Դրանից	-7886
առի	-7887
վին	-7888
▁ֆոն	-7889
▁աղետ	-7890
▁խորը	-7891
▁ամենի	-7892
▁Ալիեւի	-7893
▁պարզաբան	-7894
▁Տնտեսական	-7895
▁հրադադարի	-7896
եղն	-7897
ենթ	-7898
▁սմ	-7899
աքաղաքական	-7900
▁Ներկայում	-7901
▁Ֆրանսիայում	-7902
io	-7903
erc	-7904
▁ավեր	-7905
▁էկրան	-7906
ումներն	-7907
▁գործեր	-7908
▁Մարգարյանի	-7909
▁խնդիրներին	-7910
▁Գիր	-7911
▁ԿԵՆ	-7912
▁ՖՈՏՈ	-7913
▁անցկացվող	-7914
ory	-7915
▁ինքս	-7916
▁ասենք	-7917
▁գործն	-7918
▁Վանաձոր	-7919
▁գրադարան	-7920
▁վկայակոչ	-7921
▁գիտի	-7922
▁Գալստ	-7923
▁հեռանալ	-7924
▁լիազորությունները	-7925
Չել	-7926
գեր	-7927
▁տաս	-7928
▁ծովի	-7929
▁հոսպ	-7930
▁կոռուպցիոն	-7931
▁ֆինանսավոր	-7932
▁հանցագործության	-7933
քաղաք	-7934
▁ոմանք	-7935
▁բառարան	-7936
▁վայրկյան	-7937
▁արվեստագետ	-7938
▁պաշտպանական	-7939
▁համակարգչային	-7940
▁իշխանություններին	-7941
ատին	-7942
յուծ	-7943
ստրալի	-7944
ովհետեւ	-7945
▁ազդում	-7946
▁զգացող	-7947
▁ԿԱՌԱՎԱՐ	-7948
▁ժամանած	-7949
▁հասցնել	-7950
Իս	-7951
▁կրտ	-7952
▁Վահագն	-7953
▁կոմիտեն	-7954
▁հաղթահարել	-7955
▁մրցանակաբաշխ	-7956
ԱՐԴ	-7957
մեդ	-7958
▁շեղ	-7959
▁Խնդրում	-7960
▁հայտարարությամբ	-7961
▁Սկզբ	-7962
լխաւոր	-7963
▁անցկացված	-7964
▁ներկայացնելով	-7965
▁տեսանելի	-7966
▁Աշխատանքային	-7967
▁Բաղդասարյանը	-7968
ост	-7969
▁Տպ	-7970
ժվար	-7971
▁Քար	-7972
▁բրեն	-7973
▁տապալ	-7974
ախումբը	-7975
▁քննարկումներ	-7976
▁աջակցությունը	-7977
իրճ	-7978
նոր	-7979
▁Բոր	-7980
▁Վալերի	-7981
▁հավերժ	-7982
իրավական	-7983
▁գաղափարը	-7984
▁Միաժամանակ	-7985
oto	-7986
Ամեն	-7987
▁տող	-7988
▁կցանկ	-7989
▁նպաստել	-7990
▁ճանաչման	-7991
▁արտասահմանյան	-7992
▁չունեցող	-7993
▁անսպասելի	-7994
▁հավատարիմ	-7995
▁զանգահարել	-7996
▁համակարգող	-7997
▁պողոտայում	-7998
.:	-7999
Աշխ	-8000
▁Զոր	-8001
▁Հաղթ	-8002
▁ձեւը	-8003
▁Ծնվել	-8004
▁ձեռնարկել	-8005
▁արձանագրվել	-8006
ՆԱ	-8007
net	-8008
▁Գոռ	-8009
▁աճը	-8010
ախախտ	-8011
րիարք	-8012
▁Վիկտոր	-8013
▁նյութերը	-8014
ժի	-8015
յալը	-8016
մանյան	-8017
▁դավաճ	-8018
▁համայնքներում	-8019
▁ուշադրությունը	-8020
ԿԱ	-8021
▁Ճիշտ	-8022
▁Վիեն	-8023
▁պրոդ	-8024
▁iPhone	-8025
▁նշանավոր	-8026
▁տեղեկություններով՝	-8027
▁Պլ	-8028
▁ՖԻ	-8029
▁ատամ	-8030
ամշակութային	-8031
▁կանխարգելման	-8032
▁անհրաժեշտություն	-8033
ՈՐՀ	-8034
▁ապագան	-8035
▁հունիս	-8036
▁շուկան	-8037
▁սկսվեց	-8038
▁արդյունքը	-8039
▁արժեքների	-8040
▁հակառակորդի	-8041
ախցիկ	-8042
ունու	-8043
ողներն	-8044
▁վայրերում	-8045
▁բնականաբար	-8046
Ստ	-8047
▁եթեր	-8048
▁ամենաբարձր	-8049
▁պահանջների	-8050
▁արդյունքներով	-8051
▁ագրես	-8052
▁Հայերեն	-8053
▁փոխարժեք	-8054
▁շնորհավորական	-8055
Շատ	-8056
նանը	-8057
▁Instagram	-8058
ոփառատ	-8059
▁կորցրած	-8060
ատնտեսական	-8061
▁Մխիթարյանի	-8062
▁օրակարգում	-8063
▁արարողությանը	-8064
օգ	-8065
▁ՍՏ	-8066
▁կվ	-8067
▁ավտո	-8068
քննարկ	-8069
▁մեկնաբանել	-8070
ավարությունը	-8071
▁ՕՐ	-8072
▁հետո՝	-8073
▁բանկերի	-8074
▁Աբրահամյանի	-8075
Աստ	-8076
▁Վոլ	-8077
▁մի՛	-8078
▁հերք	-8079
▁օրական	-8080
▁Աբովյան	-8081
▁Բաքվում	-8082
▁ծրագրին	-8083
▁Եկեղեցու	-8084
▁քարտուղարի	-8085
▁հյուսիսային	-8086
ւել	-8087
Մարդ	-8088
▁գրի	-8089
շկական	-8090
▁բույս	-8091
▁հասուն	-8092
ավայրում	-8093
▁ՊԵՏԱԿԱՆ	-8094
ատվության	-8095
▁մարզական	-8096
▁Կին	-8097
▁հակակ	-8098
▁սպասարկ	-8099
▁համագում	-8100
▁տարածում	-8101
ե՞ս	-8102
▁Տր	-8103
▁բուն	-8104
ենական	-8105
Հայերեն	-8106
▁հանդերձ	-8107
▁անչափահաս	-8108
▁ստացավ	-8109
անով	-8110
▁Game	-8111
▁աննախ	-8112
▁բարոյական	-8113
▁էներգիայի	-8114
▁ցեղասպանությունը	-8115
oy	-8116
ԸՀ	-8117
,...	-8118
▁արվում	-8119
▁դպրոցական	-8120
▁Ազատության	-8121
▁մեկնարկային	-8122
▁Կլ	-8123
▁թր	-8124
▁ARM	-8125
▁պիտ	-8126
▁սիմ	-8127
▁աուդ	-8128
▁գրաֆ	-8129
Ադրբեջ	-8130
ահռչակ	-8131
▁Բնական	-8132
▁կշարունակ	-8133
▁հիվանդության	-8134
▁լրատվամիջոցների	-8135
խե	-8136
▁կգտն	-8137
իկյանը	-8138
▁դուռը	-8139
▁դրամաշնորհ	-8140
չուհի	-8141
▁ռեժիմը	-8142
▁սեղանի	-8143
ԱՐՏ	-8144
▁Ամբողջ	-8145
▁ներդրման	-8146
▁հաստատվել	-8147
▁լրջ	-8148
Հայոց	-8149
ուվեն	-8150
▁Նաեւ	-8151
▁ՔԱՂԱՔ	-8152
▁նյութի	-8153
▁Ֆրանկոֆ	-8154
▁վճարում	-8155
▁Արցախյան	-8156
▁ամուսնու	-8157
▁բնակվում	-8158
▁զարմանալի	-8159
▁Լա	-8160
▁ասես	-8161
▁բառեր	-8162
▁օրերս	-8163
այտարար	-8164
▁կարդում	-8165
▁ֆիլմերի	-8166
տա	-8167
կու	-8168
այլի	-8169
▁կոճ	-8170
▁անվեր	-8171
▁շենքը	-8172
▁խնամքի	-8173
ցք	-8174
tic	-8175
Պետ	-8176
▁Ռում	-8177
▁ցանկում	-8178
▁Սեպտեմբեր	-8179
▁լուծումներ	-8180
միտ	-8181
վեցի	-8182
▁հղումը	-8183
▁քաշային	-8184
Ոչ	-8185
▁II	-8186
ՏՐՈՆ	-8187
▁Շարժ	-8188
եզրափակ	-8189
ձի	-8190
բին	-8191
▁Սիլ	-8192
▁Առանց	-8193
▁Հավաք	-8194
▁գլուխը	-8195
անքներով	-8196
▁թեկնածուի	-8197
▁ընդունելության	-8198
],	-8199
թր	-8200
▁Օսի	-8201
▁ճառ	-8202
▁գյուղը	-8203
▁Գերագույն	-8204
▁ցուցանիշը	-8205
▁խորհրդանիշ	-8206
lus	-8207
▁վեճ	-8208
▁ռուբ	-8209
▁ներկան	-8210
TY	-8211
պրոմ	-8212
▁ՔԿՀ	-8213
▁էիք	-8214
▁Մովսես	-8215
ՈՒԹՅՈՒՆՆԵՐ	-8216
▁Պաշտոնական	-8217
▁աշխատողների	-8218
▁Բաբլ	-8219
▁Ջերմ	-8220
▁Ապրիլ	-8221
▁եղբոր	-8222
▁երգիչ	-8223
▁դանդաղ	-8224
▁կանգնել	-8225
▁մասնակցի	-8226
▁տեղեկացրեց	-8227
▁աշակերտների	-8228
▁Արդարադատության	-8229
▁հասարակությունը	-8230
Լավ	-8231
վորի	-8232
▁քրդ	-8233
▁սկսեցին	-8234
▁բացառվում	-8235
▁կարեւորել	-8236
▁Կառավարությունը	-8237
ep	-8238
iz	-8239
պի	-8240
ոնզ	-8241
▁ՀՖ	-8242
▁գործին	-8243
▁Խորհրդի	-8244
▁միավորով	-8245
▁մրցաշարի	-8246
▁պաշարների	-8247
ՈՒԹՅՈՒՆՆԵՐԻ	-8248
մն	-8249
ՐԱՄ	-8250
▁տիտ	-8251
▁հրավ	-8252
շտարակ	-8253
վածների	-8254
▁երկրից	-8255
▁խախտման	-8256
▁ծառայողական	-8257
ավը	-8258
▁Ժամ	-8259
▁մասնագետները	-8260
▁արծաթ	-8261
▁ընձեռ	-8262
▁քայլերը	-8263
▁հանցագործությունների	-8264
▁ձեռքի	-8265
▁Սաուդյան	-8266
▁պատկերացնում	-8267
▁««	-8268
եֆիլ	-8269
▁Հել	-8270
▁Ավարտ	-8271
Երեւանի	-8272
▁թատրոն	-8273
▁ֆորում	-8274
▁Մինասյանը	-8275
▁Լին	-8276
▁ջարդ	-8277
▁մեկնում	-8278
▁ուսանողները	-8279
Արտ	-8280
ենիս	-8281
աբանը	-8282
ակիցը	-8283
▁կարտ	-8284
Ժառանգ	-8285
▁մտավոր	-8286
▁հոգեկան	-8287
ոկրատական	-8288
▁հարուցված	-8289
▁հետաքրքրված	-8290
▁թալ	-8291
▁սիրի	-8292
▁բյուր	-8293
▁օրվան	-8294
▁Լավագույն	-8295
▁գումարները	-8296
եանը	-8297
աբարձ	-8298
▁Cont	-8299
▁ԵԽԽՎ	-8300
▁Հասցե	-8301
▁Հյուր	-8302
ատուների	-8303
▁էներգետիկայի	-8304
UN	-8305
▁բանը	-8306
▁Բուլղ	-8307
▁Մխիթար	-8308
▁հոդվածում	-8309
▁փաստաթուղթ	-8310
ՏՊ	-8311
▁ԲԿ	-8312
▁կեղ	-8313
ացրեք	-8314
▁եղեք	-8315
▁շահերը	-8316
▁դիտարկում	-8317
▁երթեւեկության	-8318
ոներ	-8319
առնան	-8320
▁կոշտ	-8321
▁զինծառայողների	-8322
AS	-8323
կոհ	-8324
ացվեն	-8325
ողներից	-8326
▁հորդոր	-8327
▁հասցեին	-8328
▁ընտանիքին	-8329
▁վարչապետին	-8330
ափշտ	-8331
▁փոշ	-8332
▁Լուկ	-8333
▁սուտ	-8334
▁մերժել	-8335
▁մրցակց	-8336
▁Էրեբունի	-8337
▁աղջիկների	-8338
▁թեկնածուների	-8339
▁Մոր	-8340
Երկիր	-8341
ագիրն	-8342
աշենի	-8343
ասարակշռ	-8344
վենք	-8345
▁Կիլ	-8346
▁այո	-8347
▁Ուզում	-8348
▁կինոփառատ	-8349
▁հոդվածների	-8350
▁սեփականատեր	-8351
ամա	-8352
▁Ազգ	-8353
▁Միհ	-8354
▁Բազմ	-8355
▁ներկ	-8356
▁պատվավոր	-8357
▁թատրոնում	-8358
▁կանոնների	-8359
▁Արդյունքում	-8360
▁որոշումները	-8361
աբաց	-8362
ասարդ	-8363
▁Դանիել	-8364
▁առանձնապես	-8365
▁ուսանողական	-8366
▁ղեկավարության	-8367
▁լիազորությունների	-8368
էք	-8369
ֆեր	-8370
▁Գյուլ	-8371
▁կեսին	-8372
▁որոշեց	-8373
▁վաստակավոր	-8374
իփ	-8375
ԱԿՑ	-8376
Հետ	-8377
ոնշյալ	-8378
▁Փարիզում	-8379
ԱՅԻ	-8380
▁Օլ	-8381
▁Մայք	-8382
▁պատուհ	-8383
ելիության	-8384
գիր	-8385
▁Օդ	-8386
▁ինժ	-8387
▁կրող	-8388
▁հարցն	-8389
▁սիրել	-8390
▁տուրի	-8391
▁դեպքում՝	-8392
▁սահմանների	-8393
▁հեռուստաալի	-8394
րտ	-8395
▁ոճի	-8396
visit	-8397
▁Հաշվի	-8398
▁որակյալ	-8399
▁Ադրբեջան	-8400
▁Նահանգներ	-8401
▁պաշտոնավար	-8402
ոտը	-8403
▁բա	-8404
▁ոռ	-8405
մատիվ	-8406
րամաս	-8407
ածավալ	-8408
▁դաշնակից	-8409
▁գերմանական	-8410
▁քննություն	-8411
▁քանակությամբ	-8412
▁ՀԱՄԱՐ	-8413
▁դիման	-8414
▁հավակն	-8415
▁Կորեայի	-8416
իմալ	-8417
ադուլ	-8418
արային	-8419
▁տեսական	-8420
▁ընկերոջը	-8421
▁Հավել	-8422
▁միտքը	-8423
▁Օրենքի	-8424
▁գավաթի	-8425
ազոտական	-8426
▁Վարչապետը	-8427
▁կառավարում	-8428
ի՛ր	-8429
▁Բեյ	-8430
ակալի	-8431
▁ակցիա	-8432
որհուրդ	-8433
▁այսքան	-8434
▁բացում	-8435
▁հետեւից	-8436
▁Ավստրալի	-8437
ոլիտ	-8438
▁եկող	-8439
արանից	-8440
▁դանակ	-8441
յանների	-8442
▁Թուրքիա	-8443
▁ասուլիսի	-8444
▁Նալբանդյանը	-8445
▁գործընթացին	-8446
▁շնորհավորում	-8447
ла	-8448
ՇԼ	-8449
եչ	-8450
։—	-8451
նդր	-8452
▁արաբ	-8453
▁խնդրանք	-8454
▁հավելելով	-8455
եսկ	-8456
▁by	-8457
▁չխ	-8458
▁Կալ	-8459
▁ալբ	-8460
▁լճի	-8461
▁կողմից՝	-8462
▁պատուհան	-8463
▁տրամադրելու	-8464
▁օգտագործումը	-8465
ոզի	-8466
▁տարիքի	-8467
▁նախօրեին	-8468
▁աստիճանաբար	-8469
▁աթոռ	-8470
արգավաճ	-8471
▁հիշեցնում	-8472
▁ավտոմեքենայի	-8473
▁տպավորություն	-8474
ասխանի	-8475
▁ազգանուն	-8476
▁բաժանում	-8477
▁հոսպիտալ	-8478
▁որոշումն	-8479
▁ձեւավորված	-8480
▁նախարարների	-8481
▁Ոսկ	-8482
▁սերնդի	-8483
ասրահում	-8484
▁Տեխնիկական	-8485
▁%	-8486
ակղ	-8487
ատունը	-8488
▁բակում	-8489
▁դեպքերը	-8490
▁Ստացվում	-8491
▁աննախադեպ	-8492
▁ինքնասպան	-8493
▁օգտագործելով	-8494
▁մնա	-8495
▁խելացի	-8496
▁արձագանքել	-8497
▁ներդրումներ	-8498
ous	-8499
ԱՐԱՆ	-8500
ինալ	-8501
▁Խորեն	-8502
ավորություն	-8503
▁նախագահների	-8504
igh	-8505
ե՞ղ	-8506
▁TV	-8507
ապան	-8508
ազերծ	-8509
▁արտագ	-8510
▁օրերը	-8511
▁խոսքերով	-8512
▁գերազանցում	-8513
▁վերադառնում	-8514
▁կուսակցություն	-8515
▁հավանականությամբ	-8516
▁Նյութ	-8517
ահաղորդ	-8518
▁դաշինքը	-8519
▁կայացրել	-8520
▁Անհրաժեշտ	-8521
▁ժողովածու	-8522
▁Գերմանիայում	-8523
▁կառավարություն	-8524
▁ՀՈ	-8525
▁չպ	-8526
▁վճի	-8527
▁ձորի	-8528
▁Ուստի	-8529
▁սիրտը	-8530
▁բեռնատար	-8531
▁տեսնելու	-8532
ly	-8533
յոն	-8534
▁Փրկ	-8535
▁անթ	-8536
▁գները	-8537
▁մեկը՝	-8538
▁կարիեր	-8539
ապատասխան	-8540
▁քննարկվում	-8541
▁ժառանգության	-8542
▁պարտավորությունների	-8543
հաճ	-8544
ոնք	-8545
ակը՝	-8546
▁անմեղ	-8547
Ազգային	-8548
▁առնում	-8549
▁Էրդողանի	-8550
▁գործելու	-8551
▁խոստացել	-8552
▁Դեկտեմբեր	-8553
դիր	-8554
ներիս	-8555
▁տարեց	-8556
▁ամիսների	-8557
▁երգչուհի	-8558
▁կարծիքով՝	-8559
ife	-8560
▁տիպի	-8561
▁սրահում	-8562
▁ընդունվում	-8563
ՓՈ	-8564
վեգ	-8565
▁մնալու	-8566
▁առաջարկը	-8567
▁հանդիպումից	-8568
▁ներքաղաքական	-8569
▁Առողջապահության	-8570
արշ	-8571
դեմ	-8572
aily	-8573
բուրգ	-8574
ճանաչ	-8575
▁Լավր	-8576
▁ծխախ	-8577
▁մասնաճյուղի	-8578
▁մոտակայքում	-8579
▁իշխանություն	-8580
՞թե	-8581
▁մը	-8582
Ի՞նչ	-8583
▁Բիլ	-8584
▁Մակր	-8585
▁զուտ	-8586
▁մարգ	-8587
եյսբու	-8588
▁Արգենտին	-8589
▁հիմնադրման	-8590
▁ղեկավարները	-8591
▁մոտավորապես	-8592
▁Н	-8593
արկված	-8594
▁առարկա	-8595
▁ժողովը	-8596
▁հիմունք	-8597
▁ականատես	-8598
▁երեւանյան	-8599
▁զբոսաշրջության	-8600
Գր	-8601
եանի	-8602
▁Քվե	-8603
▁ձգտ	-8604
Այսօր	-8605
▁դժբախտ	-8606
▁միացել	-8607
▁Yerevan	-8608
▁հավաքվել	-8609
▁ընդունելու	-8610
աքն	-8611
ակցված	-8612
▁առնել	-8613
▁կնքել	-8614
▁ուղին	-8615
▁Մինչդեռ	-8616
▁Վրաստան	-8617
▁դարձյալ	-8618
▁Այսինքն՝	-8619
▁զարգացնել	-8620
ագի	-8621
տիկ	-8622
▁չստ	-8623
նդյան	-8624
▁Թուրք	-8625
▁կարգավիճակ	-8626
▁կառավարությանը	-8627
՛մ	-8628
քմ	-8629
ափշտակ	-8630
ass	-8631
Մեծ	-8632
աղի	-8633
յուտ	-8634
ոնոմ	-8635
ասկետ	-8636
▁Փոստանջ	-8637
▁Թումանյանի	-8638
ավշ	-8639
արիա	-8640
▁հեռացել	-8641
▁վերապահ	-8642
▁առանցքային	-8643
▁Ռուսաստանից	-8644
▁օգտագործվել	-8645
Եվր	-8646
շտաբ	-8647
▁հուշարձանների	-8648
ՏԲ	-8649
ապի	-8650
եգն	-8651
յար	-8652
ադիո	-8653
ենալ	-8654
▁պառ	-8655
պատակ	-8656
▁մարդն	-8657
▁հանգստի	-8658
▁աշխարհին	-8659
▁ֆուտբոլիստը	-8660
▁Այնուամենայնիվ	-8661
▁ՏԵՂ	-8662
▁Էլեկ	-8663
▁Ջորջ	-8664
▁վարակ	-8665
▁Ուրեմն	-8666
▁Ընտրական	-8667
▁պայմանագրով	-8668
▁պաշտոնյաների	-8669
լուն	-8670
կուն	-8671
▁Կալի	-8672
▁տոկոսի	-8673
▁ունեցան	-8674
▁անտարբեր	-8675
▁սարսափելի	-8676
▁լուսանկարը	-8677
ատուի	-8678
ենգավ	-8679
▁հրազ	-8680
▁անասն	-8681
▁կյանքն	-8682
▁փոխգործ	-8683
իլյ	-8684
րոջ	-8685
▁fun	-8686
▁պատկերը	-8687
▁Թումանյան	-8688
▁բանակցություններ	-8689
ER	-8690
ca	-8691
ՅԱԼ	-8692
▁Շվե	-8693
press	-8694
▁որդի	-8695
▁հոգին	-8696
ка	-8697
age	-8698
Գազ	-8699
այաթ	-8700
▁սերմ	-8701
▁գիտեք	-8702
▁ընտրում	-8703
▁երկխոսության	-8704
բա	-8705
▁միս	-8706
▁Էդմոն	-8707
▁սատար	-8708
ասկետբոլ	-8709
▁ելույթը	-8710
▁մագիստր	-8711
▁առաջնությունը	-8712
Դա	-8713
▁Շառլ	-8714
▁պորտ	-8715
▁Բաքվի	-8716
▁Գայան	-8717
▁նվիրել	-8718
▁ամենուր	-8719
▁փառատոնը	-8720
▁վերանորոգված	-8721
ծառ	-8722
▁հո	-8723
▁Կոդ	-8724
▁սպորտային	-8725
▁տեղումների	-8726
▁առանձնահատուկ	-8727
▁խլ	-8728
▁Կաս	-8729
աբանի	-8730
▁Սեֆիլ	-8731
▁նմուշ	-8732
▁համարը	-8733
▁հաղորդման	-8734
▁հրաժարվում	-8735
▁վկայակոչելով	-8736
բաթ	-8737
վանդ	-8738
▁նրանով	-8739
▁կիրական	-8740
▁բազմազան	-8741
▁հեշտությամբ	-8742
▁ճանապարհորդ	-8743
▁կտեղ	-8744
ակարգը	-8745
▁աճում	-8746
▁անձին	-8747
▁երազում	-8748
▁ընթացքի	-8749
▁օգոստոս	-8750
▁Ղարաբաղյան	-8751
▁գնահատականը	-8752
▁վերաբերմունք	-8753
▁ֆինանսավորման	-8754
▁խց	-8755
▁փափ	-8756
▁գավառ	-8757
▁Կարելի	-8758
▁փոխելու	-8759
▁օբյեկտիվ	-8760
▁ակումբում	-8761
▁համաժողովի	-8762
▁Շարմազանովը	-8763
▁խոշորագույն	-8764
▁Անվտանգության	-8765
լոմ	-8766
ո՛ւ	-8767
▁Զբ	-8768
ավեն	-8769
եռնի	-8770
▁միկ	-8771
Փյուն	-8772
Լիվերպ	-8773
▁աչքերը	-8774
▁մեկտեղ	-8775
▁րոպեին	-8776
▁Քննչական	-8777
▁սպառազին	-8778
▁վերցնում	-8779
▁հաստատման	-8780
▁անձնակազմի	-8781
▁ժողովուրդների	-8782
▁բանակցությունները	-8783
▁Г	-8784
Սիր	-8785
▁տվեք	-8786
ախորհրդ	-8787
▁արհեստ	-8788
▁բանակում	-8789
▁հաշվետու	-8790
▁հրապարակվել	-8791
▁կենսաթոշակային	-8792
ek	-8793
դիմ	-8794
▁HT	-8795
ատիրոջ	-8796
▁արկած	-8797
▁Նախորդը	-8798
▁վարձատր	-8799
▁ներկայացուցչի	-8800
▁նախաձեռնությունը	-8801
ՐԻ	-8802
իում	-8803
▁ՆՈՐ	-8804
▁մոլ	-8805
▁նստել	-8806
▁արդյունավետության	-8807
▁ուսումնասիրության	-8808
▁Ծր	-8809
▁Ֆիլ	-8810
լիգար	-8811
▁Մհեր	-8812
▁անդրադ	-8813
▁խմբում	-8814
▁Շնորհակալություն	-8815
▁հաշմանդամություն	-8816
end	-8817
ածի	-8818
մեջ	-8819
▁Om	-8820
երլանդ	-8821
▁Զարուհի	-8822
▁Կրթության	-8823
▁ասոցիացիայի	-8824
ра	-8825
▁Ասի	-8826
ազգեստ	-8827
▁դրվագ	-8828
▁շաքար	-8829
▁թանկարժեք	-8830
▁հարցերում	-8831
▁անհրաժեշտությունը	-8832
▁&	-8833
▁Or	-8834
▁որս	-8835
▁Աբով	-8836
լիգարխ	-8837
▁հնչում	-8838
▁կյանքից	-8839
▁օրինակ՝	-8840
▁Р	-8841
նային	-8842
Ապ	-8843
▁Թադ	-8844
▁արի	-8845
▁չլինի	-8846
երիկյան	-8847
▁խոսակց	-8848
▁դպրոցներում	-8849
Օր	-8850
մալ	-8851
▁Բադ	-8852
▁մերձ	-8853
▁ասպարեզ	-8854
▁Միեւնույն	-8855
▁Կարապետյան	-8856
▁կոկ	-8857
Յուվեն	-8858
▁ձյուն	-8859
▁բացատրել	-8860
▁Սեբաստացի	-8861
▁հաջողություն	-8862
ԵԴ	-8863
▁ՀԵՏ	-8864
ագնաց	-8865
▁դասի	-8866
▁կինո	-8867
րացական	-8868
▁անհապաղ	-8869
ah	-8870
ժդ	-8871
րոֆ	-8872
▁գրանցել	-8873
▁քննարկելու	-8874
ID	-8875
ty	-8876
ռոմ	-8877
▁ՀՖՖ	-8878
դիայի	-8879
▁տիտղ	-8880
▁ԿԱՏԱՐ	-8881
▁գիտենք	-8882
▁թեկուզ	-8883
▁սահմանի	-8884
▁Կա	-8885
▁Pan	-8886
▁Կենդ	-8887
▁գնաճ	-8888
▁ամռանը	-8889
▁գրքում	-8890
▁Հաջորդը	-8891
▁ծանոթացել	-8892
▁մասնակցություն	-8893
▁զսպ	-8894
▁թոշ	-8895
▁մարմն	-8896
▁ԿԵՆՏՐՈՆ	-8897
▁հողամաս	-8898
▁լուսավոր	-8899
▁հրավիրված	-8900
▁վերանորոգման	-8901
▁ներկայացուցիչներին	-8902
▁կօգն	-8903
▁պահը	-8904
յուպատ	-8905
▁Իրաքի	-8906
▁Մեսրոպ	-8907
▁հրամանով	-8908
▁մոտեցում	-8909
▁Առաքելական	-8910
▁ծառայողների	-8911
ուրտ	-8912
▁ԿԸՀ	-8913
Առաջին	-8914
▁Բեռլին	-8915
▁Համալս	-8916
▁տարածվում	-8917
▁լրատվության	-8918
▁ներողություն	-8919
▁Have	-8920
▁կապը	-8921
▁քաղցր	-8922
▁սնունդ	-8923
▁երազանք	-8924
▁բարելավման	-8925
եմպ	-8926
▁թեժ	-8927
▁տեսա	-8928
եքենան	-8929
▁նույնն	-8930
▁տեխնիկայի	-8931
▁դադարեցնել	-8932
▁բյուջետային	-8933
▁դասընթացներ	-8934
▁ոստիկանները	-8935
▁փոխանցմամբ՝	-8936
որգի	-8937
▁ուռ	-8938
▁խոսքեր	-8939
▁ամուսին	-8940
▁ապրիլին	-8941
▁ունենան	-8942
▁ռադիոկայ	-8943
та	-8944
ոնիկ	-8945
▁կոտ	-8946
▁Հստակ	-8947
▁ապրիլ	-8948
ոլոգիայի	-8949
▁հանգամանքները	-8950
▁ընտրություններից	-8951
ուան	-8952
ոյանն	-8953
▁Խոշոր	-8954
▁անհավ	-8955
▁լեգենդ	-8956
▁կետում	-8957
▁արձակել	-8958
▁մասնակի	-8959
▁սկսելու	-8960
▁կատարվող	-8961
▁թանգարանի	-8962
edes	-8963
▁Meet	-8964
▁շանս	-8965
▁Շաբաթ	-8966
▁խոսեց	-8967
▁մտնել	-8968
▁համբեր	-8969
▁բարձրան	-8970
▁բոլորիս	-8971
▁հափշտակ	-8972
▁մամուլում	-8973
▁խուսափելու	-8974
▁երկարաժամկետ	-8975
▁միջոցառումները	-8976
▁Թոմ	-8977
ահանա	-8978
ոգրաֆ	-8979
▁Արեգ	-8980
▁Մերկ	-8981
▁Մեքս	-8982
▁վկան	-8983
▁վերականգնել	-8984
▁С	-8985
▁Սմբ	-8986
▁բանավ	-8987
▁նավթի	-8988
▁նվաճել	-8989
▁Նույնիսկ	-8990
▁բաժնետոմս	-8991
▁Ֆինանսական	-8992
▁հիմնադրվել	-8993
▁վիրավորվել	-8994
ջի	-8995
արն	-8996
▁կաղ	-8997
ականներ	-8998
▁Հրաչյա	-8999
▁Մոուրին	-9000
ունակության	-9001
▁ցուցաբերել	-9002
▁օգնությունը	-9003
vi	-9004
lay	-9005
Սել	-9006
»...	-9007
▁հրաձ	-9008
▁Խաղեր	-9009
▁կմեկն	-9010
▁միտում	-9011
▁վերսկս	-9012
▁հավասարակշռ	-9013
▁յուրաքանչյուրը	-9014
քա՞ն	-9015
▁թե՝	-9016
▁Վանեց	-9017
▁ալկոհ	-9018
▁Հարցին	-9019
ացիներին	-9020
▁Բրյուսել	-9021
▁արդյունաբերության	-9022
ձգ	-9023
ակոծ	-9024
▁Չոր	-9025
ոցում	-9026
▁օրոք	-9027
ահատակ	-9028
▁բերեց	-9029
▁ստորեւ	-9030
▁Պատրաստ	-9031
▁Պետրոսյան	-9032
▁Ժան	-9033
▁Սող	-9034
▁ծռեր	-9035
արանին	-9036
▁Երկար	-9037
▁խողով	-9038
▁պահանջը	-9039
▁Բաղդասար	-9040
▁կասեցված	-9041
▁պահանջով	-9042
▁ադրբեջանցի	-9043
▁հետաքրքրում	-9044
որա	-9045
ռան	-9046
ԱԲԵՐ	-9047
▁Վաչ	-9048
ագրվում	-9049
▁հիասթափ	-9050
▁փորձաքնն	-9051
▁պաշտպանում	-9052
▁խտ	-9053
ացումն	-9054
▁փրկել	-9055
ահարույց	-9056
.`	-9057
▁ատոմ	-9058
▁կրտսեր	-9059
▁ոլորտը	-9060
▁պրոցես	-9061
▁ողբերգական	-9062
▁կառավարությանն	-9063
▁and	-9064
▁աչք	-9065
ավշյա	-9066
ելիքի	-9067
▁հակա	-9068
▁ձախող	-9069
▁Արտաքին	-9070
▁կմասնակցի	-9071
▁ահաբեկչության	-9072
ե՛ր	-9073
թին	-9074
երսի	-9075
▁լոգ	-9076
▁տխուր	-9077
▁հաջորդող	-9078
▁լիազորված	-9079
՛ւ	-9080
զին	-9081
որբ	-9082
▁Un	-9083
▁էմ	-9084
▁զայր	-9085
▁ցուցակ	-9086
▁հագեցած	-9087
▁ենթարկված	-9088
ext	-9089
▁Օսիպ	-9090
▁սառը	-9091
▁համակ	-9092
▁երգում	-9093
▁օպերատոր	-9094
▁ժողովրդավարության	-9095
▁ստորաբաժանումների	-9096
▁հանրապետությունում	-9097
▁ամսին	-9098
կենտրոն	-9099
▁Արփինե	-9100
▁ծառայում	-9101
Net	-9102
եյտ	-9103
լիս	-9104
▁Աֆր	-9105
▁Բախ	-9106
▁պոտ	-9107
▁Տեղի	-9108
▁կային	-9109
▁Մաքսային	-9110
▁առհասարակ	-9111
▁կանցկացվի	-9112
▁ընտրողների	-9113
▁թվականների	-9114
▁կարգավորող	-9115
▁հանդիպումների	-9116
org	-9117
ենհ	-9118
լետ	-9119
▁ՀՊ	-9120
տե՞ղ	-9121
▁ամառ	-9122
այտառակ	-9123
նանային	-9124
▁Omegle	-9125
▁Ֆրանկոֆոնիայի	-9126
▁նախարարությունում	-9127
ML	-9128
ԵՐԸ	-9129
խուժ	-9130
▁թել	-9131
անդիս	-9132
▁արժեթ	-9133
ercedes	-9134
▁միությունը	-9135
▁Նկ	-9136
իլիպ	-9137
▁Պատվ	-9138
▁զերծ	-9139
Արսենալ	-9140
▁ընտրան	-9141
▁առաջացած	-9142
▁պետքարտուղ	-9143
▁եպ	-9144
▁լքել	-9145
▁Առավել	-9146
▁պատմեց	-9147
▁դեսպանը	-9148
▁տրամաբան	-9149
▁դիվանագետ	-9150
▁նախարարին	-9151
▁անվանակարգ	-9152
▁հետազոտության	-9153
ուրկ	-9154
գրեսի	-9155
ղթերի	-9156
▁Բելգ	-9157
▁վրա՝	-9158
ոսյանն	-9159
▁Կարապետյանն	-9160
▁հաշվետվություն	-9161
իտը	-9162
շատ	-9163
▁կղ	-9164
որին	-9165
▁Քեզ	-9166
▁խոհ	-9167
աձորի	-9168
ուղարկ	-9169
▁Կատալ	-9170
▁դիմումի	-9171
▁նկատում	-9172
▁ընկերական	-9173
▁ենթակառուցվածքների	-9174
▁←	-9175
ամբլ	-9176
▁Վեհ	-9177
▁սալ	-9178
վարթն	-9179
աշվիլին	-9180
▁Արդյո՞ք	-9181
եղը	-9182
▁ՀՕ	-9183
ույքի	-9184
▁բազում	-9185
▁գործընթացների	-9186
լան	-9187
լիի	-9188
▁իդ	-9189
ազմի	-9190
ավաճառ	-9191
▁Նախիջ	-9192
▁Նշված	-9193
▁Վստահ	-9194
▁անպատ	-9195
▁երեկո	-9196
▁հիշել	-9197
▁ձայների	-9198
օգնության	-9199
▁ցուցահանդեսը	-9200
▁կի	-9201
▁Ռեջ	-9202
ագայթ	-9203
ուրաբ	-9204
▁Վերց	-9205
▁Միհրան	-9206
▁գլոբալ	-9207
▁հավաքածու	-9208
▁մրցաշրջանում	-9209
▁Քիչ	-9210
▁բրոնզ	-9211
ահամալիրի	-9212
▁վերաքննիչ	-9213
▁հեռախոսազրույց	-9214
եպի	-9215
▁աբ	-9216
եղեցիկ	-9217
▁կորած	-9218
ապարփակ	-9219
▁արտադրական	-9220
ud	-9221
▁գծի	-9222
ասենյ	-9223
▁Ժիրայր	-9224
իադ	-9225
իտա	-9226
▁օդի	-9227
աշկեր	-9228
եցնող	-9229
աժողովին	-9230
▁հարկում	-9231
▁համայնքը	-9232
▁Իրականում	-9233
▁երաժշտություն	-9234
▁անվտանգությունը	-9235
▁մեծամասնությունը	-9236
▁իրադարձությունները	-9237
կմ	-9238
▁ափին	-9239
▁գների	-9240
▁մամլո	-9241
▁շենքերի	-9242
▁անդամակց	-9243
▁իրավասու	-9244
▁նորմատիվ	-9245
ասիրության	-9246
▁Սահակյանի	-9247
▁ազատամարտ	-9248
▁կազմակերպությունները	-9249
▁­	-9250
indow	-9251
▁գրոհ	-9252
▁կառույցի	-9253
▁Դիտումներ	-9254
▁Վարչապետի	-9255
▁բացակայում	-9256
▁հաջողությամբ	-9257
▁Դմիտ	-9258
▁Հռոմ	-9259
▁ՕՐԵՆ	-9260
▁Երբեմն	-9261
▁ժամկետի	-9262
▁կոնֆլիկ	-9263
▁Մանուկյան	-9264
▁երաշխավոր	-9265
▁տվյալներով՝	-9266
հանր	-9267
▁Անկար	-9268
▁որակը	-9269
▁կաշառք	-9270
▁Հետեւաբար	-9271
▁ուղարկվել	-9272
▁ղեկավարությունը	-9273
ԱՋ	-9274
ուլս	-9275
▁ո՞րն	-9276
▁ուղարկեք	-9277
▁գործիչների	-9278
իստն	-9279
▁տիրող	-9280
oft	-9281
օրին	-9282
անիզմի	-9283
▁ռոման	-9284
▁կորպոր	-9285
▁իրանական	-9286
▁հեռանում	-9287
▁հրաժարականի	-9288
տամ	-9289
:...	-9290
▁բանջ	-9291
▁բարեն	-9292
▁արտերկր	-9293
▁քաղաքից	-9294
▁պատճառները	-9295
այիլ	-9296
տված	-9297
ամթերք	-9298
▁Գուցե	-9299
▁Հասմիկ	-9300
▁որդուն	-9301
▁ռեկտոր	-9302
▁ինքներդ	-9303
Տար	-9304
▁ԱԿ	-9305
▁ՆԵՐ	-9306
▁Հասան	-9307
▁համահ	-9308
▁Տարբեր	-9309
▁Տղամարդ	-9310
▁դարպասապահ	-9311
▁հանդիպումները	-9312
ph	-9313
իչն	-9314
▁ՊԱՏ	-9315
▁Սոֆ	-9316
▁Anal	-9317
▁ծնունդ	-9318
▁օրենքների	-9319
▁անդրադարձավ	-9320
▁բովանդակությամբ	-9321
OS	-9322
▁էիր	-9323
աշնակ	-9324
եցույց	-9325
▁Inter	-9326
▁Գաբրիել	-9327
▁արձակվել	-9328
▁կորցնում	-9329
▁ներկայացել	-9330
▁Սվ	-9331
▁լճ	-9332
▁Աղջ	-9333
աժամի	-9334
▁եզակի	-9335
▁համեղ	-9336
ստանում	-9337
▁սիրիական	-9338
▁խոստանում	-9339
▁ակադեմիական	-9340
orl	-9341
▁Blog	-9342
երների	-9343
▁Դմիտրի	-9344
ԱՆՈՒԹՅԱՆ	-9345
▁ինժեներ	-9346
▁)	-9347
ive	-9348
▁գլխի	-9349
▁ներգ	-9350
▁ազնիվ	-9351
▁միկրո	-9352
▁սիրված	-9353
▁Իրանում	-9354
▁ցուցադրել	-9355
▁Ներկայումս	-9356
▁իրականություն	-9357
գիռ	-9358
Ավել	-9359
ԱԿԱՐԳ	-9360
Թուրքի	-9361
▁Աստծու	-9362
▁փոխվում	-9363
▁կատարյալ	-9364
▁Հասարակական	-9365
▁ժամանակներում	-9366
cri	-9367
աբլ	-9368
▁ՀԻ	-9369
▁ԶՈՒ	-9370
▁հյութ	-9371
▁ուրբաթ	-9372
▁Մոսկվան	-9373
▁Փետրվար	-9374
▁ուշագրավ	-9375
▁ֆրանսիացի	-9376
▁տոկոսադրույ	-9377
▁ձի	-9378
ուղի	-9379
▁Պալ	-9380
▁Ֆիլմ	-9381
▁նավթ	-9382
աբույժ	-9383
▁ամբաստան	-9384
▁դատախազի	-9385
▁դեպարտամեն	-9386
▁վարչությունում	-9387
▁հնարավորությունների	-9388
ՄՏ	-9389
որն	-9390
▁կզ	-9391
▁ափս	-9392
▁Մեծի	-9393
▁կիսա	-9394
▁միգր	-9395
▁սիրտ	-9396
▁տերմ	-9397
▁Օրենս	-9398
՛ք	-9399
▁Քր	-9400
...»	-9401
ու՞մ	-9402
▁Դես	-9403
▁Հինգ	-9404
▁տհաճ	-9405
▁Րաֆֆի	-9406
▁տանող	-9407
▁Առավոտ	-9408
▁մասամբ	-9409
▁քայլերի	-9410
▁Դասընթաց	-9411
Քաղաքացիական	-9412
▁համայնքապետ	-9413
▁հետաքրքրություն	-9414
վկ	-9415
▁Գոհ	-9416
▁մտքի	-9417
▁եկամտ	-9418
▁ՀԱՄԱՅՆ	-9419
▁քանդակ	-9420
ասկանալի	-9421
▁ցուցմունք	-9422
▁u	-9423
ոկի	-9424
վելը	-9425
▁Փարիզ	-9426
▁հասավ	-9427
▁քահանա	-9428
▁սուբյեկտ	-9429
▁օրաթերթը	-9430
▁Սոցիալական	-9431
▁հայտնաբերված	-9432
Սպ	-9433
.),	-9434
▁Am	-9435
ԳԱՅԻՆ	-9436
▁ատյանի	-9437
▁մեկուս	-9438
▁այսուհետ	-9439
▁ներկայացվող	-9440
ԻԳ	-9441
▁ԿԱՐ	-9442
իկներին	-9443
▁օդային	-9444
▁պոտենցի	-9445
▁մեղադրում	-9446
▁պատգամավորի	-9447
հեղ	-9448
▁Վիվ	-9449
▁համալիրի	-9450
▁հանդուրժ	-9451
ահետազոտական	-9452
▁մարդասիրական	-9453
ֆիկ	-9454
▁Եղի	-9455
▁ՏԻՄ	-9456
▁բախտ	-9457
▁դեմքը	-9458
▁կրակի	-9459
▁դիտում	-9460
եցության	-9461
▁գործունեությանը	-9462
▁ընկերությունները	-9463
▁հեռուստաընկերության	-9464
ENI	-9465
ժամ	-9466
վայի	-9467
▁Ավան	-9468
▁ԱՇԽԱՏ	-9469
▁այդտեղ	-9470
▁անիմաստ	-9471
▁Գյումրիի	-9472
▁ուղղաթիռ	-9473
▁հավելվածի	-9474
▁մասնակցող	-9475
▁ենթարկվում	-9476
▁ընդդիմության	-9477
ՈՒՄԸ	-9478
ընտիր	-9479
▁Արծվ	-9480
▁կարեւորում	-9481
▁վերակառուց	-9482
▁հրապարակման	-9483
▁իրականության	-9484
▁հրապարակային	-9485
ib	-9486
ե՛ս	-9487
▁For	-9488
▁Pre	-9489
▁պտտ	-9490
▁HTML	-9491
▁ոտքի	-9492
▁կառաջ	-9493
ադարյան	-9494
▁ստիպում	-9495
ամասնական	-9496
▁փոքրամասն	-9497
▁տրամադրվում	-9498
▁արդյունաբերական	-9499
կով	-9500
եյան	-9501
ֆիլմ	-9502
կապես	-9503
▁Սպաս	-9504
▁գրքեր	-9505
▁նախապ	-9506
▁մտնելու	-9507
▁պատերազմում	-9508
ՍԺ	-9509
հա	-9510
շիռ	-9511
արքեթ	-9512
շական	-9513
▁Սիթի	-9514
▁Մարիա	-9515
արանային	-9516
▁Ալավերդ	-9517
▁ներխուժ	-9518
▁հիվանդանոցում	-9519
ամատ	-9520
այներ	-9521
▁Սիսի	-9522
▁Ուսան	-9523
▁Ցանկացած	-9524
▁Յունայթեդի	-9525
▁ձեռքբերման	-9526
▁առկայությունը	-9527
▁գործողություն	-9528
▁Տվ	-9529
▁էթ	-9530
Բայց	-9531
▁շղթ	-9532
▁ջեռ	-9533
▁շտեմ	-9534
▁սպորտ	-9535
▁հասցեն	-9536
ածն	-9537
ղան	-9538
եզու	-9539
ոնյա	-9540
▁մանուկ	-9541
▁զբաղեցրել	-9542
▁Պետրոսյանի	-9543
▁աշակերտները	-9544
oday	-9545
յայի	-9546
մարիտ	-9547
▁ակտի	-9548
▁խթան	-9549
աքանակ	-9550
▁ազդել	-9551
▁պատասխանատվությունը	-9552
ավրի	-9553
ենադ	-9554
իտամին	-9555
▁ինչի՞	-9556
▁ուտել	-9557
▁հանում	-9558
▁Արաբկիր	-9559
▁Դերասան	-9560
▁հյուպատ	-9561
▁հրաժեշտ	-9562
ավարություն	-9563
▁պաշտպանելու	-9564
Հայր	-9565
ատանը	-9566
▁վրայ	-9567
▁բռնցք	-9568
ադրությանը	-9569
▁առաջադրանք	-9570
րանսպորտային	-9571
▁Հայրապետյանը	-9572
ՏԻ	-9573
unk	-9574
▁Վճռ	-9575
▁դաշտի	-9576
▁դատավ	-9577
ոռուպցիոն	-9578
▁Կանադայի	-9579
▁հաջողություններ	-9580
▁ապակ	-9581
▁Հունվար	-9582
▁պատգամավորները	-9583
ԱՆՔ	-9584
▁մա	-9585
անիա	-9586
ութի	-9587
▁Օգտ	-9588
▁Զեյն	-9589
indows	-9590
վեցինք	-9591
▁բաժակ	-9592
ՏԵՄԲԵՐԻ	-9593
▁սկզբից	-9594
▁կողմում	-9595
▁վճռական	-9596
▁ֆիլմում	-9597
▁Գերմանիա	-9598
իմա	-9599
▁Եհ	-9600
եզոք	-9601
▁Շար	-9602
▁Daily	-9603
▁հիմար	-9604
▁սպանվել	-9605
▁Համակարգ	-9606
▁օրենսգրքում	-9607
▁ձկն	-9608
cript	-9609
ակցեն	-9610
▁Մոլդ	-9611
▁Տաթեւ	-9612
▁կարոտ	-9613
▁Շենգավ	-9614
Ազատության	-9615
▁փաստաթղթի	-9616
▁պատգամավորը	-9617
▁սարքավորումների	-9618
ածախ	-9619
▁Դար	-9620
▁Մեդ	-9621
ադրամ	-9622
ազգուշ	-9623
▁բավար	-9624
▁համախ	-9625
▁Օգոստոս	-9626
▁Համայնքի	-9627
աա	-9628
եա	-9629
▁օպտ	-9630
▁ծաղկ	-9631
▁կետը	-9632
▁Կանանց	-9633
▁վտանգի	-9634
▁համարվող	-9635
▁արդյունքներ	-9636
▁իրավապաշտպան	-9637
▁հետեւանքները	-9638
▁վերաբերմունքը	-9639
ies	-9640
ՀԱՅ	-9641
▁are	-9642
▁գլխին	-9643
▁դասեր	-9644
▁էկոնոմ	-9645
▁նպատակների	-9646
Ըն	-9647
▁ԶՈւ	-9648
▁Կիրակ	-9649
ասենյակ	-9650
▁անդամի	-9651
▁խոնարհ	-9652
▁կենդան	-9653
▁կոնվենց	-9654
▁ամենօրյա	-9655
▁Ռոնալդուն	-9656
▁աջակցելու	-9657
▁մեկնարկեց	-9658
▁կազմակերպություններ	-9659
ե՜	-9660
գին	-9661
իքս	-9662
ուֆ	-9663
ուտի	-9664
▁Էստ	-9665
▁Վիենն	-9666
▁ուժեր	-9667
▁ձեռքով	-9668
▁վարկերի	-9669
▁Ավետիսյանը	-9670
▁ընդունելով	-9671
▁Հանձնաժողովի	-9672
▁Չեն	-9673
ամադր	-9674
ինյան	-9675
▁Այնտեղ	-9676
▁սկզբնական	-9677
▁օրենսգրքով	-9678
▁արագությամբ	-9679
բար	-9680
▁Գե	-9681
▁ՕԳ	-9682
▁կտան	-9683
ոսական	-9684
իստները	-9685
▁դրամատ	-9686
▁Լուսինե	-9687
▁օգտվելու	-9688
▁գործարանի	-9689
EO	-9690
▁And	-9691
▁Ֆիզ	-9692
▁Ուղղ	-9693
▁շուկա	-9694
յալները	-9695
▁Ներքին	-9696
▁խոստովանել	-9697
▁գրականություն	-9698
▁ճապ	-9699
▁Զանգ	-9700
▁ՀԱՐՑ	-9701
եցնելով	-9702
▁լուծումը	-9703
▁պատճառներով	-9704
▁Մեկնաբանությունները	-9705
ом	-9706
▁Q	-9707
iss	-9708
էտք	-9709
▁՛՛	-9710
ading	-9711
▁բորս	-9712
▁խաղին	-9713
▁խաղից	-9714
▁ստանձնել	-9715
▁ձեւավորվել	-9716
որմ	-9717
▁դրդ	-9718
▁եզր	-9719
▁ջնջ	-9720
▁կկատար	-9721
▁միջոցը	-9722
▁տիրապետում	-9723
▁Ադրբեջանական	-9724
▁համաձայնագիր	-9725
▁նորություններ	-9726
▁ոստիկանություն	-9727
▁Pro	-9728
Մխիթար	-9729
ամասում	-9730
▁խմբային	-9731
▁խոսքում	-9732
▁էլեկտրաէներգիայի	-9733
▁Բյուր	-9734
▁Մադրիդ	-9735
▁հաշիվը	-9736
▁մարզերի	-9737
▁բարենպաստ	-9738
▁օբյեկտների	-9739
▁հեղինակային	-9740
▁ինքնությունը	-9741
ԱՐՀ	-9742
նումը	-9743
▁Կիպր	-9744
▁Երվանդ	-9745
որիայում	-9746
▁մակարդակ	-9747
▁ակտիվորեն	-9748
▁Գեւորգյանը	-9749
▁դեկտեմբերին	-9750
▁հարյուրավոր	-9751
սիի	-9752
▁ՍԴ	-9753
աղթի	-9754
ատերը	-9755
վկիան	-9756
▁Օպեր	-9757
նելուց	-9758
▁Ռեջեփ	-9759
▁գոտու	-9760
▁Գիտնական	-9761
▁Ստեփանակերտի	-9762
ys	-9763
ինդ	-9764
▁,,	-9765
ռլանդ	-9766
▁Սմբատ	-9767
ակողմանի	-9768
▁Վարկանիշ	-9769
▁Նիդերլանդ	-9770
ատեխնիկական	-9771
▁բնակության	-9772
▁սահմանային	-9773
▁թանգարանում	-9774
▁խորհրդարանը	-9775
▁ժամանակացույց	-9776
▁ԱԱ	-9777
▁Բոլ	-9778
▁կփորձ	-9779
▁մուլտ	-9780
▁տոննա	-9781
▁Ղուկաս	-9782
▁շուրջը	-9783
▁գործուղ	-9784
▁Արոնյանը	-9785
▁Բարսելոն	-9786
▁դատավորի	-9787
▁կարիքների	-9788
▁փոխանցման	-9789
▁Ղազախստանի	-9790
▁փոխանակման	-9791
▁նկարահանվել	-9792
▁Զուրաբ	-9793
▁աղջկան	-9794
ամերիկյան	-9795
Ինձ	-9796
ոնիա	-9797
▁կհաս	-9798
▁Խնդիր	-9799
▁դստեր	-9800
▁ընդհատ	-9801
▁փաստեր	-9802
▁գյուղից	-9803
▁հարգանքի	-9804
▁բաժնետիրական	-9805
ԴՀ	-9806
կոմ	-9807
▁կեսը	-9808
▁Տիրոջ	-9809
▁կամրջ	-9810
▁պտուղ	-9811
▁տույժ	-9812
լիմպիադ	-9813
▁այգում	-9814
▁ծրագրերին	-9815
▁վարչակազմ	-9816
▁Մանուկյանի	-9817
թյան	-9818
▁կատ	-9819
eline	-9820
▁ճարպ	-9821
▁ցավոք	-9822
ացումից	-9823
▁կինոյի	-9824
▁բուժում	-9825
▁ճամփորդ	-9826
▁առեւտուր	-9827
▁Կարծ	-9828
▁Այդպես	-9829
▁ասացին	-9830
▁կստանա	-9831
օգտագործ	-9832
առությամբ	-9833
▁Ցեղասպան	-9834
▁Պատգամավոր	-9835
▁այլընտրանքային	-9836
▁Իվ	-9837
▁ինդ	-9838
ծանոթ	-9839
նազար	-9840
▁կհամ	-9841
վածքներ	-9842
▁Հունիս	-9843
▁Սեւանա	-9844
▁Լիբանանի	-9845
▁ճգնաժամի	-9846
▁Ռուսաստանին	-9847
▁տարածքներում	-9848
▁ԿԱՌԱՎԱՐՈՒԹՅԱՆ	-9849
NEWS	-9850
եցեք	-9851
ժդեհ	-9852
▁վիդ	-9853
▁Պարտ	-9854
▁արած	-9855
ընդհանուր	-9856
▁Վրաստանը	-9857
▁հավաքված	-9858
▁հեղինակավոր	-9859
ֆո	-9860
▁մտց	-9861
▁երգեր	-9862
▁հավելել	-9863
▁սկզբանե	-9864
▁Ֆուտբոլի	-9865
▁Իտալիայում	-9866
▁բռնություն	-9867
▁կպց	-9868
▁ստր	-9869
ազանդ	-9870
▁արժե	-9871
▁դատի	-9872
▁լիցք	-9873
▁խուզ	-9874
▁Contin	-9875
▁Գիտական	-9876
▁դիմելու	-9877
▁հարկանի	-9878
▁վրաերթի	-9879
▁սմարթֆոն	-9880
▁ձերբակալել	-9881
▁վնասվածքներ	-9882
ո՞ր	-9883
▁փչ	-9884
եկտի	-9885
▁Նազ	-9886
▁պետը	-9887
▁Թադեւ	-9888
▁հաղորդակց	-9889
▁Ad	-9890
ագեղ	-9891
անվել	-9892
▁գոլի	-9893
▁Էդգար	-9894
▁ժամերին	-9895
▁կալանքի	-9896
▁շարժումը	-9897
▁Ֆրանսերեն	-9898
▁միավորում	-9899
առեւ	-9900
իստը	-9901
▁Պեր	-9902
▁ատել	-9903
ուհուն	-9904
▁Իսլամական	-9905
▁հայտարարություններ	-9906
wit	-9907
վեստ	-9908
▁Փարիզի	-9909
▁անընդմեջ	-9910
▁արգելված	-9911
▁մայրաքաղաքում	-9912
▁պայմանագրային	-9913
։[	-9914
Լուս	-9915
եվեր	-9916
▁Մարգար	-9917
▁օգտվում	-9918
երք	-9919
UNTY	-9920
▁մին	-9921
▁թարգ	-9922
▁կարո՞ղ	-9923
▁դեսպանի	-9924
▁երկուշաբթի	-9925
▁մարմիններին	-9926
ծն	-9927
▁to	-9928
▁Եղիազար	-9929
▁գտնելու	-9930
▁միջպետական	-9931
Կան	-9932
▁Դոն	-9933
▁մայ	-9934
▁նրա՝	-9935
▁Խոսքը	-9936
▁բժշկի	-9937
▁ուտես	-9938
▁COUNTY	-9939
▁խառնում	-9940
▁հուշարձան	-9941
▁փողոցների	-9942
▁դեսպանատան	-9943
▁վստահության	-9944
մլ	-9945
ենկ	-9946
ուա	-9947
եցիր	-9948
▁ՅՈՒՆ	-9949
▁Անդրե	-9950
ուլտուր	-9951
▁ամսագրի	-9952
▁Խորհուրդ	-9953
▁լուսաբան	-9954
▁թատերական	-9955
▁երկրաշարժի	-9956
ւմ	-9957
▁Սն	-9958
Դուք	-9959
ացվեց	-9960
վադեպ	-9961
▁Զարգ	-9962
▁գոտի	-9963
▁դափն	-9964
▁գույքը	-9965
▁Հեռուստ	-9966
▁հիշատակի	-9967
▁մեղադրել	-9968
▁վերամշակ	-9969
▁ստեղծվում	-9970
րամատակարար	-9971
▁մրցաշրջանի	-9972
՞ր	-9973
ՓՈԽ	-9974
եց՝	-9975
▁գնի	-9976
▁Երեք	-9977
▁Օրենք	-9978
▁ՆԱԽԱՐԱՐ	-9979
▁սահմանամերձ	-9980
▁տեղեկությունը	-9981
▁պատասխանատվությամբ	-9982
▁Cl	-9983
▁խոտ	-9984
▁Ձմեռ	-9985
▁թիվն	-9986
▁բարեր	-9987
աշրջանը	-9988
▁ամենաթ	-9989
▁սպառնալիք	-9990
▁ավտոմեքենա	-9991
ամոլ	-9992
ապոլ	-9993
արունակի	-9994
▁Մասնակից	-9995
▁ընտրելու	-9996
▁ղեկավարում	-9997
▁հանրակրթական	-9998
▁օգտագործելու	-9999
▁Գիտությունների	-10000
▁Շտ	-10001
տուալ	-10002
▁ներբ	-10003
▁Վերջերս	-10004
uc	-10005
▁քահան	-10006
▁հարկադիր	-10007
▁հանրաքվեի	-10008
▁ինստիտուտը	-10009
▁խախտումների	-10010
▁կառավարական	-10011
▁գեղեցկության	-10012
իրը	-10013
ոցներ	-10014
որդներ	-10015
▁սկանդալ	-10016
▁արգելափակ	-10017
▁կներկայացնի	-10018
▁պարտավորությունները	-10019
ug	-10020
▁ՊԱՇ	-10021
▁Սկս	-10022
▁չափի	-10023
▁վերը	-10024
▁ֆայլ	-10025
ադպրոց	-10026
որային	-10027
▁ֆոնդի	-10028
արվեստի	-10029
▁բացումը	-10030
▁բյուջեն	-10031
▁հայերին	-10032
▁կատարումը	-10033
▁Թուրքիային	-10034
▁պահանջվում	-10035
▁ուսանողներին	-10036
▁ուղղություններով	-10037
▁Եզ	-10038
▁խօս	-10039
աբուծ	-10040
աբերվել	-10041
▁կայքէջ	-10042
▁ճնշում	-10043
այության	-10044
▁Անջելես	-10045
▁Armenian	-10046
▁կիրառում	-10047
ice	-10048
ՄՏՍ	-10049
րիպ	-10050
ԵՊՈՐՏ	-10051
աձգել	-10052
▁Բաքու	-10053
անցիները	-10054
▁մոլորակի	-10055
▁ընդգրկվել	-10056
▁կարգավիճակի	-10057
▁հետեւանքների	-10058
▁Ոստիկանությունը	-10059
▁գործունեությամբ	-10060
ԱՐԻ	-10061
▁Ex	-10062
ախոսի	-10063
▁կմնա	-10064
▁կներ	-10065
այթակղ	-10066
▁դրամը	-10067
▁ծանուց	-10068
▁նախաքնն	-10069
▁ուղղորդ	-10070
▁պատկերված	-10071
▁նկարահանում	-10072
▁հավանություն	-10073
UT	-10074
▁Կուս	-10075
▁Չարենց	-10076
▁լինենք	-10077
ավորների	-10078
▁քաղցկեղի	-10079
ագործության	-10080
▁հետապնդում	-10081
▁յուրօրինակ	-10082
ary	-10083
ոկոլ	-10084
▁սաղ	-10085
եցվել	-10086
շյանը	-10087
ՌԵՊՈՐՏ	-10088
▁Սայաթ	-10089
▁Սողոմ	-10090
▁շունչ	-10091
▁օրում	-10092
ՌԵՊՈՐՏԱԺ	-10093
▁Պարզվել	-10094
▁ոռոգման	-10095
▁հարավային	-10096
▁մեծագույն	-10097
▁նախազգուշ	-10098
եյի	-10099
▁Ենթ	-10100
ոստով	-10101
տների	-10102
▁Մուս	-10103
▁ավար	-10104
▁գնման	-10105
▁Գայանե	-10106
ագործական	-10107
▁ճառագայթ	-10108
▁պրոդյուս	-10109
▁Մշակույթի	-10110
▁պահպանվել	-10111
▁քննությունը	-10112
▁հանձնարարական	-10113
▁պատգամավորներ	-10114
▁համագործակցություն	-10115
իվը	-10116
▁Օսկ	-10117
գիտեմ	-10118
յանից	-10119
▁Արծրուն	-10120
▁National	-10121
▁տարածվել	-10122
▁համագործակցել	-10123
ՏՐ	-10124
▁·	-10125
սիդ	-10126
▁դէ	-10127
ազդի	-10128
▁Շին	-10129
ՅԱՆԻՆ	-10130
▁հերքում	-10131
▁պատանին	-10132
▁նախարարն	-10133
▁առաջացման	-10134
▁զբաղեցնելու	-10135
ре	-10136
իթը	-10137
▁արդի	-10138
▁տանջ	-10139
▁մեկից	-10140
▁Posted	-10141
▁ամպրոպ	-10142
▁նամակը	-10143
▁խորհրդակց	-10144
▁ուղարկում	-10145
▁տեքստային	-10146
ube	-10147
▁Մեն	-10148
▁լավն	-10149
▁պարկ	-10150
▁անհաջող	-10151
▁Լրատվական	-10152
▁Որովհետեւ	-10153
▁երկարատեւ	-10154
▁Պորտուգալի	-10155
▁ապահովումը	-10156
ial	-10157
ԱՐՁ	-10158
▁ԲՆ	-10159
▁Գաղ	-10160
▁հաւ	-10161
▁չի՞	-10162
▁կա՛մ	-10163
▁կարկ	-10164
▁կլոր	-10165
▁պաստ	-10166
▁Ռուստամ	-10167
▁գերատեսչ	-10168
▁ղեկավարն	-10169
▁վերապատրաստման	-10170
▁բուռն	-10171
▁սուրճ	-10172
▁սփյուռք	-10173
▁գործողությունը	-10174
թոն	-10175
ոշափ	-10176
▁վարկի	-10177
▁Եկեղեցին	-10178
▁ՀԱՅԱՍՏԱՆ	-10179
▁վերոնշյալ	-10180
▁Հստակեցնել	-10181
▁իրավունքով	-10182
իլը	-10183
▁ոս	-10184
ահավ	-10185
▁ԱԱՀ	-10186
▁Ո՞ր	-10187
▁հնդ	-10188
ոսյանին	-10189
▁կստանան	-10190
▁աղբյուրը	-10191
▁գավառում	-10192
▁ընտրատեղ	-10193
▁նույնքան	-10194
▁հետազոտական	-10195
▁ֆուտբոլիստի	-10196
▁բնակչությունը	-10197
▁օդանավակայանում	-10198
մպ	-10199
ust	-10200
▁Թամ	-10201
▁Ծիր	-10202
▁տարածած	-10203
▁զարգացած	-10204
▁հնագույն	-10205
կայանքներով	-10206
▁Վանաձորում	-10207
▁հայտարարվել	-10208
ղճ	-10209
ուճ	-10210
ստամբ	-10211
▁խփել	-10212
▁կատալ	-10213
▁դիմակայ	-10214
▁բնականոն	-10215
▁համերաշխ	-10216
▁միջադեպի	-10217
▁ֆրանսերեն	-10218
▁գրասենյակը	-10219
▁կշարունակի	-10220
▁առավելագույնը	-10221
▁նախարարությանը	-10222
ԸՆ	-10223
▁r	-10224
սակ	-10225
Իրավ	-10226
մայի	-10227
ներով՝	-10228
Յուվենտ	-10229
▁բրոնզե	-10230
▁լույսի	-10231
▁որքանով	-10232
▁պահպանելու	-10233
▁փորձաքննության	-10234
փոխ	-10235
աչու	-10236
րեցի	-10237
▁հոտ	-10238
անքից	-10239
▁տեղն	-10240
▁Սիրելի	-10241
▁Նիկոլայ	-10242
▁Օրինակ՝	-10243
արարության	-10244
▁հատվածներում	-10245
▁համագործակցում	-10246
այուն	-10247
ենսիվ	-10248
▁ծեծի	-10249
▁կոնտ	-10250
▁շտաբ	-10251
▁ամենախ	-10252
▁ավարտը	-10253
▁բացառում	-10254
▁կանոնավոր	-10255
▁հայտնելով	-10256
▁ուղեցույց	-10257
▁խորհրդարան	-10258
ան՝	-10259
ցանկ	-10260
▁Միխ	-10261
▁ՊՍԺ	-10262
▁Օրը	-10263
ուժան	-10264
ունելի	-10265
▁Կարինե	-10266
▁գյուղապետ	-10267
▁հաստատության	-10268
▁Մերի	-10269
▁ընկերոջ	-10270
▁լրացում	-10271
▁Աբովյանի	-10272
▁արեւային	-10273
▁իտալական	-10274
▁տարաձայն	-10275
▁մշակույթը	-10276
▁Հանրապետությունը	-10277
oot	-10278
▁Ախալ	-10279
▁Կարի	-10280
▁Մուշ	-10281
վածքով	-10282
▁գնդակ	-10283
▁Կապանի	-10284
▁միանալ	-10285
▁պաշտպանված	-10286
▁պատրաստման	-10287
▁գործարքների	-10288
ադաստ	-10289
▁Իսահակ	-10290
▁ձեւավորել	-10291
▁պատկերացնել	-10292
գա	-10293
ain	-10294
ինո	-10295
▁Լիտ	-10296
մանիչ	-10297
▁երանգ	-10298
▁չեզոք	-10299
▁կապույտ	-10300
▁պատժամիջոցների	-10301
▁խմել	-10302
ուրգեն	-10303
▁Սիմոն	-10304
▁երկուս	-10305
ավորվում	-10306
▁հանելու	-10307
▁կապիտալի	-10308
▁ներդաշնակ	-10309
▁շահագրգիռ	-10310
▁միջոցառմանը	-10311
▁ՖՈՏՈՌԵՊՈՐՏԱԺ	-10312
ՊԾ	-10313
▁e	-10314
Ուր	-10315
Տեղ	-10316
աշի	-10317
▁Ջեյմ	-10318
ագծում	-10319
▁վերածն	-10320
▁տնտեսագետ	-10321
▁կենցաղային	-10322
▁նախընտրում	-10323
▁տեսանյութը	-10324
▁աշխատավարձը	-10325
▁պատկերացում	-10326
շահ	-10327
▁շոգ	-10328
▁ArmB	-10329
եյթուն	-10330
▁անելի	-10331
Ալաշկեր	-10332
աղբյուր	-10333
▁մուտքը	-10334
▁որդեգր	-10335
ափոխական	-10336
▁հանգուց	-10337
▁Բաբայանը	-10338
▁բժիշկները	-10339
▁կաթողիկոս	-10340
▁Շարմազանով	-10341
▁միանգամայն	-10342
▁միջավայրում	-10343
ateg	-10344
Վարդ	-10345
իկով	-10346
▁ասի	-10347
ապատի	-10348
▁here	-10349
▁Թայի	-10350
▁բառի	-10351
▁իդեալ	-10352
ահարմար	-10353
ուսային	-10354
▁ազատել	-10355
▁Մրցույթ	-10356
ութիւններ	-10357
▁Mercedes	-10358
▁Արարատյան	-10359
▁գիտակցում	-10360
▁ամրապնդման	-10361
qu	-10362
ond	-10363
շնչ	-10364
▁Աճ	-10365
դում	-10366
▁կաց	-10367
witter	-10368
▁դինամ	-10369
▁Անշարժ	-10370
▁Վճռաբեկ	-10371
▁խտրական	-10372
▁խայտառակ	-10373
▁Ընկերությունը	-10374
ԱԼԱ	-10375
անար	-10376
եշնչ	-10377
▁մերկ	-10378
▁բխում	-10379
ակայանի	-10380
▁կօգնեն	-10381
▁նախադաս	-10382
▁Տեղադրել	-10383
▁Օսմանյան	-10384
▁մեկնարկը	-10385
▁Էջմիածնում	-10386
սն	-10387
ԲԸՄ	-10388
աբեռն	-10389
▁Եվրո	-10390
▁Անուշ	-10391
▁Պատար	-10392
▁Տարին	-10393
▁հյուս	-10394
▁բանջար	-10395
▁խաղերը	-10396
▁սցենար	-10397
▁իրավախախտ	-10398
▁կազմակերպվում	-10399
▁առել	-10400
▁ուսման	-10401
▁Հակառակ	-10402
▁Continue	-10403
▁ընտրատարած	-10404
▁կառավարությունն	-10405
▁Te	-10406
▁խճ	-10407
▁մս	-10408
▁դաջ	-10409
▁մահը	-10410
վարթնոց	-10411
ուբարաշեն	-10412
Բարսելոնան	-10413
▁զարգանում	-10414
▁ստորագրված	-10415
▁բնութագրերը	-10416
▁Տեղեկատվական	-10417
ՍՊ	-10418
▁Գտն	-10419
▁չհաս	-10420
▁Գեղամ	-10421
Գազպրոմ	-10422
▁նկատվում	-10423
▁վնասակար	-10424
▁փաստորեն	-10425
▁Ղազարյանը	-10426
▁Հունաստանի	-10427
▁անդրադառնալ	-10428
▁սեպտեմբերին	-10429
ցել	-10430
աթիա	-10431
▁Des	-10432
▁այլ՝	-10433
կառավար	-10434
▁Հոլանդ	-10435
▁գնելու	-10436
▁գրավիչ	-10437
▁դրույք	-10438
▁կհայտն	-10439
▁նյութը	-10440
▁ուղղել	-10441
▁Windows	-10442
▁պատահար	-10443
▁կայացման	-10444
▁գումարներ	-10445
▁լեզուների	-10446
▁տասնամյակ	-10447
▁համարանիշի	-10448
▁համալսարանը	-10449
▁հաճախորդներին	-10450
անազան	-10451
▁կգործ	-10452
▁տուրք	-10453
▁Պատկեր	-10454
▁բողոքը	-10455
▁սահմանած	-10456
▁տեսնելով	-10457
▁ավարտվում	-10458
▁ապահովության	-10459
ԵՔ	-10460
ԿԵՐ	-10461
ամանկ	-10462
▁Իտալ	-10463
▁ալբոմ	-10464
▁նկարել	-10465
Արսենալի	-10466
▁ձմեռային	-10467
▁ընդունելի	-10468
▁գիտահետազոտական	-10469
ինգը	-10470
▁Ձեռ	-10471
▁Երաժ	-10472
▁Հետք	-10473
ացիներ	-10474
▁Դժվար	-10475
▁Ինչու	-10476
▁դեպքը	-10477
▁չկատար	-10478
▁խոստովան	-10479
▁հարցազրույցը	-10480
ոմատ	-10481
▁գոռ	-10482
Շիրակ	-10483
▁Մարտին	-10484
▁իրավաբան	-10485
▁Աշխատանքի	-10486
▁Վերաքննիչ	-10487
▁առաքելությունը	-10488
ости	-10489
Մոսկ	-10490
արկղ	-10491
▁Ռիչ	-10492
▁Սոչ	-10493
▁կսկ	-10494
Գյում	-10495
▁Կենս	-10496
▁Ջավախ	-10497
▁Դեմիրճ	-10498
▁ընդմիջ	-10499
▁օլիգարխ	-10500
▁Օհանյանը	-10501
▁մեջբերում	-10502
▁վաճառվում	-10503
▁ձերբակալված	-10504
▁ավտոմեքենաների	-10505
)[	-10506
amsh	-10507
րանա	-10508
▁ռեզ	-10509
▁տեմպ	-10510
▁իսպան	-10511
▁reading	-10512
▁փայլուն	-10513
▁մատուցել	-10514
▁մարզպետի	-10515
▁Թուրքական	-10516
▁հանրահայտ	-10517
▁ստեղծումը	-10518
▁զինծառայողի	-10519
▁=	-10520
▁Ռամ	-10521
▁Irav	-10522
▁կերտ	-10523
▁վերին	-10524
▁ազգերի	-10525
▁ինչու՞	-10526
աբուժական	-10527
▁կիրառումը	-10528
▁առաջնություն	-10529
▁գիտնականները	-10530
Ակ	-10531
վիդ	-10532
▁ձմ	-10533
▁չբ	-10534
▁դոց	-10535
իային	-10536
նակալ	-10537
▁շատերի	-10538
▁ծրագիրն	-10539
▁կքննարկ	-10540
▁օրենսգիր	-10541
▁Ճապոնիայի	-10542
▁նշանակելու	-10543
▁Սիթ	-10544
▁շոու	-10545
▁բռնել	-10546
▁Արցախը	-10547
▁թռչուն	-10548
▁ցերեկը	-10549
▁հայազգի	-10550
▁Սիմոնյանը	-10551
▁զբաղվելու	-10552
▁առաջարկներ	-10553
▁Կազմակերպության	-10554
SH	-10555
ֆր	-10556
Մար	-10557
▁ից	-10558
▁լծ	-10559
▁կրի	-10560
▁ԻՐԱՎ	-10561
▁լավը	-10562
արտադր	-10563
▁չվերթ	-10564
▁Ապահով	-10565
▁կստեղծ	-10566
▁ամուսինը	-10567
▁աստիճանով	-10568
▁տարելիցին	-10569
▁զինվորների	-10570
▁տեղեկանում	-10571
▁մանրամասները	-10572
»`	-10573
ark	-10574
▁եկեք	-10575
▁կինն	-10576
անաքեռ	-10577
▁ուժով	-10578
▁պատկերաց	-10579
▁Վաճառվում	-10580
▁Հարցազրույց	-10581
▁փոփոխությունը	-10582
ոդի	-10583
▁Լատ	-10584
ինչեւ	-10585
▁ավիա	-10586
▁ըմբշ	-10587
▁Զինված	-10588
▁գրավում	-10589
▁կարգախոս	-10590
▁հազվադեպ	-10591
▁պարունակող	-10592
▁պաշտպանություն	-10593
)`	-10594
ԿՕ	-10595
▁‹	-10596
ռուս	-10597
▁Սաք	-10598
ԱՑՄԱՆ	-10599
▁ե՞րբ	-10600
▁գնալով	-10601
ակիցները	-10602
▁տեխնիկա	-10603
▁երկարաձգ	-10604
▁ոլորտների	-10605
▁բրիտանական	-10606
Ներ	-10607
ամպ	-10608
ալյան	-10609
▁ՀԱՍՏ	-10610
ադարում	-10611
▁Ալբերտ	-10612
▁գործարան	-10613
▁շարժվում	-10614
▁տարիքային	-10615
▁գիտելիքներ	-10616
▁ընդունումը	-10617
▁պարբերականը	-10618
▁վերլուծական	-10619
▁ցուցահանդեսի	-10620
▁մասնագիտացված	-10621
ne	-10622
ըր	-10623
▁Միշ	-10624
▁ՍԱՀ	-10625
▁արկ	-10626
vious	-10627
ոմետր	-10628
▁հոլով	-10629
▁ռիսկի	-10630
amshyan	-10631
Գլխաւոր	-10632
▁ունեին	-10633
▁սկիզբը	-10634
ությամբ՝	-10635
▁այցելում	-10636
▁պարզվում	-10637
▁կիսաեզրափակ	-10638
▁նորակառույց	-10639
▁Տեխ	-10640
▁ամիսը	-10641
▁կապեր	-10642
▁հազիվ	-10643
▁մտքեր	-10644
▁անունն	-10645
▁երկիրն	-10646
▁ընտրակ	-10647
▁դրանում	-10648
▁ուղերձը	-10649
▁կարիերան	-10650
▁հիմնարար	-10651
▁մթնոլորտ	-10652
▁արդյունքի	-10653
▁Վարդանյանի	-10654
▁հրաժարականը	-10655
▁փախստականների	-10656
Lur	-10657
ure	-10658
ՈՂՈՎ	-10659
ույշ	-10660
▁Փար	-10661
▁շոշափ	-10662
▁տարով	-10663
▁ամենալ	-10664
▁սիրուն	-10665
▁տուժել	-10666
▁հարվածել	-10667
▁մրցույթին	-10668
վածությունը	-10669
▁վստահություն	-10670
▁փորձագետների	-10671
▁տնտեսությունը	-10672
ոշարք	-10673
▁Coun	-10674
▁շփոթ	-10675
▁Անցած	-10676
▁եվրոպ	-10677
▁ամանոր	-10678
▁խմելու	-10679
անության	-10680
▁սահմանվել	-10681
▁բացահայտում	-10682
▁կարգավորում	-10683
շեջ	-10684
▁խն	-10685
▁\\(	-10686
Ռեալը	-10687
▁Լիգա	-10688
վաճառք	-10689
▁վերել	-10690
▁Սեւանի	-10691
▁տեսախց	-10692
▁Iravunk	-10693
▁ամենեւին	-10694
▁ոստիկանների	-10695
▁պարգեւատրվել	-10696
Սեւ	-10697
▁Էյ	-10698
▁ցեղ	-10699
▁սեղան	-10700
▁ծագման	-10701
▁պողոտա	-10702
▁Դատական	-10703
▁Անկախության	-10704
▁թեկնածությունը	-10705
▁համապատասխանաբար	-10706
▁հանցագործություն	-10707
▁հավանականությունը	-10708
կռ	-10709
▁©	-10710
Գիտ	-10711
փոթ	-10712
աբազ	-10713
▁Բեն	-10714
▁խնձ	-10715
ապատկ	-10716
ատներ	-10717
▁բխող	-10718
▁Սեւակ	-10719
ումնասիր	-10720
▁խաղաղություն	-10721
▁մարզպետարանի	-10722
ung	-10723
Ընդ	-10724
▁թղ	-10725
ոնեզ	-10726
▁Ցավոք	-10727
▁ակցիան	-10728
աններում	-10729
▁դառնալով	-10730
▁Միջոցառման	-10731
▁մրցաշարում	-10732
մը	-10733
ԱԿԻ	-10734
Բոր	-10735
ՑԱԽ	-10736
▁Առցանց	-10737
▁Հուլիս	-10738
▁մատնանշ	-10739
▁մշակված	-10740
▁ուժերին	-10741
▁ինտենսիվ	-10742
▁հետաքննություններ	-10743
դեպ	-10744
▁սխ	-10745
▁զնն	-10746
▁սեռի	-10747
▁ՆԱԽԱԳ	-10748
▁ասելու	-10749
▁պայծառ	-10750
ովկասյան	-10751
▁ակնկալի	-10752
▁զգացում	-10753
▁ամրագրված	-10754
▁Լուսավորիչ	-10755
▁սպասարկում	-10756
▁կատարելագործ	-10757
▁հաղորդագրություն	-10758
ки	-10759
▁Մբ	-10760
ավանի	-10761
▁Կրեմ	-10762
▁Աֆղան	-10763
▁անկան	-10764
▁չունե	-10765
▁հասկացա	-10766
▁մաղթում	-10767
Իսլամական	-10768
▁հանցավոր	-10769
▁վերածվել	-10770
▁գնումների	-10771
▁նոյեմբերին	-10772
ՈՅ	-10773
աշկ	-10774
կախ	-10775
ոքս	-10776
▁ԾՐ	-10777
արակի	-10778
նիշխան	-10779
ոնային	-10780
▁Նժդեհ	-10781
▁նուրբ	-10782
▁փլուզ	-10783
իչներին	-10784
ապահների	-10785
▁ընդլայնված	-10786
▁ձեւավորում	-10787
▁ներմուծման	-10788
▁նպատակային	-10789
ո՜	-10790
դին	-10791
roid	-10792
▁լիճ	-10793
ասերի	-10794
պրոցի	-10795
▁ԱՌԱՋ	-10796
առական	-10797
▁Մամեդ	-10798
▁Փառատ	-10799
▁վարած	-10800
▁տաղանդավոր	-10801
▁անհասկանալի	-10802
▁Զգ	-10803
▁խմիչ	-10804
ցիների	-10805
▁Ֆրանց	-10806
▁նշանի	-10807
▁Մտցնել	-10808
▁ծագում	-10809
▁հանրաքվե	-10810
▁միություն	-10811
▁պարտատոմս	-10812
▁քաղաքների	-10813
▁բժշկության	-10814
▁հասկանալու	-10815
▁տարեկանների	-10816
▁ընկերությանը	-10817
շին	-10818
վերդ	-10819
▁աքս	-10820
▁աւելի	-10821
ույլատր	-10822
▁Նորվեգ	-10823
▁կարտոֆ	-10824
▁քանակի	-10825
▁Վարչական	-10826
▁Հանդիպմանը	-10827
▁խմբավորման	-10828
▁կարեւորությունը	-10829
Հով	-10830
▁էպ	-10831
ՔՈՒՄ	-10832
▁օրը՝	-10833
▁էմոցի	-10834
▁Շահում	-10835
▁կպցրեք	-10836
▁ուտում	-10837
▁միգուցե	-10838
▁այդպիսին	-10839
▁վայելում	-10840
▁վերացման	-10841
▁ցանկացել	-10842
▁առաջադրել	-10843
թոնի	-10844
▁ԾԱՌ	-10845
▁էջի	-10846
ամսյա	-10847
▁Հուշ	-10848
▁գնդի	-10849
▁դառն	-10850
▁պէտք	-10851
▁ուժգն	-10852
▁չգիտի	-10853
▁գրքերի	-10854
▁Յորքում	-10855
▁Քրիստոս	-10856
▁Լեհաստանի	-10857
▁արժանապատվ	-10858
▁Ալեքսանյանը	-10859
▁աշխատակիցներին	-10860
:-	-10861
▁Եռ	-10862
▁կսկս	-10863
▁միտք	-10864
▁օրից	-10865
▁երախտ	-10866
▁հիշող	-10867
հարաբեր	-10868
▁բացվեց	-10869
▁ամենահայ	-10870
▁ընթացքին	-10871
▁սեքսուալ	-10872
եյլ	-10873
orld	-10874
իվան	-10875
▁լաց	-10876
▁սոցի	-10877
▁Ընթերց	-10878
▁Նախատես	-10879
▁Previous	-10880
▁բացահայտվել	-10881
▁Mic	-10882
▁Քաղ	-10883
ենայն	-10884
▁Next	-10885
▁Կառլ	-10886
▁բաժնից	-10887
▁նշանակված	-10888
▁Աստվածածին	-10889
▁խնդիրներից	-10890
▁ուսանողներ	-10891
▁պատկերասրահ	-10892
▁կարգապահական	-10893
՜նչ	-10894
արա	-10895
սոն	-10896
Gold	-10897
▁Արք	-10898
▁ժպտ	-10899
▁առատ	-10900
▁Ուրախ	-10901
▁նիստից	-10902
▁շրջանը	-10903
▁Երեւանից	-10904
▁անսահման	-10905
▁պատերազմից	-10906
▁քարոզարշավի	-10907
▁աշխատանքներն	-10908
▁ուսուցիչների	-10909
»),	-10910
▁մմ	-10911
ԱԳԻՐ	-10912
անաս	-10913
ելուն	-10914
անտարկ	-10915
ոլրագր	-10916
▁Ընդուն	-10917
▁ՀԱՍՏԱՏ	-10918
▁վաստակել	-10919
▁բարելավել	-10920
▁խնդիրներն	-10921
ор	-10922
ՈՐԴ	-10923
նդրի	-10924
ուղթ	-10925
▁սին	-10926
▁Թայիփ	-10927
▁Լիգայի	-10928
▁պատվիրակությանը	-10929
/.	-10930
հուն	-10931
▁Ֆին	-10932
Սուրբ	-10933
▁բորբ	-10934
овости	-10935
▁լուրը	-10936
▁թեմայի	-10937
▁հիմքով	-10938
▁խաղերում	-10939
▁ընկերները	-10940
▁Գասպարյանը	-10941
ականությունը	-10942
▁Ներկայացնում	-10943
▁երիտասարդները	-10944
▁նախապատրաստական	-10945
▁նի	-10946
եկոր	-10947
եռնակ	-10948
▁Բնապահ	-10949
▁անշուշտ	-10950
▁ջանքերը	-10951
▁տաղավար	-10952
▁Պարզապես	-10953
▁միջոցառումը	-10954
la	-10955
▁հոլ	-10956
▁ճեմ	-10957
▁ռեգ	-10958
վարդի	-10959
▁մութ	-10960
▁քսան	-10961
▁փոխում	-10962
ագետները	-10963
▁Ծննդյան	-10964
▁Քոչարյանին	-10965
▁հորիզոնականը	-10966
▁ջրամատակարար	-10967
▁ժամանակաշրջանում	-10968
այռ	-10969
ոթոր	-10970
▁կոտոր	-10971
▁տղայի	-10972
▁Ռիչարդ	-10973
▁Ստորեւ	-10974
▁ճնշման	-10975
▁Beeline	-10976
▁Մելքում	-10977
▁Ռաֆայել	-10978
Բարսելոնա	-10979
▁Freechat	-10980
▁տեղաբաշխ	-10981
▁Լոնդոնում	-10982
▁անգլիական	-10983
▁կատարողական	-10984
▁ժամանակահատվածի	-10985
▁Լե	-10986
▁ՔՊ	-10987
որով	-10988
▁Թեմ	-10989
▁Հաշ	-10990
լետիկ	-10991
▁Սպիտ	-10992
▁գերի	-10993
▁միջանց	-10994
առեւտուր	-10995
▁Կովկասի	-10996
▁ապրանքի	-10997
▁հասկացել	-10998
▁ինքնաթիռի	-10999
▁բաժանմունքի	-11000
▁էկոնոմիկայի	-11001
▁փորձագիտական	-11002
▁ֆուտբոլիստների	-11003
ang	-11004
ակերտ	-11005
րայել	-11006
▁ինչին	-11007
▁դափնեկ	-11008
▁ճշգրիտ	-11009
▁ակցիայի	-11010
▁զանգահար	-11011
▁հոբելյան	-11012
▁մրցանակը	-11013
▁նշանակալի	-11014
▁պայմանագրերի	-11015
ԱՄԲ	-11016
սիր	-11017
▁շշ	-11018
▁օծ	-11019
▁չին	-11020
▁սատ	-11021
▁Ռուզ	-11022
յալներ	-11023
▁վնասի	-11024
▁կազմող	-11025
▁Ֆրանսիան	-11026
▁Վարդանյան	-11027
▁անվանական	-11028
▁իշխանական	-11029
▁ծնողներին	-11030
▁մասնակցեց	-11031
▁մատուցման	-11032
▁գովազդային	-11033
▁դրույքաչափ	-11034
▁բարձրացնում	-11035
▁իրականացրած	-11036
▁Մնացականյանը	-11037
▁համաձայնությամբ	-11038
ль	-11039
ult	-11040
ոգր	-11041
▁դիրքը	-11042
▁ինչով	-11043
▁վճարի	-11044
▁մյուսը	-11045
▁նախքան	-11046
▁Արցախից	-11047
▁Վերցված	-11048
▁ակտերով	-11049
▁հեղինակի	-11050
▁բժիշկների	-11051
▁ընդգրկում	-11052
▁Ստեփանակերտ	-11053
ա՝	-11054
աբն	-11055
ահսկ	-11056
▁Իվան	-11057
▁Խաղաղ	-11058
▁դյուր	-11059
արկվում	-11060
▁Online	-11061
▁գույնի	-11062
▁ստուգման	-11063
▁անդամներից	-11064
▁բարձրանում	-11065
▁գյուղերում	-11066
▁պարապմունք	-11067
▁քչ	-11068
իստի	-11069
▁ISS	-11070
▁սեզ	-11071
ուտով	-11072
▁թիմին	-11073
▁պրեմի	-11074
▁Դեսպան	-11075
ույթների	-11076
▁գայթակղ	-11077
▁Համացանց	-11078
▁բաղադրիչ	-11079
▁Երեխաների	-11080
▁գործիչներ	-11081
▁ելույթում	-11082
▁ինտերնետային	-11083
co	-11084
Ո՞	-11085
ֆալ	-11086
արել	-11087
ագրին	-11088
▁Նարին	-11089
▁մահից	-11090
▁գնդապետ	-11091
▁զինվորի	-11092
▁Մանկական	-11093
▁Շարունակ	-11094
▁ձեռնարկատեր	-11095
▁վերադարձնել	-11096
▁Հայտնաբերվել	-11097
▁առաքելության	-11098
▁իրականացմանը	-11099
▁հայտարարությանը	-11100
up	-11101
վեմ	-11102
▁թիկ	-11103
իրանտ	-11104
ուղու	-11105
▁բենզ	-11106
▁հուսալի	-11107
▁արեւմուտ	-11108
▁կտրամադր	-11109
▁զգալիորեն	-11110
▁ժամացույց	-11111
▁հայտնեցին	-11112
▁սովորելու	-11113
▁մասնագետներ	-11114
▁մարզադաշտում	-11115
ԱՁ	-11116
սա	-11117
ARM	-11118
▁Ֆր	-11119
▁ISSN	-11120
▁գտած	-11121
երտում	-11122
▁տվեցին	-11123
▁ամսաթիվ	-11124
▁Ծառուկյան	-11125
▁առաջացրել	-11126
▁առողջապահական	-11127
▁առաջարկություններ	-11128
եւեռ	-11129
ունտ	-11130
▁ՀԲԸՄ	-11131
ուպերմ	-11132
▁Բժիշկ	-11133
▁չափից	-11134
▁մոտակա	-11135
▁պարտքը	-11136
▁վարձով	-11137
▁ցուցակի	-11138
▁խնդրանքով	-11139
▁ստանալուց	-11140
▁պահպանվում	-11141
Աբ	-11142
որժ	-11143
րեժ	-11144
ball	-11145
ԵՍԿՕ	-11146
ՅԱՆԸ	-11147
▁վանք	-11148
անդական	-11149
▁ՎԵՐԱԲԵՐ	-11150
ոնտաժ	-11151
ափոխադր	-11152
ինգային	-11153
▁խնդրին	-11154
▁հաճախակի	-11155
▁ԿԱՏԱՐԵԼՈՒ	-11156
▁վերլուծության	-11157
IV	-11158
▁М	-11159
ood	-11160
երց	-11161
իմե	-11162
աՍել	-11163
առիկ	-11164
▁բջիջ	-11165
▁ենք՝	-11166
▁ԱՐՑԱԽ	-11167
բանտարկ	-11168
▁դիպլոմ	-11169
▁խաչքար	-11170
▁ապստամբ	-11171
▁ամփոփում	-11172
▁զբաղեցրած	-11173
▁ժամանակների	-11174
ւր	-11175
▁կթ	-11176
ԱՌԿԱ	-11177
եծրի	-11178
▁Վճար	-11179
ույքով	-11180
▁խոնավ	-11181
▁կոնֆեր	-11182
▁հարցման	-11183
▁ամենատար	-11184
▁նորընտիր	-11185
Պետրոսյանի	-11186
▁կուտակային	-11187
▁գաղափարախոս	-11188
▁գրասենյակում	-11189
ՈՄ	-11190
չել	-11191
օգտ	-11192
եցիք	-11193
▁Այգ	-11194
▁Որդ	-11195
▁Կարգ	-11196
▁Օբամ	-11197
▁հայհ	-11198
▁video	-11199
▁Աշոտյանը	-11200
▁Նախնական	-11201
▁մեղադրվում	-11202
▁աղբյուրների	-11203
▁բարեկամական	-11204
▁փաստաթուղթը	-11205
ֆիլ	-11206
▁Ռե	-11207
▁Ֆլ	-11208
ակապ	-11209
ությու	-11210
▁Ֆիլիպ	-11211
▁Արզում	-11212
▁Քանաքեռ	-11213
▁պատարագ	-11214
քննարկում	-11215
▁Լաբորատոր	-11216
▁արտադրանք	-11217
▁հայության	-11218
▁հեղափոխական	-11219
▁մասնավորապես՝	-11220
ավին	-11221
ահարդ	-11222
▁կանխել	-11223
▁Նավասարդ	-11224
▁գրողների	-11225
▁աստերոիդը	-11226
▁հորդորում	-11227
▁մոտեցումը	-11228
▁դրույթները	-11229
▁թաղամասում	-11230
▁դատապարտված	-11231
▁մասնագիտությամբ	-11232
▁Մայ	-11233
▁ՎՏԲ	-11234
▁արգ	-11235
▁խնայ	-11236
▁Ռումին	-11237
▁մեծահաս	-11238
▁բնակարանի	-11239
▁դատապարտել	-11240
▁դիտարկումները	-11241
▁ընկերությունն	-11242
ԼԻ	-11243
աշապ	-11244
ստան	-11245
▁Սաղ	-11246
▁ե՛ւ	-11247
▁Փաստաթ	-11248
▁խոհանոց	-11249
▁կատեգոր	-11250
▁մեդալով	-11251
videochat	-11252
▁հասակում	-11253
▁առաջարկվող	-11254
▁ժամկետային	-11255
▁սկզբունքները	-11256
”:	-11257
ԵՖԱ	-11258
▁ժյուր	-11259
ոբելյան	-11260
▁ոգեշնչ	-11261
▁որում՝	-11262
▁Խաղային	-11263
▁առաջինն	-11264
▁որոնցով	-11265
▁հավաքում	-11266
▁հիմնահար	-11267
▁ավտոմեքեն	-11268
▁գերագույն	-11269
▁գումարների	-11270
Goldvideochat	-11271
ox	-11272
իսս	-11273
գամբ	-11274
▁ռմբ	-11275
▁վան	-11276
▁ուխտ	-11277
իներում	-11278
▁շտեմարան	-11279
▁հայտարարված	-11280
▁քննարկումները	-11281
ՂԻ	-11282
նիա	-11283
րիդ	-11284
ո՞ւր	-11285
▁ՎԱՐ	-11286
▁միջով	-11287
▁փաստի	-11288
ակիցների	-11289
▁անծանոթ	-11290
▁արգելել	-11291
▁մայիսին	-11292
▁չափորոշ	-11293
▁նախագծին	-11294
▁նշանակման	-11295
▁գիտելիքների	-11296
մասն	-11297
եյտին	-11298
▁Read	-11299
▁Ձեռն	-11300
▁տանկ	-11301
▁բերած	-11302
▁հրեշտ	-11303
արկելու	-11304
▁ջանքեր	-11305
▁ֆիլմեր	-11306
▁կհանդիպ	-11307
▁նպատակին	-11308
▁Բրյուսելում	-11309
▁Աստվածաշունչ	-11310
▁եզրակացության	-11311
▁հմտություններ	-11312
▁հասարակությանը	-11313
▁մեկնաբանություն	-11314
ер	-11315
lur	-11316
թյուն	-11317
▁Ներսիս	-11318
▁կադաստ	-11319
▁մարքեթ	-11320
▁ապացուցել	-11321
▁հունվարին	-11322
▁Աստվածաշնչ	-11323
▁անընդունելի	-11324
▁ծանոթանալու	-11325
▁Ուկրաինայում	-11326
▁հյուրանոցում	-11327
րանի	-11328
▁սրճ	-11329
▁կոպիտ	-11330
▁քառորդ	-11331
▁բիզնեսը	-11332
▁ամենաշատ	-11333
▁պայմանական	-11334
▁պատճառաբան	-11335
▁ապահովագրության	-11336
ամեդ	-11337
▁Կիմ	-11338
▁եք՝	-11339
▁Real	-11340
▁ֆոնին	-11341
▁դոցենտ	-11342
ռոմեական	-11343
▁Android	-11344
▁ալկոհոլ	-11345
▁արվեստը	-11346
▁բացվում	-11347
եպիսկոպոս	-11348
▁նախագծեր	-11349
▁Ստամբուլի	-11350
▁ապահովված	-11351
▁բարձրացել	-11352
▁համալիրում	-11353
▁տարածքները	-11354
▁պատասխանելով	-11355
▁լրատվամիջոցները	-11356
The	-11357
Շիր	-11358
▁ԱՐՏ	-11359
րանոց	-11360
ankakh	-11361
ալեզու	-11362
▁Մամիկ	-11363
▁անորոշ	-11364
▁տարածքից	-11365
▁արտադրանքը	-11366
ern	-11367
վես	-11368
▁st	-11369
▁ՀԽ	-11370
▁Թիֆ	-11371
▁ըմպ	-11372
ապուր	-11373
ոթատր	-11374
իծեռնակ	-11375
▁համադր	-11376
▁շատերն	-11377
▁Հետազոտ	-11378
▁Տոնոյանը	-11379
▁կոլեկտիվ	-11380
▁ձեւաչափով	-11381
▁ՎԵՐԱԲԵՐՅԱԼ	-11382
/:	-11383
րիգ	-11384
▁Մոդ	-11385
▁Ռոբ	-11386
▁կգան	-11387
▁չուներ	-11388
▁քննվող	-11389
▁կյանքով	-11390
▁հիմքերը	-11391
▁պլաստիկ	-11392
▁երեւակայ	-11393
▁լրագրողի	-11394
▁շարքային	-11395
▁ջանքերով	-11396
▁տոնակատար	-11397
՞լ	-11398
վատ	-11399
ոբիլ	-11400
պատմ	-11401
անդիլ	-11402
▁Սլով	-11403
▁ունես	-11404
Պետական	-11405
անակերպ	-11406
▁կապերը	-11407
▁վայրից	-11408
▁առարկան	-11409
▁վիտամին	-11410
▁գեղանկար	-11411
▁ընդունած	-11412
▁կառուցում	-11413
▁անդրադառնում	-11414
▁թույլտվության	-11415
▁հայտարարությունները	-11416
▁էթն	-11417
▁թեք	-11418
▁ԽՈՐՀ	-11419
▁ԿԱԶՄ	-11420
▁դրվել	-11421
աստանցի	-11422
▁Հրատարակ	-11423
▁բողոքում	-11424
▁մանավանդ	-11425
եյտինգային	-11426
▁ինքնիշխան	-11427
▁հղիության	-11428
▁լեզուներով	-11429
▁քաղաքապետը	-11430
Հր	-11431
▁◆	-11432
տրի	-11433
▁ԻՊ	-11434
վածի	-11435
▁Վիճ	-11436
▁ոքի	-11437
▁Ունի	-11438
▁գաղթ	-11439
իկային	-11440
▁Արխիվ	-11441
▁հրատապ	-11442
▁հրդեհի	-11443
▁ստեղծած	-11444
▁վրացական	-11445
▁Ավետիսյան	-11446
▁գիտաժողով	-11447
▁կատարելով	-11448
▁ձեռնարկատիր	-11449
▁կազմակերպություններին	-11450
ork	-11451
նորդ	-11452
ունջ	-11453
▁Արկ	-11454
ունին	-11455
▁Սոնա	-11456
▁համընկ	-11457
▁տեսակը	-11458
▁հասցեով	-11459
▁թարգմանիչ	-11460
▁խորհուրդներ	-11461
▁կայսրության	-11462
▁կրթությունը	-11463
▁համեմատաբար	-11464
▁ԻՆՉ	-11465
▁ՄԻՊ	-11466
▁մօտ	-11467
աձեւի	-11468
▁հորին	-11469
▁Նալբանդյան	-11470
▁իրավիճակին	-11471
▁համակարգեր	-11472
▁սահմանները	-11473
▁քննարկմանը	-11474
▁մարդկության	-11475
▁ուսումնասիրում	-11476
ե՞ն	-11477
▁շո	-11478
Մարտ	-11479
▁կոնց	-11480
▁տեսլ	-11481
եյտենան	-11482
▁կերակր	-11483
▁կոչվող	-11484
▁Հրանուշ	-11485
▁Օգտագործ	-11486
▁ստանալով	-11487
▁տարիքում	-11488
▁հետեւյալն	-11489
▁սննդամթերքի	-11490
▁աշխարհահռչակ	-11491
▁քրիստոնեական	-11492
)-	-11493
ԱՍԱ	-11494
▁BBC	-11495
▁ՊՊԾ	-11496
▁շարքը	-11497
▁Twitter	-11498
▁լավատես	-11499
▁ներկայացում	-11500
շալ	-11501
▁Կրի	-11502
▁բոն	-11503
▁հայի	-11504
▁Երեւի	-11505
▁սարքերի	-11506
▁հաստատեց	-11507
▁եռամսյակի	-11508
▁կարողանան	-11509
▁հանգստյան	-11510
▁տարածքներ	-11511
▁Ղարաբաղում	-11512
▁սովորողների	-11513
▁քաղաքացիություն	-11514
գը	-11515
ная	-11516
ուլյ	-11517
Photo	-11518
▁թիկն	-11519
rosoft	-11520
անյանն	-11521
մտահայ	-11522
▁Գորիս	-11523
ահանման	-11524
▁կախարդ	-11525
▁մարգար	-11526
▁Պարույր	-11527
▁զանազան	-11528
▁թաղամասի	-11529
▁անցկացվեց	-11530
▁կմեկնարկի	-11531
▁կառուցապատ	-11532
▁արձանագրված	-11533
.–	-11534
ар	-11535
ԱՆԳ	-11536
▁Թիմ	-11537
▁Դուբ	-11538
ատները	-11539
▁ԾԱՌԱՅ	-11540
▁Ջեյմս	-11541
▁սյուն	-11542
▁Ինտերն	-11543
▁Ինչպիսի	-11544
▁դիրքերը	-11545
▁ճշմարիտ	-11546
▁հակառակը	-11547
▁հայտնված	-11548
▁հանգեցնել	-11549
▁փոխհարաբեր	-11550
▁շնորհանդեսը	-11551
▁առաջնությանը	-11552
▁մատակարարման	-11553
▁տարբերությունը	-11554
▁բովանդակությունը	-11555
▁խորհրդակցություն	-11556
նիկ	-11557
աճաշ	-11558
▁Միշտ	-11559
▁լուռ	-11560
▁ՓՈՓՈԽ	-11561
▁լեռան	-11562
▁կինոն	-11563
▁հնչեց	-11564
▁սնանկ	-11565
▁Ամուլս	-11566
▁աղմուկ	-11567
ակալավրի	-11568
▁նկարում	-11569
▁նահանգում	-11570
▁ուրիշների	-11571
▁դրսեւորում	-11572
▁կառուցելու	-11573
▁հյուրանոցի	-11574
▁հրազենային	-11575
▁տրամադրվող	-11576
▁կազմակերպած	-11577
▁կուսակցական	-11578
▁պաշտպանությունը	-11579
ok	-11580
▁К	-11581
iki	-11582
եյթ	-11583
▁%-	-11584
▁արց	-11585
յակին	-11586
▁սառն	-11587
▁օրիգ	-11588
▁ընկավ	-11589
▁բեմադր	-11590
▁համարի	-11591
▁վեբկամ	-11592
▁համերգը	-11593
▁հայտնվեց	-11594
▁գնահատվում	-11595
▁հրապարակած	-11596
▁քննարկումը	-11597
▁կատարելապես	-11598
▁ավտոճանապարհի	-11599
▁ձեռնարկությունների	-11600
Զին	-11601
ադը	-11602
զիջ	-11603
▁պոկ	-11604
▁ինտել	-11605
▁նկարը	-11606
▁ankakh	-11607
cription	-11608
ահարուստ	-11609
▁տեւական	-11610
▁Փաստորեն	-11611
▁շարժական	-11612
ութիւնների	-11613
▁բասկետբոլ	-11614
▁տեսակների	-11615
▁ոստիկանապետ	-11616
▁կառուցվածքային	-11617
իղճ	-11618
▁ՀԱՇ	-11619
Video	-11620
օգուտ	-11621
▁more	-11622
▁ժանր	-11623
▁օգտվող	-11624
▁Աստուած	-11625
▁անցյալի	-11626
▁ավտոբուս	-11627
▁պոտենցիալ	-11628
▁սկզբունքով	-11629
▁Եվս	-11630
▁պաղ	-11631
Բանանց	-11632
ոյանին	-11633
▁Հաստատ	-11634
Էրեբունի	-11635
կանշական	-11636
▁հեղաշրջ	-11637
▁վճռաբեկ	-11638
▁կայացվել	-11639
▁օրաթերթի	-11640
առությունը	-11641
▁Բաբլոյանը	-11642
▁համակարգին	-11643
▁տարբերակով	-11644
▁խաչմերուկում	-11645
▁երիտասարդներին	-11646
▁համաձայնություն	-11647
▁-:	-11648
իկից	-11649
▁Զախ	-11650
ավո՞ր	-11651
▁Հուս	-11652
ավայրը	-11653
▁Սեւան	-11654
▁բարեհ	-11655
▁մասնաշ	-11656
▁ստիպել	-11657
արեւելյան	-11658
▁ողջունում	-11659
▁ուղեկցությամբ	-11660
▁միջոցառումներին	-11661
յե	-11662
թան	-11663
▁Ամս	-11664
▁Բեգ	-11665
▁խառ	-11666
անալի	-11667
▁Life	-11668
▁ոսկու	-11669
▁Կիլիկի	-11670
▁կանխիկ	-11671
▁փորձեք	-11672
▁գիտելիք	-11673
▁խոսելով	-11674
▁Նախարարը	-11675
▁գիշերային	-11676
▁կոնֆերանս	-11677
▁նվագախմբի	-11678
▁Թբիլիսիում	-11679
▁Չինաստանում	-11680
էյ	-11681
und	-11682
եզի	-11683
ելա	-11684
▁Gr	-11685
▁Չէ՞	-11686
▁գան	-11687
▁սու	-11688
▁ժպիտ	-11689
▁Իտալիա	-11690
▁եպիսկոպոս	-11691
▁հարձակվել	-11692
▁քրիստոնյան	-11693
▁ամենահայտնի	-11694
▁մոլորակների	-11695
▁աստերոիդների	-11696
▁սկզբունքների	-11697
տակ	-11698
▁Մաք	-11699
▁Անդրեյ	-11700
▁մոդելը	-11701
▁Ժողովրդ	-11702
▁ամանորյա	-11703
▁ապրանքներ	-11704
▁ավարտական	-11705
▁Կաթողիկոսի	-11706
▁արտերկրում	-11707
▁շուկայական	-11708
▁վեբկամերան	-11709
▁հոկտեմբերին	-11710
▁դասընթացների	-11711
▁ընկերություններ	-11712
??	-11713
Միջ	-11714
երին՝	-11715
▁Թանգ	-11716
▁ատեն	-11717
երները	-11718
▁Ռոման	-11719
▁գալիք	-11720
▁դաշինք	-11721
▁միտված	-11722
▁մարմնին	-11723
▁քայլում	-11724
▁ղեկավարին	-11725
▁վիրավորում	-11726
▁կառուցվածքը	-11727
▁Հասարակություն	-11728
ալց	-11729
▁vi	-11730
▁եփ	-11731
եմատիկ	-11732
▁դերաս	-11733
▁Նրանցից	-11734
▁շարժում	-11735
▁նպատակներով	-11736
▁նպատակահարմար	-11737
▁հակակոռուպցիոն	-11738
▁վարձակալության	-11739
▁հանձնաժողովների	-11740
SA	-11741
Plus	-11742
▁Գավառ	-11743
▁այգու	-11744
▁իրացման	-11745
▁կերպարը	-11746
▁Պարզվում	-11747
▁առարկայի	-11748
▁Գեւորգյան	-11749
▁կալանավորված	-11750
▁հնարավորության	-11751
▁մասնագիտության	-11752
▁հակամարտությունը	-11753
are	-11754
▁ՈՐ	-11755
ավորի	-11756
▁Սեդր	-11757
▁ավետ	-11758
▁Արդյոք	-11759
▁աճուրդ	-11760
▁Շարժման	-11761
▁դարձրել	-11762
▁հոգաբարձ	-11763
▁շահագրգռ	-11764
▁Բրիտանական	-11765
▁վիրավորներ	-11766
▁նկարագրությունը	-11767
անիվ	-11768
▁փնտրել	-11769
▁արցախյան	-11770
▁վկայական	-11771
▁վճարների	-11772
▁անցկացրած	-11773
▁ժողովուրդն	-11774
▁Ուսումնական	-11775
ite	-11776
իկոլ	-11777
իտան	-11778
ենկոն	-11779
▁ՄԻԵԴ	-11780
▁դեմքի	-11781
▁հրշեջ	-11782
▁ցամաք	-11783
ապատկեր	-11784
▁ներշնչ	-11785
▁Ծրագիրը	-11786
▁Չեխիայի	-11787
▁տարեվեր	-11788
▁Թբիլիսիի	-11789
▁Սահակյանն	-11790
▁պետությանը	-11791
▁զբոսաշրջիկների	-11792
ՏՀ	-11793
Վար	-11794
խազ	-11795
օրեն	-11796
▁բուս	-11797
▁քրոջ	-11798
▁դաշտը	-11799
▁հիմքը	-11800
▁հնչել	-11801
ագնահատ	-11802
▁Ինչու՞	-11803
▁բանավոր	-11804
▁Սահակյան	-11805
▁հասցնում	-11806
ափոխության	-11807
▁Մխիթարյան	-11808
▁սենյակում	-11809
▁արտահայտել	-11810
▁հիշողության	-11811
ՕԿ	-11812
ach	-11813
ա՜ն	-11814
փորձ	-11815
աշարը	-11816
պաստի	-11817
▁անենք	-11818
▁կբարձ	-11819
▁ծախսել	-11820
▁բանավեճ	-11821
Քաղաքական	-11822
▁արտագաղթ	-11823
▁կինոթատր	-11824
▁հիշատակը	-11825
▁տարեկանից	-11826
▁եկեղեցական	-11827
▁իրականությանը	-11828
▁ստեղծագործության	-11829
/,	-11830
▁ՀՆԱ	-11831
▁ճեպ	-11832
եցում	-11833
▁սկզբն	-11834
▁անցնող	-11835
▁Միրզոյանը	-11836
▁գերազանցել	-11837
▁առաջարկվում	-11838
▁բովանդակության	-11839
ՎԵԼ	-11840
Վան	-11841
երես	-11842
ացանկ	-11843
▁ՀՈՒՆ	-11844
▁մկան	-11845
աշխատող	-11846
▁թիմում	-11847
▁հավաքի	-11848
▁Հատկապես	-11849
▁անապահով	-11850
▁հասցնելու	-11851
▁փոխհատուցում	-11852
▁թույլտվություն	-11853
▁համանախագահների	-11854
▁էֆ	-11855
իրավ	-11856
ոյից	-11857
▁Փայլ	-11858
▁կնվազ	-11859
Կարծում	-11860
▁ձեռներ	-11861
▁երկուսն	-11862
▁մաքրման	-11863
▁դիզայներ	-11864
▁հագուստի	-11865
շակութային	-11866
▁համակարգչի	-11867
▁համապարփակ	-11868
▁պայքարելու	-11869
▁ստորագրվել	-11870
▁նշանակությունը	-11871
▁կառավարությունում	-11872
Էլ	-11873
ner	-11874
եճի	-11875
ույցի	-11876
▁Գոհար	-11877
▁նորոգ	-11878
▁Ընտանի	-11879
▁զինուժ	-11880
▁Մատենադ	-11881
▁բուհերի	-11882
▁գործարքի	-11883
▁խաղադաշտ	-11884
▁մրցույթը	-11885
▁Ադրբեջանն	-11886
▁համոզմունք	-11887
▁հումանիտար	-11888
▁արդյունավետությունը	-11889
ենտի	-11890
կայի	-11891
վածը	-11892
▁Թանկ	-11893
ուզում	-11894
▁զավակ	-11895
▁հրաշք	-11896
▁գնդակը	-11897
աշինական	-11898
▁Roulette	-11899
▁Արաբական	-11900
▁Պատերազմ	-11901
▁Տեսախցիկ	-11902
▁գլխավորում	-11903
▁տրամադրվել	-11904
▁հակառակորդը	-11905
▁գործարարների	-11906
▁հեռանկարները	-11907
▁վերահսկողություն	-11908
ակաց	-11909
▁ռոբ	-11910
▁Կարո	-11911
▁դարձան	-11912
▁թղթակցի	-11913
▁խոսելու	-11914
առություն	-11915
▁կանխելու	-11916
▁ներդրումը	-11917
ՄՁ	-11918
ՎԱ	-11919
▁ԳԼ	-11920
եպետ	-11921
ոլին	-11922
▁պղպ	-11923
▁մուս	-11924
▁ՏԱՐԱԾ	-11925
▁միասն	-11926
▁Հիվանդ	-11927
▁անխուսափ	-11928
▁արտադրող	-11929
▁գյուղերի	-11930
▁դեմոկրատ	-11931
▁փորձառու	-11932
▁ենթարկելու	-11933
▁մարդկանցից	-11934
▁համաժողովին	-11935
▁ընտանիքներին	-11936
▁ցուցարարների	-11937
▁նորաձեւության	-11938
",	-11939
ire	-11940
ons	-11941
եյը	-11942
▁Bl	-11943
բայր	-11944
եկավար	-11945
▁Բաժին	-11946
անակերպի	-11947
▁Մամուլի	-11948
▁թաքնված	-11949
▁Հարկային	-11950
▁աշխատանքն	-11951
▁կարիերայի	-11952
▁մրցույթում	-11953
▁Ժամանակակից	-11954
▁զբոսաշրջային	-11955
▁կարողությունների	-11956
եք՝	-11957
▁sh	-11958
Առավոտ	-11959
▁կոլեգ	-11960
▁Հելսին	-11961
▁հակված	-11962
▁վստահում	-11963
▁արժեքավոր	-11964
ԱՉ	-11965
ԱԿԵՐ	-11966
▁սան	-11967
Բավար	-11968
անտին	-11969
▁գդալ	-11970
▁կռիվ	-11971
եժիսոր	-11972
▁County	-11973
▁Գորիսի	-11974
▁վարկած	-11975
ովետական	-11976
▁նրանում	-11977
▁Դավթյանը	-11978
▁ասպիրանտ	-11979
▁կայանում	-11980
▁գերմանացի	-11981
▁օրգանիզմի	-11982
▁համաժողովը	-11983
▁նախապայման	-11984
▁փողոցներում	-11985
ի՞ց	-11986
▁Թր	-11987
ticle	-11988
ամբեր	-11989
▁Բանն	-11990
▁ինքդ	-11991
▁պանիր	-11992
▁քառակ	-11993
▁ՎիվաՍել	-11994
▁սոցցանց	-11995
▁սիրիահայ	-11996
▁արգելվում	-11997
արդյունավետ	-11998
▁Ցուցահանդես	-11999
▁հաղորդմամբ՝	-12000
▁գիտնականների	-12001
▁կրթահամալիրի	-12002
▁վերադառնալու	-12003
.։	-12004
Աղ	-12005
ams	-12006
▁ԵԼ	-12007
▁ԿԱ	-12008
▁Ող	-12009
arat	-12010
Գանձ	-12011
տարի	-12012
▁իրեր	-12013
▁կայց	-12014
▁գինու	-12015
▁դիրիժ	-12016
▁նույնը	-12017
▁առեւանգ	-12018
▁ներգաղթ	-12019
▁գրառումը	-12020
out	-12021
ՊՐՈ	-12022
▁PR	-12023
▁Կո	-12024
ագնա	-12025
թոնը	-12026
▁թոռ	-12027
շտիան	-12028
▁Sport	-12029
▁Կոմիտ	-12030
▁հրավեր	-12031
▁մոդելի	-12032
▁նախանշ	-12033
▁տեխնիկ	-12034
▁աչքերով	-12035
▁վայելել	-12036
▁գործիքներ	-12037
▁մեքենաներ	-12038
ale	-12039
են՝	-12040
ENIAN	-12041
▁եղան	-12042
արները	-12043
ուլման	-12044
▁աղտոտ	-12045
▁շփվել	-12046
▁կնպաստի	-12047
▁սուպերմ	-12048
▁ստուգել	-12049
▁հերթապահ	-12050
▁օլիմպիադ	-12051
▁կմասնակցեն	-12052
▁ռազմավարության	-12053
»-«	-12054
ցին	-12055
▁Էլի	-12056
▁Հոր	-12057
▁Մադ	-12058
▁կլիմ	-12059
օղլուն	-12060
▁Բարեւ	-12061
▁ամենն	-12062
ootball	-12063
ոնիայում	-12064
▁Մանրամաս	-12065
▁ստուգում	-12066
▁ցուցարար	-12067
▁օգտատերերի	-12068
▁պայմաններով	-12069
ON	-12070
Ատ	-12071
aro	-12072
eol	-12073
ton	-12074
եթան	-12075
...»:	-12076
ատեղի	-12077
▁թեմա	-12078
անգիստ	-12079
▁Աղվան	-12080
▁Արծվիկ	-12081
▁աչքերի	-12082
▁Գուրգեն	-12083
▁մեծապես	-12084
▁նվազում	-12085
▁բուսական	-12086
▁հողատարած	-12087
▁մտավորական	-12088
▁պատրաստվել	-12089
▁տեղափոխվում	-12090
▁մրցակցության	-12091
▁վերաբերմունքի	-12092
Մեկ	-12093
port	-12094
յուդ	-12095
▁New	-12096
▁ռոք	-12097
▁փայ	-12098
▁Դրամ	-12099
▁ամոթ	-12100
▁Ավտոմ	-12101
▁Եղեգն	-12102
▁բարեխ	-12103
▁Գեորգի	-12104
▁անարդար	-12105
▁ժողոված	-12106
▁մոնիտոր	-12107
▁պատվաստ	-12108
▁քաղցկեղ	-12109
▁Դատարանը	-12110
▁Microsoft	-12111
ողականության	-12112
▁եզրափակչում	-12113
՞մ	-12114
ՃԱՐ	-12115
եյդ	-12116
▁ֆլ	-12117
aket	-12118
անացի	-12119
ոների	-12120
▁մեջ՝	-12121
▁մտավ	-12122
րամիջոց	-12123
▁Տրանսպ	-12124
▁խաղարկ	-12125
▁կրակել	-12126
▁հեղուկ	-12127
ամբլեայի	-12128
▁հաճույք	-12129
▁հաջողակ	-12130
▁Բելառուս	-12131
▁Պողոսյանի	-12132
▁աշխատանքին	-12133
▁հաղորդմամբ	-12134
ть	-12135
երքի	-12136
▁Արձ	-12137
▁ԿԳՆ	-12138
▁Շախ	-12139
▁Սարի	-12140
▁զոհեր	-12141
▁մեդիա	-12142
▁անգործ	-12143
▁Սկզբում	-12144
▁կիլոմետր	-12145
▁հակասում	-12146
▁միանալու	-12147
▁պատշգամբ	-12148
▁նորագույն	-12149
▁ծառայողները	-12150
▁հաջողությունների	-12151
▁Բա	-12152
ենդան	-12153
նիայի	-12154
▁ԳԱԼԱ	-12155
▁կրծք	-12156
▁ո՞ւմ	-12157
▁փոթոր	-12158
րանյութ	-12159
▁օժտված	-12160
▁դեռահաս	-12161
▁երկուսը	-12162
▁տղաների	-12163
աիրավական	-12164
▁Զոհրաբյանը	-12165
▁սահմանելու	-12166
▁քաղբանտարկ	-12167
▁Մարտիրոսյան	-12168
▁տրամաբանական	-12169
In	-12170
ոսմ	-12171
գյուղ	-12172
ուրսի	-12173
▁չէինք	-12174
▁Թովմաս	-12175
▁արծաթե	-12176
▁այցելեց	-12177
▁ձեռքերը	-12178
▁զորամասի	-12179
▁քրիստոնյա	-12180
ասպանության	-12181
▁հաղորդավար	-12182
▁պետականության	-12183
▁դաստիարակության	-12184
▁ագ	-12185
ձեռն	-12186
▁Բող	-12187
ավալի	-12188
վեստի	-12189
▁գրամ	-12190
▁ֆանտ	-12191
▁Նորքի	-12192
▁դեղին	-12193
▁հոգեհ	-12194
▁վերջը	-12195
▁ՍԱՀՄԱՆ	-12196
▁ինչպէս	-12197
▁օվկիան	-12198
▁ապահովող	-12199
▁դափնեկիր	-12200
▁տեսչական	-12201
▁երգչուհին	-12202
▁կկարողանա	-12203
▁հոբելյանական	-12204
▁ենթակայության	-12205
▁պաշտոնավարման	-12206
▁երաժշտությունը	-12207
▁խմբակցությունը	-12208
▁ճշմարտությունը	-12209
TV	-12210
III	-12211
ձնից	-12212
▁com	-12213
▁օրհ	-12214
արդախ	-12215
իդենտ	-12216
▁կրոն	-12217
▁հիդր	-12218
ոշտանգ	-12219
▁որպէս	-12220
▁տոնին	-12221
իմնադիր	-12222
նակատար	-12223
▁իմաստը	-12224
▁կարգին	-12225
▁կիսում	-12226
▁ՅՈՒՆԵՍԿՕ	-12227
▁ծաղիկներ	-12228
▁տնտեսվար	-12229
▁նույնական	-12230
▁պաշտոններ	-12231
▁զարգացումների	-12232
▁ժամանակավորապես	-12233
▁Դին	-12234
▁ԵԿՄ	-12235
▁կնշ	-12236
ցիները	-12237
▁Խաչիկ	-12238
▁գրվել	-12239
▁ամենագ	-12240
▁դռները	-12241
Զվարթնոց	-12242
▁Արեւելքի	-12243
▁թողնելով	-12244
▁Գերմանիան	-12245
▁քննադատել	-12246
▁արտահանում	-12247
▁դատապարտվել	-12248
▁մրցանակակիր	-12249
ԱՓ	-12250
ՈՑԻ	-12251
▁Op	-12252
այնի	-12253
▁Ալեն	-12254
▁լիգա	-12255
▁Գարիկ	-12256
▁բառից	-12257
▁գալով	-12258
▁ինտեր	-12259
▁խոսքն	-12260
▁ակնարկ	-12261
▁խոցելի	-12262
▁օգնելու	-12263
▁հանձնվել	-12264
▁վերացնել	-12265
▁հանձնարարել	-12266
▁փրկարարների	-12267
▁ժամկետներում	-12268
AZ	-12269
ափորձ	-12270
▁Մանե	-12271
▁չհամ	-12272
▁Իռլանդ	-12273
▁դաշնային	-12274
▁որոնցում	-12275
▁Հնդկաստանի	-12276
▁հանդիպելու	-12277
▁միջնադարյան	-12278
ES	-12279
ath	-12280
ile	-12281
իքն	-12282
վոլ	-12283
եմալ	-12284
▁Ժոզ	-12285
▁գահ	-12286
▁լար	-12287
▁չաս	-12288
ացանք	-12289
▁Տուր	-12290
▁մենեջ	-12291
▁Բաքուն	-12292
▁շեշտեց	-12293
▁շրջանց	-12294
▁կոնգրես	-12295
▁չափերով	-12296
▁փրկարար	-12297
▁լեռնային	-12298
▁հարցաքնն	-12299
▁Պետերբուրգում	-12300
▁գագաթնաժողովի	-12301
▁ֆուտբոլիստները	-12302
ԵՍՏ	-12303
▁ՀՍ	-12304
ազյան	-12305
▁Եղիշ	-12306
▁Ձորի	-12307
▁ռեժիս	-12308
▁Չգիտեմ	-12309
▁անհիմն	-12310
▁Չարենցի	-12311
▁խոսքերն	-12312
▁մոռացել	-12313
▁նկարներ	-12314
▁ուժային	-12315
▁փառատոն	-12316
▁Վարուժան	-12317
▁փոխհատուց	-12318
▁Ավետիսյանի	-12319
▁Ստամբուլում	-12320
▁դադարեցնելու	-12321
▁բարեկամության	-12322
▁հետազոտություն	-12323
ky	-12324
tem	-12325
աքի	-12326
քե՞ր	-12327
▁մոմ	-12328
▁Ո՞րն	-12329
▁կատեգ	-12330
▁տեղից	-12331
ապարակի	-12332
▁ազդանշ	-12333
▁միջոցի	-12334
▁ազգանունը	-12335
▁Հետագայում	-12336
▁Ռուսաստանն	-12337
▁հիմնախնդրի	-12338
▁հատկանիշներով	-12339
▁սփ	-12340
անետ	-12341
տեխն	-12342
▁ՄԻԱՎ	-12343
▁ալիք	-12344
▁Հյուսիս	-12345
▁մերժում	-12346
▁ենթադրել	-12347
▁զեկույցը	-12348
▁պողոտայի	-12349
▁վաճառում	-12350
▁այցելելու	-12351
▁ընդգծելով	-12352
▁ծանրաբեռն	-12353
▁բարձրացրել	-12354
▁ըմբշամարտի	-12355
▁բարձրացնելու	-12356
▁համընդհանուր	-12357
▁հիմնախնդիրները	-12358
▁հաստատություններում	-12359
իգար	-12360
նկատ	-12361
▁կշռ	-12362
բյուջ	-12363
▁Մուտ	-12364
▁այդմ	-12365
Աշխարհ	-12366
▁Համար	-12367
▁տեսավ	-12368
▁տեքստը	-12369
▁Այդպիսի	-12370
▁տուգանք	-12371
▁տարածման	-12372
▁օրակարգի	-12373
▁բացատրում	-12374
▁Description	-12375
▁կայունության	-12376
▁պատասխանները	-12377
pr	-12378
Աս	-12379
փի	-12380
ace	-12381
յոմ	-12382
րոն	-12383
ՈՒՆՔ	-12384
ատորի	-12385
երներ	-12386
արվեստ	-12387
ացմամբ	-12388
▁համեստ	-12389
▁հերքել	-12390
▁չափերի	-12391
▁պատգամ	-12392
▁կատարեց	-12393
▁քրդական	-12394
▁ընդլայնման	-12395
▁Շվեյցարիայի	-12396
▁եռամսյակում	-12397
▁ամուսնության	-12398
▁բացակայությունը	-12399
խի	-12400
ոյց	-12401
ՈՒՅԹ	-12402
ԿԱԿԱՆ	-12403
▁Երեխ	-12404
▁Ռոստ	-12405
▁իրող	-12406
ակցում	-12407
▁սիրած	-12408
իկներով	-12409
▁Թանդիլ	-12410
▁Վեհափառ	-12411
▁ավիաընկեր	-12412
▁հաջողվում	-12413
▁նախագծերը	-12414
▁վարչություն	-12415
▁անկախությունը	-12416
▁Հարությունյանն	-12417
▁ստեղծագործությունները	-12418
▁վրդ	-12419
ալում	-12420
▁ԿԱՐԳ	-12421
▁Մարմ	-12422
▁վրաց	-12423
▁պնդել	-12424
▁Այսպիսի	-12425
▁կիրառվել	-12426
▁վարդապետ	-12427
▁Կովկասում	-12428
▁ակտիվների	-12429
▁հետեւանքներ	-12430
▁ճարտարապետության	-12431
ия	-12432
▁п	-12433
անձր	-12434
▁Սաակ	-12435
▁գանգ	-12436
▁Վենետ	-12437
▁օրենքն	-12438
▁շահերից	-12439
▁փաստում	-12440
▁օպտիմալ	-12441
▁հեռացնել	-12442
▁հրավերով	-12443
▁նկարները	-12444
▁հինգերորդ	-12445
▁վերլուծություն	-12446
”,	-12447
man	-12448
oom	-12449
ters	-12450
Արեւ	-12451
▁Գիշ	-12452
▁Դրան	-12453
▁Էրիկ	-12454
▁Սերբ	-12455
▁ժայռ	-12456
▁Հունգ	-12457
▁պալատ	-12458
▁կարիքը	-12459
▁տարուց	-12460
chatting	-12461
▁ապաստան	-12462
▁մշակվել	-12463
▁պահվում	-12464
▁պատմաբան	-12465
▁ազատվելու	-12466
▁վերահաստատ	-12467
▁Գրիգորյանին	-12468
▁ռեյտինգային	-12469
▁աշխատակիցներ	-12470
▁կառուցողական	-12471
▁հեղափոխություն	-12472
▁պարտականությունների	-12473
իսա	-12474
լանտ	-12475
Վերջին	-12476
ocation	-12477
խանյանը	-12478
▁վտանգը	-12479
▁համբուր	-12480
▁հասնելով	-12481
▁գոյության	-12482
▁բնակիչներին	-12483
▁սփյուռքահայ	-12484
▁ցանկությունը	-12485
▁ներկայությամբ	-12486
▁Roulettechatting	-12487
ИА	-12488
ԱՍՍ	-12489
աոճ	-12490
mail	-12491
▁Viv	-12492
▁Քաջ	-12493
▁փես	-12494
▁Օտար	-12495
ՈՒՄՆԵՐ	-12496
▁Սեդրակ	-12497
▁անվերջ	-12498
▁ընդարձակ	-12499
▁խորամանկ	-12500
▁ծննդաբեր	-12501
▁կայացնել	-12502
▁հաստատող	-12503
▁բաժանմունք	-12504
▁մասնակցեցին	-12505
▁հանրությունը	-12506
հոգ	-12507
▁Սթ	-12508
ունն	-12509
▁օջախ	-12510
▁տերեւ	-12511
ակետում	-12512
▁Մեսսին	-12513
▁մտքերը	-12514
▁ուռուց	-12515
▁սմարթֆ	-12516
▁սեմինար	-12517
▁քաղաքներ	-12518
▁հանձնելու	-12519
ականություն	-12520
ավորումների	-12521
▁Արեւելքում	-12522
▁գիտելիքները	-12523
▁վարչությունը	-12524
սմ	-12525
Միլ	-12526
Տոտ	-12527
նյա	-12528
▁:)	-12529
աջան	-12530
▁Զեկ	-12531
իայից	-12532
▁Իջեւ	-12533
▁հրեան	-12534
▁Հեռախոս	-12535
▁ագրեսիվ	-12536
▁լուրերը	-12537
▁հավատալ	-12538
▁չինական	-12539
▁դադարում	-12540
▁հարաբերություններին	-12541
՛յ	-12542
Via	-12543
Իրան	-12544
Պետք	-12545
▁Ինդ	-12546
▁հոգե	-12547
▁ո՞նց	-12548
եցումը	-12549
▁ԱՇԽԱՐՀ	-12550
▁Հուսով	-12551
▁Շուշիի	-12552
▁դասագր	-12553
▁տուրքի	-12554
▁վերափոխ	-12555
▁քառօրյա	-12556
▁դիտարկել	-12557
▁բարձրակարգ	-12558
▁ֆակուլտետը	-12559
▁Նալբանդյանի	-12560
▁անխուսափելի	-12561
▁հաշվապահական	-12562
▁փաստաբանների	-12563
▁վնասվածքներով	-12564
▁ժամանակաշրջանի	-12565
hy	-12566
պաշտ	-12567
▁Կուր	-12568
▁արեւի	-12569
ARMENIAN	-12570
ագետների	-12571
▁կարծիքի	-12572
▁ներուժը	-12573
▁Պողոսյան	-12574
▁կարողանանք	-12575
▁խորհրդանշական	-12576
՞ք	-12577
esis	-12578
Գործ	-12579
ալիզ	-12580
անիչ	-12581
▁ԵՐԿ	-12582
▁ո՞ւր	-12583
գրավել	-12584
▁Մաթեւ	-12585
▁Յորքի	-12586
▁Շիրակ	-12587
▁Ակումբ	-12588
▁վայրէջ	-12589
▁տարկետ	-12590
▁ելույթի	-12591
▁շարժվել	-12592
▁պահանջի	-12593
▁Ֆրանցիսկ	-12594
▁դեսպանին	-12595
▁արժեքները	-12596
▁ղեկավարել	-12597
▁աշխատանքով	-12598
Ժառանգություն	-12599
▁պի	-12600
ասին	-12601
▁Գազ	-12602
ազուրկ	-12603
▁Հրայր	-12604
▁Օրերս	-12605
▁գործ՝	-12606
▁տառապում	-12607
▁փորձելով	-12608
▁Մկրտչյանի	-12609
▁վարչապետն	-12610
▁խաղարկության	-12611
ԴԻ	-12612
.):	-12613
ացք	-12614
ացվող	-12615
▁Նեյմ	-12616
▁ամաչ	-12617
▁չվեր	-12618
աբնույթ	-12619
▁դրսում	-12620
▁Հիսուսը	-12621
▁հաջողվեց	-12622
▁հյուրերի	-12623
▁օրինակով	-12624
ատեսակների	-12625
▁կիրառելու	-12626
▁արժողությամբ	-12627
▁հարազատներին	-12628
ԵԶ	-12629
մոտ	-12630
վաթ	-12631
արքի	-12632
ինյանը	-12633
▁գրավի	-12634
ադրվում	-12635
▁Խոսելով	-12636
▁Ազնավուրի	-12637
▁Երեւանյան	-12638
▁արդարության	-12639
▁մեղադրանքով	-12640
▁վիճակագրության	-12641
▁թարգմանությունը	-12642
▁գործողություններին	-12643
min	-12644
ամե	-12645
▁Ժն	-12646
ռայլ	-12647
▁ԸՆԴ	-12648
▁ԹԻՎ	-12649
▁ատր	-12650
չյանը	-12651
▁Բեգլ	-12652
▁գոլը	-12653
▁Բանկը	-12654
▁գարեջ	-12655
▁հովիվ	-12656
▁թիմերի	-12657
▁արցունք	-12658
▁մեծացել	-12659
ենդերային	-12660
▁Հրազդանի	-12661
▁համարվել	-12662
▁Մելիքյանը	-12663
▁հայրենիքը	-12664
▁արքեպիսկոպոս	-12665
▁երիտասարդներ	-12666
▁ցուցանիշները	-12667
UTC	-12668
▁այբ	-12669
▁Tags	-12670
▁քնել	-12671
▁խմբին	-12672
▁ցուրտ	-12673
▁ԽՈՐՀՐԴ	-12674
▁Պահանջ	-12675
▁բալետի	-12676
▁մահացու	-12677
ութիւնները	-12678
▁անցկացրեց	-12679
▁կենտրոնների	-12680
▁պետքարտուղար	-12681
▁ընդդիմություն	-12682
▁սեփականություն	-12683
▁ծառայություններից	-12684
ՄԻ	-12685
Մատ	-12686
▁Le	-12687
ացինք	-12688
▁Կազմ	-12689
▁գրած	-12690
▁տվող	-12691
▁Առանձն	-12692
▁բացված	-12693
▁պայուս	-12694
▁արտահոս	-12695
▁էթիկայի	-12696
▁տարվում	-12697
▁ավարտված	-12698
▁Ժողովուրդ	-12699
▁իդեալական	-12700
▁հանգեցնում	-12701
▁ճեպազրույց	-12702
▁վերացնելու	-12703
▁կատեգորիայում	-12704
բառ	-12705
ո՛ն	-12706
▁ՀՐ	-12707
▁Մետ	-12708
▁Օրբ	-12709
աքարի	-12710
▁geol	-12711
▁Թեստ	-12712
Բորուս	-12713
▁Արմին	-12714
▁մոտիվ	-12715
վածային	-12716
վորական	-12717
▁արտարժ	-12718
▁իմացել	-12719
▁կանչել	-12720
▁համարյա	-12721
▁հարգելի	-12722
▁վճարովի	-12723
▁տեսարան	-12724
▁Եգիպտոսի	-12725
▁Մկրտչյան	-12726
▁վիրտուալ	-12727
▁Մարուքյանը	-12728
%,	-12729
ԳԲ	-12730
лав	-12731
րիի	-12732
ամիջ	-12733
▁Տոր	-12734
▁ժխտ	-12735
▁պղնձ	-12736
▁սթափ	-12737
եկտորի	-12738
▁ասել՝	-12739
▁արարք	-12740
▁ծիրան	-12741
աներում	-12742
▁Դիտվել	-12743
▁Նարինե	-12744
▁Քննարկ	-12745
▁հոգնած	-12746
▁ճամբար	-12747
▁տեղակալի	-12748
▁դասարանում	-12749
▁այցելության	-12750
▁կենսաբանական	-12751
▁տնտեսագիտական	-12752
MS	-12753
▁ցր	-12754
եցգետ	-12755
ահարկի	-12756
անումը	-12757
▁հալած	-12758
ուղղակի	-12759
▁Բոլորը	-12760
▁ներքեւ	-12761
▁որտե՞ղ	-12762
▁ռուբլի	-12763
ավորելու	-12764
▁նկատելի	-12765
ուսակցական	-12766
▁geolocation	-12767
▁համամասնական	-12768
▁հաշվետվությունը	-12769
»–	-12770
ակոբ	-12771
▁Գին	-12772
ասկած	-12773
ատուս	-12774
▁ՀԱՇՎ	-12775
▁բարկ	-12776
▁կընդ	-12777
▁պարի	-12778
▁տաքս	-12779
ավորող	-12780
▁հաշվեկ	-12781
▁ուրիշի	-12782
▁փաստարկ	-12783
Երիտասարդ	-12784
▁ակտիվիստ	-12785
▁աշխարհից	-12786
▁վաճառվել	-12787
▁օրենսդիր	-12788
▁հանդիպումն	-12789
▁միլիոնավոր	-12790
▁PanARMENIAN	-12791
▁ներկայացումը	-12792
▁հետախուզության	-12793
ԱՑԻ	-12794
հաս	-12795
▁hy	-12796
▁Լո	-12797
▁Արժ	-12798
▁Սին	-12799
▁իրան	-12800
▁Ուղիղ	-12801
▁կամքի	-12802
▁երկրին	-12803
▁ժամանց	-12804
▁Դատախազ	-12805
▁ազդեցիկ	-12806
▁բանտում	-12807
▁ծավալով	-12808
▁Քոչարյան	-12809
▁միավորման	-12810
▁ասպարեզում	-12811
▁զարգացնելու	-12812
▁կարգավիճակը	-12813
▁Բրիտանիայում	-12814
լուխ	-12815
▁Ալբ	-12816
▁գեն	-12817
ասյան	-12818
▁Սթիվ	-12819
▁առօր	-12820
▁ցավը	-12821
▁Աջափն	-12822
▁article	-12823
▁Արաբիայի	-12824
▁կարճատեւ	-12825
▁հինգշաբթի	-12826
▁մակարդակում	-12827
▁պատմամշակութային	-12828
да	-12829
աթթ	-12830
եսու	-12831
▁եթէ	-12832
▁գցել	-12833
▁ՄԱՐԶԻ	-12834
▁Մակեդ	-12835
մինիստր	-12836
յակային	-12837
▁շեշտել	-12838
▁փափուկ	-12839
եբանական	-12840
▁Շենգավիթ	-12841
▁եզրափակչի	-12842
▁համերգային	-12843
▁նախաձեռնել	-12844
▁Արգենտինայի	-12845
▁արտահայտում	-12846
▁մթնոլորտում	-12847
▁գործընթացները	-12848
▁հիվանդություն	-12849
▁հեղափոխությունը	-12850
▁Ծռ	-12851
anks	-12852
անքն	-12853
բայց	-12854
▁Mail	-12855
ովային	-12856
▁views	-12857
▁Օբաման	-12858
▁մանդատ	-12859
▁վայրեր	-12860
▁բացմանը	-12861
▁ակադեմիա	-12862
▁բյուջեից	-12863
▁ողջունել	-12864
▁ցանկացող	-12865
▁Նախկինում	-12866
▁առաջացնել	-12867
▁մենաշնորհ	-12868
▁Մովսիսյանը	-12869
ՌԻԱ	-12870
նաց	-12871
ՊՐՈՑ	-12872
վերի	-12873
ունքն	-12874
▁կպահ	-12875
▁Ավետիք	-12876
▁Դեռեւս	-12877
▁կայքից	-12878
▁Եղանակը	-12879
▁կազմելու	-12880
▁գործադրել	-12881
▁առաքելական	-12882
▁շարունակեց	-12883
ավորությունը	-12884
▁վերլուծաբան	-12885
նու	-12886
edia	-12887
▁Jan	-12888
▁սրա	-12889
աձեռն	-12890
▁այլոց	-12891
▁գույնը	-12892
▁քրգործ	-12893
ազարդում	-12894
▁շրջափակ	-12895
▁հիմնարկի	-12896
▁Մարգարյան	-12897
Հայաստանում	-12898
▁ցուցաբերում	-12899
▁ԵՊ	-12900
ադին	-12901
▁Լեն	-12902
▁զատ	-12903
յունխ	-12904
ունդի	-12905
ֆորմատ	-12906
▁Մասիս	-12907
▁Որեւէ	-12908
▁Սփյուռ	-12909
▁անկում	-12910
▁ընթացք	-12911
▁կլինեք	-12912
▁արձագանքը	-12913
▁մատուցում	-12914
իծեռնակաբեր	-12915
▁երթեւեկելի	-12916
▁լայնածավալ	-12917
▁երկրպագուների	-12918
ks	-12919
ըստ	-12920
▁Eur	-12921
▁Տաճ	-12922
▁բոլ	-12923
չուհին	-12924
▁հատոր	-12925
▁մոնիթ	-12926
▁քամու	-12927
ավորվող	-12928
ժամանակ	-12929
եյտենանտ	-12930
▁Մարզպետ	-12931
▁բաժանել	-12932
▁բռնաբար	-12933
▁որոնման	-12934
▁Կրիշտիան	-12935
▁գրանցում	-12936
▁Բարսեղյան	-12937
▁Ցանկանում	-12938
▁Հիմնադրամի	-12939
աբանությունը	-12940
▁ձեւավորվում	-12941
▁սահմաններից	-12942
▁Կարապետյանին	-12943
▁բաժնետոմսերի	-12944
▁լարվածության	-12945
արդյունաբերական	-12946
▁եզրակացություն	-12947
eek	-12948
ալա	-12949
րդն	-12950
ասիա	-12951
գրքի	-12952
▁Nov	-12953
▁Ո՛չ	-12954
ԱԳՈՐԾ	-12955
▁ամէն	-12956
▁իրերի	-12957
▁Ամանոր	-12958
▁հողերի	-12959
▁նախանձ	-12960
▁Բելգիայի	-12961
▁կանցկացնի	-12962
▁մեկնարկում	-12963
▁նկարահանել	-12964
▁առաջարկները	-12965
▁ոստիկանական	-12966
▁բնագավառներում	-12967
՞նք	-12968
իսպ	-12969
լահ	-12970
▁Սեղ	-12971
ԱԿԵՐՊ	-12972
յանի՝	-12973
▁քնած	-12974
▁Ընթաց	-12975
▁եռանդ	-12976
▁տրվող	-12977
արձակում	-12978
▁եղբայրը	-12979
▁հարկերի	-12980
▁երիտասարդը	-12981
▁զարգացումները	-12982
▁խորհրդատվական	-12983
▁փոխգործակցության	-12984
FO	-12985
Դատ	-12986
քալ	-12987
▁Ռի	-12988
▁խաչի	-12989
▁չտես	-12990
ապատիվ	-12991
▁հասած	-12992
▁Վաղարշ	-12993
▁գրքերը	-12994
▁դնելու	-12995
▁անվավեր	-12996
▁նվերներ	-12997
▁բաժանորդ	-12998
▁գունավոր	-12999
▁պատանեկան	-13000
▁քարտուղարը	-13001
▁արարողության	-13002
▁դեսպանության	-13003
▁ղեկավարությամբ	-13004
ԵՓ	-13005
մխ	-13006
▁j	-13007
▁П	-13008
ՈՒՇ	-13009
▁սո	-13010
գայի	-13011
վեին	-13012
▁Ապա	-13013
▁Խանդ	-13014
▁ձեւի	-13015
▁քարե	-13016
▁գերակ	-13017
▁նիհար	-13018
ժշկական	-13019
որոշման	-13020
▁ձեռնտու	-13021
▁պատահել	-13022
▁ճակատագիրը	-13023
▁կազմակերպիչ	-13024
▁արտահայտությունը	-13025
Կոմ	-13026
▁ԳՆ	-13027
▁ՆԳ	-13028
իտիմ	-13029
▁յետ	-13030
▁ննջ	-13031
Պարոն	-13032
Սեւան	-13033
▁քննիչ	-13034
▁մարտին	-13035
▁նահանջ	-13036
▁շահութ	-13037
▁Իսպանիա	-13038
▁կապահով	-13039
▁վարելու	-13040
▁BlogNews	-13041
ակրթության	-13042
▁դեղամիջոց	-13043
▁պայթյունի	-13044
▁բազմակողմանի	-13045
▁հաշվետվության	-13046
▁քաղաքապետարանը	-13047
LE	-13048
ՈՒԿ	-13049
Չեմ	-13050
աժի	-13051
կեն	-13052
ոհամ	-13053
▁տրի	-13054
աչափի	-13055
▁iLur	-13056
▁Իգոր	-13057
իկյանի	-13058
▁Կանոն	-13059
▁ճշգրտ	-13060
▁Կիրակի	-13061
▁մաքրել	-13062
▁պաստառ	-13063
▁անփոփոխ	-13064
Հայաստանը	-13065
▁այնպիսին	-13066
▁իմաստուն	-13067
▁կունենաք	-13068
▁անտառային	-13069
▁մեղադրվող	-13070
▁ուղղակիորեն	-13071
ենչ	-13072
րաց	-13073
▁Կես	-13074
Վրաստ	-13075
առողջ	-13076
ելիքը	-13077
▁ջրով	-13078
▁կործան	-13079
▁ձայնով	-13080
հայկական	-13081
▁զրույցի	-13082
▁մակերեսը	-13083
▁մենամարտ	-13084
▁փոստային	-13085
▁զրուցակից	-13086
▁կունենանք	-13087
▁ավելացնում	-13088
▁համակարգով	-13089
▁բաղադրատոմս	-13090
▁հեռուստացույց	-13091
▁ԻՄ	-13092
եքսի	-13093
▁ՓՄՁ	-13094
ովիչը	-13095
▁Յորք	-13096
▁Շանթ	-13097
արեւել	-13098
▁Ամփոփ	-13099
▁տեսեք	-13100
▁թավշյա	-13101
▁փաթեթը	-13102
▁օրացույց	-13103
▁գիտություն	-13104
▁հարցազրույցի	-13105
ле	-13106
Կապ	-13107
▁Sc	-13108
▁Արթ	-13109
▁տնից	-13110
վորյակ	-13111
անյանին	-13112
▁Մեդվեդ	-13113
▁նահատակ	-13114
օգնություն	-13115
▁չորեքշաբթի	-13116
▁արձագանքում	-13117
▁վերջնաժամկետ	-13118
▁ներկայությունը	-13119
▁Խոյ	-13120
▁Առեւ	-13121
▁Գառն	-13122
▁պարս	-13123
▁ըմբիշ	-13124
▁ճկուն	-13125
▁ցանցը	-13126
▁տարիքը	-13127
▁բակալավրի	-13128
▁ծավալների	-13129
▁մեդալակիր	-13130
▁Քարդաշյանը	-13131
▁նստաշրջանի	-13132
▁դեպարտամենտի	-13133
▁Կաթողիկոսութեան	-13134
ոսն	-13135
▁Pr	-13136
▁ՈՒՍ	-13137
▁Չափ	-13138
▁Վաս	-13139
▁նա՝	-13140
Բոլոր	-13141
անիստ	-13142
եղենի	-13143
▁կհան	-13144
▁Գրանց	-13145
▁սրանք	-13146
ահարված	-13147
▁Արտաշես	-13148
▁բարեկեց	-13149
▁կատարվեց	-13150
▁հայացքից	-13151
ադպրոցական	-13152
▁մասնագետի	-13153
ությունները՝	-13154
▁պայմաններին	-13155
▁Ծիծեռնակաբեր	-13156
▁գործունեությունն	-13157
▁Պի	-13158
անձին	-13159
▁ամսից	-13160
▁անցնի	-13161
▁Ժողովի	-13162
▁երգերը	-13163
▁ինձնից	-13164
▁հիմքեր	-13165
ատեսական	-13166
▁հոգատար	-13167
▁մոռանալ	-13168
▁անհարմար	-13169
▁ռոմանտիկ	-13170
▁աղջիկները	-13171
▁հրամանագրով	-13172
եիք	-13173
▁քշ	-13174
արդի	-13175
▁արա	-13176
▁Երից	-13177
▁Սուս	-13178
▁սյու	-13179
▁Հավան	-13180
▁կբերի	-13181
▁մաշկը	-13182
▁շրջագ	-13183
արիայում	-13184
յալներին	-13185
▁Նախագծի	-13186
▁դատավճի	-13187
▁նորարար	-13188
կրաինական	-13189
▁հաճախորդի	-13190
▁բարձրության	-13191
▁տեխնոլոգիան	-13192
▁հետաքննության	-13193
▁յուրաքանչյուրի	-13194
▁Դալ	-13195
▁վահ	-13196
menia	-13197
ահայր	-13198
▁Գրադ	-13199
▁Գրիգ	-13200
ավորվի	-13201
▁դասար	-13202
▁գրելու	-13203
▁կազմով	-13204
▁հյուրն	-13205
▁ռիսկերի	-13206
▁սպասված	-13207
▁վճարելու	-13208
▁զարգացմանն	-13209
▁պրոդյուսեր	-13210
▁պատրաստելու	-13211
▁Մարտիրոսյանի	-13212
▁կարգավորումը	-13213
▁պայմանավորվել	-13214
▁չլ	-13215
▁Միկ	-13216
▁ելք	-13217
ներառ	-13218
▁թռչող	-13219
▁thesis	-13220
▁Ներսես	-13221
ամյակում	-13222
▁Հիսուսի	-13223
▁արգելոց	-13224
▁կրթաթոշ	-13225
▁ձայնագր	-13226
▁Analitik	-13227
▁ազատելու	-13228
▁ֆիզիկայի	-13229
▁ինքնաթիռը	-13230
▁մյուսների	-13231
▁շաբաթական	-13232
▁ընթերցմամբ	-13233
▁խախտումներ	-13234
▁ճարտարապետական	-13235
▁De	-13236
ասեռ	-13237
շյան	-13238
ուրա	-13239
▁պապը	-13240
▁Անգել	-13241
▁ժամին	-13242
ուղեծրի	-13243
▁սրտում	-13244
▁մակերեւ	-13245
▁ռադիոյի	-13246
վածություն	-13247
▁նվազեցման	-13248
▁հավատացյալ	-13249
▁նորարարական	-13250
▁ազատությունը	-13251
▁թույլատրվում	-13252
ադա	-13253
եմբ	-13254
ոյով	-13255
ոպան	-13256
սերվ	-13257
▁աղանդ	-13258
▁շաբաթը	-13259
Լուսավոր	-13260
▁Новости	-13261
▁թատրոնը	-13262
▁լուրերի	-13263
▁գաղտնիքը	-13264
Պետրոսյանը	-13265
▁ուսուցում	-13266
▁Փաշինյանը՝	-13267
▁հյուրընկալել	-13268
gh	-13269
՛ն	-13270
▁x	-13271
տներ	-13272
▁Глав	-13273
▁Մուկ	-13274
ելային	-13275
▁պրոբլ	-13276
▁բացթող	-13277
▁փաթեթի	-13278
national	-13279
▁սպասվող	-13280
ացումների	-13281
▁արաբական	-13282
▁նյարդային	-13283
▁իրավունքից	-13284
▁ցանկության	-13285
▁Պետերբուրգի	-13286
▁չափանիշներին	-13287
▁նախագահության	-13288
▁վերջնականապես	-13289
▁պատժամիջոցները	-13290
▁իրադարձություններ	-13291
▁պատրաստակամություն	-13292
ama	-13293
▁Դեղ	-13294
▁ունկ	-13295
▁Համոզ	-13296
▁կաթիլ	-13297
▁Ակադեմ	-13298
▁ձեռքին	-13299
▁բռնկվել	-13300
▁Անձնական	-13301
▁դպրոցները	-13302
▁դիրքորոշում	-13303
▁հարազատների	-13304
ՀԺ	-13305
ինտ	-13306
ՎՈՒՄ	-13307
ալիտ	-13308
▁Air	-13309
▁Լեզ	-13310
▁Բլոգ	-13311
▁դեմս	-13312
▁սերն	-13313
Սեբաստ	-13314
▁ռազմա	-13315
▁Շուտով	-13316
▁կուլտուր	-13317
▁հունիսին	-13318
▁կբարձրանա	-13319
▁կասկածանքով	-13320
▁հեղինակություն	-13321
ՀՀԿ	-13322
Ձեր	-13323
իջի	-13324
▁ԿՐ	-13325
▁կե	-13326
▁քա	-13327
▁Թիվ	-13328
▁սել	-13329
ելիքս	-13330
▁ՄԱՍՆ	-13331
▁լրան	-13332
▁քայք	-13333
ինների	-13334
որների	-13335
▁Մայքլ	-13336
▁Ամուսն	-13337
▁կավարտ	-13338
▁արտագնա	-13339
▁դավաճան	-13340
▁այդպիսով	-13341
▁ասուլիսը	-13342
▁դարձնելով	-13343
▁կասկածում	-13344
▁հատկացված	-13345
▁տարեդարձի	-13346
▁ասուլիսում	-13347
▁կարգավորել	-13348
▁օրենքներով	-13349
▁դատախազությունը	-13350
▁պայմանավորվածություն	-13351
}}	-13352
▁ԿԱՆ	-13353
▁ՀԷԿ	-13354
▁Էման	-13355
▁խաղողի	-13356
▁հայացք	-13357
▁տասներ	-13358
Բարգավաճ	-13359
▁բացառել	-13360
▁զարգացող	-13361
▁հիվանդների	-13362
▁վստահությունը	-13363
▁տեւողությունը	-13364
▁տրամադրություն	-13365
IT	-13366
ացն	-13367
▁PhD	-13368
երկու	-13369
▁ՖԻՖԱ	-13370
▁կտավ	-13371
ույթով	-13372
պահեստ	-13373
▁Իսպան	-13374
▁Հավատ	-13375
▁Սուքի	-13376
▁այգին	-13377
▁թերապ	-13378
▁Ասիայի	-13379
▁Մկրտիչ	-13380
▁քանիսը	-13381
▁Լավրովը	-13382
▁վերցված	-13383
ավարժական	-13384
▁հիշեցրեց	-13385
▁վավերագրական	-13386
դաս	-13387
ըմբ	-13388
վային	-13389
▁այգի	-13390
▁Լենին	-13391
▁շոկոլ	-13392
▁ինդեքս	-13393
▁Ամանորի	-13394
▁վերանայ	-13395
▁տղաները	-13396
▁թողարկել	-13397
▁Միջոցառմանը	-13398
[...]
