<pad>	0
<unk>	0
<s>	0
</s>	0
<mask>	0
<0x00>	0
<0x01>	0
<0x02>	0
<0x03>	0
<0x04>	0
<0x05>	0
<0x06>	0
<0x07>	0
<0x08>	0
<0x09>	0
<0x0A>	0
<0x0B>	0
<0x0C>	0
<0x0D>	0
<0x0E>	0
<0x0F>	0
<0x10>	0
<0x11>	0
<0x12>	0
<0x13>	0
<0x14>	0
<0x15>	0
<0x16>	0
<0x17>	0
<0x18>	0
<0x19>	0
<0x1A>	0
<0x1B>	0
<0x1C>	0
<0x1D>	0
<0x1E>	0
<0x1F>	0
<0x20>	0
<0x21>	0
<0x22>	0
<0x23>	0
<0x24>	0
<0x25>	0
<0x26>	0
<0x27>	0
<0x28>	0
<0x29>	0
<0x2A>	0
<0x2B>	0
<0x2C>	0
<0x2D>	0
<0x2E>	0
<0x2F>	0
<0x30>	0
<0x31>	0
<0x32>	0
<0x33>	0
<0x34>	0
<0x35>	0
<0x36>	0
<0x37>	0
<0x38>	0
<0x39>	0
<0x3A>	0
<0x3B>	0
<0x3C>	0
<0x3D>	0
<0x3E>	0
<0x3F>	0
<0x40>	0
<0x41>	0
<0x42>	0
<0x43>	0
<0x44>	0
<0x45>	0
<0x46>	0
<0x47>	0
<0x48>	0
<0x49>	0
<0x4A>	0
<0x4B>	0
<0x4C>	0
<0x4D>	0
<0x4E>	0
<0x4F>	0
<0x50>	0
<0x51>	0
<0x52>	0
<0x53>	0
<0x54>	0
<0x55>	0
<0x56>	0
<0x57>	0
<0x58>	0
<0x59>	0
<0x5A>	0
<0x5B>	0
<0x5C>	0
<0x5D>	0
<0x5E>	0
<0x5F>	0
<0x60>	0
<0x61>	0
<0x62>	0
<0x63>	0
<0x64>	0
<0x65>	0
<0x66>	0
<0x67>	0
<0x68>	0
<0x69>	0
<0x6A>	0
<0x6B>	0
<0x6C>	0
<0x6D>	0
<0x6E>	0
<0x6F>	0
<0x70>	0
<0x71>	0
<0x72>	0
<0x73>	0
<0x74>	0
<0x75>	0
<0x76>	0
<0x77>	0
<0x78>	0
<0x79>	0
<0x7A>	0
<0x7B>	0
<0x7C>	0
<0x7D>	0
<0x7E>	0
<0x7F>	0
<0x80>	0
<0x81>	0
<0x82>	0
<0x83>	0
<0x84>	0
<0x85>	0
<0x86>	0
<0x87>	0
<0x88>	0
<0x89>	0
<0x8A>	0
<0x8B>	0
<0x8C>	0
<0x8D>	0
<0x8E>	0
<0x8F>	0
<0x90>	0
<0x91>	0
<0x92>	0
<0x93>	0
<0x94>	0
<0x95>	0
<0x96>	0
<0x97>	0
<0x98>	0
<0x99>	0
<0x9A>	0
<0x9B>	0
<0x9C>	0
<0x9D>	0
<0x9E>	0
<0x9F>	0
<0xA0>	0
<0xA1>	0
<0xA2>	0
<0xA3>	0
<0xA4>	0
<0xA5>	0
<0xA6>	0
<0xA7>	0
<0xA8>	0
<0xA9>	0
<0xAA>	0
<0xAB>	0
<0xAC>	0
<0xAD>	0
<0xAE>	0
<0xAF>	0
<0xB0>	0
<0xB1>	0
<0xB2>	0
<0xB3>	0
<0xB4>	0
<0xB5>	0
<0xB6>	0
<0xB7>	0
<0xB8>	0
<0xB9>	0
<0xBA>	0
<0xBB>	0
<0xBC>	0
<0xBD>	0
<0xBE>	0
<0xBF>	0
<0xC0>	0
<0xC1>	0
<0xC2>	0
<0xC3>	0
<0xC4>	0
<0xC5>	0
<0xC6>	0
<0xC7>	0
<0xC8>	0
<0xC9>	0
<0xCA>	0
<0xCB>	0
<0xCC>	0
<0xCD>	0
<0xCE>	0
<0xCF>	0
<0xD0>	0
<0xD1>	0
<0xD2>	0
<0xD3>	0
<0xD4>	0
<0xD5>	0
<0xD6>	0
<0xD7>	0
<0xD8>	0
<0xD9>	0
<0xDA>	0
<0xDB>	0
<0xDC>	0
<0xDD>	0
<0xDE>	0
<0xDF>	0
<0xE0>	0
<0xE1>	0
<0xE2>	0
<0xE3>	0
<0xE4>	0
<0xE5>	0
<0xE6>	0
<0xE7>	0
<0xE8>	0
<0xE9>	0
<0xEA>	0
<0xEB>	0
<0xEC>	0
<0xED>	0
<0xEE>	0
<0xEF>	0
<0xF0>	0
<0xF1>	0
<0xF2>	0
<0xF3>	0
<0xF4>	0
<0xF5>	0
<0xF6>	0
<0xF7>	0
<0xF8>	0
<0xF9>	0
<0xFA>	0
<0xFB>	0
<0xFC>	0
<0xFD>	0
<0xFE>	0
<0xFF>	0
,	-3.07507
▁	-3.36806
▁է	-3.61442
:	-3.77006
ի	-4.19705
-	-4.22858
1	-4.24985
.	-4.2844
▁եւ	-4.3906
ը	-4.40031
0	-4.41799
ն	-4.49149
2	-4.58454
▁«	-4.7091
▁են	-4.82803
»	-4.92264
▁որ	-4.9684
։	-4.99329
՝	-5.17
ին	-5.20547
ում	-5.3969
3	-5.40804
5	-5.48759
▁(	-5.51764
9	-5.51876
)	-5.58097
4	-5.59978
8	-5.61979
▁ու	-5.6505
▁համար	-5.68983
ից	-5.7415
7	-5.74151
ով	-5.77098
6	-5.78188
`	-5.79508
▁հետ	-5.87589
▁-	-5.91711
▁էր	-5.99916
▁մասին	-6.03273
ների	-6.11403
▁մի	-6.12398
▁_	-6.19229
▁իր	-6.20472
...	-6.23512
▁ՀՀ	-6.27385
▁այն	-6.28025
▁նաեւ	-6.31005
▁կարող	-6.34762
▁այդ	-6.36508
▁եմ	-6.41745
▁Հայաստանի	-6.41852
▁թե	-6.42532
▁էլ	-6.44015
▁չի	-6.44226
ները	-6.44968
ներ	-6.4789
թ	-6.48556
▁այս	-6.51927
▁կամ	-6.56873
րդ	-6.58337
ական	-6.61672
▁ոչ	-6.66264
▁պետք	-6.67631
▁ենք	-6.69353
▁մեջ	-6.70728
/	-6.71442
ս	-6.7275
ց	-6.73331
ու	-6.74225
▁շատ	-6.75939
▁ավելի	-6.76664
ել	-6.76996
▁այլ	-6.77935
▁մեր	-6.78084
ային	-6.79058
▁ես	-6.81059
ության	-6.82791
am	-6.83329
▁ինչ	-6.83758
▁նոր	-6.86688
ա	-6.8682
▁վրա	-6.88099
▁նա	-6.88503
▁հետո	-6.92271
▁որը	-6.92317
▁կողմից	-6.94518
▁Այս	-6.94831
▁ինչպես	-6.95161
▁ժամանակ	-6.95468
▁իսկ	-6.99431
­	-7.02495
▁եք	-7.04692
▁իրենց	-7.0849
ք	-7.08737
ման	-7.08938
▁բոլոր	-7.11939
ված	-7.12128
▁քանի	-7.13792
▁մեծ	-7.15508
▁բայց	-7.15516
▁առաջին	-7.15543
▁նրա	-7.16732
▁մեկ	-7.16958
▁անգամ	-7.178
▁որոնք	-7.19641
▁միայն	-7.20014
▁Հանրապետության	-7.20801
▁չեն	-7.2348
▁չէ	-7.2681
▁տեղի	-7.26929
▁ընթացքում	-7.27532
▁էին	-7.28479
▁երբ	-7.31549
▁պետական	-7.31674
▁եթե	-7.34232
▁մոտ	-7.34419
▁դա	-7.34606
▁նախագահ	-7.35222
»,-	-7.35879
▁թ	-7.39721
▁հայ	-7.39742
ող	-7.40876
▁–	-7.42551
▁կ	-7.42671
▁թվականի	-7.43215
▁ունի	-7.44341
վել	-7.44664
են	-7.45173
▁առաջ	-7.4573
ություն	-7.45921
ությունը	-7.46157
▁մենք	-7.46664
▁տարի	-7.46691
▁եղել	-7.47103
»-	-7.4791
▁արդեն	-7.48198
▁ԱՄՆ	-7.48461
▁մինչեւ	-7.48737
▁ամեն	-7.49047
▁իմ	-7.49107
ած	-7.50794
վում	-7.52144
▁երկու	-7.52501
▁որպես	-7.52842
▁նրանց	-7.53523
▁Նա	-7.53741
եց	-7.55003
▁Հայաստանում	-7.55171
որ	-7.57937
▁լավ	-7.5796
▁Հ	-7.57983
▁դեպքում	-7.59027
»:	-7.5935
▁սակայն	-7.60172
▁միջազգային	-7.61045
▁բան	-7.61228
յան	-7.61242
▁—	-7.61497
▁ասաց	-7.62423
▁դեմ	-7.63429
եք	-7.63918
▁վերաբերյալ	-7.64534
եր	-7.65899
▁նման	-7.66481
ը՝	-7.66614
դ	-7.67093
▁Երեւանի	-7.67299
▁ինձ	-7.67687
▁այսօր	-7.68224
ներից	-7.6922
երի	-7.69643
▁Ս	-7.70567
▁ձեր	-7.72012
▁ապա	-7.72021
▁Ա	-7.72225
վի	-7.7247
ան	-7.72544
▁քաղաքական	-7.72624
▁ազատ	-7.74542
▁ասել	-7.75226
ր	-7.76036
մ	-7.76416
▁չ	-7.77021
▁օր	-7.78094
▁դուրս	-7.78125
▁տարբեր	-7.7815
ությամբ	-7.78187
▁գլխավոր	-7.81241
▁վերջին	-7.82179
▁կա	-7.82457
▁...	-7.82491
ներին	-7.82657
ելու	-7.82861
▁քան	-7.8412
▁Ես	-7.84314
▁Է	-7.84373
▁մարդկանց	-7.84794
▁նրան	-7.84872
▁որտեղ	-7.86767
[	-7.87544
▁ազգային	-7.87851
▁տալիս	-7.88521
▁դուք	-7.89774
▁Այդ	-7.91533
▁Կ	-7.91755
▁ունեցել	-7.91794
Ի	-7.91837
▁Եթե	-7.91958
▁ասում	-7.93533
▁որեւէ	-7.94332
▁Իսկ	-7.94426
▁որի	-7.9457
s	-7.94736
▁Երեւան	-7.95002
▁նկատմամբ	-7.96267
]	-7.96361
▁մեզ	-7.96681
▁/	-7.96725
▁հայկական	-7.97473
▁Մ	-7.97697
),	-7.98093
–	-7.98457
▁Հայաստան	-7.98871
իս	-7.99685
ամյա	-8.00489
▁Ձեր	-8.00585
▁մարդ	-8.00656
▁միջեւ	-8.01438
Ն	-8.01551
▁չեմ	-8.02014
երը	-8.02339
▁Սերժ	-8.02746
կ	-8.02868
▁ա	-8.02891
▁տարվա	-8.03104
▁առանց	-8.03341
▁ժամը	-8.03363
տ	-8.03458
▁Նիկոլ	-8.03911
▁լինի	-8.04079
ներն	-8.04168
▁նրանք	-8.04673
▁կարեւոր	-8.05556
▁հայտնի	-8.0667
▁դրամ	-8.06704
▁մեկը	-8.07196
▁կարելի	-8.07332
▁ԱԺ	-8.07931
▁լինել	-8.08465
▁շուրջ	-8.0848
▁ըստ	-8.09062
▁կառավարության	-8.09075
▁հնարավոր	-8.09262
▁նախարար	-8.09582
».	-8.0979
յի	-8.09997
▁Ինչպես	-8.10231
▁ամբողջ	-8.10448
▁զարգացման	-8.10615
▁դեռ	-8.11084
▁թվականին	-8.11665
▁Հայաստանից	-8.12431
▁օրը	-8.12515
Ա	-8.13295
ո	-8.13831
▁անհրաժեշտ	-8.14041
▁եւս	-8.14106
▁դրա	-8.14148
տեսանյութ	-8.14596
▁բարձր	-8.14809
▁ձեզ	-8.15222
▁անդամ	-8.16104
▁աշխարհի	-8.16565
▁կլինի	-8.17312
▁շարք	-8.17709
▁Գ	-8.18077
▁նախկին	-8.18097
▁ունեցող	-8.18503
▁մարդիկ	-8.19494
ներով	-8.19611
▁Բայց	-8.19734
▁նույն	-8.20078
▁համապատասխան	-8.20105
▁Այն	-8.20924
Ս	-8.20939
▁կան	-8.20944
▁Սա	-8.21336
▁Ազգային	-8.21472
▁Եվ	-8.21713
▁Մի	-8.21853
▁Ռուսաստանի	-8.21873
▁ուզում	-8.22068
▁Հայ	-8.22118
▁հենց	-8.22436
իր	-8.23003
▁կապված	-8.23019
▁երկրի	-8.23756
▁միջոցով	-8.24139
▁հետեւյալ	-8.24281
▁Բ	-8.24663
գ	-8.24896
▁Արմեն	-8.24974
▁պատճառով	-8.25064
▁հիմնական	-8.25418
▁Մենք	-8.25598
▁երկրորդ	-8.26236
▁որպեսզի	-8.26336
▁ղեկավար	-8.26553
▁ընդհանուր	-8.26842
▁անվան	-8.26978
ակ	-8.27161
▁անել	-8.27326
▁ովքեր	-8.2748
▁նախագահի	-8.2772
▁ով	-8.27887
վեց	-8.28114
▁հազար	-8.2832
ենք	-8.28369
▁նշել	-8.2843
▁տնտեսական	-8.28527
▁Նոր	-8.28723
վող	-8.29231
▁նախատեսված	-8.29926
▁լավագույն	-8.29929
▁իրեն	-8.30161
ե	-8.30254
▁պաշտպանության	-8.30342
▁﻿	-8.30346
▁ձեռք	-8.30405
▁ի՞նչ	-8.30768
▁հայտնել	-8.31178
▁սա	-8.31345
▁հայտարարել	-8.31746
▁Սարգսյանը	-8.31852
▁լինելու	-8.31996
▁Ի	-8.32114
▁ունեն	-8.32374
▁սահմանված	-8.32439
▁Այսօր	-8.33369
▁տարեկան	-8.33435
▁քաղաքի	-8.3367
▁հնարավորություն	-8.34186
▁Ադրբեջանի	-8.3427
եմ	-8.34271
▁Արցախի	-8.34483
▁ՀՀԿ	-8.35125
▁մարզի	-8.35289
▁ան	-8.35318
Ը	-8.35611
▁տակ	-8.35654
▁նշեց	-8.35815
▁ծառայության	-8.35849
▁որոնց	-8.36176
▁հանդես	-8.36681
▁կազմում	-8.36797
▁չկա	-8.36836
▁Երեւանում	-8.3688
▁Լուրեր	-8.37335
▁հատուկ	-8.3736
ներում	-8.37837
▁թույլ	-8.37913
▁Դուք	-8.38021
▁չէր	-8.38163
▁Հայոց	-8.38729
ուն	-8.38768
▁խորհրդի	-8.38839
Հ	-8.39034
▁քրեական	-8.3905
▁Մեր	-8.39194
):	-8.39252
▁երեք	-8.39334
վ	-8.3936
▁համաձայն	-8.39809
▁բաց	-8.40742
▁հիմա	-8.40747
▁որոշ	-8.40808
վեն	-8.40907
▁մարդու	-8.4108
▁նախարարության	-8.41143
▁դրանք	-8.41563
իկ	-8.41647
▁ծրագրի	-8.42598
▁Թուրքիայի	-8.43041
յանը	-8.43502
▁միշտ	-8.43664
▁եկել	-8.44338
▁անվտանգության	-8.44457
▁գալիս	-8.44483
▁վարչապետ	-8.44553
▁դու	-8.44662
ավոր	-8.44799
▁Դա	-8.44806
▁նպատակով	-8.45177
▁քեզ	-8.45241
▁Հայաստանը	-8.45549
▁դրանց	-8.45729
▁պաշտոնական	-8.45819
Կ	-8.4584
▁ցույց	-8.45854
▁այստեղ	-8.46032
▁Սակայն	-8.46157
▁տեղ	-8.46202
լ	-8.46248
▁հայտնում	-8.46417
Գ	-8.46886
▁Ըստ	-8.46971
▁գտնվում	-8.47056
▁արտաքին	-8.47147
▁ցանկանում	-8.47217
▁կառավարման	-8.47219
▁անձանց	-8.47848
▁ճիշտ	-8.48118
▁փոքր	-8.48604
▁քիչ	-8.4862
▁Վ	-8.48702
▁հոդվածի	-8.48759
▁կատարել	-8.48853
▁դեպի	-8.48935
եւ	-8.49278
▁քո	-8.49636
"	-8.49643
▁հանրագիտարան	-8.49758
▁այնպես	-8.49854
Մ	-8.49964
▁օրենքի	-8.50149
com	-8.5069
▁գտնվող	-8.50845
▁ունեցած	-8.51199
▁Սարգսյանի	-8.51315
ուց	-8.517
▁Վիքիպեդիա	-8.51767
▁մասնակցել	-8.51889
▁որովհետեւ	-8.51996
▁գործունեության	-8.52151
▁անում	-8.52252
▁մլն	-8.52381
▁սոցիալական	-8.52624
▁գրում	-8.52776
▁ստացել	-8.52965
▁շրջանակներում	-8.52973
▁մյուս	-8.53234
▁արդյունքում	-8.53278
▁աշխատանքային	-8.53322
ես	-8.53449
»։	-8.53478
▁խմբի	-8.53719
▁ներկայացնում	-8.53802
▁Կարեն	-8.54425
▁թվում	-8.54442
▁երկրների	-8.54519
▁էջ	-8.54679
ալ	-8.54721
▁նվիրված	-8.54921
▁պատրաստ	-8.55414
▁որն	-8.55571
Տ	-8.55616
չ	-8.55825
▁Նրա	-8.56038
ելով	-8.56395
▁ընկերության	-8.56672
▁կենտրոն	-8.56681
▁աշխարհում	-8.56718
▁աշխատանքի	-8.57567
▁Տ	-8.57622
▁յուրաքանչյուր	-8.57736
▁կյանքի	-8.57823
▁մ	-8.57973
▁թիվ	-8.57977
▁Ձեզ	-8.5837
▁N	-8.58489
▁ՌԴ	-8.58542
▁այնքան	-8.59447
▁տվել	-8.59473
▁համայնքի	-8.60172
▁վարչական	-8.60237
▁կարծում	-8.60309
▁անց	-8.60433
Բ	-8.60547
▁ընդունել	-8.6059
▁գործում	-8.60796
▁"	-8.60934
▁վեր	-8.61127
ին՝	-8.6115
▁Մեծ	-8.61175
▁տնօրեն	-8.6139
▁Ու	-8.61661
կան	-8.62608
▁դարձել	-8.62985
▁ոստիկանության	-8.63032
այի	-8.63383
▁մամուլի	-8.63386
▁նույնիսկ	-8.64539
որեն	-8.65003
▁պիտի	-8.65401
▁երկար	-8.65617
▁Հայկական	-8.65654
բ	-8.65913
▁իրավունքների	-8.65994
▁օրվա	-8.66063
ոն	-8.66195
▁որոշում	-8.66304
յա	-8.66356
▁նշանակում	-8.66667
▁հարցը	-8.67113
▁սեփական	-8.67378
▁համակարգի	-8.67441
▁ապրիլի	-8.6758
▁ներկայացրել	-8.67665
▁Սուրբ	-8.67899
▁մարտի	-8.6792
▁գրել	-8.67943
▁դոլար	-8.68305
▁կուսակցության	-8.68731
▁գործ	-8.69127
ծ	-8.69304
▁սույն	-8.69339
▁լրատվական	-8.6961
շ	-8.69633
▁պատգամավոր	-8.69921
▁Արթուր	-8.6993
▁տարածքում	-8.70404
▁ուղղությամբ	-8.70474
▁բազմաթիվ	-8.70639
▁համագործակցության	-8.70664
▁հետեւանքով	-8.71322
▁Ն	-8.71421
▁գ	-8.71632
▁զրույցում	-8.7207
▁Լ	-8.72203
▁նշված	-8.72248
▁Գլխավոր	-8.7233
▁ցանկացած	-8.72487
▁պարզ	-8.7259
▁շրջանում	-8.72787
▁միլիոն	-8.72853
▁Փաշինյանը	-8.72981
ժ	-8.72987
▁տալ	-8.73118
▁Ք	-8.73216
ար	-8.73471
▁առավել	-8.73551
▁բերել	-8.73633
”	-8.73778
▁“	-8.7425
▁չունի	-8.74643
▁Պ	-8.75546
▁առկա	-8.7564
▁գործող	-8.75939
▁կոդը	-8.76105
հ	-8.76119
յում	-8.76182
▁պահին	-8.76257
▁արագ	-8.76295
▁հասարակական	-8.76315
▁սկսել	-8.76705
)։	-8.76998
▁Ի՞նչ	-8.77073
▁հանձնաժողովի	-8.77133
է	-8.77496
▁կատարելու	-8.77579
▁համատեղ	-8.78163
▁մասը	-8.78185
▁դպրոց	-8.78244
եցին	-8.78329
▁ողջ	-8.78395
▁իրավունք	-8.78413
▁կապ	-8.785
▁հարցում	-8.78562
▁սեպտեմբերի	-8.78659
Ես	-8.78748
▁հարցերի	-8.7878
▁բ	-8.79325
▁վարչության	-8.79498
▁դեկտեմբերի	-8.7954
▁ժամ	-8.79624
▁ոլորտում	-8.79639
▁հոկտեմբերի	-8.79867
▁տուն	-8.799
▁պետ	-8.80036
ատ	-8.8016
▁քննչական	-8.80247
▁ներկա	-8.80445
▁M	-8.80558
▁հաճախ	-8.8056
յանի	-8.80798
▁կազմակերպության	-8.80856
▁չենք	-8.80913
▁ինչը	-8.80967
կա	-8.81125
▁կարգով	-8.81311
▁ուղղված	-8.8172
յ	-8.81989
▁լուրջ	-8.8205
▁ռազմական	-8.82132
▁Երբ	-8.82134
▁մայիսի	-8.82214
u	-8.82331
▁խաղում	-8.82568
▁հաղորդում	-8.82718
զ	-8.83101
▁Լեռնային	-8.83114
▁ժողովրդի	-8.83242
▁խմբագրել	-8.8342
▁քաղաքում	-8.83432
առ	-8.83555
ավ	-8.83595
y	-8.83707
▁Դավիթ	-8.83902
▁այլն	-8.83975
a	-8.84029
▁շարունակում	-8.8428
▁Լեւոն	-8.84337
▁Ինչ	-8.8464
▁փորձում	-8.84655
ղ	-8.84806
▁կենտրոնի	-8.84864
▁Թ	-8.85144
▁Թերթ	-8.85324
▁Իրանի	-8.8555
▁Առաջին	-8.85589
▁կմ	-8.85883
▁Արամ	-8.86113
▁հերթական	-8.86137
՞	-8.86323
▁շաբաթ	-8.86709
▁երեխաների	-8.86836
▁աշխատել	-8.86957
▁•	-8.8703
▁արել	-8.87827
▁հուլիսի	-8.88007
▁աշխատում	-8.88042
▁կայքում	-8.88089
▁ֆինանսական	-8.88198
▁նույնպես	-8.88321
▁պատմության	-8.88358
վեր	-8.88379
▁Նրանք	-8.88637
▁դատական	-8.88665
▁Շ	-8.88686
▁հունիսի	-8.88706
րի	-8.88835
▁առ	-8.88846
ամ	-8.88927
Թ	-8.89109
▁դիմել	-8.89313
▁սիրում	-8.89335
▁պատասխան	-8.8934
▁Դ	-8.8936
▁A	-8.89825
▁բնակարան	-8.89981
▁ինքը	-8.90156
▁հատկապես	-8.90527
▁կոչ	-8.9054
▁ունեցավ	-8.90752
▁գնում	-8.90775
նա	-8.90793
▁ակտիվ	-8.90848
▁կանանց	-8.91038
աց	-8.91114
▁ուրիշ	-8.91123
▁դատարանի	-8.91154
▁վարչապետի	-8.91201
իչ	-8.91243
▁նոյեմբերի	-8.9128
▁հարաբերությունների	-8.91334
▁ԵՄ	-8.91614
▁ժողովի	-8.91627
▁նախորդ	-8.91755
▁տեսնում	-8.9209
▁Տիգրան	-8.92104
▁այժմ	-8.92299
▁քաղաքացիական	-8.92305
▁նշում	-8.92395
▁ապրում	-8.92478
▁վաղ	-8.92522
▁ինքն	-8.92576
▁կրթության	-8.92589
▁դպրոցի	-8.92637
▁մշակույթի	-8.92735
▁անձի	-8.92824
▁ունենալ	-8.92955
▁տեղեկացնում	-8.93294
▁անվճար	-8.93339
▁Եվրոպայի	-8.93951
▁հունվարի	-8.94171
ումը	-8.94171
ՈՒՄ	-8.94206
▁երկրում	-8.94444
ութեան	-8.94556
▁բժշկական	-8.94839
▁իրավական	-8.94874
▁S	-8.95076
▁լինում	-8.95159
▁ներքին	-8.95194
▁Խ	-8.95279
՛	-8.95343
%	-8.95348
▁այդպես	-8.96026
▁շնորհիվ	-8.96058
▁մարմնի	-8.96336
▁հետաքրքիր	-8.96382
▁հանդիպում	-8.96382
խ	-8.96447
▁կունենա	-8.96509
ախ	-8.96514
▁ծանր	-8.96592
▁այնտեղ	-8.96838
▁ամենա	-8.96984
▁օրինակ	-8.97065
▁խաղը	-8.9715
▁հանդիպել	-8.97167
▁Գագիկ	-8.97211
▁համալսարանի	-8.97293
▁օրենքով	-8.9736
▁երիտասարդ	-8.97506
▁Ան	-8.9756
Վ	-8.97651
մամբ	-8.9774
▁Հիշեցնենք	-8.97939
▁մեկն	-8.98036
▁դիմաց	-8.98046
▁գործով	-8.98052
▁հարցեր	-8.98305
▁կերպ	-8.98342
▁#	-8.98704
▁կենտրոնում	-8.98801
▁հ	-8.98876
▁C	-8.98888
ությունն	-8.99083
▁հարց	-8.99103
▁խոշոր	-8.99179
▁իրական	-8.99313
▁հաշվի	-8.99349
ոս	-8.99381
▁երրորդ	-8.9958
▁ամիս	-8.99594
▁համաշխարհային	-8.99773
▁հաջորդ	-8.99855
▁Տեր	-9.00234
▁ստեղծել	-9.00308
▁տան	-9.00386
▁վատ	-9.00405
▁խոսել	-9.00412
▁Զ	-9.00602
▁երբեք	-9.00705
Դ	-9.00728
▁Վրաստանի	-9.00805
▁այնպիսի	-9.00814
▁կրկին	-9.00912
▁հրապարակել	-9.00945
▁կոմիտեի	-9.01388
▁դեռեւս	-9.01406
ացման	-9.01519
_	-9.01532
▁արդյունավետ	-9.01778
▁տեղակալ	-9.01937
▁ավագանու	-9.0195
▁համարում	-9.02117
▁խաղի	-9.02242
▁խնդիրներ	-9.0254
▁Ամեն	-9.02571
▁անկախ	-9.02785
խմբագրել	-9.03058
վելու	-9.03132
▁դժվար	-9.03208
▁խնդիր	-9.0328
Ք	-9.03524
▁վերաբերում	-9.0374
▁կապակցությամբ	-9.0378
▁այցելել	-9.03867
▁դառնում	-9.04142
▁փետրվարի	-9.04335
▁այլեւ	-9.04433
▁ռուսական	-9.04547
▁Ռոբերտ	-9.04674
աս	-9.0473
▁լուրեր	-9.04745
ւ	-9.04777
▁նախարարի	-9.04792
▁ուժերի	-9.0527
▁ընդամենը	-9.05424
▁որոշակի	-9.05448
թթ	-9.05482
▁միության	-9.05647
եղ	-9.05794
▁որոշման	-9.05808
▁ԵՎ	-9.05978
▁տվյալ	-9.06032
պ	-9.06136
▁մինչ	-9.06377
▁գործերի	-9.06419
▁ներկայացված	-9.06597
▁ՄԱԿ	-9.06601
քի	-9.06704
▁գումար	-9.06713
▁նախագահը	-9.06816
▁թիվը	-9.06846
▁իրենք	-9.0706
▁բաժնի	-9.07093
▁ունենք	-9.07226
▁Փաշինյանի	-9.07236
▁Միացյալ	-9.07256
▁դրական	-9.07473
անում	-9.07554
Պ	-9.07612
▁միասին	-9.07625
▁ընտրությունների	-9.07679
▁փորձ	-9.07691
▁ս	-9.07707
▁գործակալություն	-9.07785
▁հանրային	-9.07885
Մենք	-9.08032
▁գեղեցիկ	-9.08091
▁մարզում	-9.08208
▁միջին	-9.08209
▁[	-9.08354
▁հասարակության	-9.08462
▁անձնական	-9.08654
▁օրերին	-9.08725
▁Ռ	-9.0889
▁փոփոխություններ	-9.08945
▁Շատ	-9.08957
▁պետության	-9.09286
▁խոսում	-9.09315
▁Չ	-9.09351
▁―	-9.09359
▁խմբակցության	-9.09539
▁օգոստոսի	-9.09569
▁րոպե	-9.09586
▁հանդիպման	-9.09774
▁հիման	-9.09919
▁ծրագրերի	-9.09953
▁B	-9.10038
▁էջում	-9.10104
▁լրագրողների	-9.10333
▁ուշ	-9.10621
▁կարողանում	-9.10642
▁Բացի	-9.10644
▁հստակ	-9.1073
in	-9.10965
▁ընկերությունը	-9.11094
ճ	-9.11359
▁մշակութային	-9.1146
'	-9.11471
▁թեկնածու	-9.11552
▁մարմինների	-9.116
(	-9.11791
▁ստանալու	-9.11798
▁ունենում	-9.11931
▁վերջ	-9.12066
▁դեսպան	-9.12237
▁համարվում	-9.12434
▁մասնագիտական	-9.12591
▁գործի	-9.13043
▁խորհրդարանական	-9.13487
▁կազմել	-9.13517
▁կյանքը	-9.13587
Լ	-9.13699
▁խնդիրների	-9.13751
րա	-9.13803
լի	-9.13924
▁շրջանի	-9.13924
▁ներկայացնել	-9.13963
▁գրեթե	-9.13964
ռ	-9.1397
▁ծրագիրը	-9.14075
▁հավաքականի	-9.14078
▁էինք	-9.14085
▁անունը	-9.1427
▁մեկի	-9.14283
▁ուսումնական	-9.14285
S	-9.14288
▁Ազատ	-9.14294
իք	-9.14516
▁իրականացման	-9.14674
▁ոչինչ	-9.14775
▁որոշումը	-9.14853
▁որքան	-9.15106
▁աշխատանքների	-9.15146
▁քաղաքականության	-9.1524
▁առթիվ	-9.15276
▁դարձավ	-9.15414
▁բնական	-9.15639
▁գիտական	-9.15658
▁Ղարաբաղի	-9.15681
սի	-9.15885
▁իշխանության	-9.1599
e	-9.16027
n	-9.16054
▁Հայկ	-9.16098
▁հարկ	-9.16166
▁գտնել	-9.16194
▁Հոդված	-9.1622
▁Նորություններ	-9.16462
▁հիմնադրամի	-9.16576
▁հայտնվել	-9.16698
▁բացի	-9.16759
▁այլեւս	-9.1689
▁կնոջ	-9.17118
փ	-9.17267
▁Նախագահ	-9.17325
▁Իմ	-9.17487
▁կազմակերպությունների	-9.17586
▁շրջան	-9.17944
ոտ	-9.17955
Հայաստանի	-9.18035
▁առանձին	-9.18267
▁աշխատանք	-9.18413
▁ծառայությունների	-9.18539
▁պարզապես	-9.18545
լուսանկարներ	-9.18577
▁Ֆրանսիայի	-9.18763
▁ընտանիքի	-9.18807
▁կողմ	-9.18901
▁պատերազմի	-9.18989
▁առումով	-9.19068
▁Օ	-9.19094
%-	-9.19191
▁սպասում	-9.19337
▁մասի	-9.19398
▁պատրաստվում	-9.19646
▁խնդիրը	-9.19672
▁կար	-9.2017
▁մասնակցելու	-9.20248
ցի	-9.2051
▁աշխատակազմի	-9.20776
▁Մայր	-9.20824
▁ցեղասպանության	-9.2088
վա	-9.20904
▁գյուղի	-9.20986
▁Արա	-9.21057
▁հա	-9.212
▁բանկի	-9.21241
ստ	-9.21335
▁ուժի	-9.21448
▁թեմայով	-9.21562
▁տարիներին	-9.21565
▁խաղ	-9.21856
▁միակ	-9.21914
▁ստանում	-9.22201
▁ինչու	-9.22534
▁ք	-9.22538
▁տեղական	-9.22658
արկ	-9.22703
▁տվյալների	-9.22803
▁առջեւ	-9.22809
▁կառավարությունը	-9.22891
▁օրենսգրքի	-9.23065
▁խումբ	-9.23172
▁եկեղեցու	-9.23193
▁միջոցների	-9.2323
ելի	-9.23241
▁մասնակցում	-9.23416
▁համակարգ	-9.23457
Օ	-9.23581
▁փակ	-9.23619
▁արդյոք	-9.2362
▁ինչի	-9.23898
▁սպասվում	-9.24014
▁Հովհաննես	-9.24115
▁դ	-9.24193
▁ուղղակի	-9.24252
ացնում	-9.24295
▁տեսակի	-9.24325
▁հին	-9.24421
▁քննարկել	-9.24644
ահ	-9.24837
▁Ե	-9.24858
▁խնդիրները	-9.24924
▁թթ	-9.24946
▁շրջանակում	-9.25343
ԻՆ	-9.25466
▁առաջնորդ	-9.25585
ՀՀ	-9.25601
▁պատկեր	-9.25619
▁դիմում	-9.25719
▁կարիք	-9.25739
նե	-9.25916
▁ստանալ	-9.25991
▁աշխատանքները	-9.25991
D	-9.26045
▁խաղաղ	-9.26131
▁տրվում	-9.26187
▁ԵԱՀԿ	-9.26218
▁շարունակ	-9.26407
▁հանդեպ	-9.26746
▁Ավելի	-9.26776
▁զինված	-9.2682
▁թե՞	-9.27014
▁Վարդան	-9.2709
▁միավոր	-9.27136
▁աշխատանքը	-9.27176
▁այսպես	-9.27268
▁հանդիպումը	-9.27287
]։	-9.27364
ԱԿԱՆ	-9.27446
▁երեխայի	-9.27647
▁O	-9.27743
▁կրթական	-9.27796
▁կարգավորման	-9.27852
մա	-9.27879
▁ներկայացուցիչ	-9.27907
▁մնում	-9.27946
▁իրականացնում	-9.28067
նք	-9.28135
▁կգ	-9.28154
Զ	-9.2817
▁որոշել	-9.28342
▁քաղաքացիների	-9.28855
▁ոլորտի	-9.28874
▁Սամվել	-9.28912
▁ուժեղ	-9.29107
▁մահացել	-9.29136
▁տեղափոխվել	-9.29139
Խ	-9.29156
▁մասով	-9.29244
▁նախագծի	-9.29411
տի	-9.29501
C	-9.29642
▁բարդ	-9.29713
▁Նշենք	-9.29758
▁հատ	-9.29895
▁փ	-9.29913
անա	-9.30019
▁հիմնականում	-9.30202
▁անցել	-9.30373
▁արտասանություն	-9.30379
▁առաջարկում	-9.30472
▁ունենալու	-9.30635
▁արտահերթ	-9.30724
եցի	-9.30727
▁մասնավորապես	-9.30783
▁խորհուրդ	-9.30824
▁արտակարգ	-9.30851
▁գնալ	-9.30871
▁փոխարեն	-9.31046
▁օգտագործել	-9.31139
▁փոքրիկ	-9.31615
▁Ոչ	-9.31657
▁ՄԱՍԻՆ	-9.31705
▁խոսքով	-9.31741
▁սխալ	-9.31812
▁թե՛	-9.3184
▁չեք	-9.31876
▁մշտական	-9.31896
▁հերթին	-9.32106
Ժողովուրդ	-9.32106
▁ընտրական	-9.32513
ությունից	-9.32529
ացել	-9.32565
▁մարզ	-9.32666
եկ	-9.32716
▁կատարում	-9.32915
▁ԵՊՀ	-9.32982
▁պատմական	-9.33055
մի	-9.33198
▁կապերի	-9.33272
▁ավագ	-9.33301
▁F	-9.3344
▁ժամանակակից	-9.33518
▁պարտադիր	-9.33554
▁տեղում	-9.33557
▁ԼՂՀ	-9.33563
▁կյանքում	-9.33657
▁ապրել	-9.33685
▁տալու	-9.33843
▁հարաբերությունները	-9.33895
▁[...]	-9.34044
▁գալ	-9.34049
▁Կենտրոնական	-9.34225
▁Մարտի	-9.34239
աշ	-9.34384
ուլ	-9.34526
▁G	-9.34535
▁սահմաններում	-9.34596
Հայաստան	-9.34752
յալ	-9.34853
▁բավականին	-9.3498
ացնել	-9.35058
▁նախ	-9.35072
▁>	-9.35162
▁իրականացնել	-9.35212
▁R	-9.35273
▁կատարված	-9.35313
▁դառնալ	-9.35322
▁Աստված	-9.3536
▁եվրոպական	-9.35372
▁արվեստի	-9.35399
▁քայլ	-9.35404
▁Վլադիմիր	-9.35435
ուր	-9.35437
▁արդյունքները	-9.35465
▁էլեկտրոնային	-9.35484
▁պահանջում	-9.35529
▁լույս	-9.35541
▁իհարկե	-9.35721
▁երեկ	-9.35821
▁լինեն	-9.35843
▁թող	-9.35868
Շ	-9.35901
▁կատարվում	-9.35935
▁տեսնել	-9.35972
անի	-9.35983
▁ընտրել	-9.36144
▁P	-9.36147
▁Իր	-9.3628
անք	-9.36406
ութ	-9.36565
▁Արտասանել	-9.3663
▁գույքի	-9.36641
AM	-9.36668
ացված	-9.36736
▁Կարող	-9.36936
▁հասկանում	-9.3694
er	-9.36983
▁պակաս	-9.37064
ակի	-9.37108
▁հարցին	-9.37184
▁տեղեկատվության	-9.37192
▁տարիների	-9.37238
▁տեխնիկական	-9.37439
▁լայն	-9.37453
ջ	-9.37519
▁բիզնես	-9.3758
▁Դե	-9.37626
▁ԵՐԵՎԱՆ	-9.37631
կամ	-9.3784
]:	-9.37866
▁վստահ	-9.37963
▁Հարությունյանը	-9.37967
▁Հիմա	-9.37971
▁հայերեն	-9.38032
▁խոսքով՝	-9.38034
▁մաս	-9.38156
▁գր	-9.3821
▁հայտարարեց	-9.38292
o	-9.38341
▁օգտագործման	-9.38388
Ր	-9.38418
▁որում	-9.3848
▁հեշտ	-9.38571
՜	-9.38672
▁կայացած	-9.38786
▁տեղեկատվական	-9.3886
▁գործողությունների	-9.38885
▁առաջնության	-9.39374
T	-9.39511
«	-9.39513
▁բավական	-9.39691
▁Ալ	-9.39776
տա	-9.39928
▁ՊՆ	-9.40023
▁տոկոս	-9.40042
▁հեղինակ	-9.40154
▁երկիր	-9.40277
▁ոք	-9.40305
Ո	-9.40357
▁հարկային	-9.40366
▁օնլայն	-9.40568
▁իրավիճակը	-9.4076
▁միջոցառումների	-9.40769
▁վայր	-9.40983
▁միջոց	-9.41038
Ե	-9.41052
▁գործունեությունը	-9.41121
▁կարգի	-9.41227
▁պայքարի	-9.41251
▁դե	-9.41267
այ	-9.41349
▁չափով	-9.41384
անգլ	-9.41487
▁ենթակա	-9.41721
▁կատարած	-9.41775
▁պաշտպան	-9.41877
▁պայմաններում	-9.41945
▁on	-9.42133
▁ռուս	-9.42264
ությունների	-9.42278
▁հայոց	-9.42416
▁գիտության	-9.42516
▁Դու	-9.42545
▁կայքը	-9.42599
շտ	-9.42625
▁դեպք	-9.42651
▁հակամարտության	-9.42768
աբար	-9.42805
▁բնակչության	-9.42864
▁քարտուղար	-9.42972
իայի	-9.42985
▁մահվան	-9.43032
▁իրար	-9.43044
▁չորս	-9.43089
▁իրականացվում	-9.43108
▁E	-9.43161
▁դրանից	-9.43198
▁ծնվել	-9.43199
▁հետագա	-9.43228
▁տնտեսության	-9.43229
ոց	-9.43266
▁ստացվել	-9.43268
▁ծրագիր	-9.43281
▁News	-9.43329
▁փողոցում	-9.43494
al	-9.43522
P	-9.43527
▁պայմանավորված	-9.43545
B	-9.43597
▁ղեկավարի	-9.43626
▁դեպքերում	-9.43648
▁անդամների	-9.43671
▁խոսքը	-9.43692
▁հույս	-9.43779
r	-9.43815
▁նախագիծը	-9.44056
i	-9.44115
▁Եվրոպական	-9.44126
▁միջոցներ	-9.44144
▁ուրախ	-9.44222
▁Գեւորգ	-9.4425
ֆ	-9.4426
▁գործը	-9.44378
ասաց	-9.44395
▁Փ	-9.44433
▁հոգեւոր	-9.4455
ացած	-9.44579
▁սենյականոց	-9.4459
▁մլրդ	-9.44623
▁մնալ	-9.44654
▁շենքի	-9.4469
,—	-9.44743
▁կին	-9.44758
▁առնվազն	-9.44767
▁Աշոտ	-9.44768
ագ	-9.44818
▁առաջատար	-9.44886
▁փող	-9.44963
▁Զրուցարան	-9.45005
ութիւն	-9.45035
եան	-9.45056
▁եւ՛	-9.45122
▁առնելով	-9.45142
▁Կարապետյանը	-9.45212
▁Սույն	-9.45351
▁ուղիղ	-9.45395
▁ընտրություններին	-9.45404
▁տարին	-9.45505
իա	-9.45531
Մանչեսթեր	-9.45551
▁մարդը	-9.45586
▁տվեց	-9.45657
▁քաղաք	-9.45657
▁պատասխանատու	-9.45675
▁զգում	-9.45699
▁կենտրոնական	-9.4584
▁էջը	-9.45855
▁ավելին	-9.45884
▁դեպքի	-9.45916
▁ՀՅԴ	-9.46061
▁հայտնեց	-9.46112
▁կլինեն	-9.46162
▁ֆիզիկական	-9.46165
▁եկավ	-9.46177
ազ	-9.46198
▁գեր	-9.46297
աբ	-9.46562
▁բողոքի	-9.46611
▁տեխնոլոգիաների	-9.46673
▁նորից	-9.467
▁նախարարությունը	-9.46708
քը	-9.46721
▁տարածքային	-9.46798
▁տարիներ	-9.46812
▁սկսում	-9.4705
▁ամերիկյան	-9.47107
▁Վերջին	-9.47195
▁համակարգը	-9.47241
▁իրավունքի	-9.47296
▁որին	-9.47357
▁մտածում	-9.47408
▁հասել	-9.47461
իլ	-9.47625
▁կապի	-9.47631
▁թիմի	-9.47799
▁ծննդյան	-9.48009
▁Ար	-9.48297
▁պահ	-9.48344
▁թվականից	-9.484
▁կինը	-9.48475
▁մնացել	-9.48648
▁Բոլոր	-9.4871
▁պես	-9.48727
▁դպրոցում	-9.48735
ադր	-9.48735
Իմ	-9.48795
▁Ֆ	-9.48849
ետ	-9.48865
;	-9.48969
ing	-9.48982
▁ՀԿ	-9.49072
▁դեպ	-9.49085
▁ակումբի	-9.49141
▁թուրքական	-9.4919
▁ֆեյսբուքյան	-9.49192
▁ԱԱԾ	-9.4932
▁Շիրակի	-9.49386
▁աշխատանքներ	-9.49495
▁►	-9.49496
M	-9.49528
երից	-9.49568
▁Սարգսյան	-9.49584
▁Այստեղ	-9.49591
Չ	-9.49627
դի	-9.4969
▁հարցի	-9.49729
▁հայերի	-9.498
Արմենպրես	-9.4984
▁տարածք	-9.49843
▁գործել	-9.4988
Ֆ	-9.50005
▁Հոկտեմբերի	-9.50086
▁փողոց	-9.50101
▁անձինք	-9.50114
▁ծառայությունը	-9.5018
▁կախված	-9.50183
▁պատասխանեց	-9.50198
▁Chat	-9.50232
▁քաղաքապետ	-9.50244
▁արտասանել	-9.50263
▁որից	-9.50319
▁ամսվա	-9.5045
▁պատճառ	-9.50454
▁Ալեքսանդր	-9.50521
▁ունեմ	-9.50592
▁մարզիչ	-9.50601
▁հանգիստ	-9.50603
▁այդքան	-9.50618
▁D	-9.50628
▁խիստ	-9.50683
ՄԱՆ	-9.50726
▁հանդիսանում	-9.50758
’	-9.50779
▁հաշվով	-9.50875
▁կարճ	-9.50903
▁հինգ	-9.50911
▁վիճակում	-9.50949
▁ստեղծված	-9.50971
▁դրությամբ	-9.51039
▁բաժին	-9.51075
Ելք	-9.51116
▁լուսանկար	-9.51191
▁նիստը	-9.51291
▁ապահովման	-9.51331
▁բաները	-9.5136
▁երկրներում	-9.51385
▁Մեկ	-9.51672
▁No	-9.51709
en	-9.51718
▁չես	-9.51727
▁ՓԲԸ	-9.51798
▁գոյություն	-9.51947
d	-9.52141
▁քննարկում	-9.5219
▁դատարան	-9.52244
▁սիրելի	-9.52264
▁H	-9.52305
ձ	-9.52389
▁վիճակը	-9.52635
‎	-9.52666
▁Սերգեյ	-9.52696
▁օտար	-9.52806
ՆԵՐԻ	-9.52888
▁կարծես	-9.52934
▁տանը	-9.52999
▁իրավաբանական	-9.53014
▁պահպանման	-9.53089
ուկ	-9.53317
▁կազմակերպել	-9.53444
▁պարտավոր	-9.53721
▁դարի	-9.53856
▁ադրբեջանական	-9.53957
▁Գերմանիայի	-9.53973
▁ասած	-9.5405
▁I	-9.54072
▁Սարգսյանն	-9.54103
▁կը	-9.54149
ադ	-9.54271
▁տա	-9.5428
▁Գրիգոր	-9.54338
ՈՒԹՅԱՆ	-9.54438
t	-9.54458
▁նպատակն	-9.54477
▁բավարար	-9.54522
▁պահել	-9.54546
▁Էջմիածնի	-9.54554
▁հարցերով	-9.5456
▁տեսել	-9.5464
▁երկիրը	-9.54805
ոյի	-9.54846
▁ջրի	-9.54877
▁ուր	-9.54919
▁կատարման	-9.54948
Երեւան	-9.54998
▁հայտնաբերվել	-9.55207
▁օգտակար	-9.55301
▁նախարարը	-9.55303
▁փորձել	-9.55305
▁ձեւով	-9.55328
Հայ	-9.55402
—	-9.55464
▁Թուրքիան	-9.5547
▁պայմանագիր	-9.55478
▁ինչո՞ւ	-9.55521
▁զինվորական	-9.55528
▁տեղը	-9.55557
▁ստիպված	-9.55566
անոց	-9.55729
▁մեկնել	-9.55741
▁հրապարակում	-9.55968
▁ինչպե՞ս	-9.5601
▁որոշմամբ	-9.56165
▁չեմպիոն	-9.56169
▁պատճառը	-9.56191
.)	-9.56295
վեցին	-9.56309
▁սեւ	-9.56331
▁Սեպտեմբերի	-9.56398
▁կերպով	-9.56453
▁ճանապարհ	-9.56589
▁ընդունում	-9.56636
▁գործադիր	-9.56659
աղ	-9.56716
▁չպետք	-9.56741
▁Հայտնի	-9.56826
▁ներկայացուցիչների	-9.56938
երով	-9.57095
▁անցնում	-9.57203
▁տեսակ	-9.57323
▁դատարանը	-9.57405
▁Ադրբեջանը	-9.57617
տեղ	-9.57753
▁Հանրային	-9.57978
▁սկսած	-9.58022
▁աշխարհ	-9.58158
▁հասնել	-9.58229
▁փոխել	-9.58235
▁հեռու	-9.58242
▁չնայած	-9.58283
▁տեղեկություններ	-9.58452
▁Պետական	-9.58486
▁գործընթացը	-9.5855
▁հավասար	-9.58551
▁ճանաչում	-9.5858
▁ամենը	-9.58666
անալ	-9.58766
▁ջուր	-9.58904
▁մուտք	-9.58961
▁Comments	-9.59007
ուս	-9.59036
Է	-9.59079
▁դրան	-9.59136
▁պատմություն	-9.59266
▁Ահա	-9.59268
▁պատ	-9.59357
▁անցած	-9.5937
▁լրացուցիչ	-9.59466
).	-9.59484
▁ծնված	-9.59517
▁pp	-9.59591
▁տվյալները	-9.59628
▁անձ	-9.5969
Ծ	-9.59774
▁Հովհաննիսյանը	-9.59793
գն	-9.59808
▁L	-9.59903
▁Ապրիլի	-9.59943
▁Ռուսաստանը	-9.5996
աւ	-9.60071
▁Հարավային	-9.60214
▁ԱՐՄԵՆՊՐԵՍ	-9.60215
ոյ	-9.60235
▁հաստատել	-9.60265
ru	-9.60291
▁լսել	-9.604
▁Հյուսիսային	-9.60437
▁ունենա	-9.60467
▁իսկապես	-9.60513
▁նախնական	-9.60564
▁կտա	-9.6061
▁պնդում	-9.60899
▁(«	-9.60973
▁լեզվի	-9.60991
▁հայտ	-9.60992
չի	-9.60997
ալի	-9.61036
ԱԿ	-9.61044
▁միասնական	-9.61072
▁մաքսային	-9.61115
ԵՐ	-9.61145
▁օգնել	-9.6116
▁գործարար	-9.61306
օր	-9.61318
Հրապարակ	-9.61337
Ռ	-9.61362
▁խնդրում	-9.61394
▁Սիրիայի	-9.61398
▁Ռուբեն	-9.61421
▁անմիջապես	-9.61542
կի	-9.61631
այն	-9.61824
▁գալու	-9.61915
▁փուլում	-9.61999
▁կանայք	-9.62233
▁Կառավարության	-9.62309
▁ազդեցություն	-9.62425
▁կոնկրետ	-9.62489
▁Պետք	-9.625
որդ	-9.6255
հան	-9.62591
▁բոլորը	-9.62676
▁ԱԳՆ	-9.62688
▁հակա	-9.62716
▁ծանոթ	-9.62824
▁ջան	-9.62851
▁հայտարարություն	-9.62901
▁ամբողջությամբ	-9.62983
▁երբեմն	-9.62995
▁վտանգավոր	-9.63025
▁Մոսկվայի	-9.63093
▁իրականացնելու	-9.63103
▁գյուղում	-9.63176
▁ընտրության	-9.63208
▁երեխա	-9.63219
▁ո՛չ	-9.6327
▁պայմանագրի	-9.63271
▁լիազոր	-9.63277
▁բանակի	-9.63299
▁The	-9.63307
▁քաղաքացի	-9.63348
on	-9.63376
m	-9.63459
աբան	-9.63463
▁այդպիսի	-9.63492
▁կողմը	-9.63504
▁դոլարի	-9.63573
▁բարձրագույն	-9.63643
▁+	-9.63684
▁բերում	-9.63732
▁Ինչպե՞ս	-9.63978
▁պատմել	-9.64041
ություններ	-9.64107
▁դրամի	-9.64334
ed	-9.64392
յուն	-9.64497
▁ելույթ	-9.64593
k	-9.64642
արան	-9.64739
▁միեւնույն	-9.6485
▁կատարվել	-9.64888
▁Նոյեմբերի	-9.64889
▁K	-9.64987
▁նշվում	-9.65007
Ան	-9.65026
▁առաջիկա	-9.65152
▁երաժշտական	-9.65341
▁ծրագրեր	-9.65374
▁ապահովել	-9.65383
▁փոփոխություն	-9.65452
▁կարգը	-9.6548
▁նիստի	-9.65483
▁Թե	-9.65514
▁ձայն	-9.65524
▁վիճակի	-9.65582
▁շարունակվում	-9.65596
▁մէջ	-9.65654
▁անձը	-9.65678
A	-9.657
▁ցածր	-9.65717
▁Ինձ	-9.6582
Այս	-9.65907
▁հետագայում	-9.65924
▁Երկրորդ	-9.65933
▁արդարադատության	-9.65963
l	-9.65972
▁եվրո	-9.66014
▁T	-9.6603
▁պետությունների	-9.66065
▁իրականացնող	-9.6615
▁Video	-9.66197
ագիր	-9.6622
▁Լա	-9.66227
երն	-9.66241
▁խնդրի	-9.66327
▁երեկոյան	-9.66344
▁Դրա	-9.66363
▁մնացած	-9.6638
▁կեղծ	-9.66387
▁ուղարկել	-9.66393
▁ապահովում	-9.66445
▁Ժ	-9.66479
▁→	-9.66483
▁ներքո	-9.66523
▁ինստիտուտի	-9.66535
▁ՀԱՅԱՍՏԱՆԻ	-9.66576
յու	-9.66592
▁գրանցվել	-9.66609
▁զոհերի	-9.66618
▁խումբը	-9.66623
վան	-9.66677
▁չկան	-9.66761
▁թուրք	-9.66902
▁ընկած	-9.66968
▁ապրանքների	-9.67103
F	-9.67109
▁գնահատում	-9.67115
▁անդամները	-9.67138
Եթե	-9.67236
▁օպերատիվ	-9.67269
▁Գրիգորյանը	-9.67288
▁տոկոսը	-9.67299
▁մայրաքաղաք	-9.67344
▁գիշեր	-9.67388
▁զ	-9.67403
▁իրականում	-9.67428
▁մարտական	-9.67561
▁սահմանադրական	-9.67725
բեր	-9.67994
▁ժողովրդական	-9.68025
▁Լոռու	-9.68056
▁Off	-9.68089
▁կես	-9.68191
c	-9.68194
▁ՆԱՏՕ	-9.68264
re	-9.68291
▁որոնցից	-9.68299
▁Խաղալ	-9.68313
▁ընդհանրապես	-9.68317
▁աստիճան	-9.68362
▁խորհրդարանի	-9.68487
▁chat	-9.68499
▁հարմար	-9.68503
▁ավել	-9.68576
▁ժամանակահատվածում	-9.68587
▁կրում	-9.68656
դա	-9.68687
▁խոր	-9.6869
▁Թրամփը	-9.68719
երին	-9.68727
▁միմյանց	-9.68731
▁ստեղծվել	-9.68753
▁փոխ	-9.68866
▁փոփոխվել	-9.68869
▁դաշինքի	-9.68923
▁շնորհակալություն	-9.68932
▁նիստում	-9.68937
▁անհատական	-9.68976
▁առեւտրային	-9.68994
▁նպատակ	-9.69051
սկ	-9.69053
▁ուժ	-9.69173
▁›	-9.69249
▁համեմատ	-9.69278
▁թերթը	-9.69303
▁իրականացվող	-9.69335
ԱՆ	-9.69368
ով՝	-9.69415
▁↑	-9.69434
▁համալսարան	-9.69625
▁արտադրության	-9.6972
▁ՀԱՆՐԱՊԵՏՈՒԹՅԱՆ	-9.69888
▁քննարկման	-9.69915
▁Կա	-9.69922
▁կանգնած	-9.70074
L	-9.70098
▁կարծիքով	-9.70126
▁Արարատ	-9.70131
▁պատմում	-9.70186
p	-9.70217
▁ֆիլմի	-9.70248
▁նշանակվել	-9.70393
▁Ծ	-9.70433
▁ենթարկվել	-9.70451
▁Հանրապետությունում	-9.70523
▁մասնակից	-9.70555
▁փոխնախագահ	-9.70636
▁ուշադրություն	-9.70679
▁իշխանությունների	-9.70681
անց	-9.70724
▁մարմինը	-9.70781
▁չունեն	-9.70813
▁առեւտրի	-9.70823
▁անդրադարձել	-9.70866
▁վ	-9.70977
▁սենյակ	-9.70988
գր	-9.71048
▁պաշտոնակատար	-9.71059
ապ	-9.7106
ուղ	-9.71096
▁պաշտոնում	-9.71114
▁Մայիսի	-9.71138
▁Քոչարյանի	-9.71229
▁հայաստանյան	-9.71341
▁տաք	-9.71406
▁Ուկրաինայի	-9.71425
▁մտնում	-9.71438
▁բարի	-9.71592
▁հանրապետության	-9.71626
▁Թուրքիայում	-9.71679
▁Որ	-9.71816
▁զոհ	-9.71897
▁թվում՝	-9.71903
▁գոնե	-9.71915
▁աջակցություն	-9.71933
▁Միջազգային	-9.71978
ացի	-9.72044
▁մասն	-9.7219
Ջ	-9.72321
el	-9.72397
+	-9.72466
▁Նյու	-9.72504
▁մանրամասն	-9.72678
▁գումարը	-9.72706
▁ընկերությունների	-9.72753
▁Արման	-9.72765
լու	-9.72813
▁միաժամանակ	-9.72816
▁սովորել	-9.72854
▁ավարտել	-9.72905
աթ	-9.72953
▁պատասխանել	-9.72962
▁մակարդակի	-9.73039
▁վարչապետը	-9.73178
Ժամանակ	-9.73251
▁գնել	-9.73303
▁ահա	-9.73308
▁պաշտոնը	-9.73351
եյ	-9.73361
▁հոր	-9.73369
▁չափազանց	-9.73441
▁հասանելի	-9.73484
▁օգտագործում	-9.73512
G	-9.73532
▁ՀԱՊԿ	-9.73754
▁ճանաչել	-9.73931
▁արդար	-9.7394
▁Հաջորդ	-9.73942
▁մեկին	-9.73954
▁մասնակցությամբ	-9.73982
▁համայնքների	-9.74102
▁փոփոխությունների	-9.74121
աք	-9.74146
▁Նրանց	-9.74159
▁Դեկտեմբերի	-9.74161
▁նյութեր	-9.74217
ացնելու	-9.74334
▁հիվանդանոց	-9.74345
▁հիմք	-9.74369
▁ծառայություն	-9.74425
կո	-9.74468
▁օգնության	-9.74483
▁քայլեր	-9.74525
▁նշանակություն	-9.74539
▁կարծիք	-9.7462
▁գրառում	-9.74695
▁դեր	-9.74707
▁աճ	-9.74729
▁թարմ	-9.74805
H	-9.74806
▁ԲՀԿ	-9.74949
▁նշելով	-9.74967
▁պատմությունը	-9.74974
գործ	-9.74998
▁կայքի	-9.7503
▁օրն	-9.75086
▁սպիտակ	-9.75094
▁կազմակերպման	-9.75134
▁լուծում	-9.75363
▁իշխանությունները	-9.75426
▁հրաժարվել	-9.75428
▁գիտությունների	-9.75432
▁ղեկավարը	-9.7547
▁Ամենայն	-9.75502
▁Այժմ	-9.75585
▁են՝	-9.75778
▁մետր	-9.75914
▁հաղթել	-9.75972
ապես	-9.75986
▁դաս	-9.76008
▁հիմնադիր	-9.76034
▁կայուն	-9.76091
▁առավոտյան	-9.76095
▁մարդկային	-9.76224
▁այսօրվա	-9.76245
▁հակառակ	-9.76299
▁վնաս	-9.76314
▁Ամերիկայի	-9.76317
▁չէին	-9.76426
▁համակարգում	-9.7648
▁ներկայացուցիչները	-9.76484
▁պար	-9.76486
▁շուտ	-9.76513
▁Չնայած	-9.76527
▁Տարոն	-9.76604
▁մշտապես	-9.76676
▁նախկինում	-9.76686
▁հայտարարում	-9.76706
▁բյուջեի	-9.76712
ությանը	-9.76763
▁Արսեն	-9.76936
▁առիթ	-9.76962
▁Փաշինյան	-9.77046
?	-9.77085
▁ճանապարհը	-9.77092
▁Վեր	-9.771
▁ՄԱՄՈՒԼ	-9.77125
▁հաղթանակ	-9.7713
▁տեղեկատվություն	-9.77179
▁հարցերը	-9.7721
բի	-9.77216
▁ապօրինի	-9.77253
ԱՅԻՆ	-9.77314
եցինք	-9.77387
ահար	-9.77504
▁Մարդու	-9.77797
▁մասում	-9.77812
▁կողքին	-9.77926
▁գծով	-9.7799
▁թվով	-9.78033
Մեր	-9.78041
ՙ	-9.78065
▁ուժերը	-9.78094
Մի	-9.78133
Սասնա	-9.78199
▁Արցախում	-9.7822
ավար	-9.78224
▁ռեժիսոր	-9.78286
▁ստեղծում	-9.78333
▁հատվածում	-9.78406
▁քաղաքապետարանի	-9.78423
երեն	-9.78429
▁ստորագրել	-9.78464
▁ուրեմն	-9.78487
▁երկ	-9.78518
▁Մանվել	-9.78572
▁հարկավոր	-9.78576
▁մեկում	-9.78583
▁փոխանցում	-9.78647
▁միջնակարգ	-9.78689
▁տոկոսով	-9.78744
աբեր	-9.78763
▁Նույն	-9.78798
▁Արմավիրի	-9.78808
▁փողոցի	-9.78813
▁ՍՊԸ	-9.78818
▁ուշադրության	-9.78844
▁պ	-9.78849
▁ամբողջական	-9.78878
իան	-9.78936
▁անելու	-9.79028
▁չափ	-9.79033
▁ցանկություն	-9.79088
▁ար	-9.79113
▁լուծման	-9.79169
roulette	-9.79198
▁խոսք	-9.79206
▁խոսնակ	-9.7929
▁Աստծո	-9.79331
▁շարունակել	-9.79414
▁ուներ	-9.79451
▁վերաբերող	-9.79566
▁դերասան	-9.79616
or	-9.79629
▁բաներ	-9.79659
▁պարագայում	-9.7966
▁ստեղծման	-9.797
▁ժողովրդին	-9.79754
ութիւնը	-9.79849
քս	-9.79889
▁Էջմիածին	-9.79946
ոլ	-9.80038
ar	-9.80135
▁գտնում	-9.80137
▁Դոնալդ	-9.80146
▁տրամադրել	-9.80166
▁լի	-9.80207
▁ֆուտբոլի	-9.8022
▁Կան	-9.80285
▁կյանք	-9.80288
վե	-9.80424
▁Ղարաբաղից	-9.80494
իստ	-9.80606
▁արդյունքների	-9.80607
▁խաղալ	-9.80618
ուշ	-9.80674
▁Այլ	-9.80699
▁W	-9.80746
ի՛ր	-9.80816
▁մասնակիցների	-9.80949
▁հասկանալ	-9.80951
▁հարուստ	-9.81003
▁մրցույթի	-9.81006
▁շրջանների	-9.81024
▁հայտարարությունը	-9.81029
օ	-9.81033
▁աչքի	-9.81061
▁ստացած	-9.81172
▁անունով	-9.81231
ագույն	-9.8135
ամյակին	-9.81374
յին	-9.8139
Արական	-9.81436
▁Հուլիսի	-9.81526
գի	-9.81595
▁լիգայի	-9.81652
▁տված	-9.81653
▁Հունիսի	-9.81655
▁ներկայացնելու	-9.81676
րո	-9.81741
▁երեխաներին	-9.81795
Հայկական	-9.81868
▁Սյունիքի	-9.81868
▁բաժնում	-9.81943
▁վերջո	-9.81955
▁օգնում	-9.81971
ուհի	-9.81988
▁զենք	-9.82005
▁աջակցության	-9.82019
▁հզոր	-9.82055
▁գուցե	-9.82153
▁գրող	-9.82189
▁Վանաձորի	-9.82233
▁Արտակ	-9.82242
▁Հանրապետական	-9.82259
▁հետեւում	-9.82263
▁Հա	-9.823
▁մարզային	-9.82339
▁միջոցառումներ	-9.82339
▁նախագահական	-9.82364
▁գիշերը	-9.82532
▁որակի	-9.82586
▁Նման	-9.82587
▁ընդ	-9.82619
իմ	-9.82702
ոմ	-9.8277
▁այլընտրանք	-9.82772
ացումը	-9.82806
▁հանրության	-9.82865
ո՞ւմ	-9.8287
▁Սահակյանը	-9.82923
▁հիշում	-9.82969
▁տրված	-9.82985
▁Սարգսյանին	-9.83025
▁բնակիչ	-9.83052
▁Իհարկե	-9.83058
▁պայքարում	-9.83095
▁առողջապահության	-9.83105
▁Արարատի	-9.83107
it	-9.83108
ԵԼ	-9.83189
▁ձեւ	-9.83189
▁Ոստիկանության	-9.83227
▁գործողություններ	-9.83302
▁եզրափակիչ	-9.83325
▁շենք	-9.83397
▁տասնյակ	-9.83422
▁առաջարկ	-9.83474
▁հարեւան	-9.83501
▁քաղաքապետի	-9.83515
at	-9.83591
▁ժողովուրդը	-9.8361
▁ապագա	-9.83633
▁ներառում	-9.83642
իզ	-9.83727
▁փուլ	-9.83746
▁Թրամփի	-9.83814
an	-9.83845
▁լուծել	-9.83851
▁նախաձեռնությամբ	-9.83861
▁բացասական	-9.83958
▁արժեքը	-9.84001
▁ներկայացվել	-9.84005
▁հանել	-9.84028
▁վերջնական	-9.84063
▁հաճելի	-9.84173
▁մեղադրանք	-9.84219
▁Արդեն	-9.8429
▁հիվանդ	-9.84299
▁Ինչո՞ւ	-9.8433
ediamall	-9.84388
▁տարբերակը	-9.84389
▁Գարեգին	-9.84404
▁ընդգծել	-9.84422
սա	-9.84436
մար	-9.84455
▁ընկեր	-9.84511
▁աճել	-9.84537
▁գեներալ	-9.84556
▁գործընթացի	-9.84578
▁զբաղվում	-9.84597
▁հարուցվել	-9.84624
▁Կբ	-9.84832
▁գործունեություն	-9.84862
▁Նախագահի	-9.84875
▁օգնություն	-9.84879
▁գործիչ	-9.84942
ԱՏ	-9.84944
▁օրինական	-9.85003
▁Փոքր	-9.85076
▁գյուղ	-9.85133
արար	-9.85267
▁V	-9.85269
ՈՒ	-9.85351
▁գյուղատնտեսության	-9.8537
▁մակնիշի	-9.85415
երում	-9.85436
▁եմ՝	-9.85438
Նոր	-9.85589
▁Գրիգորյանի	-9.85614
▁խ	-9.85637
▁Մար	-9.8573
▁Մոսկվայում	-9.85753
եռ	-9.8576
▁հարված	-9.858
լին	-9.85875
▁գազի	-9.85942
▁նախընտրական	-9.85973
րին	-9.85977
▁դարձնել	-9.8612
նչ	-9.86173
▁բացառիկ	-9.86185
▁շահ	-9.86195
▁ենթարկել	-9.86215
▁առողջության	-9.86221
զի	-9.86221
ինչ	-9.86267
ինք	-9.86284
▁տարում	-9.86293
մեն	-9.86315
▁սովորական	-9.86316
▁միջավայրի	-9.86319
▁բոլորին	-9.86325
▁մտածել	-9.86333
▁կարմիր	-9.86376
ե՛ք	-9.86384
▁Գործ	-9.86408
▁երեխան	-9.86437
▁հարցերին	-9.86483
▁հանրապետական	-9.86494
նդ	-9.8651
▁Ընդհանուր	-9.86513
▁սկսվել	-9.86515
▁պարզել	-9.86617
▁գտել	-9.86682
▁համ	-9.86693
ՆԵՐ	-9.86701
▁տոն	-9.86751
այլ	-9.86766
▁գոլ	-9.86857
▁ազատության	-9.86869
▁կազմակերպված	-9.86876
▁էդ	-9.86916
▁լուսանկարներ	-9.8693
▁մտադիր	-9.87006
▁բացել	-9.87007
▁երիտասարդական	-9.87055
▁շարժման	-9.87077
▁նախատեսվում	-9.87178
▁դեպքերի	-9.87226
▁Free	-9.87226
▁Օգոստոսի	-9.87261
▁ԶԼՄ	-9.87281
▁թիմը	-9.87296
▁նպատակը	-9.87304
▁երեւում	-9.87336
▁ծառայություններ	-9.87382
▁առաջադրվել	-9.87407
▁եղած	-9.87412
▁ներկայացրեց	-9.87427
▁ճանապարհով	-9.87478
▁կինո	-9.87557
▁շուկայում	-9.87595
▁անշարժ	-9.87618
▁առաջարկել	-9.8762
▁գրասենյակի	-9.87656
▁Ռուսաստան	-9.87664
▁Հակոբյանը	-9.87687
▁մասնավոր	-9.87702
ur	-9.87756
▁դուր	-9.87769
▁վտանգ	-9.87788
▁սպասարկման	-9.87885
▁թեեւ	-9.87894
▁Հովիկ	-9.87906
▁Փետրվարի	-9.87912
▁զբաղվել	-9.87952
▁Մինսկի	-9.87958
▁տարբերակ	-9.87968
▁Էլ	-9.8803
▁հոդված	-9.88081
դր	-9.88116
▁կազմակերպում	-9.88124
▁ընդդիմադիր	-9.882
▁հարձակվող	-9.88202
տես	-9.8827
▁վերջերս	-9.88344
ումների	-9.88431
ՈՎ	-9.88461
ումներ	-9.88498
▁հոգի	-9.88707
▁Վահան	-9.88732
▁հաղթող	-9.88762
▁կիսապաշտպան	-9.88788
▁ահազանգ	-9.88794
▁ԱԳ	-9.88827
▁Էդուարդ	-9.88844
▁Նախորդ	-9.88887
▁Ընդ	-9.88907
▁of	-9.89047
▁սեռական	-9.89071
▁եկեղեցին	-9.8917
▁Կենտրոն	-9.89234
▁զոհվել	-9.89257
▁վճարել	-9.8927
▁այցի	-9.89302
▁սահմանում	-9.89329
▁Մինչեւ	-9.89355
▁քննության	-9.89406
▁դասարան	-9.89443
Կամ	-9.89525
ացող	-9.89532
▁սկսեց	-9.89614
▁բախվել	-9.89807
▁առողջ	-9.89905
▁Կարծում	-9.89954
▁տնօրենի	-9.89995
▁գրանցման	-9.90049
ագործ	-9.90098
▁ամենամեծ	-9.9015
▁պետություն	-9.90196
N	-9.90204
▁նրանից	-9.9021
▁հղում	-9.90226
▁ներդրումների	-9.90258
▁շուտով	-9.90282
▁Միայն	-9.90298
▁օրենքում	-9.90349
h	-9.90387
▁սպանության	-9.90423
▁բերելու	-9.90446
ուտ	-9.90545
▁ընդունված	-9.9056
▁չար	-9.90593
▁նայում	-9.90629
▁անգլերեն	-9.90667
▁օրեր	-9.90767
▁կայք	-9.90798
▁հերոս	-9.9082
մանը	-9.90901
ապատ	-9.90936
▁Ռուսաստանում	-9.91031
▁շ	-9.91057
▁զրուցել	-9.91073
▁թվականներին	-9.91137
Փ	-9.91159
▁Հունվարի	-9.91243
ացրել	-9.91374
▁դիվանագիտական	-9.91408
▁իշխանությունը	-9.91412
ացում	-9.91464
▁Տավուշի	-9.91476
▁անկախության	-9.91542
▁Ո	-9.91595
▁ժամանակավոր	-9.91642
▁արդյունք	-9.9172
▁անցկացնել	-9.91722
արտ	-9.91743
▁պատկանող	-9.91765
▁գրված	-9.91776
▁վերա	-9.91777
▁ընտրություններ	-9.91809
▁հոդվածը	-9.91843
le	-9.91965
իդ	-9.9197
▁ժամկետում	-9.91985
▁chatting	-9.91987
▁բռնության	-9.92002
էն	-9.9201
▁իրավունքը	-9.92033
▁Times	-9.92049
▁գլուխ	-9.92083
▁հաշվին	-9.92089
▁ճանապարհին	-9.9211
f	-9.92122
ացավ	-9.92188
▁քաղաքականություն	-9.92253
▁տեղեկացրել	-9.92277
▁մրցույթ	-9.92285
▁երեխաները	-9.92292
ապահ	-9.92304
▁որով	-9.92348
▁եղավ	-9.92401
▁Աննա	-9.92444
▁թատրոնի	-9.925
տեր	-9.92588
▁պարունակում	-9.92647
▁ավանդական	-9.92706
▁կոչվում	-9.9272
▁պահպանել	-9.9274
▁կենտրոնը	-9.9276
▁խորհուրդը	-9.92767
▁ՊՈԱԿ	-9.92779
ագր	-9.9278
▁այսպիսի	-9.92805
▁կարգ	-9.92818
▁ուսանողների	-9.92859
▁in	-9.92917
news	-9.92928
տու	-9.92953
▁պետի	-9.93018
E	-9.93084
▁Երկու	-9.93181
▁այնուհետեւ	-9.93215
▁շփման	-9.93331
Ու	-9.93384
▁տղամարդկանց	-9.9339
▁ընթացիկ	-9.93449
▁ձախ	-9.93486
▁հրաշալի	-9.93494
▁համաձայն՝	-9.93507
▁տարբերություն	-9.93646
անգ	-9.93671
W	-9.93716
▁կետի	-9.9376
▁ստացված	-9.93763
▁զվարճալի	-9.93803
▁անընդհատ	-9.93807
▁գործողությունները	-9.93816
▁ժամանակին	-9.93842
▁ճ	-9.93885
▁ինչքան	-9.93951
▁Որոշ	-9.94017
▁օրենքը	-9.94027
▁Լավ	-9.9403
▁Հարց	-9.9404
տո	-9.9404
▁քաղաքը	-9.94127
▁ավարտին	-9.94162
▁գնա	-9.94174
▁ժամանել	-9.94253
յուր	-9.94298
▁Աշխարհի	-9.94319
▁Ց	-9.94338
▁Կոտայքի	-9.94348
▁աշխարհը	-9.94358
▁տրանսպորտի	-9.94387
▁փաստաթղթերի	-9.94395
▁հարթակ	-9.9441
▁բարեփոխումների	-9.94422
ավորման	-9.94484
▁հավատում	-9.94524
▁իրավիճակների	-9.94558
▁գա	-9.94563
▁իրավիճակի	-9.94613
▁գրականության	-9.94627
ֆոտո	-9.94645
▁Հայաստանն	-9.94654
et	-9.94656
▁Գր	-9.94663
▁բա	-9.94665
▁թէ	-9.94667
▁պատերազմ	-9.94702
▁զգալի	-9.94704
▁նամակ	-9.9478
▁ընտանեկան	-9.94831
▁Մինչ	-9.94858
▁հասնում	-9.94874
▁նշան	-9.9489
▁մեկնարկել	-9.94965
▁ԽՍՀՄ	-9.94995
այում	-9.95031
րան	-9.95041
նել	-9.95069
▁վարկային	-9.9508
▁Հակոբ	-9.95082
▁գտնվել	-9.9512
ինգ	-9.95156
▁Քանի	-9.95185
▁սահման	-9.95187
▁Քո	-9.95189
▁ոլորտներում	-9.95209
‏	-9.95352
!	-9.95353
▁սիրո	-9.95412
▁կառույցների	-9.95432
▁անձրեւ	-9.95472
▁Հենց	-9.95493
ուզ	-9.95536
▁տար	-9.95564
▁Դի	-9.95639
▁տարածաշրջանային	-9.95683
▁ֆուտբոլիստ	-9.95697
▁վառ	-9.95754
վար	-9.95755
▁ընդգրկված	-9.9579
▁տրանսպորտային	-9.95799
ir	-9.95828
▁տարածել	-9.95835
Ց	-9.95888
▁վաղուց	-9.9589
▁հարակից	-9.95896
▁Օր	-9.95903
▁գրքի	-9.95989
▁կուսակցությունը	-9.96035
K	-9.96187
եի	-9.9625
▁հաստատ	-9.96263
▁քայլը	-9.96288
▁դրված	-9.96324
▁համա	-9.96389
▁ապահովելու	-9.96546
is	-9.96594
▁Բակո	-9.96607
▁նվազագույն	-9.96631
▁նորմալ	-9.9667
՚	-9.96693
▁կրթություն	-9.96765
▁‎‡	-9.96864
▁ո՞վ	-9.96892
▁հասնելու	-9.96919
▁հանդիպմանը	-9.9695
▁Արցախ	-9.971
ագետ	-9.97138
▁տվյալներով	-9.97143
▁ներդրումային	-9.97152
ափ	-9.97152
ավան	-9.9721
▁հավաքականը	-9.97215
▁Յուրաքանչյուր	-9.97254
▁Լի	-9.97291
▁ներկայացուցիչներ	-9.97298
օրյա	-9.9731
▁տեսք	-9.97368
▁ներկայիս	-9.97373
▁ծրագրերը	-9.97409
ությունները	-9.97424
▁մանրամասներ	-9.97482
▁մայր	-9.97635
▁ապահով	-9.97667
▁կդառնա	-9.9767
▁ֆիլմ	-9.97737
▁պարոն	-9.9778
ում՝	-9.97829
▁ընդունվել	-9.97846
▁վաճառքի	-9.97904
▁զինծառայող	-9.9795
▁ֆիլմը	-9.98123
▁համապատասխանում	-9.98124
▁ինստիտուտ	-9.9813
▁կայանալիք	-9.98154
▁ունեք	-9.98251
▁Ջ	-9.98279
▁պատմ	-9.98293
▁իրավունքները	-9.98339
▁տես	-9.98434
Սա	-9.98592
▁առմամբ	-9.98687
▁հրամանատար	-9.98789
▁վաճառք	-9.98861
▁նահանգի	-9.98874
▁իրականացվել	-9.98907
▁տեսանկյունից	-9.98959
▁ստեղծելու	-9.99005
▁ԵԱՏՄ	-9.99013
▁տանում	-9.99035
▁հանձնաժողով	-9.99037
▁մանկական	-9.99052
b	-9.99052
▁չէ՞	-9.99086
▁աջ	-9.99159
▁պատշաճ	-9.99208
▁տեղեկություն	-9.99214
▁բերված	-9.99242
▁աշխատակիցների	-9.99276
▁տեսանյութ	-9.99296
իշ	-9.99313
▁Հենրիխ	-9.99366
▁կարդալ	-9.99423
▁ընտրություններում	-9.99598
es	-9.99605
▁շատերը	-9.99622
▁քննարկվել	-9.99786
▁սրտի	-9.99798
▁լիարժեք	-9.99836
▁համագործակցությունը	-9.99851
▁հարաբերություններ	-9.99906
գա	-9.99915
▁մասնակիցները	-9.99925
▁հրաժարական	-9.99931
պատ	-9.99964
▁պահպանության	-10.0003
▁մեղավոր	-10.0006
աստ	-10.0018
▁նախա	-10.0018
▁իրականացված	-10.0018
▁հայտնաբերել	-10.0022
ad	-10.0024
ուած	-10.0026
▁թափ	-10.0027
▁ազգ	-10.0047
▁իրավիճակ	-10.0047
▁ձերբակալվել	-10.0052
▁հանուն	-10.0055
▁առնչվող	-10.0066
▁սեր	-10.0072
▁պատկանում	-10.0079
▁նյութերի	-10.0086
▁ազատվել	-10.009
▁անհայտ	-10.0092
▁համաձայնագրի	-10.0093
▁գլխավորությամբ	-10.0103
▁իսկական	-10.0107
▁միլիարդ	-10.0107
▁Home	-10.0118
▁հո	-10.0122
▁Գյումրու	-10.0123
▁կգա	-10.0125
▁ինքնակառավարման	-10.0129
▁արժանի	-10.0131
▁գրավոր	-10.0137
▁տարածաշրջանում	-10.0138
▁համոզված	-10.0138
▁խաղերի	-10.0139
▁լեզու	-10.0142
▁քանակը	-10.0142
▁ունենալով	-10.0147
▁առիթով	-10.0151
▁Փաշինյանն	-10.0153
▁ԳԱԱ	-10.0162
▁տեսքով	-10.0164
▁աշխատող	-10.0166
▁անցկացրել	-10.0174
▁ներկայացնող	-10.0174
▁խնդրել	-10.0176
▁ընտրությունները	-10.0178
▁փորձը	-10.0178
▁Պուտինը	-10.018
▁վկայում	-10.0182
▁թեթեւ	-10.0183
▁փորձի	-10.0184
▁համալիր	-10.0186
▁ե՞ք	-10.0191
▁Քոչարյանը	-10.0193
▁պատասխանատվության	-10.0193
▁գործընկեր	-10.0196
▁ՊԵԿ	-10.0204
▁բացման	-10.0206
▁ներառյալ	-10.0207
Փաստ	-10.0211
▁ուստի	-10.0211
դեր	-10.0211
▁Վարչապետ	-10.0212
▁իրավասության	-10.0212
▁գինը	-10.0216
▁Սիրիայում	-10.0219
▁կողմի	-10.0224
▁երջանիկ	-10.0225
յով	-10.0228
▁հայտարարության	-10.0232
▁արժանացել	-10.0233
▁ակնհայտ	-10.0236
▁ջերմ	-10.0236
▁սահմանափակ	-10.0242
us	-10.025
▁պահանջ	-10.0255
տե	-10.0256
▁փուլի	-10.0262
▁Գյումրիում	-10.0265
▁Կարապետյանի	-10.0266
թե	-10.0273
▁պայմաններ	-10.0275
▁ընկերություն	-10.0276
ախոս	-10.028
▁պատահական	-10.0283
▁Գեղարքունիքի	-10.029
րու	-10.0297
▁Երեկ	-10.0302
▁երգի	-10.0305
▁ձգտում	-10.0309
անդ	-10.0323
▁the	-10.0325
▁Դրանք	-10.0326
▁ներսում	-10.0328
▁աջակցությամբ	-10.0329
▁լրագրող	-10.0332
պեր	-10.0336
▁Բրիտանիայի	-10.0338
▁որդին	-10.0338
քեր	-10.0341
▁հարկի	-10.0341
աւոր	-10.0345
▁Մխիթարյանը	-10.0346
▁ավարտվել	-10.035
▁հղումներ	-10.0352
▁ԼՂ	-10.036
▁ծառայությունից	-10.036
▁տվյալներ	-10.0366
▁խորհրդական	-10.0368
▁ընկել	-10.0369
▁բերման	-10.037
▁ղեկավարների	-10.038
▁երգ	-10.0383
▁Խաչատրյանը	-10.0398
ՅԱՆ	-10.0399
տոն	-10.0402
▁ցանկ	-10.0404
▁փոխվել	-10.0407
▁քաղաքացու	-10.0408
▁դերը	-10.0409
▁հարցով	-10.0413
O	-10.0414
▁​​	-10.0414
նջ	-10.0416
Արարատ	-10.0416
▁Բիզնես	-10.0423
▁Վիգեն	-10.0427
▁պաշտոնատար	-10.0427
▁աղ	-10.043
▁գործակալության	-10.0435
▁անվանում	-10.0436
կայ	-10.0437
ոնի	-10.0439
▁դար	-10.0443
▁օգտագործվում	-10.0446
▁ընթանում	-10.0446
▁ներդրում	-10.0447
▁հասարակայնության	-10.0453
▁դաշտում	-10.0455
▁տիկին	-10.0467
▁Ջոն	-10.0469
▁Յ	-10.0474
ե՞լ	-10.0476
վոր	-10.0479
▁օգտվել	-10.048
▁չէի	-10.0483
▁դնել	-10.0483
▁Կար	-10.0486
▁փաստ	-10.0504
▁բաղկացած	-10.0505
պես	-10.0514
g	-10.0515
▁ամերիկացի	-10.0515
ողական	-10.0521
ԵՄ	-10.0521
▁հրապարակ	-10.0524
▁Արայիկ	-10.0525
и	-10.0528
▁անցկացման	-10.0529
▁բնագավառում	-10.0536
նեմ	-10.0537
▁հարյուր	-10.0537
▁կենդանի	-10.0542
▁անպայման	-10.0559
▁Արեւելյան	-10.0568
▁պայմանները	-10.0576
▁գրանցված	-10.058
▁ժամանակը	-10.0583
▁հավաք	-10.059
▁մարդուն	-10.0591
▁հնարավորություններ	-10.0592
▁պրոֆեսոր	-10.0596
▁Անի	-10.0597
ոզ	-10.0605
][	-10.0609
▁Վազգեն	-10.061
ապետ	-10.0614
▁Սարգիս	-10.0614
▁Կատեգորիա	-10.0617
▁աշխատակիցները	-10.062
▁ժամկետը	-10.0621
▁հող	-10.0622
արի	-10.0624
նեն	-10.0629
▁հետեւել	-10.063
▁Այսպիսով	-10.0632
▁նախարարություն	-10.0638
▁եկամուտների	-10.0639
▁բջջային	-10.0639
▁ինչն	-10.064
▁մշակման	-10.0645
▁Վայոց	-10.0652
րե	-10.0653
ողների	-10.0659
▁գնահատել	-10.066
▁ալ	-10.0661
▁փաստաթղթերը	-10.0662
▁ինքնա	-10.0667
Ինչպես	-10.0692
բան	-10.0694
եզ	-10.0696
կին	-10.0696
ից՝	-10.0697
▁պաշտոնապես	-10.07
▁քաղաքականությունը	-10.0701
▁Արմենիա	-10.0703
▁ամսագիր	-10.0707
w	-10.0723
▁բանկային	-10.0727
▁հիանալի	-10.0728
ասեր	-10.0729
Ճ	-10.0731
▁նախագիծ	-10.0743
▁Իսրայելի	-10.0749
▁շուկայի	-10.0751
Ծառուկյան	-10.0754
▁հանդիպումներ	-10.0758
▁աղջիկ	-10.0774
▁Մեզ	-10.0775
▁դատավոր	-10.0776
▁Վրաստանում	-10.078
ԱՐ	-10.0783
ri	-10.0786
▁կարողացել	-10.0797
▁դնում	-10.0802
▁այցով	-10.0806
▁‎	-10.0807
տար	-10.0814
ՈՂ	-10.0818
▁միջոցները	-10.0818
▁նիստին	-10.0818
▁տղա	-10.0823
▁մասնագետների	-10.0824
▁լիներ	-10.0824
ra	-10.0825
▁համակարգերի	-10.0828
▁բանի	-10.084
▁հետազոտությունների	-10.0841
մեր	-10.085
▁*	-10.0862
▁սպորտի	-10.0869
▁Սանկտ	-10.087
▁գրական	-10.0871
▁գաղտնի	-10.0873
▁Արեւմտյան	-10.0874
▁դարձնում	-10.0876
լա	-10.0881
▁միանգամից	-10.0883
▁պահում	-10.0884
պար	-10.0894
▁Facebook	-10.0898
▁արեց	-10.0907
▁պարբերաբար	-10.091
քաղաքական	-10.0912
▁ճանաչվել	-10.0921
▁Հրանտ	-10.0921
▁Հանրապետություն	-10.0923
յա՞մբ	-10.0931
▁առցանց	-10.0938
▁ասված	-10.0939
▁գնահատման	-10.0949
▁ֆինանսների	-10.0952
▁պատրաստել	-10.0953
▁տունը	-10.0959
▁Փաշինյանին	-10.0962
▁դառնա	-10.0967
▁դրամական	-10.0978
▁շնորհավորել	-10.098
▁գործնական	-10.0984
▁վայրում	-10.0984
▁Միքայել	-10.0985
▁հաստատում	-10.0994
▁Անգլիայի	-10.0996
▁մարմին	-10.1013
▁ինքնուրույն	-10.1014
▁առոգանութ	-10.1015
վեք	-10.1017
▁բիզնեսի	-10.102
ԱԼ	-10.1023
▁Եւ	-10.1024
▁դատարանում	-10.1029
ավորված	-10.103
ՈՒԹՅՈՒՆ	-10.1035
▁Սպիտակ	-10.1036
▁քաղաքային	-10.1039
ՈՐ	-10.1044
▁Այո	-10.105
▁հոդվածով	-10.1057
▁որոշումներ	-10.1057
▁խաղեր	-10.1057
▁աշխատելու	-10.1058
▁գիրքը	-10.1067
լո	-10.1069
▁ընտրվել	-10.107
▁դրել	-10.1071
▁Պուտինի	-10.1075
▁մա	-10.1076
▁քար	-10.1076
▁Ադրբեջանում	-10.1078
▁խաղաղության	-10.1079
▁ասվում	-10.1081
▁խախտում	-10.1085
շի	-10.1086
▁կիրառել	-10.1089
▁ուժը	-10.1094
▁բանաստեղծ	-10.1095
▁սպասել	-10.11
▁ընդունեց	-10.1103
րել	-10.1106
▁Tert	-10.1112
▁մատչելի	-10.112
▁տեղակայված	-10.1126
▁թողնում	-10.1128
▁Ամ	-10.1146
Ռեալ	-10.1147
▁համարել	-10.1152
▁կից	-10.1152
▁Այնուհետեւ	-10.1155
as	-10.1156
▁բար	-10.1157
Ժ	-10.1158
▁մասնակցության	-10.1159
▁ֆ	-10.1162
▁թանգարան	-10.1163
▁տեղյակ	-10.1164
▁պալատի	-10.1168
▁նեղ	-10.117
▁տարածքը	-10.1174
▁անհրաժեշտության	-10.1186
▁անցկացնելու	-10.1187
▁Սահմանադրության	-10.1188
▁լրացնել	-10.1189
▁տարածված	-10.1189
▁Անահիտ	-10.1194
յակ	-10.1198
▁մրցանակ	-10.1199
▁հաստատելու	-10.1202
▁լսում	-10.1209
▁օտարերկրյա	-10.1211
ոկ	-10.1213
ենտ	-10.1222
▁Արտասանե	-10.1223
▁պատասխանատվություն	-10.1226
▁կազմակերպությունը	-10.1227
▁օրս	-10.123
▁ուսանող	-10.1235
ԱՄ	-10.1235
info	-10.1237
▁նիստ	-10.1239
գան	-10.1239
▁լրիվ	-10.1247
▁աստղ	-10.125
▁արտգործնախարար	-10.1254
▁անձամբ	-10.1262
ենի	-10.1265
▁մոր	-10.1275
▁կազմի	-10.1276
▁նկար	-10.1276
▁եկեղեցի	-10.1276
▁բանակցությունների	-10.1278
▁պրոֆեսիոնալ	-10.1281
▁գիրք	-10.1282
▁պայմանագիրը	-10.1283
ոչ	-10.1295
▁Չի	-10.1297
▁ԱԻՆ	-10.1302
x	-10.1304
▁բն	-10.1315
ատու	-10.1316
▁լինելով	-10.1318
▁խորագրով	-10.1318
▁ռազմավարական	-10.1319
ակալ	-10.1331
▁նվազել	-10.1341
▁Google	-10.1341
▁մասնագետ	-10.1344
▁Ստ	-10.1347
▁Ճ	-10.1354
▁երեւի	-10.1354
▁դրամով	-10.1361
▁Աս	-10.1361
▁Իսպանիայի	-10.1368
▁հրավիրել	-10.1376
▁ԱՊՀ	-10.1391
▁բարեգործական	-10.1392
▁տեղեկությունների	-10.1393
Բարսելոնայի	-10.1412
▁երիտասարդների	-10.1415
▁իմանալ	-10.1421
▁կանոն	-10.1422
▁ՈՒ	-10.1422
▁Բա	-10.1427
▁գնացել	-10.1428
▁Եվրամիության	-10.1434
ՎԱԾ	-10.1434
▁դառնալու	-10.1435
▁նշանակության	-10.1439
▁դպրոցը	-10.144
▁օգնությամբ	-10.1442
ռա	-10.1445
▁Համ	-10.1447
▁օգնական	-10.1448
▁Էդվարդ	-10.1456
▁անցյալ	-10.1459
▁Բաղրամյան	-10.146
▁սփյուռքի	-10.146
▁մարզպետ	-10.1463
▁Նախ	-10.1473
um	-10.1475
▁գույք	-10.1475
▁Հետո	-10.1475
▁պաշտոնից	-10.1477
▁p	-10.1483
▁սկսվում	-10.1487
▁լս	-10.1488
▁երաժշտության	-10.1489
▁անկեղծ	-10.1491
▁մակարդակը	-10.1493
▁հաստատված	-10.1494
▁պահանջել	-10.1497
▁իրականացրել	-10.1501
▁Հետ	-10.1503
▁ապրող	-10.1507
▁կապիտալ	-10.1513
▁գեղարվեստական	-10.1515
▁աջակցել	-10.1519
▁հանձնել	-10.1524
▁տարածաշրջանի	-10.1532
▁կետով	-10.1534
▁մնաց	-10.1543
▁կանաչ	-10.1544
▁արյան	-10.1545
▁նկատի	-10.1552
▁զարգացմանը	-10.1555
անալու	-10.156
լավ	-10.1567
▁հղել	-10.1572
▁ֆակուլտետի	-10.1573
▁կարեւորագույն	-10.1577
▁ճանապարհի	-10.1577
▁հաջողության	-10.1579
▁լրացումներ	-10.1579
▁մեքենա	-10.158
▁մանր	-10.158
▁հավաքել	-10.1581
հա	-10.1581
բա	-10.1582
▁այսինքն	-10.1585
▁ստեղծագործական	-10.1585
▁պահանջները	-10.1594
ադրբեջանական	-10.1597
▁փաստը	-10.161
▁անդրադառնալով	-10.1621
▁օրերի	-10.1625
▁կայացել	-10.1627
▁աշխատանքից	-10.1632
▁հաջող	-10.1645
▁Որպես	-10.1648
▁ազդեցության	-10.1648
▁ասեմ	-10.1649
դե	-10.165
▁Լիլիթ	-10.1651
▁կառուցել	-10.1652
▁այցը	-10.1653
▁փակել	-10.1661
▁Գյումրի	-10.1661
▁սուրբ	-10.1662
տր	-10.1673
ակարգ	-10.1673
▁երեխային	-10.1676
▁պատասխանը	-10.1676
կալ	-10.1678
▁պայմանների	-10.1679
▁Վարձով	-10.1684
▁ծառ	-10.1685
▁չոր	-10.1685
▁դիտել	-10.1698
ԱՎ	-10.1699
▁հաշվառման	-10.1701
Յ	-10.1705
ամյակի	-10.1705
е	-10.1706
▁Օրինակ	-10.1707
▁ծախսերի	-10.1707
▁բողոք	-10.1712
▁մաքուր	-10.1714
▁X	-10.1719
ագիտության	-10.172
թեր	-10.1721
▁առողջական	-10.1724
▁հոդվածներ	-10.1726
▁տարածքի	-10.1741
▁փոխնախարար	-10.1744
▁Սուրեն	-10.1745
▁շրջակա	-10.1751
քան	-10.1757
▁Նահանգների	-10.1761
թուրքական	-10.1761
▁կո	-10.1761
z	-10.1763
թա	-10.1763
▁տեղադրված	-10.177
▁նկատել	-10.1771
▁զանգվածային	-10.1773
▁Նրան	-10.1777
▁Հանդիպման	-10.1779
▁զուգահեռ	-10.1781
▁պաշտոն	-10.179
▁նախաձեռնության	-10.1792
▁ասելով	-10.1793
▁մահ	-10.1798
▁վնասվածք	-10.18
▁ԱՆ	-10.18
▁գործիք	-10.1802
կտ	-10.1803
▁վեց	-10.1805
▁թեման	-10.1809
▁անունից	-10.1815
▁ձ	-10.182
▁տրամադրում	-10.1823
▁պայքարը	-10.1824
la	-10.1833
▁Մարիամ	-10.1837
▁վերահսկողության	-10.1843
▁Հարությունյան	-10.1843
▁անուն	-10.1844
▁դիմումը	-10.1848
▁գումարի	-10.185
▁Գրիգորյան	-10.1861
▁միջուկային	-10.1865
▁անցնել	-10.187
▁Մարգարյանը	-10.1883
զա	-10.189
.«	-10.189
սեն	-10.1892
▁բուժման	-10.1894
▁վերջում	-10.1898
▁լ	-10.1901
▁թանկ	-10.1902
▁կտրուկ	-10.1902
▁հանձնաժողովը	-10.1909
▁փաստաբան	-10.191
▁ակտերի	-10.1913
▁նրանցից	-10.1914
▁Ծրագրի	-10.1916
▁արդյո՞ք	-10.1917
▁քվեարկության	-10.1924
▁ոստիկանությունը	-10.1925
▁բնության	-10.1933
▁Համաշխարհային	-10.1938
▁արտիստ	-10.1938
▁շահագործման	-10.1948
լե	-10.195
▁անտառ	-10.1955
▁Չեմպիոնների	-10.1957
▁երկրներ	-10.1958
▁Կամ	-10.1966
եին	-10.1969
▁զորքերի	-10.197
▁ընկնում	-10.1971
▁Հակոբյան	-10.1977
▁դի	-10.1979
▁օրենսդրական	-10.1986
▁կլիներ	-10.1986
▁Անվճար	-10.1986
▁կոչում	-10.1989
▁Shabat	-10.1994
▁բացվել	-10.1998
▁խորհրդարանում	-10.1999
▁վարել	-10.1999
▁ծախսերը	-10.2
▁հայրը	-10.2005
▁վիրավոր	-10.201
▁J	-10.2011
▁կիրառման	-10.2014
▁սահմանել	-10.2018
մոն	-10.202
▁գազ	-10.2029
ԱՌ	-10.2042
▁բնույթ	-10.2042
▁անվանումը	-10.2058
▁վարում	-10.206
▁Հնարավոր	-10.2061
▁կոչված	-10.2062
▁օրենսդրությամբ	-10.2063
▁պատվիրակության	-10.2069
▁դասախոս	-10.207
ոք	-10.2071
▁պահելու	-10.2074
▁վիճակ	-10.2075
▁բառը	-10.2076
֊	-10.2076
▁անհատ	-10.2083
▁չափը	-10.2085
յանն	-10.2086
▁կրել	-10.2087
▁խաղացել	-10.2094
▁Նարեկ	-10.2102
▁ցանցի	-10.2106
▁իմաստ	-10.2115
▁հիմնված	-10.2122
▁կրոնական	-10.2127
▁հար	-10.2134
րոն	-10.2134
▁արտասանությունը	-10.2135
▁գերազանց	-10.2136
ացնող	-10.2137
▁դրանով	-10.2139
▁եղանակ	-10.2141
▁ինչպիսին	-10.2142
գո	-10.2142
v	-10.2143
▁Առ	-10.2144
աճ	-10.2145
▁բեռնել	-10.2146
▁Պարոն	-10.2148
▁անցկացվում	-10.215
ol	-10.2151
▁խմբերի	-10.2151
ամաս	-10.2155
▁համալսարանում	-10.2156
▁հաղթեց	-10.2158
▁փնտրում	-10.2161
▁գետի	-10.2167
▁Քրիստոսի	-10.2168
V	-10.2173
▁դեպքեր	-10.2178
▁համայնքում	-10.2178
▁բոլորի	-10.2181
ւած	-10.2197
▁ժամանակի	-10.2205
▁հնարավորությունները	-10.2205
▁շարունակելու	-10.2213
▁հարազատ	-10.2216
▁ծ	-10.2217
▁բարեկամ	-10.2226
▁վարկ	-10.2231
▁ընկերներ	-10.2234
▁Ռի	-10.2235
▁Սբ	-10.2237
▁մակարդակով	-10.2241
տեն	-10.2243
▁տ	-10.2251
▁պայքար	-10.2253
▁Հարությունյանի	-10.2259
▁Պետրոսյանը	-10.2261
▁տեղափոխել	-10.2264
աձեւ	-10.2272
▁ցուցակում	-10.2272
▁նկատեց	-10.2275
հար	-10.2275
▁երիտասարդության	-10.2277
▁հարավ	-10.2277
ատան	-10.2281
▁վերջինիս	-10.229
▁թեմի	-10.2302
▁ընտանիքը	-10.2302
▁հասցրել	-10.2306
▁վերջինս	-10.2306
▁Թա	-10.231
▁տեր	-10.2311
▁Էրդողանը	-10.2315
▁տոնական	-10.2317
▁ակումբ	-10.2318
▁խմբագիր	-10.2322
▁տեսա	-10.2326
▁Արագածոտնի	-10.2326
▁աճի	-10.2328
ատար	-10.2332
▁կողմերի	-10.2333
▁նյութական	-10.2334
▁ընտրություն	-10.2338
▁Պաշտպանության	-10.2341
▁մեդալ	-10.2342
▁հարցրեց	-10.2349
▁Հեղինակ	-10.2351
▁սննդի	-10.2352
▁ռուսերեն	-10.2354
▁զարգացումը	-10.2356
▁ժ	-10.2358
ահայ	-10.2359
▁կրակ	-10.2359
▁ակումբը	-10.236
▁կկայանա	-10.2361
Ար	-10.2362
իվ	-10.2365
ԵՆ	-10.2367
ia	-10.2371
▁զբաղեցնում	-10.2377
▁սեփականության	-10.2378
▁տղամարդ	-10.2379
▁ամբիոնի	-10.2382
իտ	-10.2382
▁U	-10.2385
▁տրվել	-10.2389
▁տղամարդու	-10.2397
▁թողել	-10.2397
U	-10.2399
▁Կարմիր	-10.24
ականների	-10.2406
▁մենակ	-10.2414
▁բացառապես	-10.2417
▁Ռե	-10.2418
▁ժամկետով	-10.242
▁Armenia	-10.242
▁Հովհաննիսյան	-10.2421
▁Մոսկվա	-10.2424
▁վճարման	-10.2425
ամբ	-10.2425
▁պահի	-10.2427
ատես	-10.2428
▁փաստացի	-10.2434
▁մոդել	-10.2439
▁օրվանից	-10.2444
▁ցանկը	-10.2451
ակն	-10.2455
▁դասական	-10.246
աբանական	-10.2463
▁բառերը	-10.2465
▁կառուցման	-10.2465
նես	-10.2466
▁գործողության	-10.2468
պի	-10.2469
▁վաղը	-10.247
▁Պաշտօնական	-10.2473
գեն	-10.2476
▁ամսական	-10.2482
▁մշակում	-10.2482
▁գործակալությունը	-10.2483
▁ձեւավորման	-10.2483
▁գոտում	-10.2484
դու	-10.2488
▁հրավիրում	-10.2494
▁ընդունման	-10.2495
▁միջ	-10.2497
▁դոկտոր	-10.2506
▁Աթոռոյ	-10.2506
▁այնուամենայնիվ	-10.2507
▁դասեր	-10.251
▁թերեւս	-10.2514
▁Իտալիայի	-10.2515
▁Հար	-10.2535
ro	-10.254
un	-10.2541
▁Politik	-10.2546
у	-10.2551
▁m	-10.2553
▁վարորդը	-10.2556
▁մտել	-10.2558
▁կազմակերպություն	-10.2559
▁աղջիկը	-10.2559
▁առաջանում	-10.2565
▁Խաչատրյանի	-10.2566
ավորում	-10.2569
▁ընդդեմ	-10.2571
▁ոսկե	-10.2571
▁աշակերտ	-10.2572
▁սպանել	-10.2577
▁ռե	-10.2579
»,–	-10.2587
▁́	-10.2589
կեր	-10.259
▁ետ	-10.2591
▁այսօր՝	-10.2595
▁Բարի	-10.2596
▁հազարավոր	-10.2598
ջի	-10.26
▁հեղափոխության	-10.2602
▁գոհ	-10.2603
▁օգտին	-10.2605
▁ձայնը	-10.2606
▁անվտանգ	-10.2609
▁առանձնահատկությունները	-10.2611
X	-10.2613
▁համայնք	-10.2633
▁հոգու	-10.2634
▁նստած	-10.2639
եստ	-10.2642
▁Մարտիրոսյանը	-10.2643
▁երկկողմ	-10.2643
▁կարողանա	-10.2643
▁ուսուցման	-10.2644
նո	-10.2653
այդ	-10.2655
ֆի	-10.266
▁առաջացնում	-10.266
▁Մեդիա	-10.2661
▁առաջիկայում	-10.2663
▁աղջկա	-10.2663
▁կազմված	-10.2664
▁արձակուրդ	-10.2668
▁ելնելով	-10.2677
լան	-10.2678
▁Z	-10.268
ախտ	-10.2682
▁ԱՀ	-10.2683
▁Բեր	-10.2684
▁սովորաբար	-10.2686
▁դաշինք	-10.2689
Նա	-10.269
▁նախագահին	-10.2695
R	-10.2701
▁ամենայն	-10.2701
▁փաստաթղթեր	-10.2702
▁փորձագետ	-10.2704
▁մեղմ	-10.2707
▁քննություն	-10.2709
ամյակը	-10.2709
▁չգիտեմ	-10.2718
▁երգը	-10.2719
ոռ	-10.2721
▁եղբայր	-10.2721
▁քաղաքացիներ	-10.2725
կոն	-10.2726
ահան	-10.2739
▁որակ	-10.2741
▁Հայաստանին	-10.2753
րկ	-10.2757
▁արժե	-10.2758
▁խաչ	-10.2758
▁կիրակի	-10.2759
▁Չինաստանի	-10.2762
▁ապագայի	-10.2762
▁ուսումնասիրել	-10.2768
ակետ	-10.2768
▁Ման	-10.277
▁առավելագույն	-10.277
▁ուղերձ	-10.2771
▁իրոք	-10.2773
տան	-10.2774
▁Եր	-10.278
▁մնա	-10.278
▁դարում	-10.2783
▁համաձայնագիրը	-10.2789
▁իմաստով	-10.2799
վիր	-10.2806
▁հյուսիս	-10.2806
Ձ	-10.2814
▁Կո	-10.2814
▁ցավ	-10.2816
▁թողնել	-10.2817
▁վայրի	-10.282
▁ծանոթանալ	-10.2822
▁վերականգնման	-10.2822
▁սոցիալ	-10.2828
▁համայնքային	-10.2829
▁կենդանիների	-10.2839
▁շաբաթվա	-10.2842
▁եկած	-10.2844
ացնի	-10.2851
▁Մատ	-10.2852
▁մեքենան	-10.2854
▁Աթոռ	-10.2854
▁պետությունը	-10.2856
▁վճար	-10.2859
▁ներկայացրած	-10.2868
▁էներգետիկ	-10.2883
▁աստիճանի	-10.2886
▁Վան	-10.2898
▁ընդգծեց	-10.2899
▁հնարավորինս	-10.2902
լար	-10.2905
▁քննարկումներ	-10.2905
ent	-10.2909
▁ֆուտբոլային	-10.291
▁Կարդալ	-10.2911
▁կազմ	-10.2912
▁գրավ	-10.2914
▁դպրոցների	-10.2916
▁մշակույթ	-10.2918
▁վերջապես	-10.292
▁լեզվով	-10.2927
▁քաղաքացիները	-10.2932
▁ինչպիսիք	-10.2932
▁գործեր	-10.2934
▁երբեւէ	-10.2936
▁բացառությամբ	-10.2938
յո	-10.2939
▁կողմերը	-10.2939
▁միջոցառում	-10.2942
ch	-10.2943
▁գլխավորած	-10.295
▁բլոգ	-10.295
▁Lurer	-10.296
▁Սեյրան	-10.2961
▁Սահմանադրական	-10.2966
▁ցուցահանդես	-10.2966
▁կոմսություն	-10.2969
▁կոռուպցիայի	-10.2969
▁Աղ	-10.2971
▁Ին	-10.2974
▁տեղադրել	-10.2978
▁ընկերների	-10.298
▁շախմատի	-10.2987
▁խուսափել	-10.2987
▁Սան	-10.2992
▁վերցնել	-10.2993
▁տեղեկացրին	-10.2994
ոգ	-10.2995
hat	-10.2995
▁ամիսներին	-10.2996
▁ենթադրում	-10.2997
Ռեալի	-10.2999
▁ընկերներին	-10.3001
▁կարծիքը	-10.3002
▁փոփոխության	-10.302
▁կայացավ	-10.302
▁կնոջը	-10.3022
▁բանակ	-10.3022
▁հայց	-10.3023
▁կիսվել	-10.3023
▁Չեմ	-10.3026
▁զենքի	-10.3029
▁սիր	-10.3035
▁հիվանդությունների	-10.3036
co	-10.3045
▁վիճակագրական	-10.3045
▁պաշտպանել	-10.3052
▁փոխանցել	-10.3058
▁Ասում	-10.3068
▁Խաչատրյան	-10.3076
▁անելով	-10.3078
▁Սեւ	-10.3089
▁ինտերնետ	-10.3091
▁Էս	-10.3097
▁դասընթացներ	-10.3099
▁դաժան	-10.3099
▁թվականը	-10.3102
▁բնորոշ	-10.3106
▁նյութ	-10.3113
Դա	-10.3115
աշեն	-10.3118
նոր	-10.312
▁շրջաններում	-10.3122
▁ընդառաջ	-10.3122
▁կունենան	-10.3123
▁իբրեւ	-10.3124
▁հանկարծ	-10.313
▁վերադառնալ	-10.3134
▁Վահրամ	-10.3139
▁լեզուն	-10.314
ակը	-10.3148
▁նմանատիպ	-10.3149
ութեամբ	-10.315
▁երկրներից	-10.3155
▁Մաս	-10.3155
▁էս	-10.3156
եթ	-10.3156
▁հեղինակը	-10.316
▁ավտովթար	-10.3161
ողը	-10.3166
▁շահերի	-10.3172
▁Մանուկյանը	-10.3172
Y	-10.3172
▁համաձայնության	-10.3177
▁մարզերում	-10.3178
Ազատություն	-10.3181
▁խախտել	-10.3181
▁սկզբում	-10.3188
▁պատգամավորների	-10.319
ԱՅ	-10.319
▁առաջնությունում	-10.3191
▁յոթ	-10.3196
▁հեռ	-10.3197
ահատ	-10.3198
▁վախենում	-10.32
▁գրասենյակ	-10.3201
▁անդամներ	-10.3206
▁սիրով	-10.321
▁նորություններ	-10.3211
սը	-10.3215
▁արված	-10.3216
▁փոխարինել	-10.3216
▁մայրը	-10.322
▁բացահայտել	-10.3221
▁Եվրոպա	-10.3223
@	-10.3226
▁առնչությամբ	-10.3226
▁Հատուկ	-10.3227
▁ծրագրով	-10.3228
▁հոգեբանական	-10.3229
▁անդամներին	-10.3231
▁գիտեն	-10.3234
եցնում	-10.3234
▁դատախազ	-10.3236
▁Ո՞ր	-10.3236
▁նախատեսում	-10.3236
▁Վահե	-10.3236
▁գիտեմ	-10.3237
▁բառեր	-10.3242
▁Դաս	-10.3245
▁ավելացնել	-10.3248
▁անհնար	-10.3249
▁միջնորդ	-10.3249
▁երեխաներ	-10.3255
▁ո՞ր	-10.3257
▁հողի	-10.3259
սկի	-10.326
▁բաժակ	-10.3261
▁մտնել	-10.3263
▁տուր	-10.3265
▁հավատ	-10.3274
▁Բար	-10.3274
▁իշխան	-10.3278
▁անի	-10.3281
▁արժեք	-10.329
▁հսկայական	-10.3296
▁տարօրինակ	-10.3296
▁խոսքի	-10.3296
▁քաղաքացիներին	-10.3298
ողի	-10.3301
▁նախապես	-10.3306
Արմենիա	-10.3319
▁Միության	-10.3324
▁Եվրասիական	-10.3325
▁բնույթի	-10.3325
յանին	-10.3327
▁բառարան	-10.3328
▁զարգացում	-10.3328
▁քմ	-10.3329
▁աղբյուր	-10.333
▁փոփոխությունները	-10.333
▁յուրահատուկ	-10.3331
վածք	-10.3331
▁գյուղատնտեսական	-10.3332
▁մտած	-10.3335
▁Այսինքն	-10.3339
▁Երիտասարդ	-10.334
▁տանել	-10.334
▁պատրաստված	-10.3343
▁կանոնակարգ	-10.3348
▁բարձրաստիճան	-10.3349
▁հայերը	-10.335
▁գյուղական	-10.3353
Ոսկե	-10.3355
▁սր	-10.3362
▁օլիմպիական	-10.3366
նար	-10.3367
▁վերաբերվում	-10.3367
▁պատիվ	-10.3368
▁Միջին	-10.3373
տիկ	-10.3378
▁թերթի	-10.3381
▁դաշտ	-10.3382
▁բնակիչների	-10.3383
▁լիովին	-10.3384
ացվել	-10.3388
աման	-10.3389
▁Մարտ	-10.3393
արդ	-10.3397
▁հաջողվել	-10.3398
▁սուր	-10.3398
▁s	-10.34
▁խնդիրն	-10.34
▁h	-10.34
▁լուր	-10.3401
▁խանութ	-10.3402
▁վարիչ	-10.3407
▁շոու	-10.341
▁տուրում	-10.3414
▁ծրագրում	-10.3417
▁մրցանակի	-10.3417
▁պահանջներին	-10.3428
▁ազդեցությունը	-10.3438
▁ծնողների	-10.3442
▁Ո՞վ	-10.3444
ասել	-10.3447
▁նկարիչ	-10.3455
ատուն	-10.3457
▁ղարաբաղյան	-10.3457
▁Ընկերության	-10.3458
▁Ռուս	-10.3463
▁ՊԲ	-10.3463
▁սարք	-10.3464
▁Մյուս	-10.3467
▁ընտանիք	-10.3468
▁չորրորդ	-10.3472
▁ամուր	-10.3475
▁ամուսնու	-10.3476
▁զգալ	-10.3477
▁շարժ	-10.3478
▁արարողությունը	-10.3483
ույն	-10.3484
а	-10.3487
▁կրող	-10.3489
դար	-10.3493
սան	-10.3494
▁ՀՔԾ	-10.3495
լով	-10.3496
▁նշանակել	-10.3498
▁սեն	-10.3501
▁որդու	-10.3502
▁համահայկական	-10.3508
▁արձագանք	-10.351
▁ոնց	-10.351
▁ամենամյա	-10.3512
▁անակնկալ	-10.3515
▁Հետաքրքիր	-10.3518
▁ստացվում	-10.3518
ագիտական	-10.3527
▁քաղաքներում	-10.353
▁բարձրացման	-10.3531
▁Հին	-10.3533
▁բարձրացնել	-10.3535
▁ՀԱԿ	-10.3545
▁խոս	-10.3555
▁ճանապարհային	-10.3559
▁Աբրահամյանը	-10.3561
▁մասնակցությունը	-10.3563
▁ապագայում	-10.3564
▁Համաձայն	-10.3564
▁հաղորդել	-10.3567
▁Arm	-10.3569
▁գործընկերների	-10.3574
▁դատարկ	-10.3574
▁ներկայացման	-10.3579
▁բնակելի	-10.358
▁գտնվելու	-10.358
▁շարունակական	-10.3585
▁Բելառուսի	-10.3588
▁լուծումներ	-10.3589
▁ամառային	-10.3594
▁ձեռնարկ	-10.3597
պո	-10.3597
▁որակավորման	-10.3598
▁Վերջինս	-10.36
▁խորհրդային	-10.3602
▁Արտակարգ	-10.3607
▁գործընթացում	-10.3607
շա	-10.3608
▁Օրվա	-10.3609
վին	-10.361
▁չկար	-10.3612
▁կուսակցությունների	-10.3613
ՆԵՐԸ	-10.3614
ացրեց	-10.3614
▁Իրան	-10.3615
▁ռեժիմում	-10.362
▁Նաիրա	-10.3621
▁գրքեր	-10.3621
▁դիրք	-10.3623
▁հաղորդագրության	-10.3625
▁քաղաքագետ	-10.3626
▁մեքենայի	-10.3631
▁հանդիսավոր	-10.3634
ռուսական	-10.3637
▁շրջ	-10.3638
▁խոսքերով	-10.3638
թան	-10.3643
▁Պար	-10.3654
▁ներկայացվում	-10.3655
(←	-10.3661
▁տոնի	-10.3665
▁շնորհակալ	-10.3665
▁Տես	-10.3672
▁կազմը	-10.3681
▁Թումանյան	-10.3684
աչ	-10.3693
▁ավելորդ	-10.3698
▁հայտնվում	-10.37
բե	-10.3701
▁Ժամը	-10.3702
▁Քիմ	-10.3707
▁անվանել	-10.3708
▁այսինքն՝	-10.3713
դո	-10.3713
▁սահմանին	-10.3717
անան	-10.3719
▁սերտ	-10.3723
դան	-10.3724
▁բնապահպանական	-10.3728
▁սովոր	-10.373
▁մուտքի	-10.3731
▁հավանաբար	-10.3734
▁մինչդեռ	-10.3734
▁մոտենում	-10.3734
▁նախագծերի	-10.3743
▁քվեարկել	-10.3747
▁գնահատական	-10.3747
երգ	-10.3749
▁ծառայել	-10.3751
▁հատվածի	-10.3751
▁մահացած	-10.3753
մո	-10.3754
▁հատված	-10.3757
▁շքեղ	-10.3761
▁գործընթաց	-10.3765
▁արձանագրել	-10.3765
▁քանզի	-10.3768
▁հետեւաբար	-10.3771
▁ազգի	-10.3772
եշ	-10.378
▁տրամադրված	-10.3784
▁համակարգող	-10.3784
▁աշխատ	-10.3786
▁ծախս	-10.3787
▁Վի	-10.379
▁ՙ	-10.379
se	-10.3791
▁իրադարձությունների	-10.3791
▁ծով	-10.3795
▁Ձ	-10.3795
▁կրկն	-10.3796
▁ռեժիմի	-10.3796
▁թվի	-10.3799
▁վերադարձ	-10.3804
▁Երկրի	-10.3813
ca	-10.3822
▁հարձակման	-10.3825
վելով	-10.3828
▁ակադեմիայի	-10.3828
▁լրատվամիջոցների	-10.383
▁Երկիր	-10.3833
▁բացակայության	-10.3835
▁միջոցներով	-10.3835
մեկ	-10.3839
▁շարքում	-10.3841
▁ներկայումս	-10.3848
▁Դաշնության	-10.3853
▁ավարտվեց	-10.3853
սին	-10.3855
perativ	-10.3862
ֆր	-10.3865
▁հիմնադրամը	-10.3871
▁պատասխանում	-10.3871
▁Իլհամ	-10.3872
▁Հայրապետական	-10.3876
▁ՏԵՍԱՆՅՈՒԹ	-10.3878
Տեսանյութ	-10.3879
▁օ	-10.3883
▁մաշկի	-10.3883
▁գրավել	-10.3883
▁Խորհրդային	-10.3884
▁Պրեմիեր	-10.3887
▁արտադրանքի	-10.3888
▁անցկացնում	-10.389
հայ	-10.389
Այդ	-10.3893
▁զանգահարել	-10.3893
▁ընտանիքում	-10.3901
▁բաժինը	-10.3903
▁կապում	-10.3904
▁Այ	-10.3906
▁ներգրավված	-10.3906
▁եթերում	-10.3909
▁Օլիմպիական	-10.3909
▁մշակել	-10.3914
ոյանը	-10.3919
ույ	-10.3929
▁ծրագրային	-10.3931
▁վերադարձել	-10.3933
▁Անդրանիկ	-10.3935
▁ֆեդերացիայի	-10.3937
I	-10.395
▁բոլորովին	-10.3951
ուհին	-10.3951
▁Ավելին	-10.3953
▁գործընկերության	-10.3954
▁Վարդանյանը	-10.3955
▁Եկեղեցու	-10.3955
▁բարելավման	-10.3959
▁ընտրված	-10.3963
▁տարբերվում	-10.3964
▁ահաբեկչական	-10.3966
▁տպավորություն	-10.3971
ակից	-10.3974
բլ	-10.3976
ւում	-10.3977
▁Այնպես	-10.3978
▁երգեր	-10.3982
▁կուսակցություն	-10.3982
իկի	-10.3982
▁Sputnik	-10.399
▁սովորում	-10.3993
▁հարցազրույցում	-10.3999
▁Մհեր	-10.4003
▁ջր	-10.4004
▁իրականություն	-10.4005
▁համատեքստում	-10.4006
▁Մասնավորապես	-10.4011
▁պատրաստում	-10.4019
▁գործերը	-10.402
▁Եվրոպայում	-10.4023
▁առաջնային	-10.4023
▁Ծառուկյանը	-10.4024
▁դահլիճում	-10.4038
▁հասարակ	-10.4044
▁ընտրությունը	-10.4048
▁Ֆրանսիա	-10.4049
ԱԼԻՔ	-10.405
▁www	-10.4054
▁վաճառել	-10.4057
▁աշխատողների	-10.4058
▁հավելյալ	-10.4059
▁ՏՏ	-10.4063
▁հաղթահարել	-10.4064
▁Յուրի	-10.4068
te	-10.4072
▁դերասանուհի	-10.4073
▁գնդակ	-10.4073
▁տասը	-10.4076
▁սկսվեց	-10.408
▁Այսպես	-10.4082
▁հանգամանքը	-10.4082
▁առաջնություն	-10.4082
▁Կոմիտասի	-10.4082
նիկ	-10.4083
▁լուսավոր	-10.4086
▁նպաստ	-10.409
▁հարաբերություններում	-10.4091
▁Մարդիկ	-10.4093
▁ամենից	-10.4094
▁ամբողջովին	-10.4098
▁հաշվարկ	-10.4099
▁բնապահպանության	-10.41
▁Նախագահը	-10.4101
▁աստված	-10.4101
▁հակառակորդի	-10.4101
▁սկզբին	-10.4104
▁գովազդ	-10.4109
▁կայան	-10.411
▁հայրենիք	-10.4112
▁խափանման	-10.4115
լուսանկար	-10.4119
կար	-10.4122
▁ժողովում	-10.4122
աջ	-10.4138
▁հաստատությունների	-10.414
▁քաշ	-10.414
▁անհրաժեշտություն	-10.414
▁մարտ	-10.4145
▁պարզվել	-10.4152
th	-10.4163
▁սպառնում	-10.4163
մաս	-10.4166
▁առաջընթաց	-10.4169
ուդ	-10.4171
▁թատրոն	-10.4172
▁լուծելու	-10.4174
▁բժիշկ	-10.4175
րեք	-10.4176
▁վայրը	-10.4177
▁Քաղաքացիական	-10.418
▁բնակիչները	-10.4182
▁կորցրել	-10.4182
պան	-10.4189
▁փաթեթ	-10.419
ողները	-10.4191
▁չունեմ	-10.4193
▁նպաստում	-10.4199
▁ապահովագրական	-10.4205
▁գաղափար	-10.4205
▁ցանկալի	-10.4209
▁Տար	-10.421
▁հավանական	-10.4214
րեն	-10.4216
▁վճարում	-10.4217
ռն	-10.4217
▁արժեքների	-10.4221
▁ապրելու	-10.4222
▁զոհված	-10.4224
▁Al	-10.4226
▁հանդիսացող	-10.423
▁հնարավորությունը	-10.4233
րջ	-10.4233
ույթ	-10.4233
▁վթարի	-10.4235
տնտեսական	-10.4235
st	-10.4236
▁Բաքվի	-10.4239
▁Խմբագրական	-10.4241
▁բանից	-10.4241
▁ընթացող	-10.4249
▁սերը	-10.4251
▁չունենք	-10.4257
▁կառուցվել	-10.4258
դեն	-10.426
lo	-10.426
խա	-10.426
▁Վրաստան	-10.4263
▁ընտանիքների	-10.4264
▁տղան	-10.4266
▁Ունեն	-10.4273
ները՝	-10.428
▁պահից	-10.4282
▁աջակցում	-10.4284
▁Օրաթերթ	-10.4288
▁Նահանգներ	-10.4288
ic	-10.4295
լատ	-10.43
▁երգիչ	-10.4301
▁Հիսուս	-10.4311
▁տարածքների	-10.4312
եցնել	-10.4314
▁Հարցին	-10.4316
ուռ	-10.4318
▁դեղ	-10.4319
▁բանակցություններ	-10.4322
▁մտքեր	-10.4331
▁Սփյուռքի	-10.4335
▁Հայելի	-10.4338
▁Մալ	-10.4344
▁Համա	-10.4345
ու՞մ	-10.4348
անկ	-10.4348
▁շրջանառության	-10.4348
▁ընթացքը	-10.4348
▁հովանավոր	-10.4351
▁աղքատ	-10.4352
▁տարել	-10.4353
▁Ճիշտ	-10.4357
▁քահանա	-10.4358
▁կետ	-10.436
▁մոտեցում	-10.436
▁Ադրբեջանին	-10.4367
իչը	-10.437
▁Բանկի	-10.4371
▁կազմակերպվել	-10.4372
▁պայքարել	-10.4373
▁անմիջական	-10.4373
ԵՐԻ	-10.4374
▁Լե	-10.4376
▁ֆրանսիական	-10.4384
▁ներս	-10.4385
▁հաղթանակի	-10.4388
▁նայել	-10.4391
▁Անգլերեն	-10.4391
▁մասնակիցներին	-10.4393
Իգական	-10.4394
ta	-10.4399
▁մասնակցի	-10.44
▁շնորհ	-10.4403
▁$	-10.4406
▁դիրքորոշումը	-10.4407
▁ժողովածու	-10.4408
▁բանկը	-10.4409
▁զին	-10.441
▁կարգավիճակ	-10.4413
▁կօգնի	-10.4414
▁Հռոմի	-10.4416
▁տնօրենը	-10.4418
քն	-10.4421
▁արտահանման	-10.4424
▁կրկնակի	-10.4425
▁Apple	-10.4425
▁հարցն	-10.4427
▁Նորք	-10.4427
▁վար	-10.4428
▁տոնը	-10.4428
▁փառատոնի	-10.4428
▁Վահագն	-10.4433
▁էլեկտրական	-10.4435
▁դարձնելու	-10.4436
ԻԿ	-10.4439
▁քրեակատարողական	-10.4443
▁տեխնոլոգիական	-10.4444
▁Պատ	-10.4444
▁տեղեկատվությունը	-10.4444
▁հսկողության	-10.4445
▁բռն	-10.445
▁c	-10.4452
▁իրավապահ	-10.4457
▁հեռուստա	-10.4463
▁կոդ	-10.4468
▁Վար	-10.4474
աֆ	-10.4476
▁ընտր	-10.4477
▁Աբովյան	-10.4477
▁արվել	-10.4478
նակ	-10.4482
▁մեքենաների	-10.4484
▁դատախազության	-10.4488
▁ռեսուրսների	-10.4492
▁Անդրադառնալով	-10.4492
▁List	-10.4496
▁ծեր	-10.4498
սեր	-10.45
▁տղամարդը	-10.4503
▁շինարարության	-10.4505
▁ճանաչման	-10.451
▁Այսօր՝	-10.4513
շատ	-10.4525
▁հանրությանը	-10.4532
▁կիրառվում	-10.4535
▁ներկայացուցիչը	-10.4545
▁նիստերի	-10.4552
սոն	-10.4553
▁yerkir	-10.4562
▁ներդրումներ	-10.4562
▁բռնություն	-10.4563
▁Նշվում	-10.4564
▁դիտարկում	-10.4566
անքի	-10.4572
▁սերնդի	-10.4574
to	-10.4575
ԵՍ	-10.4578
▁Մաշտոցի	-10.4581
Այն	-10.4582
▁դատավարության	-10.4582
Երբ	-10.4583
▁ժողով	-10.4589
նենք	-10.459
▁ԹՎԱԿԱՆԻ	-10.4592
Իսկ	-10.4593
▁փուլը	-10.4596
▁հեռավորության	-10.4597
▁կազմակերպելու	-10.46
▁Ռուսական	-10.4603
▁գալուստ	-10.4605
▁հարցազրույց	-10.4605
▁կտոր	-10.4607
ma	-10.4607
▁բերվել	-10.4609
▁Լոնդոնի	-10.461
▁վնասվածքներ	-10.4615
▁Պողոսյանը	-10.4618
▁առընթեր	-10.4621
ւել	-10.4628
▁ամբիոն	-10.4629
▁կառուցված	-10.463
▁ավտոմեքենան	-10.4632
▁տալով	-10.4632
▁իրենից	-10.4634
▁սկիզբ	-10.4636
▁նշ	-10.464
▁Ալիեւը	-10.4642
▁իրավիճակում	-10.4645
թար	-10.4652
▁ազատազրկման	-10.4652
▁համարժեք	-10.4652
▁օրենք	-10.4652
ԱՑ	-10.4653
եդ	-10.4661
▁հաց	-10.4662
▁կանխարգելման	-10.4662
▁այսքան	-10.4662
▁հայրենիքի	-10.4664
▁գծում	-10.4665
▁Պի	-10.4666
▁իրականացումը	-10.4668
▁ծառայությունները	-10.4673
▁Բաց	-10.4676
րեց	-10.4682
▁Իրանը	-10.4682
▁քաղաքացին	-10.4682
я	-10.4685
q	-10.4689
▁հետապնդում	-10.4691
▁կառավարում	-10.4693
▁խորհրդարան	-10.4694
▁համերգ	-10.4696
▁Լոս	-10.4699
▁նախագծում	-10.4702
▁ե	-10.4703
ԱՍ	-10.4713
▁պատվիրակությունը	-10.4715
▁Մովսես	-10.4718
na	-10.4718
▁ծավալը	-10.4721
▁բոլորս	-10.4725
▁դարձած	-10.4727
գար	-10.473
▁Էդ	-10.4731
անտ	-10.4733
▁Քաղաքական	-10.4733
ագրում	-10.4733
▁գնալու	-10.4735
▁ծռեր	-10.4736
▁բազմ	-10.4739
▁վարպետ	-10.4741
▁մեկնաբանել	-10.4742
▁Բարձրագույն	-10.4743
yan	-10.4743
▁NEWS	-10.4744
▁թիմ	-10.4744
▁Սասուն	-10.4746
▁փոխանցմամբ	-10.4746
տակ	-10.4748
▁սրահ	-10.4755
ստի	-10.4757
▁Gisher	-10.4762
աքար	-10.477
ենց	-10.4776
ԱԶ	-10.4779
չական	-10.4786
▁Մա	-10.4789
▁ակնկալում	-10.4793
▁Պետրոս	-10.4795
անձն	-10.4795
▁արեւմտյան	-10.4796
▁բազմիցս	-10.4803
▁տեղեկացրեց	-10.4803
▁առաջադրված	-10.4804
▁հաստատվել	-10.4805
▁լեզվում	-10.4813
▁աշխատավարձի	-10.4814
▁հունվար	-10.4818
▁վայրկյան	-10.4818
▁ցուցակը	-10.4818
▁Առաջարկ	-10.4819
լիկ	-10.4821
▁դասարանի	-10.4829
ուհու	-10.4833
▁օրենսդրության	-10.4833
ge	-10.4833
▁Կոն	-10.4836
▁Աստծուն	-10.4837
▁բառ	-10.4843
▁տարածում	-10.4843
▁ուղղ	-10.4844
▁Ծառուկյանի	-10.4847
▁ապրիլյան	-10.4847
ելը	-10.485
▁Ցեղասպանության	-10.4854
▁Դեպքի	-10.4854
▁արվեստ	-10.4867
▁եկեղեցում	-10.4869
▁հազ	-10.4872
օրինակ	-10.4873
▁ավտոմեքենայի	-10.4881
▁ճանաչելու	-10.4889
▁փաստեր	-10.4892
▁հասցեում	-10.4893
▁հաճախորդների	-10.4897
▁ռադիո	-10.4902
▁ավտո	-10.4903
▁կաշառք	-10.4905
▁արժեքի	-10.4908
▁գիտի	-10.4908
▁Հարություն	-10.4911
▁Մարզ	-10.4916
▁տրամադրման	-10.492
▁միջոցառման	-10.4925
▁պարզելու	-10.4925
▁հիշել	-10.4925
▁պաշտպանի	-10.4925
▁միայնակ	-10.4925
▁արտադրող	-10.4927
▁ներդրման	-10.4929
▁բանկ	-10.4934
▁մանկավարժական	-10.4934
▁ջերմաստիճանը	-10.4934
▁առկայության	-10.4934
▁կառավարություն	-10.4935
▁զբաղված	-10.4935
▁մերժել	-10.4936
▁Կարեւոր	-10.4942
▁Էր	-10.4952
▁կոռուպցիոն	-10.4957
▁խանգարում	-10.4958
il	-10.4961
▁գնաց	-10.4962
▁Ամերիկյան	-10.4964
▁անձնակազմի	-10.4964
▁Սար	-10.4974
գեր	-10.4974
ագրի	-10.4977
▁հարցնում	-10.4978
▁բանակը	-10.4979
իկը	-10.4979
▁որտեղից	-10.4984
▁բանկերի	-10.4987
▁Յունայթեդ	-10.499
▁կանոնները	-10.499
▁դոլարով	-10.4993
▁գնով	-10.4993
▁Թող	-10.4997
▁աշխատանքներին	-10.4997
▁մարմինները	-10.5004
megle	-10.5008
խան	-10.5013
▁Դատ	-10.5013
Լուրեր	-10.5017
▁հոտ	-10.5019
▁WhatsC	-10.5019
▁վերցրել	-10.5019
▁Ներ	-10.5021
▁պաշտոնյաների	-10.5022
▁բառերով	-10.5027
▁գիտ	-10.5029
▁նվեր	-10.5029
ստեր	-10.5031
▁քննարկումների	-10.5036
▁փոխադարձ	-10.504
▁իբր	-10.505
▁ավանդ	-10.5054
եգ	-10.5055
▁պատերազմը	-10.5056
▁գործած	-10.5058
▁Մադրիդի	-10.5059
▁սահմանվում	-10.5059
պե	-10.5065
▁Հարգելի	-10.5068
▁Մերձավոր	-10.507
▁ոճի	-10.507
▁ճակատ	-10.5072
▁հավելեց	-10.5073
րը	-10.5075
▁ԿԲ	-10.5076
վազ	-10.508
մին	-10.5081
▁համար՝	-10.5082
▁Մկրտչյանը	-10.5082
▁կանգ	-10.5084
▁լուծ	-10.5084
▁գործերով	-10.5084
▁միանշանակ	-10.5086
▁բացահայտ	-10.5089
▁քիմիական	-10.5093
ԱՂ	-10.5093
▁զբաղվող	-10.5097
▁ընդունելության	-10.5098
▁իշխանություն	-10.5102
▁առայժմ	-10.5103
▁զանգ	-10.5103
՛՛	-10.5106
լը	-10.5107
պտ	-10.5108
▁եղանակով	-10.5108
▁ներառված	-10.5117
կու	-10.5117
▁անցավ	-10.5117
▁Թեեւ	-10.5118
ԵԼՈՒ	-10.512
▁անցկացվել	-10.5121
▁թվային	-10.5124
▁որոշումների	-10.5125
▁անունները	-10.5131
▁շտաբի	-10.5133
▁Հասցե	-10.5134
▁ժողովրդավարական	-10.5134
▁Քար	-10.5134
▁զինվոր	-10.5135
Կար	-10.5135
▁իշխող	-10.5136
▁ջրային	-10.5136
իզմի	-10.5138
▁ճանաչված	-10.514
▁հայտարարություններ	-10.5142
▁համացանցում	-10.5143
տը	-10.5144
▁փաստաթուղթ	-10.5144
▁հաջողություն	-10.5148
om	-10.5154
▁թափուր	-10.5156
▁պարտականությունները	-10.5161
▁սահմանը	-10.5163
▁ֆուտբոլ	-10.5163
▁լուսանկարները	-10.5163
▁հիշատակ	-10.5165
▁երթ	-10.5166
եռն	-10.517
▁ադրբեջանցի	-10.5174
▁նպաստել	-10.5174
▁նորանշանակ	-10.5178
▁արձագանքել	-10.518
չին	-10.519
▁Քրեական	-10.5192
ՈՆ	-10.5196
▁խնամքի	-10.5198
▁բացում	-10.5199
▁հրապարակված	-10.5199
▁երկրները	-10.52
նկ	-10.5202
▁վերաբերմունք	-10.5203
▁հան	-10.5204
▁հաղթանակը	-10.5206
▁Տեգեր	-10.5208
▁բնակվող	-10.5209
▁շինարարական	-10.5211
նող	-10.5212
▁փոխվարչապետ	-10.5214
▁Ստեփան	-10.5216
▁առաջացել	-10.5216
▁Կոր	-10.5216
▁հրդեհ	-10.5233
▁ընտրողների	-10.524
▁ուշադիր	-10.524
▁դրանցից	-10.5241
▁պարգեւ	-10.5243
▁հատվածը	-10.5244
քում	-10.5245
▁Ռա	-10.5246
ընթաց	-10.5246
▁պաշտոնի	-10.5246
▁մայրաքաղաքի	-10.526
▁Լո	-10.5261
▁արյուն	-10.5263
▁եկան	-10.5264
▁Ալիեւի	-10.5264
▁վարչությունից	-10.5266
▁նշանավոր	-10.5269
▁հավաքական	-10.5274
▁տղամարդիկ	-10.5274
▁բանակցային	-10.5274
▁ծովի	-10.5276
▁շենքում	-10.5279
▁կոմիտեն	-10.5281
к	-10.5286
▁երես	-10.5287
▁երաժշտություն	-10.5293
ագիտություն	-10.5299
▁դուռը	-10.5304
▁ծաղիկներ	-10.5304
ակա	-10.5307
▁Վա	-10.5308
▁ծառայողների	-10.5309
ժի	-10.5311
եալ	-10.5312
▁Գալուստ	-10.5314
▁խոսքերը	-10.5316
▁մարմնական	-10.5318
▁հրադադարի	-10.5324
▁ձեռնարկել	-10.5324
▁ֆրանսիացի	-10.5325
▁դդ	-10.5325
ունի	-10.5329
▁Երրորդ	-10.533
ԵՂ	-10.5331
Շատ	-10.5332
▁անօրինական	-10.5335
մբ	-10.534
էր	-10.5343
▁հարեւանությամբ	-10.5344
▁տարբերակները	-10.5345
▁հե	-10.5346
▁կատարող	-10.5347
▁ամենաբարձր	-10.5347
▁կնքված	-10.5348
▁կնքել	-10.5352
▁հիշատակին	-10.5356
▁անջատ	-10.5356
п	-10.5357
▁Սեր	-10.5357
▁Մոր	-10.5359
▁ժողովուրդների	-10.5359
ավայր	-10.5359
▁հանցագործության	-10.5362
▁Խաղեր	-10.5364
▁տարիքի	-10.5365
▁Game	-10.5368
▁Վանաձոր	-10.5369
թյան	-10.5369
▁կանգնել	-10.5372
▁տնային	-10.5374
▁չունեցող	-10.5378
▁Ապա	-10.5384
▁պահանջների	-10.5387
▁ԵՏՄ	-10.5389
ԻՑ	-10.5391
▁ավելացել	-10.5391
▁Կորեայի	-10.5392
▁նախարարների	-10.5395
▁լինելը	-10.5398
▁մար	-10.5402
▁հասցեին	-10.5419
▁թույլտվություն	-10.5422
զե	-10.5422
▁բացարձակ	-10.5423
ԱԽ	-10.5424
▁ավարտից	-10.5427
▁արեւելյան	-10.5428
▁պաշտոններ	-10.5436
▁մտ	-10.544
▁ծնողները	-10.5441
▁Ծնվել	-10.5444
ոյան	-10.5444
▁մատն	-10.5445
▁ինքս	-10.5453
▁թաղ	-10.5454
▁հիմքում	-10.5458
▁պահպան	-10.546
▁Դրանից	-10.5464
▁եռ	-10.5467
▁հասկանալի	-10.5474
▁թվական	-10.5474
▁ծայրահեղ	-10.5477
▁Ֆրանսիայում	-10.5478
▁քարոզ	-10.5483
▁de	-10.5483
▁բուժ	-10.5483
▁աշակերտների	-10.5485
▁Հակոբյանի	-10.5486
▁արձանագրվել	-10.5487
նան	-10.5491
Հայերեն	-10.5492
▁վարակ	-10.5496
▁արխիվ	-10.5497
▁բուն	-10.5497
▁հավելված	-10.5498
▁անցկացվող	-10.5499
▁քարտուղարի	-10.5501
▁Ջր	-10.5502
▁Գոռ	-10.5503
▁Փորձ	-10.5504
ացվում	-10.551
▁Հովհաննիսյանի	-10.5512
▁Տնտեսական	-10.5518
▁ասենք	-10.5524
▁մտքի	-10.5525
▁տուրի	-10.5528
▁Մարգարյանի	-10.5529
▁պարտավորությունների	-10.5532
▁ակցիա	-10.5533
ուխ	-10.5535
▁You	-10.5535
ացան	-10.5541
բար	-10.5541
▁տիպի	-10.5542
▁եկող	-10.5543
▁զարմանալի	-10.5546
▁գաղափարը	-10.5548
ֆեր	-10.555
▁պարտ	-10.5551
▁համակարգչային	-10.5552
▁ոմանք	-10.5552
հատ	-10.5552
▁ուղեւոր	-10.5552
▁էներգիայի	-10.5553
▁սմ	-10.5553
որոշ	-10.5556
▁նյութի	-10.5557
▁արձակել	-10.5562
▁ժամանած	-10.5563
▁տեղեկությունները	-10.5567
▁Երկ	-10.5568
▁պաշտպանական	-10.5572
▁բացատրել	-10.5572
в	-10.5575
Հայոց	-10.5583
▁ազդում	-10.5585
▁լարված	-10.5587
▁հայտարարությամբ	-10.5588
Ոչ	-10.5588
▁խոսեց	-10.5595
ուժ	-10.5595
▁Բարձր	-10.5596
▁դիտում	-10.5598
▁հետաքրքրություն	-10.5599
▁անցկացված	-10.56
▁մատ	-10.5604
▁Սե	-10.5605
▁Խորհրդի	-10.5607
▁պայման	-10.5608
▁պլան	-10.5608
▁գլխի	-10.561
▁ձեւը	-10.5615
աբանության	-10.5616
▁լիազորությունները	-10.5617
▁նախագահն	-10.5617
▁ջուրը	-10.5618
▁Միաժամանակ	-10.5618
▁պապ	-10.5619
▁կառույց	-10.5619
▁տեսանելի	-10.5622
▁ժամանակով	-10.5628
▁արտասահմանյան	-10.563
▁հասցնել	-10.5632
▁արդյունքը	-10.5635
▁Խնդրում	-10.5639
▁Մինասյանը	-10.5643
▁Ամենա	-10.5643
▁հաջողություններ	-10.5647
▁Միջ	-10.5648
▁iPhone	-10.5651
▁պողոտայում	-10.5653
▁երգչուհի	-10.5654
ԱՊ	-10.5658
աչափ	-10.5662
▁հաստատման	-10.5662
▁բյուջե	-10.5662
▁օրակարգում	-10.5664
▁գործողություն	-10.5667
▁հոգ	-10.5667
▁շտապ	-10.5669
▁Աշխատանքային	-10.5669
▁աջակցությունը	-10.567
▁հոդվածում	-10.5673
▁հավատարիմ	-10.5675
դին	-10.5677
ացու	-10.5678
քին	-10.5683
▁նյութերը	-10.5685
▁հիվանդության	-10.5687
▁Ակ	-10.5691
▁Յու	-10.5692
▁Co	-10.5696
▁խախտման	-10.5698
▁Բաղդասարյանը	-10.5698
▁նախագծեր	-10.5698
▁համայնքներում	-10.5703
▁կոր	-10.5705
▁աղբ	-10.5708
▁ժառանգության	-10.5708
▁հոգեկան	-10.5708
▁հրահանգ	-10.5711
▁հանցագործությունների	-10.5713
▁խորը	-10.5715
▁աճը	-10.5723
▁ՄԻ	-10.5724
լանդ	-10.5724
▁սիրել	-10.5725
մայ	-10.5726
▁այ	-10.5727
▁Շարմազանովը	-10.5727
▁արարողությանը	-10.5731
▁ներկայացնելով	-10.5731
▁ծագում	-10.5731
անակ	-10.5732
▁բնականաբար	-10.5732
▁Անկախ	-10.5733
▁տեղեկություններով՝	-10.5741
ի՞	-10.5743
▁Որքան	-10.5744
▁խաղացող	-10.5749
▁ռեժիմը	-10.5749
ԱԳ	-10.575
▁ցեղասպանությունը	-10.5751
▁Բեն	-10.5753
եփ	-10.5754
▁շնորհավորական	-10.5755
ստան	-10.5756
▁պողոտա	-10.5758
▁վայրերում	-10.5764
▁սեղանի	-10.5764
▁օրենքների	-10.5765
li	-10.5772
▁մատակարար	-10.5774
▁կորցրած	-10.5774
▁սահմանների	-10.5775
▁արդյունքներով	-10.5778
▁Խաչ	-10.5778
▁հետաքրքրված	-10.5779
▁Instagram	-10.578
▁փրկ	-10.5781
Փյունիկ	-10.5785
▁թեկնածուն	-10.5786
▁քաջ	-10.5788
▁սուտ	-10.5789
о	-10.579
արանի	-10.5794
▁հաշվետվություն	-10.5797
▁ուշադրությունը	-10.5798
▁նստել	-10.5798
համ	-10.5798
▁լրագրողներին	-10.5798
▁օգտագործվել	-10.5799
▁կրտսեր	-10.58
▁պատմեց	-10.5803
▁խնդիրներին	-10.5807
▁Բաքվում	-10.5807
▁տարեկանում	-10.5814
▁երեւույթ	-10.5814
աձ	-10.5815
ամարտ	-10.5819
▁անցնելու	-10.5821
▁իշխանություններին	-10.5822
▁հյուսիսային	-10.5823
ԱՄՆ	-10.5825
▁զգաց	-10.5825
▁հարմարավետ	-10.5827
▁գրանցել	-10.5827
▁հայեր	-10.5831
▁տնտեսություն	-10.5836
▁հրավեր	-10.5842
▁ՊԵՏԱԿԱՆ	-10.5843
▁տուժած	-10.5845
▁մեդիա	-10.5846
▁մոլ	-10.5852
▁ցուցանիշը	-10.5852
▁ստացավ	-10.5854
յե	-10.5855
▁Արաբկիր	-10.5859
▁Աբրահամյանի	-10.5861
▁Կարապետյան	-10.5862
դոն	-10.5863
▁ընդդիմության	-10.5869
▁ֆիլմերի	-10.5873
▁մնալու	-10.5877
▁մեկնարկային	-10.588
Երկիր	-10.5882
▁սպասարկում	-10.5885
▁Արցախյան	-10.5886
▁արվում	-10.5888
▁Հիմնական	-10.589
▁մրցաշարի	-10.5893
▁աշխատավարձ	-10.5897
▁Հասմիկ	-10.5898
▁ցանկում	-10.5898
▁կարդում	-10.5899
ումները	-10.5908
▁նվիրել	-10.591
▁տրամադրելու	-10.5913
▁ծավալ	-10.5914
▁բարոյական	-10.5915
եխ	-10.5916
▁յուղ	-10.5918
շին	-10.5918
րտ	-10.5919
պետ	-10.5919
▁վիրավորներ	-10.5922
▁երկրից	-10.5926
ոքի	-10.5926
▁մարզական	-10.5926
▁մի՛	-10.5928
Ինչ	-10.5931
▁ֆակուլտետ	-10.5931
°	-10.5932
▁Բո	-10.5934
կն	-10.5935
▁բնակվում	-10.5936
▁կոմպոզիտոր	-10.5938
ոսի	-10.5944
▁ծն	-10.5946
▁ասես	-10.5946
▁մակարդակ	-10.595
News	-10.5952
▁աղջիկների	-10.5953
▁Մխիթարյանի	-10.5953
առու	-10.5953
▁կանոնների	-10.5959
▁հպարտ	-10.5964
▁Կառավարությունը	-10.5968
▁օրերս	-10.5971
▁ապագան	-10.5972
հաշվ	-10.5972
էք	-10.5973
▁հետեւից	-10.5973
▁Պա	-10.5973
սե	-10.5975
▁Նաեւ	-10.5975
▁Հո	-10.5979
▁երթեւեկության	-10.598
▁բուժում	-10.5989
▁Ապրիլ	-10.599
▁օդ	-10.5991
▁քաշային	-10.5991
pe	-10.5992
and	-10.5994
▁օրական	-10.5996
▁պաշարների	-10.5999
▁զինծառայողների	-10.6001
վո	-10.6005
▁արի	-10.6006
▁Մարդ	-10.6006
ստր	-10.6009
Ազատության	-10.601
▁Գերագույն	-10.6012
▁գող	-10.6015
▁գծի	-10.6018
▁հասարակությունը	-10.6019
▁կիսա	-10.6022
▁մասնակցություն	-10.6022
▁գլուխը	-10.6024
▁գործիչների	-10.6025
իոն	-10.6031
▁գրադարան	-10.6032
id	-10.6033
ԱԴ	-10.6034
▁ղեկավարության	-10.6035
▁Ադրբեջան	-10.6035
▁ՔԿՀ	-10.6037
▁թագավոր	-10.6038
▁գործն	-10.6038
▁II	-10.6039
▁Պաշտոնական	-10.604
ներս	-10.6042
▁հոդվածների	-10.6046
▁զանգված	-10.6046
▁Մանուկյան	-10.6047
▁գործելու	-10.6047
▁հավաքվել	-10.6048
▁միավորում	-10.6051
▁մասնագետները	-10.6053
եւի	-10.6054
▁միավորով	-10.6056
▁թատրոնում	-10.6057
▁բացառվում	-10.6061
▁էներգետիկայի	-10.6061
▁նախագահների	-10.6061
▁Ավ	-10.6062
▁հիմնավոր	-10.6064
▁Բալ	-10.6071
▁Արդարադատության	-10.6072
▁Պետրոսյան	-10.6074
▁կոն	-10.6076
▁դպրոցական	-10.6086
▁հաղորդման	-10.6087
▁հղումը	-10.6087
▁ծառայողական	-10.6089
▁հարձակում	-10.6089
▁ինչից	-10.6089
▁անկյուն	-10.609
▁շենքը	-10.6092
▁երկխոսության	-10.6092
ցիները	-10.6094
▁առարկա	-10.6096
▁այո	-10.6102
▁ցանց	-10.6102
▁Տիրոջ	-10.6104
▁լիազորությունների	-10.6105
▁Սու	-10.6106
դատ	-10.6107
▁գումարները	-10.6113
▁Հայերեն	-10.6118
▁պատկերացնում	-10.6119
▁Հաշվի	-10.6121
▁առաջարկներ	-10.6125
Ղ	-10.6125
▁կարեւորել	-10.6125
▁գյուղը	-10.6128
▁հրապարակվել	-10.6129
▁նվաճել	-10.6129
▁քայլերը	-10.6132
▁օգտագործելով	-10.6132
▁ո	-10.6134
▁Սաուդյան	-10.6135
▁նախօրեին	-10.6139
▁Էդմոն	-10.6139
net	-10.614
ելուց	-10.6143
ՈՒՆ	-10.6144
▁Քա	-10.615
▁հրաման	-10.615
▁ստանդարտ	-10.6151
▁թեկնածուների	-10.6153
▁հարուցված	-10.6153
▁Ուստի	-10.6153
քմ	-10.6157
▁ԵՆ	-10.616
▁Նալբանդյանը	-10.6162
▁ռեկտոր	-10.6163
▁շահերը	-10.6166
Երեւանի	-10.6177
▁հավելելով	-10.6178
մատ	-10.6182
Արսենալ	-10.6183
▁զարգացնել	-10.6184
▁ընկերոջը	-10.6185
▁լճի	-10.6189
▁Սահակյանի	-10.6189
ՆԱ	-10.619
▁գործակալ	-10.6192
▁Չէ	-10.6192
▁d	-10.6197
▁սպառնալիք	-10.6198
▁կոշտ	-10.6198
▁ձեռքը	-10.6199
▁ԵԽԽՎ	-10.6199
▁եղեք	-10.6201
▁պատգամավորներ	-10.6202
▁Ով	-10.6208
▁հեռուստաընկերության	-10.6209
տն	-10.6212
me	-10.6214
▁դասընթաց	-10.6214
տել	-10.6216
▁կեսին	-10.6219
▁գավաթի	-10.6224
▁արհեստական	-10.6225
▁սկսեցին	-10.6225
▁կազմակերպություններ	-10.6226
▁դժգոհ	-10.6232
Ազգային	-10.6232
▁հանգստի	-10.6235
▁Ամբողջ	-10.6242
▁ուսումնասիրության	-10.6253
▁ասուլիսի	-10.6253
▁քարտ	-10.6255
որի	-10.6255
▁տարած	-10.6257
▁որակյալ	-10.6257
▁Ազատության	-10.6257
▁տր	-10.6258
▁ցուցադրել	-10.6259
▁ԲԿ	-10.6266
visit	-10.6268
▁պատվավոր	-10.6268
▁Արդյունքում	-10.6268
do	-10.6271
▁Առանց	-10.6271
▁Վարդանյան	-10.6272
▁ժամեր	-10.6275
ագրության	-10.6276
▁միտքը	-10.6277
ak	-10.6278
▁առանձնապես	-10.628
▁Էրդողանի	-10.628
ատի	-10.628
▁ցուցաբերել	-10.6283
▁հուշարձանների	-10.6285
Ի՞նչ	-10.6289
▁ժողովուրդ	-10.6289
▁փառատոն	-10.6292
▁վաստակավոր	-10.6292
▁ծաղկ	-10.6294
▁ուսանողները	-10.6297
▁Էրեբունի	-10.6297
▁ուսանողական	-10.6301
▁Թուրքիա	-10.6303
▁ֆինանսավորման	-10.6305
Առաջին	-10.6317
▁բերեց	-10.632
▁Օրենքի	-10.632
բեկ	-10.6323
▁թեկնածուի	-10.6325
▁Արեւ	-10.6328
▁խելացի	-10.6333
▁ԿԳ	-10.6333
▁դաշինքը	-10.6337
▁Mar	-10.6338
▁հրապարակման	-10.6341
▁Փարիզում	-10.6343
ոպ	-10.6343
▁Լավագույն	-10.6346
▁քանակությամբ	-10.6352
▁Ուզում	-10.6354
д	-10.6363
▁a	-10.6366
▁սեղան	-10.6366
մայի	-10.6369
կր	-10.637
▁գրականություն	-10.638
▁նկարներ	-10.6381
▁հյուր	-10.6384
▁Ժամանակ	-10.6384
▁Սեն	-10.6388
▁միտք	-10.639
▁մասնաճյուղի	-10.6398
▁Լուսինե	-10.6399
▁կյանքին	-10.6399
▁շնորհավորում	-10.641
սել	-10.6412
▁հարթ	-10.6412
▁գերմանական	-10.6413
▁լուսանկարը	-10.6413
քային	-10.6418
▁տուրք	-10.6419
▁բեմ	-10.6419
բո	-10.642
ie	-10.6421
▁կմնա	-10.6422
ռո	-10.6424
▁սկսելու	-10.6425
▁մեկնում	-10.6425
▁Վարչապետը	-10.6427
▁շարժում	-10.6432
▁գերազանցում	-10.6434
▁««	-10.6436
▁ձորի	-10.6437
տոր	-10.6439
▁արդյունավետության	-10.644
▁առաջարկը	-10.6443
▁պատժ	-10.6447
▁աստիճանաբար	-10.6448
▁լար	-10.6451
▁հիմնադրման	-10.6453
▁պարբերական	-10.6458
▁հիշեցնում	-10.6458
▁Կատար	-10.646
▁մը	-10.6461
▁մեղադրել	-10.6467
▁հագ	-10.647
▁հարկում	-10.6471
▁ԿԱ	-10.6472
▁ձեւավորված	-10.6474
▁Ar	-10.6475
▁օգտագործումը	-10.6477
▁արած	-10.6478
▁գործընթացին	-10.6479
▁բանակում	-10.6484
▁ՀԱՄԱՐ	-10.6486
▁այսուհետ	-10.6492
▁աննախադեպ	-10.6494
▁Ստացվում	-10.6494
▁սնունդ	-10.6497
em	-10.6497
աբանություն	-10.65
▁Տեխնիկական	-10.6504
սիր	-10.6506
Այսօր	-10.6507
▁դասի	-10.6513
▁սիրտը	-10.652
▁էլի	-10.6521
▁բակում	-10.6525
եղեն	-10.6529
▁վերադառնում	-10.653
խի	-10.6531
եպ	-10.6532
▁բաժանում	-10.6533
▁հավանականությամբ	-10.6535
im	-10.6538
▁Շառլ	-10.6542
▁կայացրել	-10.6543
▁կստանա	-10.6543
մե	-10.6543
▁Գերմանիայում	-10.6543
▁գումարներ	-10.6548
▁Երեւանը	-10.6548
▁Թումանյանի	-10.655
ցիների	-10.6552
▁զբոսաշրջության	-10.6554
▁բեռնատար	-10.6554
▁հաշմանդամություն	-10.6554
▁անմեղ	-10.6556
▁գները	-10.6557
▁Նոյեմբեր	-10.6557
նայ	-10.6558
▁Ch	-10.6559
լեն	-10.6563
▁by	-10.6564
▁Զարուհի	-10.6567
▁քննարկվում	-10.657
▁ընդունելու	-10.6571
▁հիմնադրամ	-10.6575
▁որդի	-10.6575
▁կասկած	-10.6576
▁խոստացել	-10.6578
▁ժողովը	-10.658
▁ծրագրին	-10.6581
▁առնում	-10.6582
ԵԿ	-10.6587
ճի	-10.6588
▁ստորաբաժանումների	-10.659
զան	-10.6591
ականության	-10.6591
▁տոննա	-10.6597
▁սրահում	-10.6599
▁ներկայացուցչի	-10.6602
▁էժան	-10.6603
։—	-10.6603
▁ներքաղաքական	-10.6604
▁ընդունվում	-10.6605
▁չլինի	-10.6605
▁Րաֆֆի	-10.6605
▁ՀԱՅ	-10.6614
▁ցեղ	-10.6617
ul	-10.662
▁որոշումները	-10.662
▁օրերը	-10.662
▁Իրաքի	-10.662
▁շերտ	-10.6621
▁Տեղ	-10.6622
▁կապեր	-10.6622
▁առնել	-10.6623
▁Սեպտեմբեր	-10.6624
▁ընթացքի	-10.6627
▁մոտակայքում	-10.6627
▁ամիսների	-10.6628
▁պաշտպանություն	-10.6636
▁ուսանողներ	-10.6639
▁մոտավորապես	-10.6639
▁ոստիկանապետ	-10.664
▁Առողջապահության	-10.664
▁զուտ	-10.6641
▁դեսպանատան	-10.6641
ռան	-10.6644
▁k	-10.6651
▁ականատես	-10.6652
▁երեւանյան	-10.6653
▁մթնոլորտ	-10.6655
հի	-10.6656
ԱՇ	-10.666
▁հրամանով	-10.6665
ներ՝	-10.6667
▁պա	-10.6668
▁կոմ	-10.6669
▁եղբոր	-10.6669
▁համաժողովի	-10.667
▁տեսնելու	-10.6674
▁մասնագետներ	-10.6674
▁հայր	-10.6675
▁Մինչդեռ	-10.6676
▁դարձյալ	-10.6677
▁բազմա	-10.6682
կային	-10.6685
▁Շահ	-10.6688
▁պայմանագրով	-10.6688
▁ասոցիացիայի	-10.6691
▁նախաձեռնությունը	-10.6691
▁քրիստոնյա	-10.6694
▁ինչպիսի	-10.6697
▁կամավոր	-10.6699
դիմ	-10.6699
▁Սեւան	-10.67
▁սարսափելի	-10.6701
▁պատճեն	-10.6702
▁երեկո	-10.6702
▁անդրադարձ	-10.6704
▁ելույթը	-10.6705
այսուհետ	-10.6708
▁դեպքերը	-10.6711
կե	-10.6712
▁Սեբաստացի	-10.6713
▁հեռացել	-10.6714
▁արձակվել	-10.6715
▁փրկել	-10.6717
կիր	-10.672
ափոխ	-10.6722
▁փոխելու	-10.6723
▁փառատոնը	-10.6727
▁առանցքային	-10.6729
▁արդիական	-10.6729
▁միջավայր	-10.6732
▁գործին	-10.6738
▁կարծիքով՝	-10.6742
▁ասի	-10.6743
▁ղեկավարները	-10.6744
▁Դեռ	-10.6745
▁հանդիպումից	-10.6745
▁միացել	-10.6748
▁գործիչներ	-10.6748
▁Այնուամենայնիվ	-10.675
ԵՏ	-10.6755
▁տեխնիկայի	-10.6755
▁TV	-10.6756
▁Այսինքն՝	-10.6756
▁օբյեկտիվ	-10.6759
կուս	-10.6759
լեր	-10.6759
▁ներողություն	-10.6763
▁հաշվետու	-10.6763
▁Ընտրական	-10.6775
Բա	-10.6776
▁ենթարկված	-10.6779
▁խփել	-10.6779
▁ունեցան	-10.6781
▁ընտրում	-10.6783
ut	-10.6783
▁որոշեց	-10.6789
ex	-10.6792
՞ն	-10.6793
խար	-10.6797
▁օրվան	-10.6798
▁գիտելիքներ	-10.6798
▁առանձնահատուկ	-10.6799
▁Ուրեմն	-10.6801
▁պարզաբանում	-10.6803
▁անսպասելի	-10.6804
▁ակումբում	-10.6811
▁խմբում	-10.6814
ադի	-10.6814
կոր	-10.6815
▁fun	-10.6816
▁Բան	-10.6818
▁Ժան	-10.6819
▁ճարտարապետ	-10.6823
▁գանձ	-10.6825
▁ուտել	-10.6825
▁ընտանիքին	-10.6826
▁առաջինը	-10.6826
▁հանդիպումների	-10.6828
▁առաջնությունը	-10.683
▁հնչում	-10.6831
բաց	-10.6832
▁գիտեք	-10.6832
▁կրոն	-10.6834
▁Հրաչյա	-10.6841
▁ֆուտբոլիստը	-10.6842
ne	-10.6843
կում	-10.6851
▁վերանորոգված	-10.6851
▁քննարկելու	-10.6855
▁Քննչական	-10.6862
▁վկայակոչելով	-10.6862
man	-10.6862
▁Մո	-10.6863
ion	-10.6864
▁կառույցի	-10.6865
▁Կոդ	-10.6869
▁սպորտային	-10.6872
▁վիրավորվել	-10.6872
▁վեբ	-10.6875
▁վերանորոգման	-10.6876
հետ	-10.6877
ay	-10.6877
▁հրաժարվում	-10.6877
▁անհրաժեշտությունը	-10.6883
ա՛	-10.6886
▁ձյուն	-10.6888
▁Ղարաբաղյան	-10.689
▁Թուրք	-10.6891
az	-10.6891
▁պատճենե	-10.6891
▁դանդաղ	-10.6893
▁Արդ	-10.6899
▁Անվտանգության	-10.6899
▁ժողովրդավարության	-10.6899
▁հեշտությամբ	-10.6902
▁Դեկտեմբեր	-10.6903
▁երազում	-10.6912
▁դարձ	-10.6913
▁գնահատականը	-10.6914
▁խոշորագույն	-10.6915
=	-10.6919
տին	-10.6921
▁լքել	-10.6924
▁վերցնում	-10.6925
▁Արփինե	-10.6925
▁պրո	-10.6926
т	-10.6927
▁Մայիս	-10.6931
▁տվեք	-10.6939
ԱՀ	-10.6941
▁Ռուսաստանից	-10.6941
▁կենսաթոշակային	-10.6943
▁փաստաթղթի	-10.6947
▁էլ՝	-10.6948
▁տարբերակներ	-10.6953
ատոր	-10.6954
▁աճում	-10.6957
▁դադարեցնել	-10.6959
▁հետեւանքներ	-10.6961
Ալ	-10.6961
▁ռեկորդ	-10.6963
▁մշակ	-10.6965
կմ	-10.6969
▁Շնորհակալություն	-10.6971
▁պահպանում	-10.6972
ԵՑ	-10.6973
▁ընթացք	-10.6974
▁տոկոսի	-10.6976
ագրական	-10.6977
▁մեքենաներ	-10.6977
▁թանգարանի	-10.6979
▁վարչապետին	-10.6979
▁ահաբեկչության	-10.6989
▁վերականգնել	-10.6991
▁հետազոտության	-10.6992
▁սահմանի	-10.6992
▁աչքերը	-10.6998
▁գլոբալ	-10.7
▁թանկարժեք	-10.7
ly	-10.7001
▁տեղումների	-10.7001
ա՜	-10.7005
▁հրավիրված	-10.7006
▁ամ	-10.7006
▁Գայանե	-10.701
▁աս	-10.7013
▁Հոկտեմբեր	-10.7015
▁պատկերը	-10.7016
▁կաթ	-10.702
▁կարիքների	-10.7021
▁ավտոմեքենա	-10.7026
▁Կրթության	-10.7032
▁մեկտեղ	-10.7033
▁Աբ	-10.7039
▁արդյունաբերության	-10.7045
▁կյանքն	-10.7045
▁համագործակցություն	-10.7046
op	-10.705
▁Միեւնույն	-10.7051
իայում	-10.7052
ԻՍ	-10.7054
ցու	-10.7055
▁ձերբակալել	-10.7057
աբնակ	-10.7061
▁հանձն	-10.7062
ы	-10.7064
▁աղմուկ	-10.7064
▁լրատվության	-10.7064
▁Կու	-10.7064
▁Մակ	-10.7069
մալ	-10.707
▁բեմադր	-10.7076
▁անհապաղ	-10.7077
▁համաձայնագիր	-10.7078
▁հասկացա	-10.708
▁դպրոցներում	-10.708
▁Ջորջ	-10.7081
▁Ղ	-10.7082
▁հուշ	-10.7082
▁ճնշում	-10.7086
▁հանգամանքները	-10.709
▁խուսափելու	-10.7092
▁Գեւորգյան	-10.7096
▁ներկայացուցիչներին	-10.7096
▁ՀՖՖ	-10.7102
▁թեկուզ	-10.7102
▁Have	-10.7104
▁ափ	-10.7104
▁քաղ	-10.7104
▁ծանոթացել	-10.7105
▁ծառայ	-10.7107
▁բանակցությունները	-10.7108
▁Գա	-10.7111
արք	-10.7113
▁կետում	-10.7113
▁ոստիկանները	-10.7113
▁ծայր	-10.7115
▁գրքում	-10.7116
▁հեռանալ	-10.7116
▁գիտենք	-10.7118
▁Ընտր	-10.7118
իզմ	-10.712
▁պահանջը	-10.712
▁տեսանյութեր	-10.7125
▁զոր	-10.7128
▁Առաքելական	-10.7134
▁ուժեր	-10.7134
երս	-10.7135
▁րոպեին	-10.7139
▁մեկնաբան	-10.714
Մեծ	-10.7144
▁քայլերի	-10.7145
թյուն	-10.7145
▁կայացման	-10.7148
▁գործընթացների	-10.7148
▁Մարկ	-10.7152
▁արտա	-10.7152
▁ավտոմատ	-10.7153
▁ԿԸՀ	-10.7153
▁նավթի	-10.7154
▁ափին	-10.7154
▁կտան	-10.7154
ամի	-10.7155
▁պահանջով	-10.7156
▁տարածվում	-10.7159
▁Մեսրոպ	-10.7159
▁Մոտ	-10.7163
▁ամռանը	-10.7164
▁Կանադայի	-10.7165
▁ոտքի	-10.7175
իկներ	-10.7176
▁խմբեր	-10.7177
▁բյուջետային	-10.7179
▁հեքիաթ	-10.718
ագրություն	-10.7181
▁ենթակառուցվածքների	-10.7182
▁ամսին	-10.7184
▁հանրաքվեի	-10.7186
▁Ավան	-10.7189
▁Միհրան	-10.7192
դալ	-10.7193
▁լուս	-10.7193
▁կյանքից	-10.7195
եւը	-10.7199
ոդ	-10.7199
▁հիմնադրվել	-10.7201
▁դր	-10.7203
▁Hay	-10.7204
սմ	-10.7204
est	-10.7212
▁մամլո	-10.7212
▁լաց	-10.7212
րած	-10.7214
▁հարցման	-10.7214
▁Խոշոր	-10.7218
▁մեկնարկեց	-10.7218
▁կատարվող	-10.722
▁Շարմազանով	-10.7227
▁Նախորդը	-10.7228
▁եվ	-10.723
▁Meet	-10.7231
▁երկարաժամկետ	-10.7231
▁Վարչապետի	-10.7232
▁մամուլում	-10.7234
▁կարգավորող	-10.7234
▁​	-10.7235
գե	-10.7235
▁Տեղի	-10.7237
▁&	-10.7241
▁սեմինար	-10.7242
▁հնարավորությունների	-10.7242
բայ	-10.7243
▁Դիտումներ	-10.7245
տանի	-10.7248
▁նկարահանվել	-10.7251
▁ջանքեր	-10.7251
▁փոխանցմամբ՝	-10.7252
▁դրսեւորում	-10.7258
▁ժամկետի	-10.7259
▁ժառանգ	-10.7261
▁Տո	-10.7262
Արցախ	-10.7262
▁հարցերում	-10.7263
▁վրայ	-10.7264
▁Մարիա	-10.7264
▁Մանուկյանի	-10.7268
▁Yerevan	-10.7269
ce	-10.727
▁ռ	-10.7271
գյուղ	-10.7275
Q	-10.7276
▁Պո	-10.7279
▁ողբերգական	-10.7283
▁հետեւանք	-10.7283
▁ուղարկվել	-10.7283
ոֆ	-10.7287
▁օդի	-10.7291
ասի	-10.7292
՞ք	-10.7293
▁Նույնիսկ	-10.7293
▁արդյունքներ	-10.7293
▁գաղտնիք	-10.7294
▁մտահոգ	-10.7295
▁Պետրոսյանի	-10.7296
▁ստորեւ	-10.7297
▁հոգին	-10.7298
▁որոշումն	-10.7299
իստական	-10.73
▁ոլորտը	-10.7302
▁Ֆինանսական	-10.7311
▁ինչի՞	-10.7313
▁օրոք	-10.7316
▁հրաժարականի	-10.7316
▁Ֆրանկոֆոնիայի	-10.7319
▁անձն	-10.732
▁կասեցված	-10.7323
▁թեժ	-10.7323
ՐԱ	-10.7324
▁ինքնաթիռ	-10.7324
պա	-10.7326
▁Արտաքին	-10.7326
▁գրանցում	-10.7328
▁ցուցահանդեսը	-10.733
▁Մելիք	-10.7332
▁հի	-10.7334
ո՞ւ	-10.7339
նեք	-10.7342
▁կորած	-10.7342
▁հաճույք	-10.7343
AN	-10.7345
▁հաջորդող	-10.7345
▁հետաքրքրում	-10.7345
▁Ժիրայր	-10.7348
▁ընտրություններից	-10.7348
▁մեծամասնությունը	-10.7348
▁ոլորտների	-10.7348
▁քսան	-10.735
▁ծնունդ	-10.7351
էս	-10.7352
ատեսակ	-10.7353
▁Սիր	-10.7356
▁Պատրաստ	-10.7357
Համայնք	-10.7358
▁օգուտ	-10.7358
▁կմասնակցի	-10.7361
▁ներկայաց	-10.7361
բու	-10.7362
▁դատավորի	-10.7364
▁ուղղել	-10.7366
▁թվականների	-10.7368
խտ	-10.7372
▁տխուր	-10.7374
▁իրավասու	-10.7378
իչների	-10.7379
▁նրանով	-10.7379
▁Ուր	-10.7382
▁բոլորիս	-10.7382
▁էիք	-10.7388
▁պահը	-10.7389
▁կառուց	-10.7391
▁Կապ	-10.7391
▁Ավետիսյան	-10.7392
▁հն	-10.7392
▁Հաջորդը	-10.74
▁դատապարտել	-10.7402
▁Նի	-10.7408
▁Իվան	-10.7409
▁Ղազախստանի	-10.741
▁սարքեր	-10.7411
▁լիազորված	-10.7412
▁առհասարակ	-10.7414
▁ուսուցիչ	-10.7419
▁գոտի	-10.7424
▁հագեցած	-10.7425
▁ձեւավորվել	-10.7427
▁կանցկացվի	-10.7427
▁օրինակ՝	-10.7428
▁երգում	-10.7429
իսկ	-10.7432
▁բոլորն	-10.7435
ադիր	-10.7436
ակցություն	-10.7437
▁եզակի	-10.744
▁մեղք	-10.7441
▁Լուս	-10.7442
▁Յունայթեդի	-10.7446
▁հանրապետությունում	-10.7448
▁եթեր	-10.7456
▁նկատում	-10.7462
▁to	-10.7463
▁ձայների	-10.7464
րակ	-10.7466
վաճառք	-10.7466
▁գների	-10.7467
Photo	-10.7467
▁ձեռքբերման	-10.7467
▁ծառայում	-10.7475
▁մտնելու	-10.7477
▁Հեր	-10.748
▁զերծ	-10.748
▁սառը	-10.7482
▁Մաքսային	-10.7483
de	-10.7487
▁Իրականում	-10.749
▁գիտակցում	-10.7492
▁պետքարտուղար	-10.7493
▁անվտանգությունը	-10.7501
▁առաջացած	-10.7501
▁վերաքննիչ	-10.7507
▁Էդգար	-10.7507
▁Երբեմն	-10.7508
Բարսելոնան	-10.7508
▁պաշտպանում	-10.7509
▁ձեռքի	-10.7511
▁ստանձնել	-10.7515
Gold	-10.7521
▁տեղափոխ	-10.7522
▁ամփոփում	-10.7524
▁հետեւողական	-10.7529
▁նվերներ	-10.7532
▁շենքերի	-10.7532
▁←	-10.7534
հուն	-10.7534
ՈՒՐ	-10.7535
կը	-10.7536
▁օգնությունը	-10.7539
▁մեկը՝	-10.7543
▁խորհուրդներ	-10.7543
▁Կարապետյանն	-10.7546
▁բազում	-10.7548
▁նախարարությունում	-10.7548
▁Նշված	-10.7552
▁ընկերական	-10.7553
Քաղաքացիական	-10.7554
▁ստուգ	-10.7559
▁Արդյո՞ք	-10.7567
▁Քիչ	-10.7571
▁ունենան	-10.7571
▁հիշ	-10.7573
▁համակարգեր	-10.7576
ագիրը	-10.758
▁Պատասխան	-10.7581
м	-10.7584
▁գիտնական	-10.7586
▁անձին	-10.7586
▁Քեզ	-10.7593
▁հետ՝	-10.7596
sh	-10.7598
▁մրցաշրջանում	-10.76
mo	-10.76
Զվարթնոց	-10.76
▁դեպքում՝	-10.7601
▁ակցիայի	-10.7601
▁Ֆուտբոլի	-10.7603
▁դաշտի	-10.7611
▁բռնել	-10.7611
▁դստեր	-10.7617
▁վարչություն	-10.7618
տում	-10.7618
▁Վստահ	-10.7622
▁b	-10.7623
▁մատուցել	-10.7624
▁համանախագահ	-10.7626
ոխ	-10.763
▁Սեւակ	-10.7636
թող	-10.7636
սու	-10.7636
▁նորմատիվ	-10.7641
▁կրթահամալիր	-10.7641
▁բացակայում	-10.7641
▁Յա	-10.7642
▁Y	-10.7643
ողության	-10.7644
▁Աշխատ	-10.7644
▁տեխնիկա	-10.7646
н	-10.7646
▁փոր	-10.7649
▁ճգնաժամի	-10.765
▁Մխիթար	-10.7651
▁գնի	-10.7651
ՀԿ	-10.7651
վենք	-10.7653
▁արտադրական	-10.7655
▁միջոցառումները	-10.7655
▁կատարյալ	-10.7655
▁Աստծու	-10.7657
▁դիմումի	-10.7659
▁ղեկավարությունը	-10.766
▁հաջողությամբ	-10.7662
▁ոստիկանություն	-10.7667
▁երաշխավոր	-10.7667
▁Գուցե	-10.7669
ver	-10.7675
▁Չեն	-10.7675
▁մասնակցող	-10.7676
▁գիծ	-10.7677
▁թափանցիկ	-10.7678
թոն	-10.7679
▁կիրառում	-10.768
▁Հետեւաբար	-10.7682
րում	-10.7683
▁մեկնաբանություններ	-10.7685
անկար	-10.7685
▁Խաչատուր	-10.7687
ույց	-10.7688
▁առաջացման	-10.7688
os	-10.7689
▁տիրապետում	-10.7693
ջա	-10.7693
▁խմել	-10.7695
▁կրակի	-10.7695
▁ուղարկեք	-10.7695
▁տիրող	-10.7699
▁հղի	-10.7699
▁հրաշք	-10.77
ers	-10.7707
ac	-10.7708
▁Նախարար	-10.7708
▁Խաղ	-10.7711
▁համայնքը	-10.7711
մտ	-10.7712
ջան	-10.7713
▁բացահայտում	-10.7714
▁կաթողիկոս	-10.7722
▁փառք	-10.7723
▁հեռանում	-10.7724
▁ելք	-10.7729
▁սպաս	-10.773
Բայց	-10.7732
▁քաղաքացիություն	-10.7733
▁ուրբաթ	-10.7733
▁ղեկավարում	-10.7734
▁դարպասապահ	-10.7736
▁նահանգ	-10.7739
▁շուկա	-10.774
▁պատճառները	-10.774
▁ֆիլմեր	-10.7745
կենտրոն	-10.7745
▁ստեղծ	-10.7748
▁ֆոնդի	-10.775
▁ինքներդ	-10.775
▁ներկայացել	-10.7753
րեմ	-10.7755
ավանք	-10.7756
▁ԶՈՒ	-10.776
▁խոստովանել	-10.7761
▁ջ	-10.7761
▁տարածքներ	-10.7762
▁տանող	-10.7762
▁Դմիտրի	-10.7763
իտալ	-10.7765
▁տարածաշրջան	-10.7766
▁հիմն	-10.7767
աշար	-10.777
▁գրավում	-10.7772
▁and	-10.7772
j	-10.7772
▁որակը	-10.7775
▁դեսպանը	-10.7776
▁բովանդակությամբ	-10.7777
▁անդրադարձավ	-10.7778
▁Խոր	-10.778
▁Re	-10.7783
▁Հրապարակ	-10.7784
lur	-10.7785
▁իրադարձությունները	-10.7788
▁դեմքը	-10.779
ՄԻ	-10.7791
▁կորցնում	-10.7791
բուրգ	-10.7792
▁քաղաքից	-10.7795
▁տվյալներով՝	-10.7797
▁հանդերձ	-10.7799
▁գտն	-10.78
բեն	-10.7802
▁խորհրդակցություն	-10.7802
▁ալիք	-10.7803
▁ամսագրի	-10.7804
▁իրավապաշտպան	-10.7804
▁խոստանում	-10.7804
▁ակադեմիական	-10.7805
▁բակ	-10.7806
▁համեղ	-10.7808
▁ճամբար	-10.7809
▁Տարբեր	-10.7811
▁Իրանում	-10.7812
▁հոգեբան	-10.7814
▁դատախազի	-10.7815
▁ամենակարեւոր	-10.7819
▁կեր	-10.7822
սպ	-10.7828
քննարկում	-10.7831
▁ազնիվ	-10.7832
▁իրականության	-10.7832
▁Գյումրիի	-10.7834
ացիոն	-10.7835
▁իրադարձություններ	-10.7835
▁կազմակերպությունները	-10.7836
▁Հանձնաժողովի	-10.7836
Ժառանգություն	-10.7842
ter	-10.7842
▁ասացի	-10.7843
▁սիրված	-10.7845
▁սիրիական	-10.7846
▁ներկայացում	-10.7848
▁ո՞րն	-10.7849
▁առաջարկություններ	-10.7849
Ինտեր	-10.7851
AR	-10.7851
ci	-10.7856
ունդ	-10.7858
▁Ներկայումս	-10.7858
▁հանում	-10.7858
od	-10.7859
▁Արծրուն	-10.7859
▁ուշագրավ	-10.7859
▁հրաժեշտ	-10.7859
▁Հայրապետյանը	-10.786
▁Կարինե	-10.786
с	-10.786
▁փոխվում	-10.7862
▁Եղ	-10.7862
այր	-10.7865
▁փոխանակման	-10.7866
▁համալիրի	-10.7867
ագրեր	-10.7868
շրջ	-10.7868
▁Տեսանյութ	-10.787
Բարսելոնա	-10.7872
▁խոչընդոտ	-10.7876
▁Գիտ	-10.788
▁հագուստ	-10.7882
▁սպորտ	-10.7886
▁ազդել	-10.7887
▁կուրս	-10.7888
ոշ	-10.7893
ցուց	-10.7895
▁վթար	-10.7897
▁սպանվել	-10.7899
▁հավելվածի	-10.7899
▁տհաճ	-10.7901
▁մասամբ	-10.7902
▁հայտնաբերված	-10.7902
▁Հան	-10.7904
▁պահեստ	-10.7905
▁Մկրտչյան	-10.7907
Եվ	-10.7908
▁համաձայնություն	-10.7909
▁որդուն	-10.791
▁Հասարակական	-10.7912
▁Հաճախ	-10.7917
▁Վալերի	-10.7919
▁առկայությունը	-10.7919
▁հասավ	-10.7919
▁վարչությունում	-10.7921
▁կողմում	-10.7922
▁պաշտպանելու	-10.7923
Մխիթար	-10.7924
▁միջադեպի	-10.7924
▁ընկալում	-10.7925
▁շահույթ	-10.7926
▁Կոմիտաս	-10.7928
▁իրանական	-10.7931
▁օբյեկտների	-10.7935
▁Իտալիա	-10.7936
▁դուստր	-10.794
▁թիրախ	-10.7941
▁կինոյի	-10.7942
▁մեղադրում	-10.7942
▁օրաթերթը	-10.7942
▁պատժամիջոցների	-10.7944
▁ներկայացվող	-10.7945
▁կրակոցներ	-10.7948
▁գործիքներ	-10.7948
▁ուղին	-10.7948
▁ԱԱ	-10.7954
Ալաշկերտ	-10.7956
▁ժամանակներում	-10.7956
ակներ	-10.7957
▁մարդասիրական	-10.7958
▁ամուսինը	-10.7958
Ինձ	-10.796
▁էր՝	-10.7961
▁միությունը	-10.7964
▁ատյանի	-10.7968
▁կապը	-10.7969
▁օդային	-10.797
▁մանդատ	-10.7973
▁կազմակերպ	-10.7975
▁Գերմանիա	-10.7975
▁հիմնադր	-10.7979
պարտ	-10.7982
▁Սոցիալական	-10.7983
▁անուններ	-10.7983
▁պոտենցիալ	-10.7984
կյան	-10.7985
▁ՏԻՄ	-10.7986
▁կատար	-10.7988
▁կառավարությանը	-10.7992
▁are	-10.7992
▁սկզբից	-10.7994
▁վերահսկողություն	-10.7996
▁Պապ	-10.7996
▁աշակերտները	-10.7997
▁հասցեն	-10.7998
▁հատոր	-10.7998
▁փախստականների	-10.7999
▁անիմաստ	-10.7999
▁բժիշկների	-10.8
▁մրցաշրջանի	-10.8
▁ենթարկվում	-10.8002
▁Փարիզ	-10.8004
երորդ	-10.8006
աժ	-10.8007
ստա	-10.8009
ոցի	-10.8013
եթե	-10.8014
ությ	-10.8014
▁հիվանդություն	-10.8018
▁օգտագործելու	-10.8019
▁հիվանդանոցում	-10.802
▁Աշխարհ	-10.8024
▁ստիպում	-10.8025
▁HTML	-10.8026
▁հավաքված	-10.8029
▁տրամադրվում	-10.803
▁հրապարակային	-10.8036
ադա	-10.8037
▁հավանություն	-10.8038
▁քառ	-10.8039
▁հաշիվ	-10.8041
ԱԾ	-10.8044
▁կստանան	-10.8046
Արսենալի	-10.8047
▁Ճապոնիայի	-10.805
արձակ	-10.8051
▁գոտու	-10.8053
▁աշխատակից	-10.8053
րատ	-10.8054
▁Մոսկվան	-10.8056
▁այդտեղ	-10.8057
▁ԳԱ	-10.8058
▁արգելոց	-10.8058
▁սարքավորումների	-10.8059
▁վստահություն	-10.8063
▁մտահոգություն	-10.8067
▁Սիրելի	-10.8068
վալ	-10.8068
▁պաշտպանված	-10.8071
▁ձգ	-10.8073
▁ստվեր	-10.8073
▁քարոզարշավի	-10.8074
շն	-10.8075
л	-10.8078
▁գործարանի	-10.8081
▁Բանկ	-10.8082
▁եզր	-10.809
▁հաղորդագրություն	-10.8093
é	-10.8097
▁զբաղեցրել	-10.8097
եկան	-10.8103
▁կետը	-10.8103
նայի	-10.8103
ov	-10.8104
▁հեղափոխություն	-10.8104
▁Դար	-10.8105
▁աղջկան	-10.8106
▁մարզերի	-10.8107
▁շտեմարան	-10.8111
▁Վարկանիշ	-10.8111
▁կարգավիճակի	-10.8111
▁Ավետիսյանը	-10.8114
▁ֆիլմում	-10.8119
ամերիկյան	-10.812
▁ամրապնդման	-10.8121
▁աշխարհին	-10.8123
▁հմտություններ	-10.8124
▁ձեւավորել	-10.8126
▁վարկանիշ	-10.8129
▁Ցանկացած	-10.8131
▁մեթոդ	-10.8134
▁պատերազմում	-10.8134
▁վախ	-10.8135
▁Կարելի	-10.8136
քով	-10.8137
▁օգտվելու	-10.8139
▁արդյունաբերական	-10.814
▁ցեղասպանություն	-10.814
▁ապրանք	-10.8142
▁վարկերի	-10.8143
▁ապրիլին	-10.8146
▁նկարել	-10.8147
▁Համայնքի	-10.8147
▁հարվածել	-10.815
▁աջակցելու	-10.815
▁ընկերությունները	-10.8151
▁կոնֆերանս	-10.8153
▁մարդկության	-10.8155
▁հանդիպումները	-10.8158
▁բարե	-10.816
▁սն	-10.8164
▁ստուգում	-10.817
▁առաքելության	-10.8173
▁զգացում	-10.8174
▁Լիբանանի	-10.8176
▁տարածվել	-10.8181
▁ընդլայնման	-10.8187
ամա	-10.8189
unk	-10.8189
շու	-10.8189
▁Ստեփանակերտի	-10.819
▁տեսակետ	-10.8193
NEWS	-10.8194
եվ	-10.8194
▁զոհեր	-10.8195
▁օրենսգրքում	-10.8196
▁մեկնաբանություն	-10.8197
▁փոխանցման	-10.8201
▁տուգանք	-10.8202
▁Գեւորգյանը	-10.8202
անիշ	-10.8204
▁հաշիվը	-10.8205
▁Փետրվար	-10.8205
▁վերածվել	-10.8208
▁ձեւավորում	-10.8212
▁կային	-10.8214
▁նպատակների	-10.8216
ատեր	-10.822
▁վստահության	-10.8222
ոբ	-10.8225
ՄՏՍ	-10.8225
▁գերմանացի	-10.8227
ղա	-10.8227
▁Daily	-10.8227
▁յուրաքանչյուրը	-10.8236
▁Երվանդ	-10.8239
▁ապրանքներ	-10.824
▁Զոր	-10.8241
ԳՐ	-10.8242
▁Մարտին	-10.8243
▁ՔԿ	-10.8243
▁Դո	-10.8244
ՅԱՆԻ	-10.8246
միջ	-10.8246
▁Խորհուրդ	-10.8249
▁Բի	-10.8251
▁հետեւանքները	-10.8252
ատր	-10.8254
▁էլեկտրաէներգիայի	-10.8255
▁պատասխանատվությունը	-10.8258
▁շքանշան	-10.8262
▁ամենօրյա	-10.8266
▁խոնարհ	-10.8268
▁ԶՈւ	-10.8271
▁Be	-10.8272
▁գլխին	-10.8274
▁կապույտ	-10.8274
▁պարագաներ	-10.8274
▁կանչ	-10.8281
▁հետեւանքների	-10.8281
պր	-10.8282
▁այգում	-10.8286
▁Ռոնալդուն	-10.8289
▁Գալ	-10.829
▁կկարողանա	-10.829
▁սրբ	-10.8294
▁հետո՝	-10.8295
▁ինքնությունը	-10.8295
▁օրենսգրքով	-10.8296
▁մեղադրյալ	-10.8297
▁սկզբնական	-10.8297
▁գնդի	-10.8297
▁թեւ	-10.8303
▁բառի	-10.8305
▁երաշխիք	-10.831
▁գործարան	-10.8316
▁վտանգի	-10.8322
▁հայության	-10.8322
▁Փա	-10.8323
▁բաժան	-10.8325
▁դիմելու	-10.8325
▁խաղաղություն	-10.8325
▁քանդ	-10.8327
J	-10.8328
▁In	-10.8329
▁արագությամբ	-10.833
ոնը	-10.8331
▁Դպրոց	-10.8331
▁աղբյուրների	-10.8332
▁Կանանց	-10.8333
▁ոստիկան	-10.8338
▁Վարդանյանի	-10.834
▁երկուշաբթի	-10.8341
սկու	-10.8342
▁Երկար	-10.8346
▁գտնելու	-10.8346
պիսի	-10.8349
▁հարգանքի	-10.835
▁պատգամավորի	-10.8351
▁պատկերացնել	-10.8351
այս	-10.8354
▁Արոնյանը	-10.8355
▁Այնտեղ	-10.8355
ard	-10.8357
▁բացառում	-10.8359
▁Սո	-10.836
▁Կարո	-10.8363
▁Ներքին	-10.8363
երկր	-10.8364
▁պատգամավորները	-10.8365
▁լա	-10.8368
▁պատճառներով	-10.8372
ինա	-10.8375
▁Մեկնաբանությունները	-10.8377
▁միս	-10.8379
▁օրակարգ	-10.838
▁Փարիզի	-10.8382
▁տեղեկություններով	-10.8383
▁Գյուլ	-10.8384
լուծ	-10.8386
▁Ադրբեջանական	-10.8386
▁խմբային	-10.8391
գու	-10.8392
▁Մու	-10.8392
▁Ռո	-10.8394
▁աչք	-10.8395
▁սեպտեմբեր	-10.8396
ot	-10.8397
Գազպրոմ	-10.8398
▁բարենպաստ	-10.8398
▁թեմայի	-10.8398
Դուք	-10.8399
▁ընդունելով	-10.84
կապ	-10.8402
▁կօգնեն	-10.8404
ֆորմ	-10.8415
▁զույգ	-10.8415
▁հարյուրավոր	-10.8418
▁վերաբերմունքը	-10.8422
▁նամակը	-10.8424
▁ակտիվորեն	-10.8425
խել	-10.8425
▁ազգերի	-10.8425
▁Ռեջեփ	-10.8427
ականներին	-10.843
▁հանցագործություն	-10.8431
վայ	-10.8433
գոր	-10.8434
▁հավելել	-10.8434
խոս	-10.8438
▁հավ	-10.844
▁մրցաշար	-10.8441
▁արեւ	-10.8445
իչներ	-10.8445
▁հեղինակային	-10.8445
▁բնակության	-10.8452
▁արշավ	-10.8455
ka	-10.8459
շեն	-10.8459
իգ	-10.8461
ենս	-10.8461
▁վարույթ	-10.8461
▁կեսը	-10.8464
բուժ	-10.8465
▁սահմանային	-10.8469
անձ	-10.8472
▁գլխ	-10.8474
զմ	-10.8475
▁լեզուների	-10.8476
▁առավելագույնը	-10.8479
▁Ավագ	-10.8482
ՄԱ	-10.8484
▁բաժնետիրական	-10.8486
▁մարդն	-10.8486
▁Լուսավորիչ	-10.8486
▁պահպանվել	-10.8487
▁անվ	-10.8487
▁մոլորակի	-10.8488
▁քաղցկեղի	-10.8488
▁մայրաքաղաքում	-10.8492
շան	-10.8493
▁երկրաշարժի	-10.8497
շե	-10.8497
▁սպան	-10.8497
▁ՍԴ	-10.8497
▁Սոնա	-10.8499
б	-10.85
▁մակերես	-10.8505
▁ամենի	-10.8509
▁խոսքում	-10.8514
▁փորձագետների	-10.8514
▁Սեւանա	-10.8515
▁ցավոք	-10.8516
▁վրաերթի	-10.8517
▁զինվորի	-10.8517
ag	-10.8518
▁Լիգա	-10.8518
▁Գյուղ	-10.8519
Պետրոսյանի	-10.852
▁հասարակություն	-10.8525
▁միջոցը	-10.853
▁մերկ	-10.853
▁սկզբանե	-10.853
▁անտարբեր	-10.8533
▁Այդպես	-10.8538
ացեք	-10.854
▁կալանքի	-10.8541
▁սիրտ	-10.8541
▁հեղինակավոր	-10.8542
ացրած	-10.8542
▁փիլիսոփա	-10.8545
▁ԿԱՌԱՎԱՐՈՒԹՅԱՆ	-10.8545
▁միություն	-10.8546
▁անկում	-10.8547
▁Դոն	-10.8548
▁ցերեկը	-10.8549
▁բժշկի	-10.8549
▁գյուղից	-10.855
օգտագործ	-10.8553
▁լուծումը	-10.8553
▁խորհրդարանը	-10.8555
▁օրաթերթի	-10.8555
▁ավարտ	-10.8555
▁Անհրաժեշտ	-10.8557
▁Կալ	-10.8557
▁Վալ	-10.8557
▁խորհրդանիշ	-10.8558
▁վերոնշյալ	-10.8559
ՐԴ	-10.856
▁հեռախոս	-10.8561
▁այլընտրանքային	-10.8563
▁կենսա	-10.8563
▁գեղեցկության	-10.8563
▁ընտրելու	-10.8564
▁խաղից	-10.8564
մու	-10.8565
▁հայտարարվել	-10.8574
Դե	-10.8576
▁Իտալիայում	-10.8576
▁խախտումների	-10.858
▁խմ	-10.8582
▁գնահատականներ	-10.8584
▁Ձմեռ	-10.8585
▁Տաթեւ	-10.8587
▁Իշխան	-10.859
▁ընդգրկվել	-10.8591
▁Սիթի	-10.8591
▁հերթ	-10.8592
ակների	-10.8593
▁դատի	-10.8596
բին	-10.8597
դել	-10.8598
▁ԱՐ	-10.8598
▁նախարարին	-10.8598
▁համագործակցել	-10.8602
Plus	-10.8604
▁Գիտական	-10.8604
▁տարածքներում	-10.8605
▁երիտասարդներ	-10.8606
ողություն	-10.8608
▁Օգոստոս	-10.8608
նախ	-10.8608
▁գործոն	-10.8609
խր	-10.8612
▁նույնն	-10.8613
▁Գեղ	-10.8617
▁հացադուլ	-10.8619
▁կառուցում	-10.8619
▁Ֆրանսերեն	-10.8619
ացնեն	-10.862
▁Աշոտյան	-10.862
▁կաց	-10.8623
▁մոտեցումներ	-10.8625
▁լիգա	-10.8626
▁թանգարանում	-10.8633
արձան	-10.8633
▁հարկանի	-10.8634
▁Վիկտոր	-10.8639
▁կհ	-10.8639
▁ARM	-10.864
▁արգելված	-10.864
կազմակերպ	-10.8641
▁չափի	-10.8642
▁ողջունել	-10.8647
▁անընդմեջ	-10.8649
▁կարեւորում	-10.865
▁կանոնավոր	-10.8653
▁Ոստիկանությունը	-10.8653
բել	-10.8657
Ադրբեջան	-10.8657
▁վերապատրաստման	-10.8664
▁փողոցների	-10.8664
▁փոխհատուցում	-10.8665
▁գետ	-10.8666
▁հաստատության	-10.8666
▁օգտվում	-10.8668
▁Նիկոլայ	-10.8668
▁Խոսքը	-10.8668
▁համարվող	-10.8674
▁թատերական	-10.8674
▁քանակի	-10.8675
▁կարո՞ղ	-10.8679
▁միջպետական	-10.8679
▁շարժումը	-10.8684
▁երազանք	-10.8684
▁շարժվել	-10.8685
▁պայմանագրային	-10.8686
▁մարզիկ	-10.8688
▁ձեռքով	-10.8688
արտահայտ	-10.8693
▁հեղուկ	-10.8694
▁Ալբերտ	-10.8694
▁երազ	-10.8694
▁փորձեր	-10.8695
▁Մարուքյան	-10.8696
Ռեալը	-10.8701
▁ժամերին	-10.8707
▁ուրախություն	-10.8708
▁բացումը	-10.8708
▁COUNTY	-10.8709
▁Գեր	-10.8709
chat	-10.8714
▁մեջբերում	-10.8718
▁ցուցմունք	-10.8719
▁Հունվար	-10.8722
եսի	-10.873
▁ԿԵՆՏՐՈՆ	-10.8738
▁ստանա	-10.8738
▁ուղարկում	-10.874
▁գնման	-10.8741
▁առեւտուր	-10.8741
▁մարզպետի	-10.8741
▁Երեխաների	-10.8742
▁ստեղծվում	-10.8745
▁խառնում	-10.875
▁տղայի	-10.8753
▁սահմանամերձ	-10.8754
▁պատասխանատվությամբ	-10.8754
աթափ	-10.8756
տատ	-10.8757
ba	-10.8758
Մարաշ	-10.8764
▁ճանաչ	-10.8764
▁նվազում	-10.8765
▁աղբյուրը	-10.8765
▁վերացման	-10.8766
▁նստ	-10.8769
▁իրավաբան	-10.8773
▁տեղեկությունը	-10.8776
▁կրակոց	-10.8781
vi	-10.8781
▁պատրաստման	-10.8782
ine	-10.8782
▁Երեք	-10.8784
▁հանրակրթական	-10.8784
ովան	-10.8784
da	-10.8785
▁Գիտությունների	-10.8785
Ամեն	-10.8789
▁Հունաստանի	-10.8789
▁Le	-10.8792
▁գցել	-10.8792
▁ազատել	-10.8792
▁Թու	-10.8793
▁գոլի	-10.8795
▁Բաքու	-10.8795
▁Վրաստանը	-10.8797
դաս	-10.8798
▁Հարկ	-10.8802
▁կառավարական	-10.8807
▁դադար	-10.8807
▁արտադրություն	-10.8808
▁պահանջներ	-10.8809
յոն	-10.881
▁գույքը	-10.8812
▁՛՛	-10.8815
▁Ֆա	-10.8815
▁հարկադիր	-10.8816
▁դեմքեր	-10.8818
▁խո	-10.882
պէս	-10.8825
▁հետեւ	-10.8826
▁տուժել	-10.8827
▁խախտումներ	-10.8828
▁հիշատակի	-10.8828
▁համարձակ	-10.8828
կոտ	-10.8828
▁բյուջեն	-10.8829
▁Continue	-10.883
▁կներկայացնի	-10.883
մոտ	-10.883
արանը	-10.8832
▁Վերջերս	-10.8832
ացիայի	-10.8832
▁նյութը	-10.8834
ho	-10.8834
▁կառուցվածք	-10.8839
խմբ	-10.8839
ni	-10.8839
ab	-10.884
▁գործարքների	-10.8844
▁ակտի	-10.8844
ct	-10.8846
▁համակարգչի	-10.8846
▁ոռոգման	-10.8847
▁այր	-10.8848
▁ընկերություններ	-10.885
▁Արարատյան	-10.885
Իրան	-10.8851
▁ինստիտուտը	-10.8851
▁ճյուղ	-10.8852
▁հր	-10.8856
քա	-10.8857
ֆիկ	-10.8857
▁պահանջվում	-10.8858
▁մեկնարկը	-10.8858
շկ	-10.8861
▁վաստակել	-10.8861
▁հեռանկար	-10.8867
▁Թիմ	-10.8868
▁ուղղություններով	-10.8873
▁արդի	-10.8873
▁պահպանելու	-10.8873
ալու	-10.8875
▁գործունեությամբ	-10.8875
▁յուրօրինակ	-10.8876
▁փորձաքննության	-10.8876
▁ասուլիս	-10.8876
րոս	-10.8877
▁նշանակ	-10.8879
▁կարգավորում	-10.8881
▁մտավոր	-10.8881
▁հավատալ	-10.8885
▁կողմն	-10.8888
գիտ	-10.8889
▁բրոնզե	-10.889
ցել	-10.8895
վր	-10.8895
▁մարմիններին	-10.8895
ակազմ	-10.8895
պատրաստ	-10.8898
▁հուշարձան	-10.8898
գել	-10.8898
պատմ	-10.8898
▁Շուշան	-10.8901
▁տոմս	-10.8901
▁զբաղեցնելու	-10.8903
մեղ	-10.8905
▁վան	-10.8905
▁գնելու	-10.8905
արական	-10.8906
▁Բնակարան	-10.8906
▁արա	-10.8906
▁վիդեո	-10.8912
▁Պարզվել	-10.8912
▁նավ	-10.8917
▁պատկերված	-10.8917
▁կլոր	-10.8917
▁պարտավորությունները	-10.8917
պորտ	-10.8918
արգ	-10.8922
▁աշխատավարձը	-10.8924
յից	-10.8929
▁պայմանավորվածություն	-10.893
▁քննությունը	-10.893
▁Նե	-10.8934
▁աղոթք	-10.8935
▁բանաձեւ	-10.8936
ացիա	-10.8939
▁բազմազան	-10.8939
▁Իսլամական	-10.8941
անը	-10.8942
▁հարավային	-10.8943
▁մեծագույն	-10.8944
▁տվեցին	-10.8946
▁լինենք	-10.8946
▁պատգամավորը	-10.8949
▁եպիսկոպոս	-10.8952
▁համոզմունք	-10.8952
der	-10.8955
▁Մշակույթի	-10.8958
▁փորձեց	-10.896
▁Գու	-10.8961
▁Սայաթ	-10.8964
▁քաղցր	-10.8964
▁վավեր	-10.8966
▁հերքում	-10.8968
արկում	-10.8972
▁ամփոփ	-10.8972
▁գնդապետ	-10.8973
▁National	-10.8973
▁ամենուր	-10.8973
▁քննիչ	-10.8977
▁եկամուտ	-10.898
▁տատիկ	-10.8982
▁Armenian	-10.8982
▁Հունիս	-10.8982
▁երկարատեւ	-10.8983
▁ամպրոպ	-10.8983
▁Posted	-10.8983
▁անչափահաս	-10.8985
▁տեսարան	-10.8985
▁գյուղապետ	-10.8987
▁տեքստային	-10.899
▁ծեծի	-10.8991
▁բնակ	-10.8993
▁գույն	-10.8995
▁սկիզբը	-10.8995
▁Օհանյանը	-10.8996
▁մաքր	-10.8997
▁ավարտը	-10.8998
▁Լրատվական	-10.8998
▁հանգստ	-10.8998
▁·	-10.8999
▁հեղինակություն	-10.8999
▁հարցազրույցը	-10.9003
▁Ալի	-10.9003
▁Կազմակերպության	-10.9006
▁գործարարների	-10.9008
▁f	-10.9009
▁գրասենյակը	-10.9012
▁սուրճ	-10.9012
ստրա	-10.9013
▁Վերաքննիչ	-10.9014
▁անցկացվեց	-10.9014
▁կա՛մ	-10.9016
▁շտաբ	-10.9018
Հա	-10.902
▁գործունեությանը	-10.9021
▁ժամկետ	-10.9022
դը	-10.9023
որդի	-10.9025
հայտ	-10.9028
կայանքներով	-10.9029
▁Հստակեցնել	-10.9029
կեն	-10.903
▁գնորդ	-10.9032
▁կտր	-10.9032
▁Pro	-10.9033
▁բուռն	-10.9034
▁ռեսուրս	-10.9035
▁տարածման	-10.9037
г	-10.9043
▁ընտրող	-10.9044
▁հնագույն	-10.9045
▁նախաձեռնող	-10.9046
▁նույնքան	-10.9051
▁զբոսաշրջիկների	-10.9052
չում	-10.9052
▁կողմից՝	-10.9054
▁ընդգրկում	-10.9055
ill	-10.9056
▁Կապանի	-10.9057
տուր	-10.906
▁միանալ	-10.9062
եանը	-10.9063
իկյան	-10.9064
▁հեղափոխական	-10.9065
▁Սիմոնյանը	-10.9066
▁Աբրահամ	-10.9067
▁ԱԱՀ	-10.9069
▁բնակչությունը	-10.9069
կայի	-10.9071
▁կառավարությանն	-10.9072
▁գործողությունը	-10.9073
րանց	-10.9074
գալ	-10.9078
▁զարգացած	-10.9079
▁Հասարակություն	-10.9081
▁Վանաձորում	-10.9081
▁Որովհետեւ	-10.9082
▁սովորող	-10.9083
▁տարածած	-10.9083
▁օդանավակայանում	-10.9084
▁համագործակցում	-10.9084
▁Տեղադրել	-10.9085
եցրել	-10.9087
▁կլ	-10.9087
▁սեռի	-10.9087
▁միջավայրում	-10.9089
▁կշարունակի	-10.9092
▁ավտոմեքենաների	-10.9092
Ռուսաստան	-10.9093
▁ջանքերը	-10.9094
▁Ղազարյանը	-10.9094
▁լրացում	-10.9095
▁նշանակելու	-10.9097
▁գավառում	-10.9098
▁բնականոն	-10.9102
▁ուսման	-10.9102
▁Տա	-10.9104
▁բացվեց	-10.9105
▁Ռաֆայել	-10.9107
▁Դեսպան	-10.9108
▁Շա	-10.9108
hy	-10.9109
▁Հասան	-10.9111
▁դիտ	-10.9112
▁ստիպել	-10.9115
կել	-10.9116
▁տեսանյութը	-10.9117
org	-10.9118
▁գրողների	-10.9122
▁Հր	-10.9123
▁Սահակյան	-10.9123
բոր	-10.9124
▁հյուրընկալ	-10.9128
կով	-10.9129
ժամանակ	-10.913
▁ֆրանսերեն	-10.9133
▁չի՞	-10.9136
▁հետազոտական	-10.9136
▁Աշխատանքի	-10.9139
▁ՆՈՐ	-10.9141
▁ընդդիմություն	-10.9141
▁ֆուտբոլիստի	-10.9143
▁խմելու	-10.9143
անալով	-10.9144
▁պարբերականը	-10.9144
▁բանը	-10.9144
▁փնտրել	-10.9146
▁ուղերձը	-10.9149
▁զինվորների	-10.9151
▁ականջ	-10.9152
▁սովորողների	-10.9154
▁Կաթողիկոս	-10.9154
▁իտալական	-10.9155
▁քր	-10.9156
▁պրոդյուսեր	-10.9156
▁քառորդ	-10.9156
▁հատվածներում	-10.9157
ազատ	-10.9158
▁դիտարկել	-10.916
▁դեկտեմբերին	-10.9161
▁գերեզման	-10.9162
▁զբաղվելու	-10.9163
▁մշակույթը	-10.9164
▁լող	-10.9169
▁բովանդակության	-10.917
սուն	-10.917
▁ճշտ	-10.9171
▁մերժում	-10.9171
▁մասնակի	-10.9173
ընդ	-10.9173
Սփյուռք	-10.918
▁արեւային	-10.9182
▁նախընտրում	-10.9183
▁Առավել	-10.9185
▁ճնշման	-10.9186
ակերպ	-10.9188
▁կատարումը	-10.9188
▁դրվել	-10.919
▁պատմաբան	-10.9194
▁ՊՍԺ	-10.9195
▁սահմանվել	-10.9197
▁արտադրանք	-10.92
լամ	-10.9202
▁հանգ	-10.9204
▁քննադատ	-10.9206
▁վարկի	-10.9208
▁ՀԵՏ	-10.9208
անս	-10.9218
▁հսկողություն	-10.9219
▁իրավունքով	-10.922
▁Ֆուտբոլ	-10.9222
▁պատժամիջոցներ	-10.9222
▁հակառակը	-10.9225
▁արդյունքի	-10.9226
▁համանախագահների	-10.9228
▁մահը	-10.9228
▁Փոխ	-10.9233
▁շահագրգիռ	-10.9233
▁պարգեւատրվել	-10.9233
▁ծախսել	-10.9235
▁նաեւ՝	-10.9239
▁զինծառայողի	-10.9239
▁Մեծի	-10.9239
▁չեզոք	-10.924
▁ուսանողներին	-10.924
io	-10.9242
երկու	-10.9243
▁Օրինակ՝	-10.9243
▁պայմանագրերի	-10.9243
▁ՖՈՏՈՌԵՊՈՐՏԱԺ	-10.9244
▁Աբովյանի	-10.9247
art	-10.9247
▁պետը	-10.9247
իկների	-10.9248
▁խմբավորման	-10.9249
▁տնտեսագետ	-10.9249
▁բխում	-10.925
gr	-10.9251
ԱՆԻ	-10.9252
▁կենցաղային	-10.9254
▁պատկերացում	-10.9255
▁մասնակցեց	-10.9255
ակիր	-10.9256
ՄԿ	-10.9257
▁ձայներ	-10.926
▁թեմա	-10.926
▁որքանով	-10.926
ակում	-10.926
▁անհաջող	-10.9261
▁խաղին	-10.9262
▁ապահովության	-10.9263
▁Sh	-10.9263
~	-10.9265
▁միանգամայն	-10.9265
▁միջոցառմանը	-10.9266
▁տեղաշարժ	-10.9268
ation	-10.9273
ակցի	-10.9276
անուն	-10.928
▁here	-10.9281
▁կերպար	-10.9284
▁քվե	-10.9285
▁Ընկերությունը	-10.9285
Գլխաւոր	-10.9286
▁բժիշկները	-10.9288
ԵՆՔ	-10.9288
▁առաքելությունը	-10.9289
▁շար	-10.9293
ԱՎՈՐ	-10.9293
▁շատերի	-10.9296
▁հետաքննություններ	-10.9296
▁Վճռաբեկ	-10.9297
▁Անշարժ	-10.9297
all	-10.9302
ԻՄ	-10.9305
աձոր	-10.9308
▁Մարի	-10.9309
▁Էջմիածնում	-10.9313
դես	-10.9313
▁անցում	-10.9314
▁առաջադրել	-10.9316
▁Հանրապետությունը	-10.9319
▁երաժիշտ	-10.9321
▁տեղեկանք	-10.9322
բուս	-10.9322
▁կառավարությունն	-10.9325
Սեբաստիա	-10.9328
▁աւելի	-10.9329
▁Տէր	-10.9332
▁Օսմանյան	-10.9332
▁ապահովումը	-10.9332
▁ոստիկանների	-10.9333
▁o	-10.9334
▁Ջա	-10.9334
▁կազմակերպվում	-10.9335
▁դահլիճ	-10.9341
Զեյթուն	-10.9344
▁բացահայտումներ	-10.9345
▁վնասակար	-10.9345
▁կարեւորությունը	-10.9346
▁Mercedes	-10.9346
▁բնութագրերը	-10.9347
ti	-10.9348
▁կադրեր	-10.935
ap	-10.9355
▁պի	-10.9357
▁դատ	-10.936
ֆին	-10.936
▁զարգանում	-10.9361
ուղեծրի	-10.9361
▁Ջեյմս	-10.9361
▁անչափ	-10.9363
▁հարձակվել	-10.9363
հեռ	-10.9364
▁ստորագրված	-10.9366
▁Էրիկ	-10.9367
▁մտերիմ	-10.9367
▁խաղերը	-10.937
▁լիցենզիա	-10.9371
▁հանգեցնել	-10.9373
▁վերլուծական	-10.9375
▁քննադատել	-10.9377
ուստ	-10.9377
▁Պոլ	-10.9377
▁առել	-10.9379
▁գրավիչ	-10.9381
▁փաստորեն	-10.9381
▁Անվան	-10.9381
▁նկատվում	-10.9382
▁թերթ	-10.9384
▁հայրենի	-10.9386
▁Օրը	-10.9387
▁կանխել	-10.9389
▁թղթակցի	-10.9393
▁Էջ	-10.9396
▁Առաջ	-10.9396
▁Օս	-10.9397
▁կոմիտե	-10.9399
▁ընկ	-10.94
▁Մե	-10.9402
▁ծրագրերին	-10.9405
▁տող	-10.9406
▁Windows	-10.9406
▁սահմանած	-10.9407
▁հաճախորդներին	-10.9408
\\)	-10.9409
▁եզրակացության	-10.9409
▁Տեղեկատվական	-10.941
▁բողոքը	-10.9413
▁ավարտվում	-10.9415
▁փայտ	-10.9415
▁հայերին	-10.9416
*	-10.942
▁Բաբայանը	-10.9422
▁ռիսկի	-10.9422
▁հավաստի	-10.9423
սում	-10.9424
▁գիտահետազոտական	-10.9425
րիկ	-10.9425
▁գիտնականները	-10.9426
▁ընկերոջ	-10.9426
արանում	-10.9426
▁հավերժ	-10.9429
արա	-10.9429
▁երկուսը	-10.9429
▁Լեհաստանի	-10.9431
▁ձմեռային	-10.9433
▁ուխտ	-10.9438
▁հանգամանք	-10.9438
▁դեսպանի	-10.9439
▁հասուն	-10.9442
▁Հետք	-10.9444
▁ձի	-10.9445
▁մանրամասները	-10.9446
▁հանդիպեց	-10.9448
▁ուժով	-10.9449
▁Ըն	-10.9451
ՈՍ	-10.9452
▁համարանիշի	-10.9452
Իսլամական	-10.9452
▁առավոտ	-10.9453
փր	-10.9453
▁հայտնելով	-10.9455
▁ծագման	-10.9457
րամ	-10.9458
ԻՐ	-10.9458
▁Ջո	-10.9461
▁մարզպետարանի	-10.9462
▁հորիզոնական	-10.9464
▁գիտնականների	-10.9465
▁%	-10.9465
դիր	-10.9473
▁հիմքեր	-10.9473
▁փայլուն	-10.9476
▁մուտքը	-10.9477
▁վաճառող	-10.9477
Սեւան	-10.9477
▁թռիչք	-10.9477
▁բարելավել	-10.9477
լետ	-10.9477
▁վաճառվում	-10.9478
Լուսավոր	-10.9478
ցե	-10.9484
▁վճռական	-10.9488
Գր	-10.949
▁reading	-10.949
▁հայազգի	-10.949
▁հանրահայտ	-10.949
▁Գոհար	-10.949
ԱՌԿԱ	-10.949
▁ոլորտ	-10.9494
▁Գարիկ	-10.9495
▁Թագավորություն	-10.9496
▁պատվիրակությանը	-10.9499
▁համալսարանը	-10.9502
▁Irav	-10.9506
▁կիրառումը	-10.9506
▁գրքերի	-10.9508
▁De	-10.9512
▁Սեւանի	-10.9513
▁Աշոտյանը	-10.9516
▁արտահայտել	-10.9517
▁Ինչու	-10.9518
▁սիրուն	-10.9527
▁ժամանակն	-10.9531
▁Իսպանիա	-10.9533
եբ	-10.954
▁Բու	-10.954
▁կռիվ	-10.9542
р	-10.9546
▁գերազանցել	-10.9548
▁գրոհ	-10.9549
▁տարով	-10.9551
▁ենթադրել	-10.9552
▁թեկնածությունը	-10.9555
▁տեղեկանում	-10.9556
▁երկինք	-10.9557
▁Տան	-10.9558
▁արգելել	-10.9558
▁մրցաշարում	-10.9559
▁այցելում	-10.9559
▁ունեին	-10.9563
▁տառ	-10.9566
անո	-10.9567
▁Թուրքական	-10.9568
▁Բլ	-10.9568
▁ճաշակ	-10.957
▁պատմություններ	-10.957
▁պայծառ	-10.9571
▁եկեք	-10.9572
▁կախ	-10.9572
▁Վաճառվում	-10.9573
ՔԻ	-10.9573
▁սկս	-10.9573
▁պարունակող	-10.9577
▁բժշկության	-10.9579
կատ	-10.9583
▁Կիմ	-10.9584
ո՛ւ	-10.9585
▁աստիճանով	-10.9588
▁հազվադեպ	-10.9588
▁An	-10.9589
▁Զինված	-10.9591
▁Հարցազրույց	-10.9592
▁գնալով	-10.9596
▁իրականացում	-10.9596
▁ինչու՞	-10.9596
▁դասընթացների	-10.9598
▁օրգանիզմի	-10.9599
▁տեսնելով	-10.9601
▁Ֆր	-10.9602
▁բրիտանական	-10.9604
▁ե՞րբ	-10.9604
▁օրհն	-10.9604
▁պլաստիկ	-10.9604
▁Պատարագ	-10.9604
▁հեն	-10.9605
▁տարելիցին	-10.9606
ուել	-10.9608
▁կանգնեց	-10.961
▁հավանականությունը	-10.9615
▁տնտեսությունը	-10.9618
▁Էն	-10.9621
▁շարժիչ	-10.9623
▁մասնագիտացված	-10.9624
լոգ	-10.9625
▁ցուցակ	-10.9625
▁առանձն	-10.9626
▁Անցած	-10.9627
▁հասցեով	-10.9629
ապա	-10.963
▁շարժվում	-10.9631
▁հետազոտություն	-10.9632
▁Լին	-10.9632
▁տարիքային	-10.9635
ig	-10.9635
▁ճշգրտ	-10.9637
▁ժամանակահատվածի	-10.9638
▁Աստվածածին	-10.9638
▁նորակառույց	-10.9638
ՈՒԹՅՈՒՆԸ	-10.9639
ԵՔ	-10.9641
▁Կր	-10.9642
up	-10.9642
▁բալ	-10.9643
▁ուսուցիչների	-10.9645
▁Միջոցառման	-10.9646
▁ապացուցել	-10.9646
▁կազմող	-10.9646
▁խառն	-10.9649
▁նշանակման	-10.9649
▁Զար	-10.9649
▁Կաս	-10.9651
▁ծիրան	-10.9654
▁հազիվ	-10.9654
ավորել	-10.9654
▁հիմնարար	-10.9654
Սուրբ	-10.9656
▁Արցախը	-10.9656
սալ	-10.9663
▁բացահայտվել	-10.9663
▁լույսի	-10.9664
▁հավաքում	-10.9666
▁կրակել	-10.9666
▁դիմ	-10.9668
▁տրամադրվել	-10.9671
▁կարիերան	-10.9672
▁հասկանալու	-10.9675
տալ	-10.9676
▁Լիգայի	-10.9678
▁օրում	-10.9679
▁ԳՈՐԾ	-10.9686
▁անհասկանալի	-10.9687
▁դոցենտ	-10.9687
▁Մնացականյանը	-10.9687
▁ներմուծման	-10.9687
▁ամենեւին	-10.9687
▁պարզվում	-10.9688
▁տաղանդ	-10.9689
▁Մադրիդ	-10.9689
▁աստերոիդ	-10.9695
▁g	-10.9697
▁անհետ	-10.9699
▁այգու	-10.97
րավ	-10.9703
▁\\(	-10.9703
▁Նալբանդյան	-10.9705
▁ցուցահանդեսի	-10.9707
ատակ	-10.9708
Կա	-10.9711
▁հրաժարականը	-10.9713
։[	-10.9715
հու	-10.9717
▁Անկախության	-10.972
▁բխող	-10.972
▁բեռ	-10.9721
տկ	-10.9723
▁սեփականություն	-10.9723
▁կառույցներ	-10.9725
▁սովորելու	-10.9725
▁քաղաքների	-10.9729
▁Մանե	-10.9729
▁Յան	-10.9731
դրամ	-10.9731
▁Բարսեղյան	-10.9731
▁բանջարեղեն	-10.9733
▁համապատասխանաբար	-10.9733
առեւտուր	-10.9734
Գանձասար	-10.9737
մն	-10.9737
▁գնացք	-10.9738
▁կամք	-10.9739
▁էկրան	-10.9741
▁ելույթներ	-10.9742
▁հանցավոր	-10.9743
▁ստեղծումը	-10.9745
▁վերլուծություն	-10.9746
▁դրանում	-10.9747
sis	-10.9747
▁հորիզոնականը	-10.9748
▁մաղթում	-10.9753
գետ	-10.9755
▁ստ	-10.9755
▁©	-10.9756
Net	-10.9756
be	-10.9758
▁մրցանակը	-10.9758
Նովա	-10.9759
▁փաստի	-10.976
▁վայրեր	-10.9761
▁մշակված	-10.9764
▁հիշեց	-10.9767
▁անունն	-10.9768
cation	-10.9768
▁կամուրջ	-10.9769
▁հարգ	-10.9769
▁ապահովված	-10.977
▁Տեսախցիկ	-10.977
▁Առցանց	-10.977
▁ինտենսիվ	-10.977
▁կգնա	-10.9775
▁մանկապարտեզ	-10.9775
զին	-10.9779
▁լրագրողի	-10.9784
▁դառնալով	-10.9785
▁միգուցե	-10.9786
ոյանի	-10.9787
▁ամրագրված	-10.979
տրոն	-10.9791
▁խմբակցություն	-10.9792
զեր	-10.9793
▁Կաթողիկոսի	-10.9794
▁մատուցում	-10.9795
▁ինքնաթիռի	-10.9796
▁Հե	-10.9796
ell	-10.9798
▁առաջացնել	-10.9807
▁Կովկասի	-10.9807
▁Սկս	-10.9808
▁վերլուծության	-10.9808
▁հղ	-10.981
▁ստեղծած	-10.981
▁Ցավոք	-10.9811
▁զեղչ	-10.9814
▁մրց	-10.9817
Արտ	-10.9819
▁նուրբ	-10.982
▁Շու	-10.9821
▁տաղանդավոր	-10.9822
▁կր	-10.9822
▁ընդլայնված	-10.9823
▁մոտակա	-10.9827
ճա	-10.9828
▁Ma	-10.9829
▁վայելում	-10.983
▁կառ	-10.9831
▁միջոցառումը	-10.9831
▁Դանիել	-10.9831
▁բեր	-10.9833
▁զգա	-10.9834
▁Արմ	-10.9834
▁Մտցնել	-10.9837
▁մեն	-10.9837
▁ամառ	-10.9838
▁Post	-10.9839
ՎԵԼ	-10.9839
▁Տեխաս	-10.984
դեմ	-10.9841
▁ձեռնարկությունների	-10.9842
▁նախաձեռնություն	-10.9843
յուս	-10.9844
▁վարած	-10.9847
▁փոփոխությունը	-10.9848
▁լուրը	-10.9848
չել	-10.9848
▁պարտություն	-10.9849
▁պէտք	-10.9854
▁կամքի	-10.9855
▁վարդապետ	-10.9856
▁խնձոր	-10.9857
▁Լոնդոնում	-10.9858
▁համաձայնությամբ	-10.9859
▁գույնի	-10.9861
▁նպատակային	-10.9861
▁կգան	-10.9862
▁վերադարձնել	-10.9863
ինգի	-10.9863
ԴԻ	-10.9863
▁երկրաշարժ	-10.9863
▁ստուգման	-10.9866
Դու	-10.9867
▁ընդունումը	-10.9869
▁քաղաքներ	-10.987
ԿԱ	-10.9871
▁ուսումնասիրում	-10.9871
▁Նո	-10.9881
▁դեպքը	-10.9881
▁պատիժ	-10.9884
▁հիվանդների	-10.9885
▁հայտնվեց	-10.9885
▁աշխատակիցներին	-10.9887
▁կպցրեք	-10.9887
յոր	-10.9888
▁ցանկացել	-10.989
▁մատուցման	-10.9891
▁Ներկա	-10.9892
▁գիտաժողով	-10.9894
տամ	-10.9894
▁եզրակացություն	-10.9896
▁թիվն	-10.9898
▁բաժնից	-10.9901
▁աչքերի	-10.9903
▁արտ	-10.9903
▁չգիտի	-10.9904
▁ցուցակի	-10.9904
▁հարվածներ	-10.9906
մս	-10.9907
▁հյութ	-10.9911
անյան	-10.9911
սահման	-10.9912
▁յուր	-10.9913
▁նշանակված	-10.9913
ականները	-10.9915
▁Ռուսաստանին	-10.9918
▁վերը	-10.992
▁պանիր	-10.9921
ment	-10.9924
▁կիլոմետր	-10.9927
տաս	-10.9928
▁Վարչական	-10.9934
▁ապաստան	-10.9936
▁գնումների	-10.9936
▁Next	-10.9938
▁Previous	-10.9938
▁Ծննդյան	-10.9938
▁ոսկու	-10.9939
▁ուտում	-10.9941
▁դատապարտված	-10.9941
▁մանկավարժ	-10.9942
▁բաժանմունքի	-10.9946
▁ասելու	-10.9947
▁թեստ	-10.9947
▁Յորքում	-10.9947
▁խնդրանքով	-10.9949
▁շուկան	-10.9951
▁քառօրյա	-10.9952
▁դերակատար	-10.9955
▁ծանոթանալու	-10.9955
▁սերունդ	-10.9955
▁կարգապահական	-10.9955
▁հիմար	-10.9961
▁Արտ	-10.9961
▁Վիլ	-10.9962
▁=	-10.9963
▁Ընթերց	-10.9963
▁թաղամասում	-10.9964
▁ռազմա	-10.9965
▁այգիներ	-10.9965
▁քնն	-10.9967
փոստով	-10.9976
▁պողոտայի	-10.9976
▁շեշտեց	-10.9981
▁իրեր	-10.9982
▁e	-10.9984
▁ֆուտբոլիստների	-10.9984
▁սեքս	-10.9986
ub	-10.9987
▁պարտք	-10.9987
▁Տպ	-10.9988
▁ծրագիրն	-10.9992
▁հավաքածու	-10.9992
▁քամու	-10.9992
մեծ	-10.9994
▁կատակ	-10.9994
▁ամրոց	-11
▁հեռանկարներ	-11.0001
▁խաղաց	-11.0002
▁մութ	-11.0002
▁ներկ	-11.0002
չություն	-11.0003
եանի	-11.0006
▁Թայիփ	-11.0006
▁հաստատեց	-11.0007
The	-11.0009
▁սեքսուալ	-11.0011
▁կինն	-11.0012
▁ՀՆԱ	-11.0013
▁գործընկերներ	-11.0014
▁սեպտեմբերին	-11.0017
▁նկատ	-11.0017
▁կոշիկներ	-11.0022
▁տարեկանների	-11.0023
▁Ներկայացնում	-11.0024
ֆոն	-11.0024
▁պլաններ	-11.0025
▁մարզադաշտում	-11.0028
▁նշանակալի	-11.003
▁Լու	-11.003
գլ	-11.0031
▁Ալեքսանյանը	-11.0031
▁նախապատրաստական	-11.0032
▁Իսրայել	-11.0035
▁Դրանց	-11.0036
▁նշանի	-11.0039
▁անշուշտ	-11.0041
▁Պարզապես	-11.0041
▁Շարունակ	-11.0041
▁ապրիլ	-11.0042
▁մրցույթին	-11.0042
▁հեղինակի	-11.0043
▁կարիերայի	-11.0044
)[	-11.0047
▁կայսրության	-11.0049
▁իշխանական	-11.0051
▁ընկերները	-11.0053
Բանանց	-11.0056
լոն	-11.0056
▁հասցե	-11.0057
▁անգլիական	-11.0058
յաց	-11.0059
▁թեյ	-11.0061
Որեւէ	-11.0061
▁ստուգել	-11.0062
▁նիստից	-11.0062
▁հանձնաժողովների	-11.0065
▁վերին	-11.0067
չյան	-11.0068
▁վիրուս	-11.0069
▁Ոսկե	-11.0069
ացնելով	-11.007
▁Ռիչարդ	-11.0075
▁Ստորեւ	-11.0075
ուլի	-11.0075
▁էկոնոմիկայի	-11.0076
▁Դժվար	-11.0077
▁ձերբակալ	-11.0077
▁մոռաց	-11.0079
▁կարծիքներ	-11.0081
▁շփվել	-11.0082
▁բացատրություն	-11.0084
▁Ուրախ	-11.0084
▁La	-11.0086
▁ապացույց	-11.0087
▁Դիմ	-11.0092
▁անցկացրեց	-11.0093
▁այդպիսին	-11.0094
▁փորձագիտական	-11.0095
▁Քրիստոս	-11.0097
▁Beeline	-11.0098
▁հասկացել	-11.01
▁ժամանակաշրջանում	-11.0101
▁Պարզ	-11.0102
▁բո	-11.0104
▁միտում	-11.0104
▁նետ	-11.0106
▁սարսափ	-11.0108
▁դիրքը	-11.0108
▁Ֆրանսիան	-11.0108
▁Վարուժան	-11.011
մայոր	-11.011
▁ճշգրիտ	-11.011
▁բարձրանում	-11.0113
▁սկզբունքների	-11.0113
▁հանձնարարական	-11.0115
▁ստեղծագործություններ	-11.0116
ակայան	-11.0118
▁կատարողական	-11.0118
զո	-11.012
▁պատերազմից	-11.0122
▁դրույքաչափ	-11.0127
▁Արծվիկ	-11.0127
▁բերք	-11.0127
▁ամենահայտնի	-11.0127
▁Մարտիրոսյան	-11.0128
▁իրականացրած	-11.0128
▁դադարեց	-11.0129
ֆա	-11.0129
▁մեղր	-11.0129
▁պարտքը	-11.0134
▁Գասպարյանը	-11.0135
▁օրակարգի	-11.0136
▁եկեղեցական	-11.0139
▁հիմքով	-11.014
քար	-11.0141
▁խաղերում	-11.0142
▁հանրապետություն	-11.0144
▁բարձրացնում	-11.0144
▁Վերցված	-11.0144
▁պատարագ	-11.0145
▁նախքան	-11.0146
▁գովազդային	-11.0148
▁Հանդիպմանը	-11.015
▁երիտասարդները	-11.0151
▁կարոտ	-11.0153
▁դժվարություններ	-11.0154
խո	-11.0155
▁հայտարարությանը	-11.0155
▁մասնաճյուղ	-11.0155
▁լրատվամիջոցները	-11.0159
▁գնահատ	-11.016
▁Online	-11.0162
▁Read	-11.0162
▁ակտերով	-11.0162
▁եղբայրը	-11.0163
▁անդամի	-11.0163
▁ապրանքի	-11.0164
▁ծնող	-11.0164
▁ճարպ	-11.0165
▁երկիրն	-11.0165
▁ընթացքին	-11.0166
▁մեդալով	-11.0167
▁ծածկ	-11.0168
▁Ունի	-11.0169
▁գալիք	-11.017
▁հաճախորդի	-11.0171
▁ուղղաթիռ	-11.0172
▁օղակ	-11.0177
▁փորձառու	-11.0178
▁գյուղերում	-11.0179
▁փոխում	-11.0179
արաններ	-11.0182
▁ՔՊ	-11.0182
▁Ստամբուլի	-11.0183
▁նամակներ	-11.0188
▁ուսուցում	-11.019
▁հնարավորության	-11.0194
▁ծախսեր	-11.0195
▁Ստեփանակերտ	-11.0195
ISSN	-11.0196
▁հիմնախնդրի	-11.0196
▁տարբերակով	-11.02
▁կուսակցական	-11.0201
▁միջով	-11.0202
▁ինտերնետային	-11.0202
▁մղ	-11.0203
Պետական	-11.0206
▁հուսալի	-11.0207
▁տեղադր	-11.0208
▁ջարդ	-11.0209
▁շարունակեց	-11.0209
հեղ	-11.021
va	-11.0211
▁ցանցեր	-11.0212
▁Բրյուսելում	-11.0214
▁առողջապահական	-11.0214
▁կոլեկտիվ	-11.0214
▁մասնագիտությամբ	-11.0214
▁Չեխիայի	-11.0215
▁լեզուներով	-11.0215
▁Հանդիպում	-11.0217
▁զգալիորեն	-11.0219
▁հանձնվել	-11.0219
▁հավաքի	-11.022
▁խոսքեր	-11.022
▁գաղափարներ	-11.0224
▁վիրավորում	-11.0226
▁վանք	-11.0227
մարդ	-11.0227
▁բաժանել	-11.0228
▁եռամսյակի	-11.0229
▁փաստաթուղթը	-11.0231
▁ՀԲԸՄ	-11.0231
▁ԿԱՏԱՐԵԼՈՒ	-11.0232
▁նկարահանել	-11.0232
▁շոգ	-11.0233
▁կանխիկ	-11.0234
▁զավակ	-11.0234
▁վարձով	-11.0235
▁Այդպիսի	-11.0236
մահ	-11.0239
▁խնդրին	-11.0241
▁հիմնարկ	-11.0246
▁սկզբունքները	-11.0247
▁առաջացրել	-11.0249
no	-11.0252
▁հերքել	-11.0253
▁պայթյուն	-11.0254
▁Թուրքիային	-11.0257
▁պահպանվում	-11.0258
որը	-11.0258
▁ծեծել	-11.026
▁ավտոճանապարհի	-11.026
▁դիրքորոշում	-11.026
ացույց	-11.0264
▁ենթա	-11.0266
▁Անց	-11.0266
▁իմանա	-11.027
լյան	-11.027
ber	-11.0271
▁տրամադրություն	-11.0272
▁Ro	-11.0272
▁մահից	-11.0273
անքը	-11.0277
▁անցյալի	-11.0279
▁դիակ	-11.0279
▁պատրաստվել	-11.028
▁սար	-11.0282
▁խոնավ	-11.0284
▁դեմքի	-11.0286
▁ՀՕ	-11.0289
▁մմ	-11.029
▁բերած	-11.0291
▁հաճախակի	-11.0292
▁ուսումնասիր	-11.0294
▁գործարքի	-11.0297
իսի	-11.0297
▁Կարա	-11.0297
▁զբաղեցրած	-11.0302
▁Գուրգեն	-11.0302
▁Աղվան	-11.0303
▁մասնագիտության	-11.0303
սոնը	-11.0306
▁արձակ	-11.0307
▁Հոր	-11.0307
▁ելույթում	-11.0308
▁Անուշ	-11.0308
▁Ալեն	-11.0308
▁խնդիրներից	-11.0309
▁այց	-11.0311
▁Մանկական	-11.0312
▁բրենդ	-11.0312
▁Հայր	-11.0313
▁Սամ	-11.0319
▁կուտակային	-11.0319
ուսի	-11.0322
▁նորընտիր	-11.0323
▁բարելավում	-11.0326
▁արջ	-11.0327
Էրեբունի	-11.0328
▁Ռու	-11.0328
ԵՎ	-11.0328
▁հնչել	-11.0329
▁սեղմ	-11.033
▁խաչմերուկում	-11.0333
▁գոյության	-11.0335
▁անընդունելի	-11.0337
▁անվանական	-11.0337
▁Նախնական	-11.0337
▁պայմանավորվածություններ	-11.0337
▁դարձան	-11.0338
▁մեղադրվում	-11.0339
▁Հուլիս	-11.034
▁չափից	-11.0341
▁ստանալուց	-11.0342
▁Մինասյան	-11.0344
▁առնչություն	-11.0346
▁հյուրանոցում	-11.0346
▁վայելել	-11.0347
▁Ծառուկյան	-11.0348
▁ստեղծագործության	-11.0348
▁Life	-11.0349
▁բաղադրիչ	-11.0351
▁էլեկտրա	-11.0352
▁կայացվել	-11.0353
▁ձեւաչափով	-11.0354
▁Պրո	-11.0354
▁դավաճան	-11.0354
▁ճշմարիտ	-11.0355
▁հրավիր	-11.0355
▁ամիսը	-11.0355
▁վճարի	-11.0357
քսի	-11.0363
ամիտ	-11.0365
▁հայտնեցին	-11.0365
▁բարեկամական	-11.0367
Մա	-11.0367
▁Մխիթարյան	-11.0368
▁անդամներից	-11.0369
▁գրած	-11.037
▁ռուբլի	-11.0372
ash	-11.0372
▁դրույթները	-11.0374
▁գումարների	-11.0375
▁փաստաբանների	-11.0375
ner	-11.0375
▁միկրո	-11.0376
եյն	-11.0377
▁ապահովագրության	-11.0378
▁համերգը	-11.0378
▁գործադրել	-11.0379
▁մոտեցումը	-11.0382
▁Քանաքեռ	-11.0383
բերգ	-11.0385
▁Ազ	-11.0385
Թուրքիա	-11.0385
▁Ազնավուրի	-11.0389
▁առանձնատուն	-11.0392
▁չվերթ	-11.0394
ակերտ	-11.0396
▁վարորդ	-11.0398
▁Հավ	-11.0399
▁հորդորում	-11.0399
▁Զոհրաբյանը	-11.0399
▁ծնողներին	-11.0401
▁մե	-11.0401
▁սեռ	-11.0404
▁նախարարությանը	-11.0404
▁կատարեց	-11.0405
▁վերադառնալու	-11.0406
▁ե՛ւ	-11.0408
videochat	-11.0408
▁Թբիլիսիի	-11.0409
▁գիտելիքների	-11.041
▁ֆոնին	-11.0411
աղանդ	-11.0413
▁թաղամասի	-11.0413
▁Արցախից	-11.0414
▁Վե	-11.0416
▁առարկայի	-11.0416
▁առաջարկվող	-11.0416
▁գրասենյակում	-11.0416
▁փայլ	-11.0417
▁սահմանափակում	-11.0418
ry	-11.0418
▁թվեր	-11.0419
▁թիմին	-11.0419
▁ժամկետային	-11.0421
▁ռոք	-11.0421
▁շա	-11.0421
ասում	-11.0422
▁պատասխանելով	-11.0425
▁ոգեշնչ	-11.0426
ԿԱՆ	-11.0427
▁օրից	-11.0427
ess	-11.0427
▁գերագույն	-11.0428
▁խելք	-11.0428
ախաղ	-11.043
այից	-11.0431
վես	-11.0436
▁Խաղային	-11.0441
ունք	-11.0442
▁ռազմավարության	-11.0446
▁որակավորում	-11.0447
▁բուհերի	-11.0448
▁զորակոչ	-11.0451
▁հայտարարված	-11.0452
▁կոչման	-11.0452
▁հասակում	-11.0453
▁ճաշ	-11.0453
ցում	-11.0454
սո	-11.0455
▁մեկից	-11.0457
▁հյուրեր	-11.0458
▁կառուցելու	-11.0461
▁օգտատերերի	-11.0462
▁անծանոթ	-11.0462
▁տեղն	-11.0463
AS	-11.0467
▁Հեռ	-11.0468
արթ	-11.047
▁աստերոիդը	-11.047
▁մոռանալ	-11.0474
▁շուրջը	-11.0474
▁դիտարկումները	-11.0474
Video	-11.0476
▁ստանալով	-11.0476
▁մատակարարման	-11.0477
▁կայարան	-11.0478
▁խնդրեց	-11.0478
▁խաղարկության	-11.0479
▁կոպիտ	-11.048
▁Ավետիսյանի	-11.0482
▁չուներ	-11.0483
▁զգուշ	-11.0486
▁գրաֆիկ	-11.0486
▁հյուրանոցի	-11.0487
ուչ	-11.0487
▁Մոն	-11.0487
▁Հրազդան	-11.0491
▁Այսպիսի	-11.0492
ալա	-11.0492
▁պատանի	-11.0494
▁հղիության	-11.0495
▁վնասի	-11.0495
▁կերպարներ	-11.0496
▁ՎՏԲ	-11.0498
▁գունավոր	-11.0499
▁Ուկրաինայում	-11.0499
▁Մկրտչյանի	-11.0499
▁խաչմերուկ	-11.0502
▁աթոռ	-11.0502
▁տեսակների	-11.0502
▁հայտարար	-11.0505
▁ամփոփել	-11.0507
▁ամենաշատ	-11.0509
▁աշխատանքներն	-11.051
▁նպատակին	-11.051
▁վայել	-11.0515
▁արտագաղթ	-11.0519
ga	-11.052
▁բովանդակությունը	-11.0522
ողներին	-11.0522
▁գիտություն	-11.0523
▁գործարքներ	-11.0524
▁նահանգում	-11.0524
­­	-11.0524
▁Աշխատանք	-11.0526
հայկական	-11.0527
▁վերադառնա	-11.053
▁բարձրացել	-11.0532
▁Android	-11.0533
ղի	-11.0535
▁Քոչարյանին	-11.0535
sa	-11.0536
▁այցելեց	-11.0539
▁մարզպետարան	-11.054
▁կապերը	-11.0545
oo	-11.0549
▁հրեշտակ	-11.0552
▁թույլտվության	-11.0552
▁շրջապատի	-11.0553
▁Շաբաթ	-11.056
▁Մեն	-11.0564
▁դրսեւորումներ	-11.0566
ժան	-11.0566
▁ՎԵՐԱԲԵՐՅԱԼ	-11.0569
▁լեռան	-11.0569
▁Տվյալ	-11.057
▁նոյեմբերին	-11.0572
▁համալիրում	-11.0573
▁խոսելու	-11.058
▁նվագախմբի	-11.0581
▁սահմանները	-11.0585
▁ռեժիմ	-11.0586
▁կայունության	-11.0586
ությունը՝	-11.0587
▁Վեհափառ	-11.0588
▁զանազան	-11.0588
▁Գի	-11.0589
իրավական	-11.0589
▁քննվող	-11.059
▁ընդունած	-11.0591
▁video	-11.0594
▁սկզբունքով	-11.0595
ջին	-11.0596
▁հրդեհի	-11.0596
▁շնորհանդեսը	-11.0597
▁Զա	-11.0599
▁իրացման	-11.0599
էլ	-11.0604
▁պաշտոնյաներ	-11.0604
▁շատերն	-11.0605
%)	-11.0605
▁վկայական	-11.0606
▁անդրադառնում	-11.0606
▁Պարույր	-11.0606
▁ստորագրվել	-11.0606
զբ	-11.0607
▁Արաբիայի	-11.0609
▁Անդրեյ	-11.0609
ելիս	-11.061
▁բացվում	-11.0613
սեւ	-11.0613
▁թարգմանիչ	-11.062
▁մանավանդ	-11.0624
▁սննդամթերքի	-11.0624
▁Ադամ	-11.063
▁ջանքերով	-11.0634
▁Ղարաբաղում	-11.0634
▁Տոնոյանը	-11.0636
▁Սիմոնյան	-11.0636
si	-11.0639
▁Հրանուշ	-11.0642
▁◆	-11.0642
▁վայրից	-11.0643
▁հրատապ	-11.0643
▁մօտ	-11.0643
▁արվեստը	-11.0643
▁եզրափակչի	-11.0644
▁տեղեկ	-11.0647
▁ղեկավարն	-11.065
▁պնդել	-11.0651
▁Կինո	-11.0652
▁Ժողով	-11.0653
ոհ	-11.0654
▁Կուր	-11.0656
▁հասցնելու	-11.0657
▁ընդունելի	-11.0659
ԱԲ	-11.066
▁աշխարհահռչակ	-11.066
խե	-11.066
▁ուժերին	-11.0663
▁ցանկանա	-11.0663
ոփ	-11.0663
▁համեմատաբար	-11.0664
▁աշխատակիցներ	-11.0664
▁ցուցադր	-11.0666
▁սարքերի	-11.0666
Իրավունք	-11.0667
▁կհա	-11.0668
▁հայտնված	-11.0668
▁հոկտեմբեր	-11.067
Աս	-11.0675
ՆԱՍԱ	-11.0676
▁մասնավորապես՝	-11.0681
▁տեսախցիկ	-11.0681
▁ՄԻՊ	-11.0683
Ման	-11.0683
▁դարպաս	-11.0685
▁թալան	-11.0686
▁Կանադա	-11.0686
▁բարեփոխումներ	-11.0688
▁խնդր	-11.069
▁ունես	-11.0692
▁ցուցարարների	-11.0693
per	-11.0694
րգ	-11.0699
▁ընկերությունն	-11.0699
տային	-11.07
▁վրա՝	-11.0701
▁կտրել	-11.0702
չա	-11.0704
▁Սահակ	-11.0704
ԻԱ	-11.0706
▁կյանքով	-11.0706
▁քրիստոնեական	-11.0707
▁դեպարտամենտի	-11.0708
▁արտադրանքը	-11.0711
դայի	-11.0712
▁Թբիլիսիում	-11.0714
▁արտերկրում	-11.0715
▁ՊՊԾ	-11.0716
▁BBC	-11.0716
▁Հակառակ	-11.0717
▁կոչվող	-11.0719
Ազատ	-11.072
▁գյուղերի	-11.0723
▁Բաբայան	-11.0727
▁տարա	-11.0727
he	-11.0729
Քաղաքական	-11.0731
▁Ուկրաինա	-11.0733
▁մենամարտ	-11.0734
վատ	-11.0735
▁բողոքում	-11.0736
▁ուղեկցությամբ	-11.0736
▁տարիքում	-11.0738
▁Նարինե	-11.0738
ավանդ	-11.0739
▁հանգստյան	-11.074
▁տարածքից	-11.074
▁վճարների	-11.074
▁թիմերի	-11.074
▁գիտակց	-11.0741
▁դատապարտյալ	-11.0741
▁Ավետարան	-11.0741
▁կազմակերպած	-11.0741
▁քննարկ	-11.0742
ծան	-11.0742
▁Twitter	-11.0743
▁նկարում	-11.0745
▁հեռախոսազրույց	-11.0747
▁Երգ	-11.0748
▁մոտենալ	-11.0748
▁հիմքերը	-11.075
շյան	-11.0752
▁կմեկնարկի	-11.0752
▁արձանագրված	-11.0752
▁ուղեցույց	-11.0753
▁մտադրություն	-11.0754
▁Շանթ	-11.0756
▁հանձնելու	-11.0759
▁փորձաքննություն	-11.076
▁Սմբատ	-11.0761
▁տեղադրում	-11.0761
▁ուրիշների	-11.0761
▁տասնամյակ	-11.0761
ցած	-11.0762
▁իրավիճակին	-11.0767
անշ	-11.0768
չափ	-11.0768
ե՞ս	-11.0768
ant	-11.0772
▁Երեւի	-11.0774
▁ժպիտ	-11.0777
▁Ղարաբաղ	-11.0778
▁ռադիոկայանի	-11.0778
ուք	-11.0783
▁գրառումը	-11.0785
քե	-11.0785
▁նպատակներով	-11.0786
▁տեւական	-11.0789
▁լուռ	-11.079
▁սպա	-11.079
▁շարքային	-11.0791
▁տրամադրվող	-11.0791
▁ԻՊ	-11.0794
▁տարածքները	-11.0794
▁հրազենային	-11.0795
Կարծում	-11.0796
▁կատարելով	-11.0798
▁երգել	-11.08
▁ժամանակաշրջան	-11.08
եհ	-11.0801
▁արտադր	-11.0801
ընտ	-11.0802
ածին	-11.0802
ь	-11.0804
▁ոճ	-11.0804
▁մոլորակների	-11.0804
ԵԶ	-11.0805
▁վրացական	-11.0805
▁նստաշրջանի	-11.0807
▁Փաստորեն	-11.0808
▁ընկավ	-11.0809
▁ազատություն	-11.0812
▁գնահատվում	-11.0813
▁կրթությունը	-11.0814
▁տեսակը	-11.0814
▁քննարկումները	-11.0815
▁կատարելապես	-11.0815
▁մէկ	-11.0818
▁կիրառ	-11.0818
▁Բիլ	-11.0819
▁քաղաքապետը	-11.0823
▁հրապարակած	-11.0823
▁տեսակներ	-11.0824
▁դիտորդ	-11.0825
▁զորամաս	-11.0826
▁հոսպիտալ	-11.0826
▁ankakh	-11.0826
▁նախագծին	-11.0827
իջ	-11.0827
▁մրցակցության	-11.0829
▁Շարժման	-11.083
ժամ	-11.0833
▁Շվեյցարիայի	-11.0835
▁կառուցվածքը	-11.0836
▁Հյուսիս	-11.0837
▁կղզիներ	-11.0838
▁կառուցվածքային	-11.084
խու	-11.0841
ացվի	-11.0842
լեյտենանտ	-11.0845
▁Tr	-11.0845
արմ	-11.0846
▁կիրառվել	-11.0847
▁հյուրանոց	-11.0847
▁նայեց	-11.0848
▁Արմինե	-11.085
▁Նախարարը	-11.0851
▁Արեւելքի	-11.0851
▁խնդիրներն	-11.0855
▁շարժական	-11.0855
գին	-11.0858
▁ըմբշամարտի	-11.0863
▁վճռաբեկ	-11.0863
▁հիշողության	-11.0864
▁իրականացմանը	-11.0864
▁կերպարը	-11.0865
▁ենթակայության	-11.0868
▁more	-11.0868
▁գավաթ	-11.0871
▁մասին՝	-11.0873
▁Միշտ	-11.0873
▁համադր	-11.0874
ազար	-11.0874
▁որոնցով	-11.0874
▁դիպլոմ	-11.0875
▁ավան	-11.0875
ետի	-11.0876
▁դաստիարակության	-11.0877
▁խոսելով	-11.0879
▁ներքեւ	-11.088
▁ողջունում	-11.0882
եբկամերան	-11.0882
▁արժեքավոր	-11.0883
▁Արշակ	-11.0884
▁հագուստի	-11.0884
▁արտահայտում	-11.0884
▁հուն	-11.0885
լոր	-11.0886
▁ենթարկելու	-11.0887
▁նկարը	-11.0887
▁Չէ՞	-11.0888
▁դիրքերը	-11.089
▁պաշտպանությունը	-11.0892
Առավոտ	-11.0892
▁գավառ	-11.0893
▁վերաբերմունքի	-11.0897
▁ստուգումներ	-11.0897
▁հայացք	-11.0897
▁աստերոիդների	-11.0901
▁մրցակիցներ	-11.0901
▁նախարարն	-11.0901
▁միտված	-11.0901
▁զեկույց	-11.0902
▁ղեկավարել	-11.0905
▁մոդելը	-11.0907
▁տարաձայնություններ	-11.0907
▁երկուսի	-11.0909
▁հյուրընկալել	-11.0911
կլ	-11.0914
▁դաստիարակ	-11.0915
▁դափնեկիր	-11.0919
▁լոլիկ	-11.0919
▁հակված	-11.092
▁ամանորյա	-11.092
▁դրամը	-11.0921
▁անցնող	-11.0925
▁ժամանակաշրջանի	-11.0926
▁վարձակալության	-11.0928
▁կմասնակցեն	-11.0931
▁պահեր	-11.0931
▁ֆուտբոլիստներ	-11.0932
▁հայտարարությունները	-11.0933
▁խթան	-11.0934
▁նախաձեռնել	-11.0937
▁փորձեք	-11.0937
▁ժողովուրդն	-11.0937
▁մտավ	-11.0938
▁ավարտական	-11.0938
▁կարողությունների	-11.0938
▁հակամարտ	-11.0939
▁Չինաստանում	-11.0941
▁շուկայական	-11.0941
▁Հուշ	-11.0942
▁համոզել	-11.0942
խաղ	-11.0942
▁միանալու	-11.0942
▁Դավթյանը	-11.0942
▁գիշերային	-11.0947
▁Բաբլոյանը	-11.095
▁Միլ	-11.0951
▁С	-11.0951
քաղաք	-11.0955
▁կխ	-11.0955
▁նպատակահարմար	-11.0957
▁հովիվ	-11.0957
▁Նախկին	-11.0961
▁քննարկումը	-11.0966
ev	-11.0966
▁ձերբակալված	-11.0967
լր	-11.0968
▁արժեքներ	-11.0968
▁Սի	-11.0969
▁մահացու	-11.097
▁հակամարտությունը	-11.097
Նախ	-11.0973
▁դեղին	-11.0975
▁արմատ	-11.0975
▁ակնարկ	-11.0975
▁հակակոռուպցիոն	-11.0976
▁կիս	-11.0977
▁գդալ	-11.0978
▁պատկանել	-11.0979
▁գալով	-11.098
▁հասկանա	-11.098
▁նկարագր	-11.0981
ացա	-11.0983
▁նորաձեւության	-11.0984
▁զիջում	-11.0985
իլի	-11.0986
▁ֆոտո	-11.0992
ուկի	-11.0993
▁տեսական	-11.0993
քերի	-11.0995
▁շրջանը	-11.0999
▁Պարզվում	-11.1001
▁կալանավորված	-11.1002
▁Ռոման	-11.1004
▁կանխելու	-11.1007
▁գործադր	-11.1007
▁երիտասարդներին	-11.1008
▁արդյունավետությունը	-11.1008
▁Դր	-11.1008
▁գինու	-11.1008
▁տղաների	-11.101
բալ	-11.1012
▁պահանջի	-11.1012
▁Ղազարյան	-11.1014
▁երկխոսություն	-11.1014
▁Բրիտանական	-11.1014
▁արքեպիսկոպոս	-11.1014
▁Սկ	-11.1014
▁վերացնել	-11.1014
▁ֆորումի	-11.1015
▁դարձրել	-11.1017
▁կարողանան	-11.1018
▁համոզ	-11.102
▁բիզնեսը	-11.102
▁հեռավոր	-11.102
▁չափերի	-11.1021
▁Արեւմուտքի	-11.1022
▁ընդունվեց	-11.1025
▁ընկերությանը	-11.1025
▁Հնդկաստանի	-11.1026
▁ապացույցներ	-11.1027
▁ոգեւոր	-11.1028
▁տարբերությունը	-11.1031
▁պայքարելու	-11.1032
▁արցախյան	-11.1033
▁ռոմանտիկ	-11.1033
▁անցկացրած	-11.1033
▁Ծրագիրը	-11.1034
▁գերակա	-11.1034
▁Ամիրյան	-11.1036
անման	-11.1037
▁խոցելի	-11.104
SA	-11.104
▁տուժածներ	-11.1041
ՍԻ	-11.1043
▁նկարագրությունը	-11.1045
▁լիազորություններ	-11.1048
▁հարգանք	-11.1049
▁հրշեջ	-11.1051
▁ՄԻԵԴ	-11.1052
▁մոդելի	-11.1055
▁թելադր	-11.1055
▁քննարկմանը	-11.1056
▁Արդյոք	-11.1059
▁հանձնարարել	-11.1059
որս	-11.1061
▁գրվել	-11.1061
▁որում՝	-11.1062
▁նստավայր	-11.1062
թվ	-11.1063
▁երկուսն	-11.1065
▁մաքրման	-11.1066
▁Երեւանից	-11.1068
▁դատապարտվել	-11.1068
Բարգավաճ	-11.1071
▁հասցնում	-11.1071
▁քրոջ	-11.1071
▁կանչել	-11.1071
խոր	-11.1071
▁Փաստաբան	-11.1072
▁Յորք	-11.1073
▁Mo	-11.1074
ate	-11.1077
▁ակումբներ	-11.1078
▁թիմում	-11.1081
▁Նրանցից	-11.1084
▁եղան	-11.1085
▁փրկարարների	-11.1086
▁քայլել	-11.1087
ֆոր	-11.1087
▁բացառել	-11.1088
▁բանավոր	-11.1088
▁օրը՝	-11.1089
▁թուղթ	-11.109
▁ճակատամարտ	-11.109
▁անապահով	-11.1092
ժե	-11.1093
պարտեզ	-11.1094
▁հատկանիշներով	-11.1095
▁Ուսումնական	-11.1095
▁արգել	-11.1099
▁հանրահավաք	-11.1101
մուտ	-11.1101
▁հաջողակ	-11.1102
Մեկ	-11.1103
Առ	-11.1103
ուրի	-11.1104
▁սուբյեկտ	-11.1105
▁ընդունելություն	-11.1106
▁քայլում	-11.1107
ՎԱ	-11.1109
ադրության	-11.111
▁Պետ	-11.1111
համար	-11.1112
▁հաս	-11.1112
▁աղբյուրի	-11.1116
▁բնակավայրեր	-11.1118
▁Ինչու՞	-11.1119
▁ազգանունը	-11.1119
արվեստ	-11.1119
▁պայմաններով	-11.1121
▁պարտականությունների	-11.1126
ամս	-11.1127
▁Հատկապես	-11.1128
բիլ	-11.1128
▁պաշտոնավարման	-11.1128
▁կինոթատրոն	-11.1128
▁առաջարկվում	-11.1128
▁ճարտարապետության	-11.113
▁Վարդ	-11.1133
▁գրամ	-11.1133
▁Եվս	-11.1133
▁ՄԻԱՎ	-11.1135
US	-11.1136
Միլան	-11.1137
▁Պողոս	-11.1138
▁մեխանիզմ	-11.1139
եցնելու	-11.1139
ոջ	-11.1145
▁անենք	-11.1145
շիկ	-11.1146
▁համապարփակ	-11.1147
գրավ	-11.1148
▁մրցույթում	-11.1149
լեյ	-11.1149
▁հեռանկարները	-11.115
▁գագաթնաժողովի	-11.1155
Շիրակ	-11.1157
tr	-11.1157
▁Սահակյանն	-11.1157
▁Ժամանակակից	-11.1158
▁ընտանիքներին	-11.1158
▁կոտրել	-11.1162
▁հարազատների	-11.1163
ագա	-11.1164
▁ցուրտ	-11.1166
▁հումանիտար	-11.1166
▁հեռացնել	-11.1168
տերի	-11.1169
▁գոլեր	-11.117
▁ոչնչաց	-11.1171
▁դատավորների	-11.1172
▁զորամասի	-11.1175
▁հրատարակչություն	-11.1177
▁ներդրողների	-11.1179
▁Նալբանդյանի	-11.118
▁հասարակությանը	-11.118
▁իրականությանը	-11.118
▁հեռախոսահամար	-11.1182
▁տեխնոլոգիաներ	-11.1184
▁կայ	-11.1185
▁հակառակորդը	-11.1185
▁Պատրիարք	-11.1185
▁Արաբական	-11.1185
▁արքայազն	-11.1185
▁հումոր	-11.1189
ասն	-11.119
կս	-11.1191
▁կապիտալի	-11.1191
▁լվաց	-11.1196
Օր	-11.1196
▁Հիշ	-11.1196
▁բարեկամության	-11.1198
▁սահմանելու	-11.1198
▁առաջադրանքներ	-11.1198
ՏԱ	-11.12
▁ուս	-11.1201
▁արեւի	-11.1202
նկար	-11.1204
▁Տի	-11.1204
▁համոզմամբ	-11.1206
մշակութային	-11.1207
ամետ	-11.121
▁Bo	-11.121
▁հասակ	-11.1212
▁ակտ	-11.1219
▁ուսումնասիրություն	-11.1221
▁Զոհրաբ	-11.1222
&	-11.1227
▁Միրզոյանը	-11.1227
▁տաղավար	-11.1228
▁սխալներ	-11.123
▁Գար	-11.1231
TV	-11.1232
բոլ	-11.1232
▁արտահայտվել	-11.1233
▁կառավարությունում	-11.1234
▁ապահովող	-11.1236
▁Գաբրիել	-11.124
▁Գեորգի	-11.124
▁դաշտը	-11.1241
▁զբոսաշրջային	-11.1243
▁թաքնված	-11.1243
հո	-11.1243
որակ	-11.1247
եինք	-11.1248
▁ակադեմիա	-11.1248
▁այցելելու	-11.125
▁նվազեցման	-11.1251
▁թաղամաս	-11.1255
▁հարս	-11.1256
միր	-11.1256
go	-11.1257
▁Գորիսի	-11.1258
▁համաժողովը	-11.1258
sp	-11.1258
▁Հարկային	-11.1258
▁տեսահոլովակ	-11.1258
▁դրեց	-11.1261
ալով	-11.1262
ve	-11.1262
Т	-11.1263
▁Սեդրակ	-11.1263
▁Երգչուհի	-11.1263
▁սենյակում	-11.1265
▁Գեղամ	-11.1266
▁սրա	-11.1268
փի	-11.1268
С	-11.1269
▁կազմակերպիչ	-11.127
▁զարգացումների	-11.127
▁աճուրդ	-11.127
▁աչքերով	-11.127
▁ջանք	-11.1271
գոն	-11.1274
▁Նախագծի	-11.1274
▁Բելգիայի	-11.1274
▁դռները	-11.1275
▁ստացող	-11.1275
▁Ռադիո	-11.1276
▁հաջողությունների	-11.1277
▁ֆոտոշարք	-11.1279
▁բացված	-11.1279
▁ՎիվաՍել	-11.128
▁ազատվելու	-11.1281
▁County	-11.1282
▁Խոսել	-11.1283
ow	-11.1283
սար	-11.1284
▁Մամուլի	-11.1285
ութիւններ	-11.1285
▁Չարենցի	-11.1285
▁Մարտիրոսյանի	-11.129
▁սեփականատեր	-11.1293
▁ուսուցչի	-11.1294
▁առավելություն	-11.1296
▁Գո	-11.1296
▁պարունակ	-11.1298
▁բարերար	-11.1299
▁Պու	-11.13
▁օպերատոր	-11.13
▁սթրես	-11.1302
▁եզրափակչում	-11.1302
▁ինքդ	-11.1302
▁կիրառելու	-11.1305
▁արգելվում	-11.1307
▁Սալ	-11.1309
▁զրույց	-11.1309
▁հունվարին	-11.131
▁Արգենտինայի	-11.1311
▁Սահման	-11.1312
▁ասա	-11.1312
di	-11.1313
▁համաժողովին	-11.1316
ՍԿ	-11.1317
▁Մարուքյանը	-11.1317
▁Sport	-11.1318
▁դժբախտ	-11.1318
▁պատրաստակամություն	-11.1319
աղա	-11.132
▁կնպաստի	-11.1321
սպան	-11.1322
▁Ճանապարհ	-11.1322
▁խորհրդատվություն	-11.1322
▁առաքելություն	-11.1322
▁հինգերորդ	-11.1322
▁Եվրատեսիլ	-11.1323
▁փողոցներում	-11.1324
▁իրավունքներ	-11.1325
▁Դեմ	-11.1325
▁հաստ	-11.1327
▁գնումներ	-11.1334
▁Եկեղեցին	-11.1334
▁կալանավոր	-11.1335
ետիկ	-11.1336
▁հիշատակը	-11.1337
▁Պողոսյան	-11.134
▁ամուսնության	-11.1341
▁նրա՝	-11.1341
▁Եգիպտոսի	-11.1344
Որ	-11.1345
▁վերանորոգում	-11.1345
▁Ադ	-11.135
▁արձագանքեց	-11.1352
▁աշխատատեղ	-11.1357
ոսը	-11.1357
արժեք	-11.1358
▁հաղորդմամբ՝	-11.1358
▁Ադրբեջանն	-11.136
▁մայիսին	-11.1361
▁բուսական	-11.1361
▁ներդրումը	-11.1362
պայ	-11.1366
▁գնդակը	-11.1366
▁կրթահամալիրի	-11.1369
▁թշնամիներ	-11.137
▁Բարեւ	-11.1371
▁մրցույթը	-11.1376
▁ԳԱԼԱ	-11.138
▁օժտված	-11.1381
▁հաղորդմամբ	-11.1383
po	-11.1384
▁Մայքլ	-11.1384
▁կայանում	-11.1386
յուղ	-11.1388
▁պատուհան	-11.1389
ik	-11.1392
եցման	-11.1392
▁Բե	-11.1392
▁հիմքը	-11.1395
▁վերած	-11.1396
▁առաջնությանը	-11.1396
▁Սկզբում	-11.14
ha	-11.14
▁ծիծաղ	-11.14
▁գտած	-11.1401
հրա	-11.1403
▁երաժշտությունը	-11.1406
▁մայիս	-11.1406
կարգ	-11.1406
▁տեղափոխվում	-11.1407
▁Կոլ	-11.1408
▁փախ	-11.1409
▁առաջնահերթ	-11.141
▁ՈՐ	-11.1418
»-«	-11.1418
Սովոր	-11.1419
▁ձեռքերը	-11.1419
▁հաստատություն	-11.1419
▁հակասում	-11.142
▁փակում	-11.1421
▁Ձեռք	-11.1424
▁դադարում	-11.1426
ագին	-11.1427
▁մեծապես	-11.143
ամուտ	-11.1431
ակները	-11.1433
▁եղանակներ	-11.1434
▁զգացողություն	-11.1435
▁նշանակությունը	-11.1435
▁հիմնարկի	-11.1436
տիր	-11.1437
▁Բանն	-11.1439
▁հետաքննություն	-11.1439
▁Microsoft	-11.1441
▁փոխգործակցության	-11.1442
փակ	-11.1444
▁մարմնին	-11.1444
▁հանգամանքներ	-11.1445
▁Պետերբուրգում	-11.1446
▁իմաստուն	-11.1446
▁մոլորակ	-11.1446
▁Յո	-11.1448
▁կող	-11.1448
▁ընդգծելով	-11.1448
▁Հելսինկ	-11.1448
▁ճշմարտությունը	-11.1453
աշրջան	-11.1453
▁փոխանակում	-11.1454
▁տեսեք	-11.1455
▁հանդիպ	-11.1456
▁Տարածք	-11.1456
▁կբարձրանա	-11.1459
▁հարգելի	-11.1459
▁զեկույցը	-11.1459
▁ընդարձակ	-11.1459
Վերջին	-11.1463
▁կառավարել	-11.1463
▁ԿԳՆ	-11.1464
▁դասավոր	-11.1464
▁դին	-11.1466
▁օգնելու	-11.1467
▁ամիսներ	-11.1467
լինգ	-11.1468
▁գագաթ	-11.1471
▁New	-11.1472
տած	-11.1474
▁վաճառվել	-11.1478
▁դիրիժոր	-11.1478
▁արծաթե	-11.148
▁կատարվեց	-11.1481
▁տասն	-11.1481
mp	-11.1481
▁հանդիպելու	-11.1482
▁տրամաբանական	-11.1482
▁պատշգամբ	-11.1482
▁ջազ	-11.1483
հր	-11.1484
▁հանցանք	-11.1486
▁հաստատություններում	-11.1486
▁վստահում	-11.1487
▁կիսում	-11.1489
▁ժամանակների	-11.1489
▁տարր	-11.149
▁մասնակցեցին	-11.1492
▁սիրած	-11.1492
▁աշխատակազմ	-11.1498
▁նորագույն	-11.1498
▁ցուցաբերում	-11.1498
▁Չա	-11.1499
▁Կոնգրես	-11.1499
▁օրինակներ	-11.15
▁դրույթներ	-11.15
▁Դատարանը	-11.15
▁բառից	-11.1501
▁արտահայտություններ	-11.1501
▁Հով	-11.1502
ob	-11.1504
▁հոբելյանական	-11.1505
▁Եվրո	-11.1506
ացմամբ	-11.1508
րեյ	-11.1509
ապահով	-11.1511
▁Փար	-11.1512
▁հաշմանդամ	-11.1512
զոն	-11.1513
▁նետել	-11.1513
▁խմբակցությունը	-11.1516
մունք	-11.1518
О	-11.1518
▁տեսչական	-11.1519
▁Շնորհակալ	-11.1521
▁գո	-11.1522
▁Քոչարյան	-11.1522
▁Դիանա	-11.1525
▁մազերի	-11.1525
▁միջոցառումներին	-11.1528
▁ֆուտբոլիստները	-11.153
▁Գերմանիան	-11.1531
▁ինչպէս	-11.1532
▁Լուսանկարներ	-11.1535
▁խոտ	-11.1537
▁որոնում	-11.1538
▁ՅՈՒՆԵՍԿՕ	-11.1538
▁դրսում	-11.1538
▁այցելության	-11.1539
▁ժամանակավորապես	-11.154
▁Ստամբուլում	-11.1542
▁մշակվել	-11.1546
ah	-11.1546
▁ծառայողները	-11.1546
▁բացեց	-11.1546
▁տն	-11.1546
Գյումրի	-11.1548
▁թոշակ	-11.1552
▁ֆակուլտետը	-11.1552
▁տեքստը	-11.1554
▁թողարկել	-11.1554
ԱՐԿ	-11.1557
▁ԵԿՄ	-11.1558
▁Հրայր	-11.1558
արկել	-11.1559
պալ	-11.1559
երթ	-11.156
▁ներկայությամբ	-11.1561
▁Մերի	-11.1561
▁չէինք	-11.1564
▁դնելու	-11.1564
▁ցանկության	-11.1565
մուր	-11.1567
▁կազմակերպություններին	-11.1567
▁հոգե	-11.157
▁կայացնել	-11.1572
▁մատուցող	-11.1575
▁պետականության	-11.158
▁միջնադարյան	-11.158
▁պարկ	-11.1582
▁Մեսսին	-11.1582
▁տուժող	-11.1583
▁չա	-11.1583
▁հատկություններ	-11.1584
▁գան	-11.1585
▁բախտ	-11.1585
ագնաց	-11.1585
▁առաջնահերթություն	-11.1588
▁քարտեր	-11.1588
les	-11.1595
առաջ	-11.1597
▁թուրքերի	-11.1597
▁ասացին	-11.1597
▁ժամկետներում	-11.1598
▁դաշնային	-11.1598
ավանի	-11.1598
▁Նշ	-11.16
▁դեկտեմբեր	-11.1603
▁Սիմոն	-11.1605
▁դադարեցնելու	-11.1606
ist	-11.1606
կովկասյան	-11.1607
▁նմուշ	-11.1608
▁սպանված	-11.1609
▁բարձրաձայն	-11.161
▁Բել	-11.1611
ապատիկ	-11.1611
▁բաշխ	-11.1613
▁ցուցանիշ	-11.1614
▁հուշահամալիր	-11.1618
UTC	-11.1618
▁լեռնային	-11.1618
...»:	-11.1619
▁փոխարժեք	-11.162
▁գարուն	-11.162
▁չափերով	-11.1621
▁վաճառում	-11.1622
րայ	-11.1623
▁Իս	-11.1625
▁օգտ	-11.1626
▁համառ	-11.1626
▁Կովկասում	-11.1627
ատեսակներ	-11.1627
դիպ	-11.163
▁դրույթների	-11.1631
▁Ասիայի	-11.1631
▁հիմնախնդիրները	-11.1635
Եվրատեսիլ	-11.1636
▁տարեկանից	-11.1638
▁ներդաշնակ	-11.1638
▁քույր	-11.1639
▁վիճակագրության	-11.1639
▁բարձրացնելու	-11.164
▁անհիմն	-11.164
▁թողնելով	-11.1641
▁Մել	-11.1643
▁թողեց	-11.1647
▁մյուսը	-11.1647
իկա	-11.1651
▁կրթ	-11.1651
▁մոռացել	-11.1652
▁իմաստը	-11.1652
▁Պողոսյանի	-11.1654
▁Շիրակ	-11.1655
▁հրամանագրով	-11.1658
▁բնակարանի	-11.1659
▁Հետագայում	-11.1659
▁Արտաշես	-11.1659
ка	-11.166
▁բացատրում	-11.166
ռե	-11.166
Պարոն	-11.1664
▁կայքէջ	-11.1668
▁զատ	-11.167
ցնել	-11.1672
▁գոյ	-11.1673
▁Մահաց	-11.1675
▁օբյեկտ	-11.1676
▁Մարգարյան	-11.1677
Լույս	-11.1677
▁Քեր	-11.1679
▁համընդհանուր	-11.1679
▁զրույցի	-11.168
▁արձանագրություն	-11.168
▁Ազգ	-11.1682
Մարտի	-11.1682
▁Դիմում	-11.1682
▁հարաբերություն	-11.1687
▁պատասխաններ	-11.1687
▁գրպան	-11.1687
▁կաթիլ	-11.1687
▁ուժային	-11.1689
▁արդարության	-11.1689
ե՛ր	-11.1689
▁բարձրացրել	-11.169
▁պատասխանները	-11.1692
▁բացակայությունը	-11.1695
▁բանտ	-11.1697
▁Ձորի	-11.1697
կաց	-11.1698
▁Description	-11.1699
▁քրդական	-11.1699
ts	-11.1701
▁ճանապարհների	-11.1701
▁տեսավ	-11.1701
▁հաստատող	-11.1701
▁լարվածության	-11.1703
▁տեղեկացնել	-11.1704
սովոր	-11.1706
▁Տերյան	-11.1708
ատիվ	-11.1713
▁ելույթի	-11.1718
▁համեստ	-11.172
▁տուփ	-11.1722
▁յայտն	-11.1724
▁հալ	-11.1728
▁Պետերբուրգ	-11.173
▁տարատեսակ	-11.173
ավառ	-11.1731
▁ֆոն	-11.1734
▁Քեն	-11.1734
▁անկախությունը	-11.1737
▁Մելիքյանը	-11.1737
▁եռամսյակում	-11.1739
ER	-11.174
Թանգարան	-11.1742
Via	-11.1743
▁Մովսիսյանը	-11.1743
▁ձկն	-11.1745
▁վկայ	-11.1745
▁հուշագիր	-11.1746
▁ծավալների	-11.1746
▁Br	-11.1748
▁թերթեր	-11.175
▁Կարապետ	-11.175
լիս	-11.1753
▁հաջողվում	-11.1754
դային	-11.1755
Բախշյան	-11.1756
▁բարձրացում	-11.1756
▁քաղցկեղ	-11.1756
ոյին	-11.1758
զել	-11.176
▁կառուցողական	-11.1761
ավետ	-11.1761
ատեղի	-11.1761
▁Շար	-11.1765
▁սերն	-11.1765
հմ	-11.1766
▁տոնին	-11.1766
▁ակտիվների	-11.1766
ավի	-11.1767
▁Բաքուն	-11.1768
▁արմատներ	-11.177
▁նվիրում	-11.177
▁խոսքերն	-11.1771
ԱՔ	-11.1772
▁Կոնգրեսի	-11.1773
▁հանրությունը	-11.1776
▁վճարելու	-11.1776
երես	-11.1777
▁պլ	-11.1778
▁եկա	-11.178
▁Դատավոր	-11.1783
▁հաշվետվության	-11.1784
▁Մասիս	-11.1784
տեք	-11.1785
▁մայրիկ	-11.1788
▁ոսկի	-11.1789
պետական	-11.179
▁ներուժը	-11.1791
▁պրոցես	-11.1792
▁վարվել	-11.1796
▁տրամադր	-11.1797
▁բնակավայրերի	-11.1799
▁Խաչիկ	-11.18
oulettechatting	-11.1801
▁Ժոզե	-11.1801
հաստատ	-11.1801
▁էթիկայի	-11.1801
▁ռեյտինգային	-11.1802
▁առաջարկեց	-11.1803
!!!	-11.1805
▁տարուց	-11.1808
▁ճշմարտություն	-11.1808
եջ	-11.1811
▁թարգմանությունը	-11.1812
կություն	-11.1814
վեմ	-11.1816
▁հոկտեմբերին	-11.1817
▁ցուցանիշները	-11.1819
▁հինգշաբթի	-11.1821
օն	-11.1822
▁խորհրդանշական	-11.1825
▁կցանկանայի	-11.1826
mi	-11.1828
Պետք	-11.1829
▁այգի	-11.183
▁պահվում	-11.183
▁արձագանքը	-11.1831
▁Պատգամավոր	-11.1832
▁վարելու	-11.1832
ռու	-11.1833
▁աշակերտներ	-11.1834
▁շահերից	-11.1836
▁Բաղդասարյանի	-11.1836
▁արժեքները	-11.1838
▁շեշտել	-11.1838
▁հյուրերի	-11.1839
▁Նորքի	-11.1839
▁Յորքի	-11.184
▁պարի	-11.1842
▁հրավերով	-11.1842
▁Հուսով	-11.1842
▁Ներսես	-11.1843
▁տեւողությունը	-11.1846
А	-11.1846
▁պարտվեց	-11.1848
լս	-11.1848
▁երկրպագուների	-11.1849
▁մակերեսը	-11.1853
ապար	-11.1855
▁ՀԱ	-11.1857
տրա	-11.1857
▁նախագծերը	-11.1858
▁նկարները	-11.186
VI	-11.186
▁պետությանը	-11.1862
▁օրենսդիր	-11.1862
▁չինական	-11.1863
▁Ինտերնետ	-11.1864
▁Հիմնադրամի	-11.1864
▁ցանկությունը	-11.1865
բույր	-11.1866
լայ	-11.187
թագ	-11.1871
սուր	-11.1872
հակ	-11.1875
▁պարտվել	-11.1876
անյանը	-11.1877
ԱՅԻ	-11.188
թել	-11.1881
ույթներ	-11.1882
▁Արեւելքում	-11.1882
▁ագրեսիվ	-11.1883
▁ռուսաստանցի	-11.1883
▁օդաչու	-11.1883
▁ճեմարան	-11.1883
▁գործընկերոջ	-11.1883
▁առօրյա	-11.1884
ախմբի	-11.1886
▁վարչությունը	-11.1888
աներ	-11.1889
ՌԻԱ	-11.189
▁հարազատներին	-11.1891
▁բարձրակարգ	-11.1891
▁սահ	-11.1891
▁հաշվապահական	-11.1894
▁Խմբ	-11.1898
եքս	-11.19
▁փաստում	-11.19
▁ո՞նց	-11.1903
▁ուսուցչուհի	-11.1904
▁Ավետիք	-11.1905
▁Մբ	-11.1906
▁պատվիրել	-11.1909
▁հարգել	-11.1909
բայց	-11.1909
▁գորգ	-11.191
▁վերափոխ	-11.1911
ցիայի	-11.1912
▁վերահսկում	-11.1912
տիվ	-11.1913
▁աշխատանքն	-11.1916
▁Շուշիի	-11.1916
▁ընթերց	-11.1916
▁զիջել	-11.1917
▁հետաքննության	-11.1918
▁Կայ	-11.1919
▁հսկա	-11.1921
▁ստեղծագործությունները	-11.1924
▁ո՞ւր	-11.1925
▁տառապում	-11.1925
▁հիվանդություններ	-11.193
Բոլոր	-11.1931
▁Ջան	-11.1933
▁գիր	-11.1933
ագրված	-11.1935
▁գծ	-11.1936
▁վնասվածքներով	-11.1936
▁փոխանակ	-11.1936
▁երկաթ	-11.1939
▁ութ	-11.194
▁ավանդույթ	-11.1941
ight	-11.1941
▁վայրէջք	-11.1945
▁Ակումբ	-11.1945
▁կորուստ	-11.1947
▁գրավի	-11.1948
▁կազմելու	-11.1949
▁կարողանանք	-11.1949
▁ԱՇԽԱՐՀ	-11.195
▁պալատ	-11.195
հե	-11.1951
▁վերացնելու	-11.1952
▁ներկայանալ	-11.1953
▁բացահայտման	-11.1955
▁էջի	-11.1955
փոխ	-11.1956
▁հայտն	-11.1958
Դեպի	-11.1959
▁հողերի	-11.1963
▁մաքրել	-11.1964
▁աշխատանքով	-11.1965
▁վիրտուալ	-11.1966
▁տեսուչ	-11.1967
ճան	-11.1967
▁զարգացնելու	-11.1968
▁Քարդաշյանը	-11.1969
▁բնակիչներին	-11.197
▁իդեալական	-11.1971
Հար	-11.1971
▁ներկայացումը	-11.1971
դարձ	-11.1974
▁ոքի	-11.1974
ացուցիչ	-11.1974
▁Օրերս	-11.1976
▁ավարտված	-11.1977
▁առաջնորդների	-11.1977
▁տեսություն	-11.1977
▁ծառայող	-11.1978
▁օրենքն	-11.1981
ip	-11.1981
բր	-11.1982
▁հասնելով	-11.1983
▁քնել	-11.1984
▁միավորման	-11.1984
▁խաչքար	-11.1985
մշակ	-11.1986
▁տոկոսադրույք	-11.1986
▁արժողությամբ	-11.1987
▁պատահել	-11.1987
▁հետախուզության	-11.1987
▁հարցազրույցի	-11.1987
▁ազդեցիկ	-11.1987
▁Օգտագործ	-11.1988
կառավար	-11.1989
▁Գոր	-11.1993
▁հաջողվեց	-11.1994
▁մարզչի	-11.1995
կետ	-11.1995
▁վարկեր	-11.1996
▁ասպարեզում	-11.1996
լայն	-11.1996
յլ	-11.1996
ադարան	-11.1997
▁խլ	-11.1998
▁ցուցանիշների	-11.1999
▁կազմով	-11.1999
▁Աբրահամյան	-11.2
▁հանրաքվե	-11.2
▁Հոգ	-11.2
▁հրթիռ	-11.2001
▁խոստումներ	-11.2001
ՀՀԿ	-11.2002
▁խնդրանք	-11.2005
▁Սեֆիլյանի	-11.2007
▁գիտաշխատող	-11.2008
▁դարաշրջան	-11.2008
▁ՀԱՅԱՍՏԱՆ	-11.2008
▁գործարք	-11.2008
▁Համերգ	-11.2008
▁հաստատություններ	-11.2009
▁Դիտվ	-11.2009
▁փա	-11.2011
մենտ	-11.2014
▁Հարությունյանն	-11.2017
ՅՈՒ	-11.2017
▁բալետի	-11.2022
▁Լոնդոն	-11.2022
▁խոսքն	-11.2022
▁էիր	-11.2022
▁թունավոր	-11.2023
▁մեղադրանքով	-11.2028
▁ֆունտ	-11.2028
▁թշնամու	-11.2028
▁ԹԻՎ	-11.2029
մլ	-11.2031
▁անհ	-11.2032
▁Օբաման	-11.2033
▁հայրենակիցներ	-11.2037
▁Պատմա	-11.2038
▁սիրահար	-11.204
▁շրջանակ	-11.2041
ՀԺ	-11.2041
▁Ջու	-11.2041
▁ՄԱՐԶԻ	-11.2041
▁իրագործման	-11.2043
▁Ամերիկացի	-11.2045
▁գրելու	-11.2048
▁որոնման	-11.205
մը	-11.2051
▁միջոցի	-11.2051
▁սարքավորումներ	-11.2051
▁Tags	-11.2051
▁Բնական	-11.2052
Հիմա	-11.2052
▁Նուբարաշեն	-11.2053
▁կանգառ	-11.2054
▁բնութագր	-11.2057
▁Ba	-11.2058
▁թողարկման	-11.2058
▁Ժողովի	-11.2058
▁մեծացել	-11.2059
զյան	-11.2061
▁St	-11.2063
▁մարզադաշտ	-11.2066
աշխարհ	-11.2067
պրես	-11.2067
▁ծավալով	-11.2067
▁Շենգավիթ	-11.207
▁հանգեցնում	-11.2071
▁կատեգորիայում	-11.2071
▁ամէն	-11.2071
▁կենտրոնների	-11.2076
▁Ռուսաստանն	-11.2078
▁ապացուց	-11.2078
▁մարդկանցից	-11.2079
▁շնչ	-11.2083
▁Ինքն	-11.2084
▁:)	-11.2084
▁Ձայն	-11.2087
Այո	-11.2088
▁ձուկ	-11.2089
▁տարվում	-11.209
▁փուլեր	-11.2091
▁geolo	-11.2091
▁երաշխիքներ	-11.2093
▁վճարովի	-11.2093
▁սահմանապահ	-11.2093
▁կրելու	-11.2097
▁կենսաբանական	-11.2097
ա՞	-11.2098
▁տվող	-11.2098
▁ռիսկերի	-11.21
▁քարե	-11.2101
▁տնտես	-11.2101
▁ներգրավել	-11.2104
րբ	-11.2104
▁վերադարձի	-11.2105
ենա	-11.2106
▁պայմանավորվել	-11.2106
▁դեսպանության	-11.2107
▁վերականգն	-11.2108
▁գիտելիքները	-11.2108
▁հրավիրվել	-11.2112
ոտի	-11.2112
▁տարրեր	-11.2112
ալիք	-11.2113
▁տնտեսագիտական	-11.2113
▁Մկրտիչ	-11.2113
▁երթեւեկելի	-11.2113
▁սթափ	-11.2114
▁բարձ	-11.2115
ոստ	-11.2116
▁կպ	-11.2116
▁տուրքի	-11.2116
▁բեռն	-11.2118
Չեմ	-11.2119
▁Բանկը	-11.2119
▁շրջանավարտների	-11.2121
▁միլիոնավոր	-11.2121
ՏԵՂ	-11.2122
▁փորձելով	-11.2124
Վրաստան	-11.2127
▁հաշվետվությունը	-11.2127
▁գույնը	-11.2127
▁Հիսուսը	-11.2127
▁իմացել	-11.2128
▁ամբաստանյալ	-11.2129
▁տեղափոխվեց	-11.2129
ԱՐԱՆ	-11.213
▁թեմատիկ	-11.213
▁Նշան	-11.2131
▁համերգներ	-11.2132
▁համամասնական	-11.2134
պեն	-11.2134
հոգ	-11.2135
▁նվազեցնել	-11.2136
▁հրեա	-11.2137
▁սոց	-11.2137
▁Մեյ	-11.2145
▁վաճառ	-11.2146
▁արձանի	-11.2146
▁օրինակով	-11.2146
▁քարտեզ	-11.2147
▁զարգացումներ	-11.215
▁որտե՞ղ	-11.2151
ացնենք	-11.2151
▁Նախա	-11.2152
▁կարգադր	-11.2152
▁դիզայներ	-11.2153
▁PanARMENIAN	-11.2155
▁ինդեքս	-11.2155
▁գոլը	-11.2158
▁Ենթադր	-11.2159
▁համայնքապետ	-11.216
▁М	-11.216
▁գրադարանի	-11.216
▁օբյեկտներ	-11.2163
▁երջանկություն	-11.2163
▁մասնագետի	-11.2167
▁արտահայտությունը	-11.2168
▁Հրազդանի	-11.2169
▁հաղորդագրություններ	-11.2169
▁վտանգը	-11.2169
▁ընդլայնել	-11.217
▁ձու	-11.2171
▁Ֆիլիպ	-11.2172
▁քոլեջ	-11.2172
▁մտքերը	-11.2176
▁մրցանակաբաշխության	-11.2176
▁լցնել	-11.2176
▁Կիրակի	-11.2177
▁Բրիտանիայում	-11.2177
Տաշիր	-11.2178
▁առաքելական	-11.2183
▁ներդնել	-11.2183
▁կայքեր	-11.2188
▁թոռ	-11.2188
▁վարք	-11.2189
▁տպագր	-11.2191
▁թույլատր	-11.2196
▁article	-11.2197
▁Աջափնյակ	-11.2197
▁Դավթաշեն	-11.2197
▁կարճատեւ	-11.2197
▁փափուկ	-11.2197
▁պատմամշակութային	-11.2197
▁Mail	-11.2198
▁անդրադառնալ	-11.2201
▁Ջուր	-11.2201
▁առատ	-11.2203
au	-11.2204
▁փաթեթի	-11.2204
նշել	-11.2205
▁Նախկինում	-11.2207
▁Եղանակը	-11.2208
▁ցուցադրում	-11.2209
▁դրվագ	-11.221
▁ակնկալիքներ	-11.221
з	-11.2211
▁բանտում	-11.2213
▁գործընթացները	-11.2213
▁ձեւի	-11.2214
▁չորեքշաբթի	-11.2219
▁եթէ	-11.2219
▁v	-11.2219
▁շինություն	-11.2221
ank	-11.2223
▁Դատախազ	-11.2224
▁խաղա	-11.2224
ՏԻ	-11.2226
Հայաստանում	-11.2227
▁բյուջեից	-11.2227
▁հանձնում	-11.2227
▁ճգնաժամ	-11.2232
▁Ուղիղ	-11.2233
յուլ	-11.2233
բերի	-11.2234
▁այդմ	-11.2234
▁ավտոբուս	-11.2234
▁ռադիոյի	-11.2234
չեն	-11.2235
▁views	-11.224
▁մենաշնորհ	-11.224
քնն	-11.2241
▁համերգային	-11.2243
▁միացում	-11.2243
▁Իգոր	-11.2244
կտոր	-11.2245
▁ֆիզիկայի	-11.2246
եսը	-11.2249
ոլո	-11.2249
▁աղի	-11.2252
▁առաջարկները	-11.2253
չության	-11.226
▁կարգավիճակը	-11.2261
▁կլինեք	-11.2261
▁Աստղ	-11.2262
▁Դեռեւս	-11.2262
▁Լրագրող	-11.2262
▁ճակատագրի	-11.2262
▁Եհովայի	-11.2263
▁Ծիրանի	-11.2263
▁արարողության	-11.2268
▁վերահսկել	-11.2269
բարձր	-11.2269
▁Երեւանյան	-11.2269
▁հեղափոխությունը	-11.2272
▁կարագ	-11.2273
▁հույսեր	-11.2275
▁եվրոյի	-11.2275
▁դեսպանին	-11.2276
▁հարկերի	-11.2278
▁ղեկավարին	-11.2278
▁տիր	-11.228
▁դինամիկ	-11.2281
▁մյուսների	-11.2282
▁մեծամասնություն	-11.2283
ԱԺ	-11.2283
▁քրգործ	-11.2284
▁Մալաթիա	-11.2284
▁ճակատագիրը	-11.2284
▁մակարդակում	-11.2286
▁գործառույթներ	-11.2286
▁Գասպարյանի	-11.2286
▁դասարանում	-11.2288
չու	-11.2291
▁ծառայություններից	-11.2291
▁ջրով	-11.2293
▁Սիրիա	-11.2294
▁քաղաքապետարանը	-11.2295
▁ծռերի	-11.2296
գամ	-11.2297
շեր	-11.2299
▁ղեկավարությամբ	-11.2299
▁հանրա	-11.23
▁մթնոլորտում	-11.2301
▁տնից	-11.2302
age	-11.2303
▁երկրպագու	-11.2304
▁լայնածավալ	-11.2305
▁Մուշեղ	-11.2305
▁Բաղ	-11.2307
▁քննադատության	-11.2308
▁մարտեր	-11.2312
Մոսկվա	-11.2312
▁Ավստրիայի	-11.2313
▁ինչով	-11.2314
չիկ	-11.2314
եֆ	-11.2315
▁վերլուծություններ	-11.2319
▁կոչել	-11.2319
▁լրատվամիջոցներ	-11.232
▁տանջ	-11.2323
ՎԵՐ	-11.2324
նելու	-11.2325
եցնող	-11.2325
▁Ծռեր	-11.2326
▁ձեռնտու	-11.2326
▁Մարզպետ	-11.2326
▁Գտնվ	-11.2327
▁ձեւավորվում	-11.233
▁խնամք	-11.2337
▁նախաձեռնություններ	-11.2337
▁հայրենիքը	-11.234
Տես	-11.2341
▁բաժնետոմսերի	-11.2342
vo	-11.2343
▁կանցկացնի	-11.2348
▁բնագավառներում	-11.2349
եւոր	-11.2351
ծա	-11.2351
▁ամենալավ	-11.2351
▁նրանում	-11.2352
▁լրագրողներ	-11.2352
▁տեղումներ	-11.2352
▁այլոց	-11.2352
▁Տարիներ	-11.2354
▁հայացքներ	-11.2356
bo	-11.2356
▁հերոսների	-11.2361
▁մեկնարկում	-11.2363
▁ուղեղ	-11.2365
▁հանք	-11.2366
▁որոնցում	-11.2367
▁ոստիկանական	-11.2368
▁խթանում	-11.2369
▁խորհրդատվական	-11.2369
▁պատանեկան	-11.2369
▁խմբագրությամբ	-11.2369
▁պարզաբանել	-11.237
▁կարգին	-11.237
▁For	-11.2372
▁Լավրովը	-11.2372
▁տրվող	-11.2374
▁ամսից	-11.2375
▁եղ	-11.2376
▁քնած	-11.2376
▁հասած	-11.2376
▁արտոնություններ	-11.2379
ցող	-11.2379
ետա	-11.238
▁ֆինանսավորում	-11.2385
▁սահմաններից	-11.2386
ակցության	-11.2389
▁վերջը	-11.2389
▁հեռուստաընկերություն	-11.239
▁Փոքրիկ	-11.239
▁անվավեր	-11.2391
ստեղծ	-11.2392
▁Հայրապետյան	-11.2393
▁ցույցեր	-11.2393
▁խաչի	-11.2394
▁կարգավորել	-11.2397
▁ներուժ	-11.2398
ոլի	-11.24
▁անդամակցության	-11.2402
▁մաշկը	-11.2402
▁Թր	-11.2403
ack	-11.2406
▁հրատ	-11.2406
աբա	-11.2407
▁Քու	-11.2408
▁ցավը	-11.2409
այա	-11.2409
▁Վաղ	-11.2409
▁Գրիգորյանին	-11.2411
▁Սրա	-11.2411
▁ներգաղթ	-11.2413
չեր	-11.2413
▁արտացոլում	-11.2414
▁պատրաստելու	-11.2415
▁Ցանկանում	-11.2416
զը	-11.2416
▁ներկայությունը	-11.2416
▁խորհրդատու	-11.2416
▁ինժեներ	-11.2421
»),	-11.2426
▁նմուշներ	-11.2427
▁Բաղդասարյան	-11.2429
այով	-11.2429
վճար	-11.2429
▁Արտա	-11.243
▁քն	-11.2432
▁համակարգին	-11.2432
▁թեք	-11.2432
▁ղեկավարներ	-11.2433
▁հռչակ	-11.2434
▁աշխարհից	-11.2434
▁կարծիքի	-11.2434
▁BlogNews	-11.2435
▁բազմակողմանի	-11.2435
Նիկոլ	-11.2439
Պետրոսյանը	-11.2443
▁Աստուած	-11.2446
▁կայքից	-11.2446
▁տարիքը	-11.2446
▁մասնակց	-11.2448
ալյան	-11.2448
ալեզու	-11.245
կուլ	-11.2451
▁Խոս	-11.2451
IN	-11.2452
▁թղթի	-11.2452
▁Ո՛չ	-11.2454
▁ռեսուրսներ	-11.2455
▁նվիր	-11.2455
▁iLur	-11.2456
▁վերապատրաստում	-11.2456
▁գրառման	-11.2456
▁մեղադրվող	-11.2457
▁նախաձեռնությունների	-11.2458
▁անփոփոխ	-11.2458
▁շահագրգռված	-11.2458
▁ծաղիկ	-11.2458
▁երգերը	-11.246
▁լուսանկարիչ	-11.2461
բանասիրական	-11.2464
ասենյակ	-11.2467
▁ասուլիսը	-11.2469
▁ուղղակիորեն	-11.2469
հրատարակ	-11.2469
▁քարեր	-11.247
▁քանիսը	-11.2471
▁շունչ	-11.2472
▁կասկածյալ	-11.2474
▁վնասել	-11.2476
▁գլխավորում	-11.2476
▁պղպեղ	-11.2478
▁հեռուստացույց	-11.2478
Գիտ	-11.2479
▁համեմատել	-11.2479
▁աղջիկները	-11.2482
▁տարելիցի	-11.2482
▁ավելացնում	-11.2483
դամ	-11.2483
▁պապը	-11.2484
▁փոստային	-11.2488
▁անտառային	-11.2489
Ձեր	-11.2491
▁սպասված	-11.2491
▁բաժանորդ	-11.2491
շահ	-11.2492
▁Ամանորի	-11.2492
▁Քայլ	-11.2495
ԱՆՔ	-11.2499
▁տեղափոխում	-11.25
▁պայթյունի	-11.25
▁լուրերը	-11.25
▁Ապրանք	-11.2501
ԱՐԱՐ	-11.2504
ki	-11.2505
▁օրացույց	-11.2505
▁տարեց	-11.2506
▁ռեստորան	-11.2507
▁չխ	-11.2508
▁ստեղծագործությունների	-11.2509
▁համարյա	-11.2509
▁կունենանք	-11.251
▁պայմանագրեր	-11.251
▁տեղից	-11.2514
երեք	-11.2515
ճար	-11.2516
վեցի	-11.2516
▁А	-11.2517
▁վերականգնելու	-11.2517
▁Բերդ	-11.2517
▁լց	-11.2518
▁ստեղծեց	-11.2519
Լուսանկար	-11.2521
▁Բոր	-11.2522
▁զար	-11.2522
▁Կաթողիկոսութեան	-11.2524
աշատ	-11.2525
կոլ	-11.2526
Բաց	-11.2526
▁ձայնով	-11.2527
▁ներառ	-11.2527
▁նկատելի	-11.2527
▁թավշյա	-11.2531
Ավելին	-11.2533
մագ	-11.2534
▁Վաճառք	-11.2535
▁ինձնից	-11.2535
▁Չկա	-11.2537
▁Չար	-11.2538
▁կունենաք	-11.2539
▁համակ	-11.254
Н	-11.254
▁Բաբայանի	-11.2541
our	-11.2542
▁Միխայիլ	-11.2544
▁ըմբիշ	-11.2544
▁Եղիշե	-11.2544
▁ճկուն	-11.2544
▁հիշեցրեց	-11.2545
▁արտագնա	-11.2545
▁ՓՄՁ	-11.2546
առաջադր	-11.2548
▁համակարգով	-11.2548
▁մեդալակիր	-11.2549
▁մրցավար	-11.2549
▁դուստրը	-11.2552
▁խաղողի	-11.2552
▁շնորհանդես	-11.2554
▁վատն	-11.2554
▁խավար	-11.2556
դիտ	-11.2556
▁բաժանմունք	-11.2557
▁տեղադրման	-11.2557
թայ	-11.2558
ian	-11.2559
▁Ղազարյանի	-11.2563
▁զարգացումները	-11.2565
▁օպերայի	-11.2565
▁Արի	-11.2565
▁պապի	-11.2566
Today	-11.2567
▁հոգատար	-11.2567
▁անցկաց	-11.257
▁սաղ	-11.2571
▁սրանք	-11.2574
▁Տու	-11.2575
▁մտա	-11.2576
▁անցնի	-11.2578
ec	-11.2579
▁բռնկվել	-11.2579
▁բացմանը	-11.2579
▁կողմերին	-11.258
▁Հիսուսի	-11.2581
so	-11.2584
ՏԱՐ	-11.2584
ՅԱՆԻՆ	-11.2586
ang	-11.2586
▁թռչող	-11.2588
▁Real	-11.2591
▁աղքատության	-11.2594
▁Չինաստան	-11.2595
ԱՆՑ	-11.2595
Լավագույն	-11.2599
▁հանձնարարականներ	-11.2599
▁Ուս	-11.26
▁ուղղություններ	-11.2601
փոփ	-11.2602
▁կառավարիչ	-11.2602
ե՜	-11.2606
Հետք	-11.2607
▁հայացքից	-11.2608
▁կանխ	-11.2609
▁տարեդարձի	-11.2611
▁Նայ	-11.2612
▁ընթերցմամբ	-11.2612
▁փաթեթը	-11.2614
▁ստացվեց	-11.2615
▁Ֆի	-11.2615
▁Թիվ	-11.2617
դպրոց	-11.2619
▁հանցագործ	-11.2619
▁կբերի	-11.2619
իչի	-11.262
▁լավն	-11.262
▁Նկար	-11.2621
▁կրկնել	-11.2621
▁օրենքներ	-11.2622
▁ծավալները	-11.2623
Լավ	-11.2623
ԵՀ	-11.2624
▁ազատելու	-11.2625
▁ցանցը	-11.2627
▁հյուրերին	-11.2628
▁նախաձեռն	-11.2631
▁գործիքների	-11.2631
▁բարձրության	-11.2631
▁ինտեգրման	-11.2633
▁երգերի	-11.2635
▁առարկաների	-11.2635
▁չափանիշներին	-11.2637
▁Մեղ	-11.2639
▁Հայրենիք	-11.264
▁սրտում	-11.2641
▁Համալսարան	-11.2641
▁աղբյուրներ	-11.2642
▁սրտ	-11.2642
▁արձագանքում	-11.2643
թիկ	-11.2643
▁ձմեռ	-11.2644
▁ապարատ	-11.2645
▁նորարարական	-11.2646
▁կրճատել	-11.2646
ո՞վ	-11.2654
րք	-11.2654
▁հաղթելու	-11.2654
▁կարգավորումը	-11.2654
▁աշտարակ	-11.2655
▁Analitik	-11.2655
▁այդպիսով	-11.2655
▁Շուտով	-11.2655
▁Հայրենական	-11.2655
▁արտադրամաս	-11.2655
▁բացատր	-11.2656
▁չափորոշիչներ	-11.2656
▁մետաղ	-11.2656
▁գաղտնիքը	-11.2657
▁Ինքը	-11.2658
▁տեսած	-11.2661
▁բարեկամներ	-11.2661
▁կոալիցիայի	-11.2667
ԿՈ	-11.267
iz	-11.2671
▁աղջիկներ	-11.2672
▁տեղադրվել	-11.2672
▁տաքսի	-11.2674
ավորների	-11.2676
▁գին	-11.2677
▁պատվիրատու	-11.2677
▁արվեստագետ	-11.2678
▁ճարտարապետական	-11.2679
▁ստեղծագործ	-11.268
▁Շո	-11.2681
▁կենտրոններ	-11.2681
▁թույլատրվում	-11.2683
ույր	-11.2684
Z	-11.2686
չար	-11.2688
լաս	-11.2689
▁կարիքը	-11.269
▁Pa	-11.269
վրացական	-11.269
ակատար	-11.2691
▁շաբաթական	-11.2691
▁պատի	-11.2692
▁շարժումներ	-11.2694
▁գործ՝	-11.2695
▁օրենքներով	-11.2695
▁ոճով	-11.2696
▁ամենակարեւորը	-11.2696
ра	-11.2698
▁Լս	-11.2698
▁ներկայացումներ	-11.2699
▁մրցակից	-11.27
▁Համար	-11.2701
▁գաղափարների	-11.2702
▁Պետերբուրգի	-11.2703
▁թատրոնը	-11.2704
ձեւ	-11.2707
էջ	-11.2707
▁փետրվար	-11.271
▁քանդակագործ	-11.271
ղճ	-11.2711
▁հանգամանքների	-11.2712
▁Հայրապետյանի	-11.2714
▁Օդի	-11.2715
▁գրառումներ	-11.2715
ագրման	-11.2719
▁ենթարկ	-11.272
▁Բոլորը	-11.272
▁հորիզոնականում	-11.2721
▁ինքնաթիռը	-11.2721
▁հեծանիվ	-11.2722
▁կոմունա	-11.2724
▁իրադարձություն	-11.2724
▁վերջնականապես	-11.2724
▁նյարդային	-11.2725
թափ	-11.2726
▁Բորիս	-11.2726
▁սպասվող	-11.2726
զոր	-11.2728
▁Մահ	-11.2728
▁Տոն	-11.2729
▁կանոններ	-11.2729
մոլ	-11.2729
▁արաբական	-11.273
▁ենթակետ	-11.2731
▁կանչում	-11.2733
▁Ասաց	-11.2733
▁պատժամիջոցները	-11.2735
ոնա	-11.2736
համակարգ	-11.2737
▁ձեռքբերումներ	-11.2739
ազդ	-11.2741
▁գրքերը	-11.2743
▁աշխարհաքաղաքական	-11.2745
▁հրապարակումների	-11.2745
▁սուպերմարկետ	-11.2745
▁կասկածանքով	-11.2745
▁դրության	-11.2745
ամե	-11.2746
▁շարադրել	-11.2746
▁կետերի	-11.2748
▁պայմանական	-11.275
▁պատանդ	-11.275
▁օրգանիզմ	-11.2752
ast	-11.2753
▁Մինասյանի	-11.2756
▁մյուսները	-11.2757
արեւմտյան	-11.2761
▁կասկածում	-11.2763
▁հետազոտություններ	-11.2766
▁u	-11.2767
▁արտահոսք	-11.2767
▁հաղորդակցության	-11.2767
▁ընդլայնում	-11.2768
▁առեւտրական	-11.2768
▁հիմունքներով	-11.2769
▁հաշիվներ	-11.277
▁զեկույցի	-11.2772
▁ուսումնասիրությունների	-11.2773
▁հատկացված	-11.2774
▁Այսօրվա	-11.2774
վաս	-11.2774
▁տնկ	-11.2775
▁Վոլ	-11.2778
▁հետեւյալն	-11.278
▁իջեց	-11.278
▁խայտառակ	-11.2785
▁Новости	-11.2785
▁Անդրե	-11.2789
▁վավերագրական	-11.279
▁թե՝	-11.2793
▁հուլիս	-11.2793
▁զարգացող	-11.2794
▁Ագ	-11.2796
ՈՒԹՅՈՒՆՆԵՐԻ	-11.2798
▁դատախազությունը	-11.2799
արժան	-11.2799
▁աշխատություններ	-11.28
թո	-11.2802
▁Սիլվա	-11.2804
▁պապիկ	-11.2804
ակեր	-11.2805
բացառությամբ	-11.2807
▁Նովոստի	-11.2811
▁վստահությունը	-11.2811
▁ասուլիսում	-11.2812
▁հանդիս	-11.2812
х	-11.2812
▁ՖԻՖԱ	-11.2812
▁զրկել	-11.2812
▁ընտրվելու	-11.2813
րեր	-11.2814
▁ՀԷԿ	-11.2814
▁ամսում	-11.2815
▁ազատությունը	-11.2816
▁աշակերտներին	-11.2817
▁դարեր	-11.2817
▁շան	-11.282
▁պայմաններին	-11.2824
ana	-11.2826
▁Ռեյ	-11.283
անվան	-11.2832
▁Մրց	-11.2834
▁թագավորի	-11.2834
▁PhD	-11.2835
▁Կրիշտիանու	-11.2835
▁վերցված	-11.2835
մակ	-11.2836
ԱՆԳ	-11.2837
▁Կարապետյանին	-11.2837
պաս	-11.2841
▁տղաները	-11.2841
▁Լարս	-11.2842
▁հյուրն	-11.2844
աթերթ	-11.2847
▁հիմնարկների	-11.2849
▁ո՞ւմ	-11.2849
▁գործնականում	-11.2851
▁Չգիտեմ	-11.2853
ե՛	-11.2854
▁թեմաների	-11.2854
▁զույգեր	-11.2857
▁քայքայ	-11.2858
▁Գրադարան	-11.2858
▁կրկնօրինակ	-11.2858
▁դպրոցներ	-11.2859
▁Մաքսիմ	-11.2859
▁դռան	-11.286
մել	-11.2864
▁նախագահության	-11.2865
▁պատճառներ	-11.2866
pa	-11.2866
▁i	-11.2867
▁Անձնական	-11.2869
▁խմբ	-11.287
▁հյուրանոցային	-11.2871
▁գիտա	-11.2872
▁հիմնել	-11.2874
▁դիմող	-11.2875
▁հունական	-11.2876
▁ընտրանու	-11.2876
▁հրաժար	-11.2878
▁շենքեր	-11.2878
առատ	-11.2878
▁տարավ	-11.2879
▁ձյան	-11.288
▁իրերի	-11.288
▁հաղորդ	-11.288
▁ստեղծվեց	-11.288
▁գերատեսչությունների	-11.2881
▁չգիտեն	-11.2885
▁դիրքեր	-11.2885
ուկը	-11.2887
▁Գիտնականները	-11.2889
ze	-11.289
▁Ճանապարհային	-11.2894
▁ոգին	-11.2896
▁կահույք	-11.2897
▁Բնակչության	-11.2903
▁Սահմանադրությամբ	-11.2903
▁միացյալ	-11.2903
▁արժանացավ	-11.2904
▁Լաբորատորիայի	-11.2904
▁Դիլիջանի	-11.2904
▁ցանցում	-11.2904
▁աշխարհագրական	-11.2905
անդի	-11.2908
ուան	-11.2908
▁ձեռքբերում	-11.2909
▁վերլուծել	-11.291
ասար	-11.2911
▁Գասպարյան	-11.2911
▁աղետ	-11.2911
▁ասեց	-11.2912
երկ	-11.2913
▁գնանք	-11.2913
Կապան	-11.2913
▁ծիծաղելի	-11.2913
▁մասնագիտություն	-11.2914
▁Մրցույթի	-11.2915
▁ժամկետները	-11.2917
▁կորուստներ	-11.2917
▁վերցնելու	-11.2918
▁հուսով	-11.2919
▁պարզվեց	-11.292
▁պատմող	-11.292
▁եղանակը	-11.2921
▁հրաժարվելու	-11.2921
եկտ	-11.2921
ցեն	-11.2923
▁դարձնելով	-11.2923
▁նստում	-11.2924
▁բերդ	-11.2924
▁ԻՄ	-11.2926
▁ընտրակաշառք	-11.2926
▁սովետական	-11.2926
▁թվերի	-11.2927
▁տպավորիչ	-11.2927
▁Թոմ	-11.293
▁զբաղվածության	-11.293
▁ուրիշի	-11.2933
▁քարտուղարը	-11.2933
▁նախաքննության	-11.2934
▁մրցակցություն	-11.2935
▁երկնքի	-11.2939
▁Մեղրի	-11.2939
▁ունենանք	-11.294
▁շերտեր	-11.294
▁Ջի	-11.2941
▁Ատոմ	-11.2944
▁Թեհրանի	-11.2945
Համ	-11.2945
▁World	-11.2946
▁տեւել	-11.2949
▁ՀԱՍՏԱՏԵԼՈՒ	-11.2949
▁իտալացի	-11.295
▁ունեի	-11.295
▁ամենատարբեր	-11.295
առաք	-11.2952
▁չգիտես	-11.2953
▁արեւմուտք	-11.2953
▁բուհի	-11.2954
▁կադրային	-11.2957
▁էջեր	-11.2958
▁վաղվա	-11.2959
▁ԳՆ	-11.296
▁անորոշ	-11.2961
▁Լյու	-11.2961
▁ճանապարհներ	-11.2962
բուլ	-11.2962
▁տաս	-11.2963
­­­	-11.2964
▁հացի	-11.2965
▁ծավալի	-11.2966
▁սպանություն	-11.2969
▁գործունեությունն	-11.2969
▁Ապր	-11.297
ջյան	-11.2971
▁Po	-11.2971
ազի	-11.2972
››	-11.2972
▁Բնակչությունը	-11.2972
▁չեղյալ	-11.2972
▁նախագծով	-11.2972
▁ավելացրեց	-11.2974
▁մտահոգիչ	-11.2975
tion	-11.2975
▁դատապարտում	-11.2976
▁մեծանում	-11.2976
▁համաձայնեց	-11.2976
▁որոշվում	-11.2978
▁Քր	-11.2979
▁ակտիվության	-11.298
▁Բյուր	-11.2981
Հայաստանը	-11.2982
▁շարքը	-11.2983
▁գիտեր	-11.2985
▁Դերասան	-11.2986
▁համաժողով	-11.2987
արձանագր	-11.2987
մասն	-11.2987
մոր	-11.2988
▁սպառնալիքներ	-11.299
▁դասակարգ	-11.2991
▁ահաբեկչություն	-11.2993
▁անվանակարգում	-11.2994
▁դիվանագիտության	-11.2995
▁հեղինակների	-11.2996
՞ր	-11.2996
▁կոշիկ	-11.2998
▁գործառույթները	-11.2999
զու	-11.3004
▁կոնվենցիայի	-11.3005
▁ազդ	-11.3007
▁խոհանոց	-11.3009
▁շին	-11.301
▁սաները	-11.3015
▁խաղային	-11.3017
▁պլանի	-11.3018
▁չգ	-11.302
ass	-11.3023
անյութ	-11.3024
▁դպրոցները	-11.3024
ավեր	-11.3025
на	-11.3026
▁Միջոցառմանը	-11.3028
▁թուլաց	-11.3029
▁գործողություններին	-11.303
▁դասընթացի	-11.3032
▁ավարտելուց	-11.3034
▁բնակիչներ	-11.3036
▁Բրազիլիա	-11.3037
”:	-11.3037
▁ջանքերի	-11.3039
▁իրականությունը	-11.3039
աբերդ	-11.3041
▁օգտագործվող	-11.3041
▁մտքով	-11.3042
ապաշտ	-11.3042
▁Արմենիայի	-11.3043
▁իրավունքից	-11.3043
▁սկսեցի	-11.3044
▁կանխատեսում	-11.3046
▁ճանապարհները	-11.3047
end	-11.3047
▁կապել	-11.3052
▁Այո՛	-11.3053
▁լեզուներ	-11.3054
▁փոշի	-11.3056
▁կա՞	-11.3056
▁Աղբյուրը	-11.3056
▁կու	-11.3056
▁էներգիա	-11.306
եւս	-11.3062
դիս	-11.3062
տրի	-11.3064
▁Հունաստան	-11.3065
}}	-11.3065
▁անվամբ	-11.3065
▁Բուր	-11.3065
▁խոց	-11.3066
▁անվերջ	-11.3066
▁վստահեցնում	-11.3067
▁տեղակալի	-11.3068
▁կոչվել	-11.307
▁բավարարում	-11.307
▁երգչուհին	-11.3071
▁մակ	-11.3072
▁քարտի	-11.3072
աղբյուր	-11.3075
▁Կոմ	-11.3076
իւր	-11.3076
▁կկ	-11.3077
▁բացառ	-11.308
▁Նոյ	-11.3081
▁ընթրիք	-11.3088
▁հեռուստատեսության	-11.3088
▁կվերադառնա	-11.3088
Վի	-11.3088
▁քարոզչության	-11.3088
▁Համահայկական	-11.3088
▁կարողացավ	-11.3089
▁ձեռ	-11.309
▁յ	-11.3092
ՌՇԼ	-11.3092
րաս	-11.3093
▁կվեր	-11.3094
▁Իրավ	-11.3095
ընկեր	-11.3095
▁արարողություն	-11.3097
▁դրվում	-11.3098
▁ներգրավվել	-11.31
▁արեւելք	-11.31
▁մարտահրավեր	-11.3102
▁Մանուկ	-11.3103
▁Ստեփանակերտում	-11.3103
▁ընդգրկել	-11.3104
▁զորավարժություններ	-11.3105
▁կինոփառատոն	-11.3105
▁դատախազություն	-11.3109
▁Յուրա	-11.311
▁հավի	-11.3111
▁արծաթ	-11.3111
▁վերածնունդ	-11.3111
▁ֆոտոլրագրող	-11.3111
Մար	-11.3112
▁կանգնում	-11.3112
▁ստանձնած	-11.3113
▁կլինիկական	-11.3113
▁Սուր	-11.3114
▁ռազմավարություն	-11.3115
▁թագավորություն	-11.3117
▁սեղմեք	-11.3117
▁III	-11.3118
▁նախանձ	-11.3119
աշխատ	-11.312
վելուց	-11.3122
▁բանաստեղծություններ	-11.3124
▁հրամանագիր	-11.3125
Հանուն	-11.3126
▁արտադրությունը	-11.3127
ճանաչ	-11.3129
▁ինստիտուտում	-11.3129
▁հիշողություններ	-11.3132
oc	-11.3134
▁կկազմի	-11.3135
▁երեքշաբթի	-11.3135
ՎԱՐ	-11.3137
▁ավելացրել	-11.3138
▁ինքնասպանություն	-11.3139
▁երկարությունը	-11.3139
▁կենտրոնից	-11.314
▁աշխատանքին	-11.3142
▁դիմակ	-11.3142
▁Ամուլսարի	-11.3143
▁դեմքին	-11.3144
ափակ	-11.3144
▁Առաքելյան	-11.3147
▁մարզիկների	-11.315
գայ	-11.315
▁ժամացույց	-11.3151
▁անապատ	-11.3153
▁ՀԱՄԱՅՆՔԻ	-11.3155
▁գաղութ	-11.3156
▁գրավեց	-11.3157
▁Համացանցում	-11.3157
▁իրավախախտումների	-11.3158
▁ծանրաբեռն	-11.3158
▁Главная	-11.3158
▁համբավ	-11.3158
▁մարգարե	-11.3158
լիա	-11.3158
▁հուսահատ	-11.3158
▁Ռեակտիվ	-11.3158
▁անկասկած	-11.3159
▁տեսակետը	-11.316
▁լրագրողները	-11.316
▁Ծառայություններ	-11.316
▁տեսակները	-11.3161
▁աչքեր	-11.3163
▁Հրատարակ	-11.3164
atsk	-11.3164
▁մեքենաները	-11.3164
ՏԵՍԱՆՅՈՒԹ	-11.3165
իկները	-11.3168
▁ինքնասպանության	-11.3168
▁դիտարկ	-11.3169
▁հայտարարագր	-11.3169
աստան	-11.317
▁հավաքածուն	-11.3171
▁մասնաճյուղեր	-11.3171
▁վերլուծաբան	-11.3173
Ֆոտո	-11.3173
▁կողքի	-11.3174
▁հաշվառում	-11.3175
▁տեսքը	-11.3176
▁Մայ	-11.3177
▁սարքի	-11.3178
▁Վենետիկի	-11.3178
▁հուշում	-11.3181
սոնի	-11.3182
▁Առաքելյանը	-11.3183
▁հաշվետվությունների	-11.3183
▁հարսանիք	-11.3184
▁ջեռուցման	-11.3185
▁Բարսեղյանը	-11.3187
աթի	-11.3189
▁ավազան	-11.3189
իրանական	-11.319
վեին	-11.319
▁կարդացել	-11.3191
կաս	-11.3192
հետախուզական	-11.3193
▁գումարման	-11.3193
ոցներ	-11.3194
▁Me	-11.3199
▁Ալիկ	-11.32
▁գեղ	-11.32
վարդ	-11.3201
▁փրկարար	-11.3203
▁քառակուսի	-11.3205
▁մեխանիզմներ	-11.3206
▁աղբյուրները	-11.3207
▁Կիպրոսի	-11.321
▁արժեթղթերի	-11.321
▁Տանն	-11.3212
▁փորձագետները	-11.3212
▁Սեմ	-11.3213
ցին	-11.3215
ռուս	-11.3219
▁համացանց	-11.3221
▁Իրաք	-11.3223
▁տպ	-11.3224
▁բավարարել	-11.3228
▁բրիտանացի	-11.3228
▁խառնել	-11.3228
▁սառ	-11.3229
▁ընդգծում	-11.323
▁նշաններ	-11.3233
▁ավելանում	-11.3234
▁դիվանագետ	-11.3236
▁Ֆիլմի	-11.3236
▁տիպ	-11.3236
▁դեմս	-11.3236
▁կայքերի	-11.3237
ran	-11.3237
նշեց	-11.3238
▁կկարողանան	-11.3238
ՐԻ	-11.3238
▁Շուշի	-11.3238
ա՞ն	-11.3239
▁ծառայությունում	-11.324
ինչպես	-11.324
ովիչ	-11.3244
▁կենդան	-11.3244
տվի	-11.3244
▁տարրական	-11.3244
Նաիրիտ	-11.3248
▁հուշարձաններ	-11.325
▁Էլի	-11.3251
▁բանախոս	-11.3252
▁տագնապ	-11.3252
▁չկարողացավ	-11.3253
նախարար	-11.3253
▁ինքնատիպ	-11.3254
▁Որպեսզի	-11.3254
▁շինություններ	-11.3254
▁մարման	-11.3255
րենք	-11.3259
▁սերունդների	-11.3261
▁նպատակները	-11.3262
▁վերականգնում	-11.3263
▁ԴՊՐՈՑ	-11.3264
▁ժամին	-11.3265
▁ձեռնարկում	-11.3265
▁դադարեցման	-11.3268
▁դարպասը	-11.3268
▁կանխատեսումներ	-11.3268
▁ծնողներ	-11.3268
▁հարուցել	-11.327
▁համարվել	-11.3273
▁ԼՐԱՀՈՍ	-11.3276
▁գերատեսչության	-11.3276
▁կաթոլիկ	-11.3276
▁Բժշկական	-11.3276
▁փոխհատուցման	-11.3276
եո	-11.3276
▁հեքիաթներ	-11.3277
▁Լրագրողների	-11.328
▁զգեստ	-11.3281
ուղարկ	-11.3282
ներդ	-11.3282
▁մտածելու	-11.3286
▁խորհրդ	-11.3286
▁զանգեր	-11.3287
▁որոշելու	-11.3289
▁գիտնականներ	-11.329
▁Կամո	-11.329
▁հանդիպումն	-11.329
▁գիշերվա	-11.3292
▁ձայնի	-11.3299
▁ակադեմիկոս	-11.33
▁մրցութային	-11.33
▁աղյուսակը	-11.33
▁քաղաքաշինության	-11.33
▁լիակատար	-11.33
▁համառոտ	-11.3301
կովը	-11.3304
▁Թագավորության	-11.3305
▁նվաճումներ	-11.3307
▁ռո	-11.3307
▁Բեյ	-11.331
▁տոնել	-11.3314
▁առողջություն	-11.3315
▁մոտեցումները	-11.3315
▁խօս	-11.3316
▁հարաբերություններին	-11.3317
▁գրություն	-11.3318
երբ	-11.3318
իզմը	-11.332
▁մրցաշրջան	-11.3321
▁անխուսափելի	-11.3322
▁նախաճաշ	-11.3323
▁մոռանում	-11.3323
յուզ	-11.3324
▁տեսչության	-11.3324
▁ցմահ	-11.3324
▁հեղինակները	-11.3325
▁շտապում	-11.3326
▁պարտքի	-11.3328
▁հանր	-11.3329
▁դասարանների	-11.333
▁բարդություններ	-11.333
mb	-11.3331
▁Di	-11.3331
▁Մարդկանց	-11.3331
▁հավանության	-11.3332
չե	-11.3335
▁բանաձեւը	-11.3336
▁իսլամական	-11.3336
▁ոչնչացման	-11.3336
▁կայացնելու	-11.3337
▁դատախազը	-11.3338
▁անեմ	-11.3339
սիկ	-11.3339
ունակ	-11.3343
իքս	-11.3345
▁տույժ	-11.3346
▁Vivaro	-11.3347
▁Լրաբեր	-11.3347
▁սննդակարգ	-11.3347
▁համընկնում	-11.3348
▁Վերին	-11.3348
▁քարոզչություն	-11.3348
ny	-11.3348
▁Աշխարհում	-11.3353
հոլ	-11.3354
▁հս	-11.3358
յն	-11.3359
▁ընկերությունում	-11.3359
րագր	-11.3362
Արսենալը	-11.3362
▁եկամուտները	-11.3363
▁ջնջ	-11.3363
▁գաղափարի	-11.3363
▁Լեհաստան	-11.3364
▁չհա	-11.3364
▁գործառույթների	-11.3366
▁քչեր	-11.3367
▁բառերի	-11.3368
▁Բրյուսել	-11.3369
▁ջերմաստիճան	-11.337
▁հոդվածները	-11.337
▁վիրահատություն	-11.3371
▁Հոգեւոր	-11.3371
▁Խաչքար	-11.3372
▁կասկածի	-11.3372
▁կորստի	-11.3373
▁փոքրամասնությունների	-11.3376
ուցիչ	-11.3376
▁տարածություն	-11.3376
▁Ռոնալդուի	-11.3376
▁բաժանվում	-11.338
lu	-11.3382
միկ	-11.3384
▁տնօրենների	-11.3384
▁ընթացակարգի	-11.3386
▁հիմնավորում	-11.3386
▁վարժարան	-11.3387
▁Պեր	-11.3388
▁սրճարան	-11.3388
▁բախում	-11.3389
▁բազայի	-11.339
▁խստ	-11.339
▁Սաֆարյանը	-11.3394
▁Հանրապետութեան	-11.3395
▁Կարճ	-11.3396
▁ավիացիայի	-11.3396
ություններից	-11.3396
▁նախարարությունից	-11.3397
▁վերականգնողական	-11.3397
▁Խո	-11.3397
▁Անգամ	-11.3397
▁թիմային	-11.3398
սեմ	-11.3399
ունց	-11.3402
▁ստացան	-11.3403
▁Սոս	-11.3405
▁պրեմիերա	-11.3406
▁հերթապահ	-11.3409
▁սերմ	-11.341
video	-11.3411
▁մեկնելու	-11.3411
▁Մաշտոց	-11.3413
եժ	-11.3415
▁խախտելու	-11.3417
▁w	-11.3418
ee	-11.3418
▁կանցլեր	-11.3419
▁ամոթ	-11.342
ադաշտ	-11.342
▁Պան	-11.3421
▁սկզբունք	-11.3423
▁զենքեր	-11.3423
▁դրսեւոր	-11.3424
▁Իրենց	-11.3428
ԼԻ	-11.3431
▁Սիլ	-11.3432
▁իրավիճակներում	-11.3433
▁պաշտոնյաները	-11.3433
▁ունակություններ	-11.3434
▁ծխախոտի	-11.3435
▁տիեզերական	-11.3437
▁երաժշտ	-11.3439
ավճար	-11.3439
▁Se	-11.3439
▁ինքնավար	-11.344
▁մազերը	-11.3442
▁զգույշ	-11.3443
▁դիրքորոշման	-11.3443
▁քաշել	-11.3444
▁պիտանի	-11.3444
պարզ	-11.3447
թափանց	-11.3447
▁ակնկալել	-11.3448
▁հրաժարվեց	-11.3448
▁Դպրոցի	-11.3449
▁պահպանվող	-11.3449
▁սեղանին	-11.345
▁ռուսաստանյան	-11.3451
ou	-11.3453
▁նորություն	-11.3456
Մեզ	-11.3458
▁զգայուն	-11.3459
▁դիտելու	-11.3461
ատվություն	-11.3462
▁օրենքները	-11.3466
▁Յիսուս	-11.3467
▁Դաշնային	-11.3467
▁անգլիացի	-11.3467
▁կառուցվածքի	-11.3468
▁միջնորդություն	-11.3469
▁կանցնի	-11.3469
▁ԻՐ	-11.3474
▁Փաշինյանը՝	-11.3476
▁Երուսաղեմ	-11.3476
▁հանգիստը	-11.3477
դիա	-11.348
▁գործընկերներին	-11.3483
▁հունիս	-11.3486
բանկ	-11.3487
▁ներկայում	-11.3489
▁հայտարարությունների	-11.3489
թեն	-11.349
գայի	-11.3491
▁ուղեղի	-11.3491
▁Լրահոս	-11.3492
▁աշխատակցի	-11.3492
▁կասկածելի	-11.3495
▁բաժանվել	-11.3495
▁կառույցները	-11.3496
▁տողեր	-11.3496
▁չունե	-11.3497
▁գովազդի	-11.3497
▁Սարի	-11.3498
▁խմբին	-11.3498
▁կամավորական	-11.35
▁ստորին	-11.3501
BA	-11.3502
▁ֆայլեր	-11.3502
▁ֆորում	-11.3504
▁լավատես	-11.3504
▁պրեմիերան	-11.3505
համաձայն	-11.3505
▁երիտասարդը	-11.3505
▁աստղեր	-11.3506
▁Գեւորգյանի	-11.351
ներառյալ	-11.3511
աբի	-11.3513
▁տուգանքի	-11.3513
յս	-11.3514
▁Վիքիպահեստ	-11.3516
▁Արկադի	-11.3516
ina	-11.3516
▁Երեխայի	-11.3518
▁տեսության	-11.3519
Ստ	-11.3521
▁հաղորդագրությունում	-11.3521
ողներ	-11.3523
▁սպառման	-11.3524
▁զեկույցում	-11.3527
▁թեկնածուները	-11.3528
ավորումը	-11.3529
▁վերադարձնելու	-11.353
▁գետնին	-11.353
▁տրամադրության	-11.3531
▁հանդիսատեսի	-11.3534
▁յուրաքանչյուրի	-11.3534
▁Գրիգորյանն	-11.3537
ов	-11.3539
▁Բուլղարիայի	-11.3541
▁կազմավորման	-11.3542
▁մրցանակներ	-11.3543
▁Հովսեփ	-11.3545
▁հասնի	-11.3545
▁մեխանիզմների	-11.3546
▁ուռուցք	-11.3546
ցիոն	-11.355
ՎՈՒՄ	-11.355
▁կադրերի	-11.355
պիր	-11.3552
Բավարիա	-11.3553
▁մեթոդների	-11.3559
▁հոգեբանության	-11.356
▁Մի՞թե	-11.3561
▁Հող	-11.3562
անայի	-11.3564
▁ժյուրիի	-11.3565
▁Նոբելյան	-11.3565
▁կանոնադրության	-11.3565
ադաս	-11.3565
▁հաղթ	-11.3565
▁ոչխար	-11.3566
▁սովորեցնում	-11.3566
▁կիրառումներ	-11.3566
▁հոգաբարձուների	-11.3568
վետ	-11.357
▁ստոր	-11.3571
▁հրա	-11.3572
▁փոխարժեքը	-11.3572
▁առաջադրանք	-11.3573
Պար	-11.3573
▁ակցիան	-11.3574
▁Ժողովրդական	-11.3574
▁շրջանակների	-11.3574
▁այնպիսին	-11.3576
▁սցենար	-11.3577
▁դաջվածք	-11.3577
▁Հավատ	-11.3577
▁ծնվում	-11.3578
▁փոստի	-11.3578
▁Քաղաքականություն	-11.3582
պահանջ	-11.3584
▁միանում	-11.3587
▁քվեարկ	-11.3587
▁Երուսաղեմի	-11.3587
AL	-11.359
▁անսահման	-11.3593
▁գինի	-11.3593
▁վերապահված	-11.3593
ազոր	-11.3595
▁Վաշինգտոնում	-11.3595
▁ԵԽ	-11.3597
▁փոստ	-11.3597
▁Vi	-11.3598
▁տեղերը	-11.3601
▁Օհանյանի	-11.3602
▁նույնը	-11.3603
▁եվրոպացի	-11.3604
▁տեղափոխելու	-11.3604
▁տխր	-11.3605
▁Նու	-11.3608
քո	-11.3608
▁կառույցը	-11.3609
▁վերանայել	-11.361
ոնե	-11.3612
մինչեւ	-11.3613
▁մասերի	-11.3613
▁ամուսնացած	-11.3616
che	-11.3617
▁կենսական	-11.3617
▁աղետի	-11.3619
▁կենսաթոշակ	-11.3621
▁արմատական	-11.3621
ացրեք	-11.3621
▁Գիրքը	-11.3621
▁երեկվա	-11.3624
▁Հարությունյանին	-11.3624
պատասխան	-11.3625
լիմ	-11.3625
▁ներառել	-11.3625
ՎԻ	-11.3626
▁հասկաց	-11.3627
▁գույքային	-11.3627
▁Քամ	-11.363
▁El	-11.3632
▁մրցակցային	-11.3635
ղեր	-11.3637
▁Նյութ	-11.3637
Հանրապետական	-11.3638
▁բաղկացուցիչ	-11.3638
▁պուրակ	-11.3639
▁Վերա	-11.364
▁լուրերի	-11.3642
▁վեհաժողովի	-11.3643
պիտ	-11.3644
▁սոխ	-11.3644
▁հնար	-11.3645
▁վկա	-11.3645
▁հակամարտություն	-11.3645
▁հարցազրույցներ	-11.3645
▁Տեղական	-11.3646
▁Ապրիլյան	-11.365
▁Օհանյան	-11.3651
▁վարչ	-11.3653
▁կորցնել	-11.3655
▁զորքերը	-11.3656
▁բարձրությունը	-11.3656
▁Օդ	-11.3656
▁հանձնման	-11.3657
▁ուղղություն	-11.3658
▁արժույթ	-11.3658
▁շապիկ	-11.3659
▁գետը	-11.3659
ուզի	-11.3659
▁Աշ	-11.3661
▁Անգլիա	-11.3662
¬	-11.3663
ԱՆԴ	-11.3663
▁օպերացիոն	-11.3663
▁Հյուրանոց	-11.3663
▁պորտալ	-11.3663
Ցավ	-11.3667
▁դուռ	-11.367
▁պահվածք	-11.367
▁պատիժը	-11.367
ON	-11.367
▁մարտին	-11.3671
▁ջերմություն	-11.3671
▁Քրիստ	-11.3671
▁%-	-11.3671
▁ցանցերի	-11.3672
բլի	-11.3672
▁կուլ	-11.3674
▁փոխանցվել	-11.3674
▁ԱԻ	-11.3675
արյան	-11.3676
▁Կյանք	-11.3677
▁հետաձգ	-11.3677
▁խոսվում	-11.3678
▁քննությունների	-11.3679
▁կամրջի	-11.368
BC	-11.3682
▁ցանցերում	-11.3682
եցիր	-11.3682
▁միջամտություն	-11.3683
▁տեքստ	-11.3686
ԵՐԸ	-11.3686
Եր	-11.3687
OR	-11.3688
▁նորանոր	-11.3688
բիզնես	-11.3689
Վանաձոր	-11.3689
Նրանք	-11.369
ազան	-11.369
▁ջրա	-11.369
▁կինոփառատոնի	-11.3694
▁վրայով	-11.3696
▁ինքնասպան	-11.3698
▁օգոստոս	-11.3701
▁կառավարումը	-11.3701
▁ժամանակահատված	-11.3701
▁այցեր	-11.3701
▁կարտոֆիլ	-11.3702
▁Պավել	-11.3704
▁տեղեր	-11.3705
▁Հետազոտ	-11.3706
▁բարձրանալ	-11.3707
ոլոգ	-11.3708
▁ունակություն	-11.371
▁ունակ	-11.3712
կողմ	-11.3712
աձայն	-11.3712
VIDEO	-11.3712
▁Ծնունդ	-11.3712
▁կնվազի	-11.3712
port	-11.3712
▁չլիներ	-11.3712
▁հոգով	-11.3714
EN	-11.3714
Հանրային	-11.3715
▁պատճառված	-11.3715
▁Պաշտպան	-11.3715
▁Սին	-11.3715
ացումից	-11.3716
▁l	-11.3718
▁Անցյալ	-11.3718
▁լրաց	-11.3721
▁սո	-11.3722
▁Բնականաբար	-11.3723
▁մաքրում	-11.3726
▁փայ	-11.3726
▁բլոգեր	-11.3727
զր	-11.3729
▁կողք	-11.3731
▁Թբիլիսի	-11.3731
▁ծախսում	-11.3732
▁հաշվարկված	-11.3733
▁վճարումների	-11.3734
ՈՒՍ	-11.3735
▁հաշվապահ	-11.3735
▁Մարտունու	-11.3735
▁հեռախոսահամարով	-11.3737
▁կազմակերպչական	-11.3738
Գառնի	-11.3738
▁մտածելակերպ	-11.3738
▁աշնանը	-11.3739
▁քվեարկելու	-11.3739
▁տանելու	-11.3741
▁պարգեւներ	-11.3741
▁անեն	-11.3743
▁դանակ	-11.3743
յակի	-11.3743
▁թեմ	-11.3746
▁մազեր	-11.3746
▁քա	-11.3747
▁РИА	-11.3749
▁նավթ	-11.375
▁կանացի	-11.3754
▁ասելիք	-11.3754
▁դիտորդական	-11.3755
բույս	-11.3759
▁Ավետ	-11.3759
▁ծիրանի	-11.3761
▁Samsung	-11.3762
անքով	-11.3762
▁հանձնակատար	-11.3762
▁տոնավաճառ	-11.3762
▁մեզանից	-11.3762
▁երկրամաս	-11.3762
▁անսովոր	-11.3765
▁կուրսի	-11.3765
▁նախապատրաստվում	-11.3767
▁դրամատիկական	-11.3767
▁մազ	-11.3769
▁Նահանգները	-11.3771
▁Իրինա	-11.3771
▁դեղերի	-11.3774
▁արթնաց	-11.3774
▁քվեարկություն	-11.3775
▁իրողություն	-11.3775
▁հավելում	-11.3776
▁դադարեցվել	-11.3777
բոն	-11.3777
▁հանդիսանալ	-11.3777
ցերեկ	-11.378
▁բժիշկը	-11.378
▁միջնորդությունը	-11.378
▁ՌՇԼ	-11.3782
▁այցելեցին	-11.3783
▁Նախիջեւանի	-11.3783
▁Բայ	-11.3786
▁ուրիշներ	-11.3786
ուսան	-11.3787
▁Անկարայի	-11.3787
▁Բավական	-11.3787
▁Ծով	-11.379
▁նվաճեց	-11.379
▁հեռարձակում	-11.3791
քերը	-11.3791
▁ԵԼՔ	-11.3791
▁կարգավորվում	-11.3791
▁To	-11.3791
▁հեր	-11.3792
▁դերի	-11.3793
▁պաշար	-11.3795
▁խաղալու	-11.38
▁մասնակիցը	-11.3801
՞ս	-11.3801
▁պահանջելով	-11.3802
nd	-11.3804
ԱԹ	-11.3804
▁համակարգային	-11.3809
▁վարչապետն	-11.381
▁Ալեքսանյանի	-11.381
▁Ալեքսանյան	-11.3811
վարկ	-11.3811
▁Գիրք	-11.3811
▁հանելու	-11.3811
▁կմեկնի	-11.3812
▁ԲԲԸ	-11.3812
▁աշխատողի	-11.3816
▁փետրվարին	-11.3818
▁Լուիս	-11.3819
▁Գրա	-11.382
▁վճարային	-11.3821
▁իրավիճակից	-11.3822
▁նստավայրում	-11.3823
բն	-11.3823
րոյ	-11.3823
▁Միքայելյանը	-11.3824
▁վստահելի	-11.3825
բուծ	-11.3827
▁փախուստի	-11.3827
Ֆրանսիա	-11.383
▁համալսարանական	-11.383
▁ֆեդերացիան	-11.3831
▁ատրճանակ	-11.3837
▁դեղորայք	-11.3837
▁ՄԵՋ	-11.3837
▁վարձ	-11.3841
▁տրամադրությունը	-11.3842
▁մթերք	-11.3843
գուն	-11.3846
▁Կայք	-11.3847
▁հաճույքով	-11.3847
▁կազմեր	-11.385
▁ուսումնասիրություններ	-11.3852
▁Վրաստանից	-11.3853
▁ուտեստներ	-11.3854
▁Դանիելյանը	-11.3857
▁Առողջ	-11.3858
▁Ղարաբաղը	-11.3859
▁ձեւերը	-11.3862
▁Մուտք	-11.3862
▁Ավելացրեց	-11.3862
▁ՀԻՄՆ	-11.3862
▁Բնակարանը	-11.3863
▁բնակավայր	-11.3864
▁Լույս	-11.3864
▁ուզած	-11.3864
▁շինությունների	-11.3864
▁աստիճանը	-11.3864
▁ապրանքները	-11.3865
▁ծառայողի	-11.3865
▁կոճակը	-11.3865
▁Մուրադյանը	-11.3867
▁կրկնում	-11.3867
դեպ	-11.3868
զեն	-11.3869
▁ոտքերի	-11.3869
եւան	-11.3869
ւի	-11.387
▁տեղերում	-11.387
տուրա	-11.3871
▁նախագահությամբ	-11.3871
▁Սուքիասյան	-11.3873
▁Հարավ	-11.3873
ացիների	-11.3873
▁լավը	-11.3874
▁May	-11.3874
▁նշվել	-11.3875
▁մենեջեր	-11.3876
▁հունիսին	-11.388
▁գիտակցության	-11.388
▁մրցունակ	-11.3881
ер	-11.3885
▁Թաթուլ	-11.3887
▁Քննարկվել	-11.3888
▁պայմանով	-11.3888
▁ապր	-11.389
▁եռյակ	-11.3892
▁ամուսնացել	-11.3893
▁անակնկալներ	-11.3893
▁Դավթյան	-11.3895
▁ծառի	-11.3895
▁Մամուլ	-11.3896
▁ֆանտաստիկ	-11.3896
Ֆեյսբուք	-11.3896
▁մաթեմատիկայի	-11.3897
▁խա	-11.3897
▁մանկություն	-11.39
▁կասկածներ	-11.39
▁Զոհրաբյան	-11.3901
ացիր	-11.3901
▁ընկերը	-11.3906
▁հուլիսին	-11.3906
▁տարածքով	-11.3907
ատուր	-11.3908
ցա	-11.3909
▁քանակ	-11.391
▁ռեժիմով	-11.3911
▁գրոսմայստեր	-11.3912
▁իրագործ	-11.3913
▁թաքցնում	-11.3913
▁հանդիսացել	-11.3914
▁լրջորեն	-11.3914
▁բռնի	-11.3915
Ամուսն	-11.3916
▁Սպիտակի	-11.3918
▁Գազ	-11.3919
▁նահանգապետ	-11.3922
▁անհանգստություն	-11.3923
▁Քաղաք	-11.3925
▁միջն	-11.3926
▁կծ	-11.3926
▁Խոսք	-11.3928
▁բերան	-11.3933
Էս	-11.3934
րով	-11.3935
▁վարձակալ	-11.3935
▁տղաներ	-11.3936
▁դերեր	-11.3937
դաշնամուր	-11.3938
▁hywiki	-11.3938
▁կհասնի	-11.3938
▁Սրբոյ	-11.3938
խնդր	-11.394
▁հարազատները	-11.3941
▁կոտր	-11.3941
▁ուտելիք	-11.3941
▁առաքում	-11.3942
▁Ռամ	-11.3942
▁ծովային	-11.3944
▁այլ՝	-11.3944
▁պատճառն	-11.3946
▁կ՚	-11.3946
▁Con	-11.3946
այցել	-11.3947
▁կրճատվել	-11.3949
▁պաշտոնյան	-11.3949
▁Տուր	-11.3949
▁Օրեր	-11.3949
ակով	-11.395
Պատ	-11.3951
▁դեպս	-11.3953
▁օդանավակայանի	-11.3955
▁x	-11.3956
▁ավտոբուսի	-11.3957
▁մեռ	-11.3959
▁Եկեղեցի	-11.396
ոցը	-11.396
▁ՃՈ	-11.3963
▁Առաջադրանք	-11.3963
▁տրամաչափի	-11.3963
▁Ստեղծ	-11.3965
Հիմնադիր	-11.3966
▁պաշտոնեական	-11.3967
▁ապացուցում	-11.3968
▁Ընկերություն	-11.3972
▁Ժամ	-11.3973
▁թարգման	-11.3975
▁անցկացումը	-11.3975
▁սկսված	-11.3976
գրում	-11.3977
ՈՒՄԸ	-11.3977
▁իրազեկ	-11.3978
ազն	-11.3983
▁կացության	-11.3985
▁դաշնակից	-11.3986
▁Վաշինգտոնի	-11.3987
մուշ	-11.3988
▁Սկիզբ	-11.3989
▁համահունչ	-11.3989
▁հեկտար	-11.3989
▁մահմեդական	-11.3989
▁մեծամասնության	-11.3989
▁ռեզիդենտ	-11.3989
▁զբաղեցնող	-11.3989
▁Քվեարկել	-11.3989
հարց	-11.3989
▁միջավայրը	-11.399
ուղի	-11.399
▁առնչվում	-11.3991
▁Թոմաս	-11.3991
▁ցիկլ	-11.3992
▁օժանդակ	-11.3993
▁արագությունը	-11.3997
▁զսպ	-11.3998
▁Շվեդիայի	-11.4
▁իմացա	-11.4001
▁բժշկ	-11.4002
տարի	-11.4002
ահավաք	-11.4004
▁բարձրաձայնել	-11.4007
ոմի	-11.4007
▁Մաք	-11.4008
▁հետաքրքր	-11.4009
ագար	-11.4012
▁մեկնեց	-11.4012
▁ղեկավարած	-11.4012
▁Շավարշ	-11.4014
▁Ռազմական	-11.4014
Ավրորա	-11.4014
▁Երկուշաբթի	-11.4014
▁թղթակից	-11.4015
ըստ	-11.4015
▁ՀԽՍՀ	-11.4016
▁տեւում	-11.4016
▁շրջանային	-11.4016
▁ինքնին	-11.4017
▁ավանդի	-11.402
▁Սպաս	-11.402
▁տնտեսությունների	-11.402
▁Արագ	-11.4021
▁պող	-11.4021
▁որդեգր	-11.4022
▁շաբաթը	-11.4026
կեց	-11.4026
▁համբուր	-11.4027
▁խփեց	-11.4027
▁Ընդամենը	-11.4028
▁Գրում	-11.4029
կգ	-11.4029
ավարտ	-11.4029
▁մսի	-11.4031
▁ձեւակերպ	-11.4031
▁գողություն	-11.4031
անգլերեն	-11.4032
▁մեքենայով	-11.4036
▁ռեկորդային	-11.4037
▁PR	-11.4038
▁երկաթուղային	-11.404
▁իրա	-11.404
▁էթնիկ	-11.4041
▁հայրենիքում	-11.4041
▁սերիա	-11.4042
▁Q	-11.4043
▁Ցանկ	-11.4043
▁տուրիստական	-11.4044
▁տարեդարձը	-11.4044
▁ցավեր	-11.4047
աշխ	-11.4048
▁հանձնեց	-11.4048
մեդ	-11.4048
▁մտավորական	-11.4049
▁Լուկա	-11.4049
▁մեթոդներ	-11.4054
Միջազգային	-11.4054
▁հիշողություն	-11.4055
▁Բրազիլիայի	-11.4058
▁հատվածներ	-11.4059
▁բույսերի	-11.406
▁ղեկ	-11.4064
յար	-11.4064
▁Պյոտր	-11.4065
▁կուտակված	-11.4065
▁Էմանուել	-11.4065
Մաթեւոս	-11.4065
▁Ջեյ	-11.4066
ey	-11.4067
▁հմտությունների	-11.4067
▁զարդեր	-11.4069
▁տեսանյութում	-11.4069
▁Կատ	-11.4072
▁ավիա	-11.4073
▁ծաղր	-11.4077
▁ստորագրում	-11.4077
▁գիտես	-11.4077
▁ավազ	-11.4081
ՅԱՆԸ	-11.4082
▁Թորոսյանը	-11.4083
ue	-11.4083
▁պատկերազարդում	-11.4091
▁տոհմ	-11.4091
▁բարբառ	-11.4091
վարի	-11.4092
▁սոուս	-11.4093
նալ	-11.4094
▁կրծ	-11.4094
▁շրջապատ	-11.4094
▁գիտաժողովի	-11.4096
▁Կապան	-11.4096
ֆե	-11.4098
էտ	-11.4098
▁ընկալել	-11.4098
▁ոտքերը	-11.4099
ԱՅՆ	-11.4099
Միսս	-11.4102
եյլ	-11.4102
▁Բարե	-11.4104
▁կողմնակից	-11.4106
▁ահաբեկիչների	-11.4106
տառ	-11.4106
Ղարաբաղ	-11.4107
▁գործակալությանը	-11.4107
▁Դեր	-11.4107
▁մրցաշարը	-11.411
▁ծանուցում	-11.4111
▁Վաղը	-11.4112
▁նոյեմբեր	-11.4114
փեր	-11.4115
▁ծեծկռտուք	-11.4117
▁հայրեն	-11.4117
▁պետբյուջե	-11.4117
▁ասել՝	-11.4118
▁լիցք	-11.4119
▁չլինել	-11.4121
▁գեղեցկուհի	-11.4123
▁քաղաքապետարան	-11.4123
աքր	-11.4125
▁բանաձեւի	-11.4125
▁մեղադրանքներ	-11.4126
▁Դերասանուհի	-11.4127
▁արեք	-11.4128
▁լեհ	-11.4129
▁ուղղությունները	-11.4129
նախա	-11.413
▁համաձայնել	-11.413
▁ավարտեց	-11.4131
Սիր	-11.4131
▁Աղա	-11.4132
▁զրկվել	-11.4132
▁համույթ	-11.4132
▁նախագահները	-11.4133
▁շինարարությունը	-11.4133
▁պատկերասրահ	-11.4135
▁զենքը	-11.4139
▁Դրանցից	-11.414
▁լեգիտիմ	-11.4143
▁գյումրեցի	-11.4143
▁կիլոգրամ	-11.4143
▁ողբերգություն	-11.4143
▁Արտյոմ	-11.4143
▁փրկարարական	-11.4146
▁փոխադրում	-11.4149
լիտ	-11.4151
Գործ	-11.4152
գը	-11.4153
▁սկզբունքը	-11.4153
▁սպառողական	-11.4155
▁Տիկին	-11.4156
▁հորդորել	-11.4156
▁Դրամ	-11.4156
ор	-11.4158
տուն	-11.4159
▁եկեղեցիների	-11.4161
▁Մոլ	-11.4162
Մաս	-11.4163
բախ	-11.4164
▁ծալ	-11.4165
ծն	-11.4166
▁Լուի	-11.4167
նորոգ	-11.4168
▁խառնուրդ	-11.4169
ՏԵՍ	-11.4169
▁խենթ	-11.4169
ուհիներ	-11.4169
▁վերջիններիս	-11.417
▁Սրանք	-11.417
▁կայանալու	-11.4171
»–	-11.4171
▁կլան	-11.4175
▁գրեց	-11.4176
ԱՊԱ	-11.4178
▁մանկության	-11.4179
▁քանակով	-11.4182
Չելսիի	-11.4183
▁Lo	-11.4184
▁ձեւեր	-11.4185
ԱՐԻ	-11.4186
▁ընտրություններն	-11.4189
▁նորաձեւ	-11.4189
▁հարգում	-11.4191
▁հերոսի	-11.4191
▁առաջընթացի	-11.4191
ity	-11.4192
▁Ակնհայտ	-11.4193
▁Սիմոնյանի	-11.4194
ш	-11.4195
▁կիսաեզրափակիչ	-11.4195
▁անձնավորություն	-11.4195
▁Ծանր	-11.4195
▁երկրին	-11.4195
▁փրկության	-11.4195
▁ամրա	-11.4197
▁պաշտպանը	-11.4197
▁տաճար	-11.4199
ամիջոց	-11.4199
▁պատանիների	-11.4205
▁գետն	-11.4208
▁տո	-11.4211
▁ստորագր	-11.4211
▁թողած	-11.4212
անաս	-11.4212
▁Հրաչ	-11.4212
Աղ	-11.4212
▁հարաբերական	-11.4214
▁Տե	-11.4216
▁դրսեւորել	-11.4218
▁փաստերը	-11.4219
▁ծրագր	-11.4219
▁մամուլը	-11.4219
▁սպառողների	-11.422
շրջան	-11.4221
▁անթույլատրելի	-11.4221
▁Կորյուն	-11.4222
▁շղթայ	-11.4223
▁առարկան	-11.4224
▁ծեծ	-11.4225
▁Չարենց	-11.4225
▁հիմնավորված	-11.4229
▁ուղիներ	-11.4229
ֆիլ	-11.4232
▁Կիս	-11.4233
▁լցված	-11.4235
▁ծրագրերում	-11.4236
▁ցած	-11.4238
վածքներ	-11.4239
$	-11.4242
▁հազարամյակ	-11.4243
▁խթանման	-11.4244
▁զորք	-11.4244
▁արքա	-11.4245
▁ձեռնպահ	-11.4247
▁Անգելա	-11.4247
▁լեգենդար	-11.4248
▁տանիք	-11.425
▁համաձայնությունը	-11.425
▁ընկնել	-11.4251
▁Նիստի	-11.4251
▁Ինչքան	-11.4252
▁պալատում	-11.4254
▁միավորներ	-11.4255
▁անդամներն	-11.4255
▁Կազմակերպ	-11.4256
▁պատժի	-11.4257
▁այնտեղից	-11.4261
▁հիմնա	-11.4262
▁ձեռքին	-11.4262
▁Սիթիի	-11.4263
այական	-11.4263
▁Կիր	-11.4264
▁փոխանց	-11.4264
մաշ	-11.4266
▁ֆիլմերը	-11.4267
▁Հայրիկ	-11.4267
.–	-11.4268
▁լինեին	-11.4269
▁Աշտարակ	-11.4271
▁անհավանական	-11.4273
▁Հինգշաբթի	-11.4273
▁էկոլոգիական	-11.4273
▁Ֆիլմը	-11.4275
▁գրագետ	-11.4277
▁վնասը	-11.4277
ч	-11.4279
▁առավելապես	-11.4281
▁եզրին	-11.4283
▁տները	-11.4284
▁դրվագներ	-11.4284
▁զավակներ	-11.4284
▁հետաձգել	-11.4288
▁դիմեց	-11.4288
▁ասոցիացիա	-11.4288
▁Հավաքական	-11.4289
▁Էյ	-11.429
▁տրանսպորտ	-11.4292
▁ապրանքային	-11.4294
▁վաստակ	-11.4299
▁բեւեռ	-11.4299
▁մտավախություն	-11.4299
▁կամքը	-11.4299
▁ամրապնդել	-11.4301
▁արտաքս	-11.4301
▁Վաչե	-11.4302
▁քայլի	-11.4302
▁Դասընթաց	-11.4305
▁դատարանների	-11.4306
▁Արմավիր	-11.4307
▁առաջարկություն	-11.4308
▁կարգում	-11.4309
▁տեսահոլովակը	-11.4309
▁կետերը	-11.431
▁փոխանցեց	-11.431
▁Գալստյանը	-11.4312
je	-11.4312
▁Ռուզաննա	-11.4313
▁բացելու	-11.4315
րս	-11.4316
▁խմոր	-11.4317
▁տոների	-11.4317
▁հրթիռներ	-11.4319
կած	-11.4321
▁Դել	-11.4321
ster	-11.4324
▁Առաջիկա	-11.4325
▁կանոնադրությամբ	-11.4325
▁հեռուստատեսություն	-11.4325
▁ձայնագր	-11.4326
▁կտրվածքով	-11.4326
ռավ	-11.4326
ust	-11.4326
▁հետաքրքրությունը	-11.4327
լենդ	-11.4327
ոսյան	-11.4329
▁մակերեսով	-11.4329
▁ավելացման	-11.4332
▁խորացման	-11.4333
▁հվ	-11.4333
▁օրակարգը	-11.4333
▁ասած՝	-11.4335
▁հեռախոսի	-11.4335
ՎԱԶ	-11.4335
պս	-11.4337
▁փակվել	-11.4337
▁սփյուռքահայ	-11.4338
▁ձեւակերպում	-11.4342
▁շնորհվել	-11.4346
▁Պալ	-11.4347
▁ստանձնելու	-11.4348
▁ստուգումների	-11.4349
Կյանք	-11.4351
▁առասպել	-11.4352
▁կորպորատիվ	-11.4352
▁‹‹	-11.4352
▁Տարածել	-11.4352
▁կողմին	-11.4352
▁խուսափ	-11.4353
▁Դեղ	-11.4353
▁ՕԵԿ	-11.4354
▁ցավալի	-11.4354
ընկերություն	-11.4356
▁փոխվի	-11.4357
▁կարդա	-11.436
ացին	-11.4362
շնորհ	-11.4362
▁փորձագետներ	-11.4363
▁ձեռնարկատեր	-11.4363
▁տեղեկացված	-11.4365
▁ժամվա	-11.4365
▁վանքի	-11.4365
▁հաշվետվություններ	-11.4367
▁արարող	-11.4368
▁դժվարությամբ	-11.4372
▁սան	-11.4372
դուր	-11.4373
▁հուզ	-11.4373
ա՛ն	-11.4373
ւմ	-11.4374
▁ամուսնուն	-11.4374
▁վիտամին	-11.4377
▁ահռելի	-11.4378
▁գենդերային	-11.4378
Սպարտակ	-11.4378
▁հանգույց	-11.4379
▁սաների	-11.438
▁անհարմար	-11.438
▁հաջողված	-11.4382
ոնյան	-11.4382
▁նախարարությունների	-11.4385
▁վերածվում	-11.4386
▁իշխանություններն	-11.4388
▁եք՝	-11.4389
րար	-11.439
▁Քաղաքի	-11.4391
▁ղեկավարներին	-11.4391
▁տոնում	-11.4392
▁Նիկ	-11.4392
թուն	-11.4394
▁Ընդուն	-11.4394
▁օրերից	-11.4397
ԴԱ	-11.4402
▁շատերին	-11.4402
հաղթ	-11.4402
▁հաշվարկման	-11.4402
▁հաղթում	-11.4403
անել	-11.4404
▁ԼԳԲՏ	-11.4405
▁Պիտակներ	-11.4405
▁կամերային	-11.4406
▁հարցին՝	-11.4407
Սերժ	-11.4407
▁լինեք	-11.4407
▁վարչակազմի	-11.4408
ընկալ	-11.4409
▁բնակարաններ	-11.441
▁տեսնենք	-11.4411
▁թեմային	-11.4411
▁օրինագիծը	-11.4414
▁նախապատրաստման	-11.4415
▁Թոր	-11.4416
ծում	-11.4416
▁սրտով	-11.4416
▁չտես	-11.4419
վական	-11.442
բեկյան	-11.4422
▁Թրամփն	-11.4422
▁ՊԱՏ	-11.4422
▁Խոյ	-11.4422
սիս	-11.4424
▁հատկաց	-11.4424
▁գյուղացիների	-11.4425
▁խուսափում	-11.4426
▁այցելուների	-11.4427
▁կամաց	-11.4428
▁պաշտոնին	-11.4429
▁որոշեցի	-11.4429
▁իրավիճակն	-11.4431
ոլոգիական	-11.4432
▁Li	-11.4434
sta	-11.4438
>	-11.4438
▁տերը	-11.4438
ՆԻ	-11.4439
▁առանձնացված	-11.444
▁հոսք	-11.444
▁տղամարդուն	-11.4441
՛յ	-11.4441
▁Իրավական	-11.4445
▁իրավունքներն	-11.4446
▁թիմեր	-11.4449
▁Գորիս	-11.4449
▁հողատարածք	-11.4449
▁բնագավառի	-11.445
▁կստանաք	-11.445
▁կարգավորումներ	-11.4452
շշ	-11.4452
եցիք	-11.4453
▁վերականգնվել	-11.4455
▁Ավարտել	-11.4456
▁լսելու	-11.4457
za	-11.4457
ցնում	-11.4458
▁լռում	-11.4459
▁Աղջիկ	-11.446
[...]
