<pad>	0
<unk>	0
<s>	0
</s>	0
<mask>	0
<0x00>	0
<0x01>	0
<0x02>	0
<0x03>	0
<0x04>	0
<0x05>	0
<0x06>	0
<0x07>	0
<0x08>	0
<0x09>	0
<0x0A>	0
<0x0B>	0
<0x0C>	0
<0x0D>	0
<0x0E>	0
<0x0F>	0
<0x10>	0
<0x11>	0
<0x12>	0
<0x13>	0
<0x14>	0
<0x15>	0
<0x16>	0
<0x17>	0
<0x18>	0
<0x19>	0
<0x1A>	0
<0x1B>	0
<0x1C>	0
<0x1D>	0
<0x1E>	0
<0x1F>	0
<0x20>	0
<0x21>	0
<0x22>	0
<0x23>	0
<0x24>	0
<0x25>	0
<0x26>	0
<0x27>	0
<0x28>	0
<0x29>	0
<0x2A>	0
<0x2B>	0
<0x2C>	0
<0x2D>	0
<0x2E>	0
<0x2F>	0
<0x30>	0
<0x31>	0
<0x32>	0
<0x33>	0
<0x34>	0
<0x35>	0
<0x36>	0
<0x37>	0
<0x38>	0
<0x39>	0
<0x3A>	0
<0x3B>	0
<0x3C>	0
<0x3D>	0
<0x3E>	0
<0x3F>	0
<0x40>	0
<0x41>	0
<0x42>	0
<0x43>	0
<0x44>	0
<0x45>	0
<0x46>	0
<0x47>	0
<0x48>	0
<0x49>	0
<0x4A>	0
<0x4B>	0
<0x4C>	0
<0x4D>	0
<0x4E>	0
<0x4F>	0
<0x50>	0
<0x51>	0
<0x52>	0
<0x53>	0
<0x54>	0
<0x55>	0
<0x56>	0
<0x57>	0
<0x58>	0
<0x59>	0
<0x5A>	0
<0x5B>	0
<0x5C>	0
<0x5D>	0
<0x5E>	0
<0x5F>	0
<0x60>	0
<0x61>	0
<0x62>	0
<0x63>	0
<0x64>	0
<0x65>	0
<0x66>	0
<0x67>	0
<0x68>	0
<0x69>	0
<0x6A>	0
<0x6B>	0
<0x6C>	0
<0x6D>	0
<0x6E>	0
<0x6F>	0
<0x70>	0
<0x71>	0
<0x72>	0
<0x73>	0
<0x74>	0
<0x75>	0
<0x76>	0
<0x77>	0
<0x78>	0
<0x79>	0
<0x7A>	0
<0x7B>	0
<0x7C>	0
<0x7D>	0
<0x7E>	0
<0x7F>	0
<0x80>	0
<0x81>	0
<0x82>	0
<0x83>	0
<0x84>	0
<0x85>	0
<0x86>	0
<0x87>	0
<0x88>	0
<0x89>	0
<0x8A>	0
<0x8B>	0
<0x8C>	0
<0x8D>	0
<0x8E>	0
<0x8F>	0
<0x90>	0
<0x91>	0
<0x92>	0
<0x93>	0
<0x94>	0
<0x95>	0
<0x96>	0
<0x97>	0
<0x98>	0
<0x99>	0
<0x9A>	0
<0x9B>	0
<0x9C>	0
<0x9D>	0
<0x9E>	0
<0x9F>	0
<0xA0>	0
<0xA1>	0
<0xA2>	0
<0xA3>	0
<0xA4>	0
<0xA5>	0
<0xA6>	0
<0xA7>	0
<0xA8>	0
<0xA9>	0
<0xAA>	0
<0xAB>	0
<0xAC>	0
<0xAD>	0
<0xAE>	0
<0xAF>	0
<0xB0>	0
<0xB1>	0
<0xB2>	0
<0xB3>	0
<0xB4>	0
<0xB5>	0
<0xB6>	0
<0xB7>	0
<0xB8>	0
<0xB9>	0
<0xBA>	0
<0xBB>	0
<0xBC>	0
<0xBD>	0
<0xBE>	0
<0xBF>	0
<0xC0>	0
<0xC1>	0
<0xC2>	0
<0xC3>	0
<0xC4>	0
<0xC5>	0
<0xC6>	0
<0xC7>	0
<0xC8>	0
<0xC9>	0
<0xCA>	0
<0xCB>	0
<0xCC>	0
<0xCD>	0
<0xCE>	0
<0xCF>	0
<0xD0>	0
<0xD1>	0
<0xD2>	0
<0xD3>	0
<0xD4>	0
<0xD5>	0
<0xD6>	0
<0xD7>	0
<0xD8>	0
<0xD9>	0
<0xDA>	0
<0xDB>	0
<0xDC>	0
<0xDD>	0
<0xDE>	0
<0xDF>	0
<0xE0>	0
<0xE1>	0
<0xE2>	0
<0xE3>	0
<0xE4>	0
<0xE5>	0
<0xE6>	0
<0xE7>	0
<0xE8>	0
<0xE9>	0
<0xEA>	0
<0xEB>	0
<0xEC>	0
<0xED>	0
<0xEE>	0
<0xEF>	0
<0xF0>	0
<0xF1>	0
<0xF2>	0
<0xF3>	0
<0xF4>	0
<0xF5>	0
<0xF6>	0
<0xF7>	0
<0xF8>	0
<0xF9>	0
<0xFA>	0
<0xFB>	0
<0xFC>	0
<0xFD>	0
<0xFE>	0
<0xFF>	0
,	-3.21379
▁	-3.28506
ի	-3.69252
▁է	-3.79774
ը	-3.92117
:	-3.96104
ն	-4.17898
-	-4.49906
▁եւ	-4.54665
1	-4.55705
.	-4.59252
ում	-4.60612
0	-4.72329
2	-4.90317
ին	-4.93867
▁«	-4.94851
▁են	-4.98464
▁որ	-5.01133
։	-5.14594
»	-5.18744
ով	-5.21341
՝	-5.34791
ել	-5.42212
ների	-5.43278
ից	-5.47477
ական	-5.61385
3	-5.71572
▁ու	-5.71938
9	-5.76283
5	-5.77871
▁(	-5.78968
ներ	-5.79899
▁համար	-5.81583
ները	-5.84073
ության	-5.86141
)	-5.86262
4	-5.90298
8	-5.91791
ու	-5.92974
`	-5.94801
ս	-5.98298
ային	-6.01481
▁հետ	-6.01531
▁էր	-6.03455
7	-6.04205
ա	-6.06254
6	-6.0739
ման	-6.07685
▁մի	-6.09182
թ	-6.1488
ց	-6.18489
▁կ	-6.19115
ված	-6.19258
▁իր	-6.20675
▁մասին	-6.2605
ան	-6.27553
ող	-6.30499
ք	-6.30775
վել	-6.30901
▁-	-6.34442
▁այն	-6.36797
ր	-6.39317
▁այդ	-6.39461
վում	-6.41347
▁նաեւ	-6.42271
▁թե	-6.42337
եր	-6.4237
ակ	-6.42602
ություն	-6.47594
▁կարող	-6.47813
են	-6.48226
▁էլ	-6.49077
ությունը	-6.49291
ած	-6.49856
եց	-6.50532
...	-6.52838
▁ՀՀ	-6.56205
▁չի	-6.57568
▁եմ	-6.60563
ելու	-6.61792
▁_	-6.62958
▁Հայաստանի	-6.64159
▁այս	-6.64419
▁կամ	-6.64755
որ	-6.65287
կ	-6.7183
▁Հ	-6.73805
▁ոչ	-6.74642
րդ	-6.75857
մ	-6.76848
երի	-6.78932
▁պետք	-6.80867
▁մեր	-6.81114
▁մեջ	-6.82043
▁շատ	-6.83561
▁ինչ	-6.8361
▁այլ	-6.84554
▁ժամանակ	-6.84732
▁ենք	-6.84771
▁Մ	-6.88367
▁ավելի	-6.8958
ար	-6.8968
▁նոր	-6.91455
▁Ս	-6.91552
յան	-6.92028
▁ան	-6.92215
իկ	-6.95128
▁վրա	-6.96299
ալ	-6.96567
▁չ	-6.96842
ուն	-6.99785
▁նա	-7.00197
ավ	-7.00291
▁ես	-7.00615
տ	-7.01743
▁Բ	-7.03515
▁բոլոր	-7.0455
▁հետո	-7.04705
▁իսկ	-7.06755
▁կողմից	-7.06833
▁մեծ	-7.06886
▁ինչպես	-7.08178
ներին	-7.08477
/	-7.0903
ությամբ	-7.09545
▁Կ	-7.09633
ե	-7.11478
վի	-7.12993
ո	-7.13195
▁որը	-7.13278
եք	-7.1464
▁Այս	-7.15006
▁իրենց	-7.15401
առ	-7.16655
ավոր	-7.1668
ոն	-7.16921
շ	-7.17114
▁թ	-7.18093
▁մեկ	-7.18161
Ա	-7.18304
դ	-7.18953
եւ	-7.18994
­	-7.19094
am	-7.19956
ատ	-7.19985
երը	-7.20203
▁քանի	-7.20299
Ի	-7.22481
գ	-7.22539
▁նրա	-7.2273
ներից	-7.2348
▁միայն	-7.2455
լ	-7.24668
▁բայց	-7.25697
▁Ա	-7.26304
չ	-7.26783
ը՝	-7.26863
▁էին	-7.28438
▁որոնք	-7.2929
աս	-7.29394
ամ	-7.29539
▁առաջին	-7.30474
▁Գ	-7.30808
▁չէ	-7.30935
▁անգամ	-7.31107
եմ	-7.31531
իս	-7.32415
վեց	-7.32748
▁առաջ	-7.33362
վ	-7.34767
▁ամեն	-7.35198
▁չեն	-7.35771
▁եք	-7.36234
▁հայ	-7.37721
▁գ	-7.38179
▁դա	-7.3826
ծ	-7.38283
▁մոտ	-7.38557
▁երբ	-7.3876
վող	-7.39003
եղ	-7.40542
ուր	-7.4136
ահ	-7.41934
Ն	-7.42551
▁Վ	-7.42594
▁բան	-7.43004
Հ	-7.43318
▁նախագահ	-7.43597
▁ընթացքում	-7.44057
բ	-7.44252
ես	-7.45888
▁եթե	-7.46391
▁ս	-7.46923
յ	-7.47219
աց	-7.48118
▁տեղի	-7.48564
▁պետական	-7.50705
▁մ	-7.51536
▁մենք	-7.5242
▁օր	-7.52602
▁իմ	-7.52667
▁Հանրապետության	-7.53387
▁տարի	-7.53639
ելով	-7.53748
ռ	-7.538
զ	-7.54222
յի	-7.54972
▁երկու	-7.55437
այ	-7.55628
Մ	-7.56582
s	-7.5719
»,-	-7.5791
յանը	-7.5794
ներն	-7.58028
e	-7.58054
▁ունի	-7.58408
▁եղել	-7.58624
ղ	-7.59373
▁արդեն	-7.59764
▁որպես	-7.60037
▁նրանց	-7.60134
Ս	-7.60142
Կ	-7.60338
▁Տ	-7.60516
▁բ	-7.61117
»:	-7.61186
ագ	-7.61972
պ	-7.62037
ժ	-7.62112
ետ	-7.62139
▁Նա	-7.62956
▁Ն	-7.63258
▁Ք	-7.63959
ուց	-7.64746
աղ	-7.64757
ախ	-7.65056
▁Է	-7.65371
▁մինչեւ	-7.66836
ներով	-7.67213
ներում	-7.67467
▁ազատ	-7.67541
խ	-7.67772
▁լավ	-7.67981
▁դեմ	-7.68065
ձ	-7.68757
իր	-7.68826
▁թվականի	-7.68829
▁ապա	-7.69182
ջ	-7.69392
▁դեպքում	-7.69871
▁Պ	-7.70322
հ	-7.70605
▁սակայն	-7.7111
»-	-7.71267
Տ	-7.71741
ենք	-7.72201
▁հ	-7.72542
▁ԱՄՆ	-7.73953
▁նման	-7.7494
▁Հայաստանում	-7.74988
▁քաղաքական	-7.75149
▁Թ	-7.75905
▁Դ	-7.76005
▁ղեկավար	-7.76155
▁բարձր	-7.76397
▁Ան	-7.76591
անք	-7.77487
անում	-7.78014
▁–	-7.78112
▁ասաց	-7.78561
▁ինձ	-7.78688
իչ	-7.79005
▁կա	-7.79318
▁միջազգային	-7.79803
Գ	-7.80123
այի	-7.80211
▁այսօր	-7.80829
▁վեր	-7.81296
▁խ	-7.81386
▁ասել	-7.82833
Բ	-7.83556
ուս	-7.83847
▁տարբեր	-7.8386
a	-7.85356
է	-7.85548
▁նրան	-7.85549
ֆ	-7.85601
▁կարեւոր	-7.85927
[	-7.86052
▁վերաբերյալ	-7.86297
արկ	-7.86685
աբ	-7.86891
աշ	-7.87283
),	-7.87329
o	-7.89057
▁տ	-7.89402
▁որտեղ	-7.89635
որեն	-7.90442
ճ	-7.90455
ստ	-7.91416
Վ	-7.91475
ոտ	-7.91496
ոլ	-7.92264
▁դրամ	-7.92276
Պ	-7.92304
ումը	-7.92484
▁Երեւանի	-7.93805
ազ	-7.93806
ոս	-7.93823
▁Շ	-7.94091
▁դուրս	-7.94184
▁ձեռք	-7.9555
ուլ	-7.9609
▁Մի	-7.96431
կան	-7.96836
▁ձեր	-7.97068
▁վերջին	-7.97307
իք	-7.97584
ելի	-7.98174
▁գլխավոր	-7.98188
▁Այդ	-7.98725
▁քան	-7.98749
▁մարդկանց	-7.98803
▁Խ	-7.98873
▁մեզ	-7.98907
▁Ի	-7.99099
▁Իսկ	-7.9947
Դ	-7.9968
▁Ես	-7.99783
ապ	-7.99892
ադ	-8.00781
▁փորձ	-8.00919
▁Լ	-8.01252
▁—	-8.01897
▁գործ	-8.02077
p	-8.02418
▁տալիս	-8.0253
▁Զ	-8.02583
y	-8.02865
ությունների	-8.0294
▁որեւէ	-8.03087
վեն	-8.03252
ություններ	-8.03904
յանի	-8.03906
▁Եվ	-8.04557
▁մարդ	-8.0497
▁բաց	-8.05204
անդ	-8.05252
▁ազգային	-8.05394
փ	-8.06296
▁շ	-8.06449
ոյ	-8.07048
եկ	-8.07143
▁շարք	-8.07239
ոց	-8.08078
▁ասում	-8.08186
▁սա	-8.08461
▁Եթե	-8.08981
▁Ար	-8.09345
▁լ	-8.09545
▁նրանք	-8.09771
▁հայկական	-8.09862
ացման	-8.10089
▁Չ	-8.10101
՞	-8.10182
▁ունեցել	-8.1042
▁սահման	-8.10609
▁Սա	-8.10716
▁նույն	-8.1095
րա	-8.11049
▁նկատմամբ	-8.11464
i	-8.11468
▁զարգացման	-8.12122
▁անդամ	-8.12307
ւ	-8.12446
որդ	-8.12839
▁Երեւան	-8.12857
▁դ	-8.13089
▁տեղ	-8.13407
▁լինել	-8.13583
▁հնարավոր	-8.1429
▁նախարար	-8.14448
սկ	-8.14556
▁Հայ	-8.15327
եցին	-8.15527
–	-8.15755
Ը	-8.15798
▁Հայաստան	-8.15882
▁շուրջ	-8.16289
▁մեկը	-8.16291
▁լինի	-8.1633
յա	-8.1636
սի	-8.16443
▁առանց	-8.16604
ուկ	-8.16772
▁դուք	-8.1684
▁անվան	-8.16851
աք	-8.17362
ադր	-8.17364
▁միջեւ	-8.1777
▁կարելի	-8.17996
Ք	-8.18055
▁տես	-8.18355
ոմ	-8.18372
Ե	-8.18519
քի	-8.18706
եյ	-8.18749
ամյա	-8.19012
▁չեմ	-8.19078
▁դրա	-8.19302
▁կառավարության	-8.1938
ագր	-8.19416
▁թվականին	-8.19993
▁...	-8.2003
անց	-8.20153
]	-8.20201
t	-8.20335
ԱՆ	-8.21342
▁երկրի	-8.21503
աթ	-8.21528
ությունն	-8.21556
ավար	-8.21702
▁համապատասխան	-8.22348
▁S	-8.22549
▁փոխ	-8.22738
▁Բայց	-8.22754
▁հնարավորություն	-8.22871
մամբ	-8.22985
կա	-8.22989
▁Ու	-8.23499
▁հայտնի	-8.235
▁տարվա	-8.24007
▁ըստ	-8.24052
▁կենտրոն	-8.24244
er	-8.24322
▁Օ	-8.24605
▁ք	-8.24795
▁ամբողջ	-8.25138
շտ	-8.2519
բեր	-8.2532
an	-8.25425
▁կան	-8.25743
Թ	-8.26086
ացի	-8.26287
▁որի	-8.26611
▁անհրաժեշտ	-8.26669
▁դեռ	-8.26723
▁գր	-8.26922
u	-8.26932
▁հենց	-8.27101
▁աշխարհի	-8.27208
▁Նիկոլ	-8.27266
▁Փ	-8.27613
▁որոշ	-8.27643
ԱՐ	-8.27717
▁մյուս	-8.27931
Ո	-8.28546
▁Սերժ	-8.28614
վելու	-8.28799
d	-8.28981
▁համաձայն	-8.29053
▁Այն	-8.29449
▁առ	-8.29593
k	-8.29821
վա	-8.29884
▁եւս	-8.29902
▁պահ	-8.30158
▁կլինի	-8.30496
▁Ռուսաստանի	-8.30505
▁մարդիկ	-8.30662
անի	-8.30942
▁իրեն	-8.31049
▁ունեցող	-8.31206
▁ա	-8.31799
▁որպեսզի	-8.31894
▁պատրաստ	-8.32035
ուղ	-8.32301
▁անց	-8.32423
▁ար	-8.32558
▁ունեն	-8.32784
▁որոնց	-8.32799
յալ	-8.3304
իլ	-8.33192
▁ծ	-8.33262
▁/	-8.33402
Լ	-8.33454
նա	-8.33886
▁զ	-8.34344
▁պար	-8.34399
▁Ձեր	-8.34526
g	-8.34871
ափ	-8.35422
▁Ադրբեջանի	-8.35567
▁պատճառով	-8.35732
▁ԱԺ	-8.35764
▁Ե	-8.35828
ակի	-8.3592
▁համ	-8.36337
Ր	-8.36601
ապես	-8.36704
▁անել	-8.36734
▁օրը	-8.36906
▁ձեզ	-8.3696
վեր	-8.37295
▁ուզում	-8.37524
▁միջոցով	-8.37577
իայի	-8.37609
▁Ինչպես	-8.37862
▁խաղ	-8.38003
եռ	-8.38043
c	-8.38149
▁Մենք	-8.3834
n	-8.38464
▁չէր	-8.38582
▁կապված	-8.38621
րի	-8.38628
ալի	-8.38851
աբար	-8.38932
▁տարեկան	-8.39113
▁նախկին	-8.39258
▁ովքեր	-8.39577
այն	-8.39782
▁Ֆ	-8.39786
▁Ջ	-8.39884
յում	-8.40203
իա	-8.40405
յուր	-8.40863
▁տնօրեն	-8.40944
▁ընդունել	-8.41057
▁կապ	-8.41061
▁պ	-8.41293
▁երկրորդ	-8.41404
▁Մեր	-8.41543
▁Դա	-8.41838
▁Այսօր	-8.41868
▁հիմնական	-8.41975
▁ժամը	-8.42022
▁տնտեսական	-8.42274
):	-8.42628
▁Ռ	-8.42772
ացել	-8.42827
A	-8.42974
b	-8.43591
▁Արմեն	-8.43644
ութ	-8.43655
▁լինելու	-8.43887
▁չկա	-8.43971
».	-8.44113
ապետ	-8.44141
▁պատասխան	-8.44294
▁տակ	-8.44356
▁հիմա	-8.44537
S	-8.44814
▁նշել	-8.44831
իստ	-8.45223
▁ընդհանուր	-8.45309
▁պարզ	-8.45425
▁Նոր	-8.45481
▁M	-8.46144
իզ	-8.46162
▁դրանց	-8.46516
▁Ծ	-8.46516
▁Սակայն	-8.46691
՛	-8.46701
▁հազար	-8.47008
նդ	-8.47424
▁հարկ	-8.47433
լի	-8.47476
▁ցույց	-8.48173
l	-8.48421
▁հայտնել	-8.48632
▁խոր	-8.48868
վան	-8.4887
▁Ազգային	-8.49204
▁նախագահի	-8.49208
▁ինքն	-8.49505
▁թեկնածու	-8.49565
գր	-8.49585
նք	-8.49631
▁պատ	-8.49659
r	-8.49665
ացնել	-8.49708
ՈՒ	-8.50235
▁C	-8.50362
▁Նրա	-8.50369
▁կատարել	-8.50435
f	-8.50471
տի	-8.50498
▁հետեւյալ	-8.50568
ին՝	-8.50832
▁Իր	-8.50835
▁պաշտպան	-8.50839
h	-8.51105
▁որովհետեւ	-8.51268
▁կողմ	-8.51313
▁թույլ	-8.51465
▁Թուրքիայի	-8.51531
▁դրանք	-8.51604
▁Հայաստանից	-8.51689
▁պաշտպանության	-8.51822
▁հայտարարել	-8.51841
▁կյանքի	-8.51893
▁պետ	-8.51966
▁ծրագրի	-8.51975
▁լավագույն	-8.5202
in	-8.52281
▁առավել	-8.52306
▁հատուկ	-8.52732
▁Սարգսյանը	-8.52903
քը	-8.52995
▁ի՞նչ	-8.53047
ԱԿ	-8.53099
▁վ	-8.53656
▁տան	-8.53884
▁այստեղ	-8.5435
▁մարդու	-8.54408
▁քաղաքի	-8.54514
▁ընտր	-8.54527
արան	-8.54552
▁պահանջ	-8.54561
▁երեք	-8.548
երին	-8.54817
▁Արցախի	-8.55008
▁հեղինակ	-8.55352
ությունները	-8.55395
▁Աս	-8.55584
▁յուրաքանչյուր	-8.55628
▁ամենա	-8.55697
▁օրինակ	-8.55746
▁հանդես	-8.55759
արար	-8.55833
▁նշեց	-8.56014
▁միշտ	-8.56284
▁B	-8.56363
▁վարչապետ	-8.56556
ուտ	-8.56653
տեսանյութ	-8.57149
▁գալիս	-8.57405
▁գումար	-8.57472
▁նախատեսված	-8.57502
▁հարց	-8.5766
▁դաս	-8.57814
▁կազմ	-8.57845
▁կոչ	-8.57894
m	-8.5828
▁փոքր	-8.5838
▁ՀՀԿ	-8.58433
▁A	-8.59271
▁այնպես	-8.59284
▁իրական	-8.59461
▁P	-8.59636
անա	-8.59678
▁տար	-8.59841
իտ	-8.60077
▁նպատակով	-8.60088
ar	-8.60388
▁գործունեության	-8.6055
▁կազմում	-8.60558
Խ	-8.60633
մի	-8.60823
▁Հայաստանը	-8.60897
▁պատգամավոր	-8.61019
▁նախարարության	-8.61053
▁թող	-8.61435
▁ծառայության	-8.61566
▁սահմանված	-8.61829
Շ	-8.61841
▁սեփական	-8.61857
▁ժամ	-8.61868
▁անվտանգության	-8.61969
▁Հայոց	-8.62118
▁չափ	-8.62311
▁հրապարակ	-8.6235
▁ճիշտ	-8.62504
▁եկել	-8.6273
յու	-8.6286
▁քիչ	-8.62947
C	-8.62987
▁իրավունք	-8.62993
▁փ	-8.63
ԵՐ	-8.63026
▁արտաքին	-8.63033
▁քրեական	-8.63568
▁դեպի	-8.6362
▁երկար	-8.63632
▁արագ	-8.63833
▁երգ	-8.64079
անալ	-8.64127
ույթ	-8.64192
▁դու	-8.64196
»։	-8.64219
ությունից	-8.64339
▁արդյունքում	-8.64696
▁խորհրդի	-8.64729
▁մարզի	-8.65159
եզ	-8.65445
▁անձանց	-8.65735
▁առաջարկ	-8.65735
▁Ըստ	-8.65775
ացած	-8.65936
▁գտնվում	-8.65975
ոգ	-8.65975
▁երկրների	-8.66002
▁համակարգ	-8.66134
ացնում	-8.6635
▁Երեւանում	-8.66731
al	-8.66743
▁որոշում	-8.66761
ուշ	-8.6687
▁ազգ	-8.66889
▁ակտիվ	-8.66903
երում	-8.6695
▁դպրոց	-8.66957
▁քեզ	-8.67338
▁թվում	-8.6781
▁այնքան	-8.67822
▁հաճախ	-8.67831
▁էջ	-8.67907
▁կառավարման	-8.68134
▁տարածք	-8.68219
▁խմբի	-8.68342
▁Դուք	-8.68515
▁վաղ	-8.68521
▁շարունակ	-8.68564
ոդ	-8.68573
▁սոցիալական	-8.6863
▁Ինչ	-8.68825
▁Ալ	-8.68925
▁նույնիսկ	-8.68929
▁օրենքի	-8.69037
իմ	-8.69056
E	-8.69059
▁վճար	-8.69216
▁ողջ	-8.6932
տեղ	-8.69534
երով	-8.69541
▁մարզ	-8.69544
▁քայլ	-8.69987
ահար	-8.69988
▁պաշտոնական	-8.70047
▁ցանկանում	-8.70087
երից	-8.70109
▁Մեծ	-8.70121
▁ընկերության	-8.70336
▁ունեցած	-8.70621
ացված	-8.70706
▁գտնվող	-8.70786
▁քո	-8.71236
ագիր	-8.71434
▁փողոց	-8.71628
ացում	-8.71763
▁պիտի	-8.72054
▁վստահ	-8.72076
անկ	-8.72087
աժ	-8.72272
▁նախ	-8.72374
▁սիր	-8.72857
րո	-8.72911
ՈՒՄ	-8.73072
▁Կար	-8.73148
▁﻿	-8.73366
▁ջր	-8.73538
▁բազմաթիվ	-8.73582
▁աշխատանքի	-8.73631
or	-8.7366
▁շրջանակներում	-8.73687
տար	-8.73902
տր	-8.73988
▁ուրիշ	-8.74338
Է	-8.74507
▁գործում	-8.74599
▁դեսպան	-8.7461
▁մասնակցել	-8.74763
▁առկա	-8.7482
on	-8.74913
▁ստացել	-8.74998
▁կարծում	-8.75034
▁ֆ	-8.75077
չի	-8.75127
▁համակարգի	-8.75363
▁շրջան	-8.75375
▁Սարգսյանի	-8.75425
աջ	-8.75454
▁տուն	-8.75663
▁ցանկ	-8.75755
երն	-8.7582
ինգ	-8.75895
▁Գր	-8.75906
ագործ	-8.75906
անգ	-8.75975
▁դոլար	-8.7607
մա	-8.76235
"	-8.76258
վեցին	-8.76408
▁ներկայացնում	-8.76821
▁հակա	-8.76895
դր	-8.77059
▁պատկեր	-8.77115
լա	-8.77165
քեր	-8.77316
▁N	-8.77366
ոյի	-8.77501
▁թիվ	-8.77567
օ	-8.77667
▁տվել	-8.77808
▁հայտնում	-8.78132
երեն	-8.78132
օր	-8.78145
▁T	-8.78295
▁միավոր	-8.78723
▁տոն	-8.78891
▁մլն	-8.7895
▁մեկն	-8.78991
▁հոդվածի	-8.78994
O	-8.79102
▁աշխարհում	-8.79148
դի	-8.79152
▁ամիս	-8.79217
▁դարձել	-8.79278
P	-8.7932
▁Մար	-8.79368
”	-8.80042
▁ապրիլի	-8.80435
▁անում	-8.80535
ագույն	-8.8058
▁աշխատանքային	-8.80588
▁գրում	-8.80715
▁կանոն	-8.80743
▁գյուղ	-8.80752
▁նվիրված	-8.80869
▁ձեռնարկ	-8.81084
▁Լուրեր	-8.81136
▁բնակարան	-8.81151
▁նշանակում	-8.81207
ցի	-8.81584
▁հարցը	-8.81646
Չ	-8.81762
D	-8.81811
com	-8.81824
▁Կարեն	-8.82056
▁միլիոն	-8.82069
▁սկսել	-8.8212
իդ	-8.82153
▁խնդիր	-8.82186
▁աճ	-8.82257
եստ	-8.82264
▁օրվա	-8.82605
▁դր	-8.8264
եթ	-8.82694
▁է՝	-8.82923
▁խնդիրներ	-8.83243
▁կունենա	-8.83294
▁հարցում	-8.83388
▁բերել	-8.83447
▁դժվար	-8.835
▁ուժ	-8.83692
ԻՆ	-8.83775
▁ուղղությամբ	-8.83972
▁հավաք	-8.8411
▁գրել	-8.84118
▁ՌԴ	-8.84141
▁ժողովրդի	-8.84458
T	-8.84613
▁որն	-8.84789
▁իրավունքների	-8.84845
)։	-8.84894
▁արդյունավետ	-8.85484
▁շրջանում	-8.85521
▁համայնքի	-8.85522
▁հատ	-8.85755
▁հասարակական	-8.85794
արդ	-8.8591
▁գնում	-8.86016
▁վարչական	-8.86071
▁փակ	-8.86144
▁Երբ	-8.86223
▁տալ	-8.86245
▁մասը	-8.86254
▁առաջնորդ	-8.86374
այլ	-8.86453
տալ	-8.86491
▁վար	-8.86495
▁աշխատ	-8.86917
յուն	-8.87079
կո	-8.87162
▁"	-8.87356
▁հանդիպում	-8.87436
en	-8.87474
եցի	-8.87522
▁հաջորդ	-8.87542
_	-8.87846
աբան	-8.87896
եդ	-8.87937
▁ցանկացած	-8.87968
▁լուրջ	-8.8798
▁չունի	-8.88061
▁Նախագահ	-8.88177
▁ոստիկանության	-8.88345
▁երիտասարդ	-8.88703
▁կուսակցության	-8.8871
▁մարտի	-8.88748
հան	-8.88891
եպ	-8.8897
▁ծավալ	-8.8898
Ռ	-8.89017
I	-8.8921
րել	-8.89219
▁վայր	-8.89279
▁այլն	-8.893
րան	-8.89772
▁վատ	-8.8978
▁տարած	-8.89794
▁շաբաթ	-8.89858
եգ	-8.89867
▁հոգ	-8.89873
ողական	-8.8993
ագետ	-8.89999
▁գործող	-8.90072
▁Ձեզ	-8.90429
▁ավել	-8.90715
▁համագործակցության	-8.90806
ԱԿԱՆ	-8.91045
▁ուղղված	-8.91147
▁դիմում	-8.91327
▁նշված	-8.91407
▁բռն	-8.91488
▁ինչը	-8.91616
ությանը	-8.91712
ապահ	-8.91887
▁“	-8.91932
▁ծանր	-8.92071
▁հանրագիտարան	-8.92371
▁խոսել	-8.92469
▁կար	-8.92547
ամբ	-8.92572
▁տարածքում	-8.92629
M	-8.92677
▁ներկայացրել	-8.92715
▁ռազմական	-8.92844
Օ	-8.92908
▁աշխատանք	-8.93016
▁անկախ	-8.931
▁հատկապես	-8.93122
▁Վիքիպեդիա	-8.93169
▁ներկա	-8.93266
▁Հայկական	-8.93603
վե	-8.93825
նե	-8.9397
վար	-8.94293
իշ	-8.94294
▁չենք	-8.94465
լին	-8.94539
▁հետեւանքով	-8.94654
▁ճ	-8.94707
▁աշխարհ	-8.95012
ումների	-8.95166
▁այնպիսի	-8.9524
▁Փաշինյանը	-8.9526
▁պատմության	-8.95268
▁փոփոխություններ	-8.95297
▁Ամեն	-8.95324
արտ	-8.95341
о	-8.95422
▁հաստատ	-8.95459
▁Սուրբ	-8.95461
▁դեկտեմբերի	-8.95539
▁համատեղ	-8.95554
«	-8.9556
▁փորձում	-8.95636
▁ոլորտում	-8.95665
▁F	-8.95842
իվ	-8.95881
▁L	-8.95899
ողների	-8.95956
գն	-8.96015
▁պահին	-8.96037
ոք	-8.96215
▁նույնպես	-8.96219
▁դիմել	-8.96408
▁հարցեր	-8.96423
▁ավարտ	-8.96495
▁հանդիպման	-8.96818
▁լի	-8.96819
▁նկար	-8.96898
▁Բար	-8.96934
▁սեպտեմբերի	-8.96969
▁կարծիք	-8.97037
▁մամուլի	-8.97192
աւ	-8.97242
▁այնտեղ	-8.97242
▁մտ	-8.97386
%	-8.97511
▁ունենալ	-8.97639
▁պատերազմ	-8.97652
и	-8.97855
աֆ	-8.97879
քս	-8.97886
ումներ	-8.97943
ապատ	-8.97993
▁հող	-8.97996
▁վնաս	-8.9803
ոթ	-8.98047
▁հոկտեմբերի	-8.98155
աբեր	-8.98214
▁վերջ	-8.98253
անուն	-8.98335
▁Նրանք	-8.98384
արի	-8.98403
▁հասարակության	-8.98505
ուհի	-8.98623
B	-8.98686
▁մայիսի	-8.98707
եան	-8.98802
գործ	-8.98913
▁լիազոր	-8.98957
▁H	-8.98967
▁բիզնես	-8.99096
ութեան	-8.9914
կի	-8.99298
▁ձայն	-8.99346
րե	-8.99355
▁նպատակ	-8.99541
▁հանձնաժողովի	-8.99584
▁ինքը	-8.99589
▁հարաբերությունների	-8.99632
ատար	-8.99852
▁հայտ	-8.99853
▁հարցերի	-8.99878
աստ	-8.99901
▁տեսնում	-8.99918
գի	-8.99986
▁կատարելու	-9.00026
ացավ	-9.00045
▁Առաջին	-9.00063
▁զրույցում	-9.0021
ոկ	-9.00304
▁կմ	-9.00393
▁պատճառ	-9.00626
▁Արթուր	-9.00661
▁որոշակի	-9.00715
ուզ	-9.0072
ՈՐ	-9.00728
▁աս	-9.00827
ում՝	-9.00862
▁աշխատել	-9.01019
▁կարիք	-9.01109
անոց	-9.01142
Զ	-9.01174
▁կազմակերպության	-9.01196
▁քաղաք	-9.01336
▁բն	-9.01431
▁փաստ	-9.01547
մար	-9.01621
▁անձի	-9.01751
▁գալ	-9.01908
զի	-9.01951
Ես	-9.01981
▁Ավ	-9.01987
▁պետության	-9.02087
▁սույն	-9.02108
▁Իրանի	-9.02114
կար	-9.02174
▁այդպես	-9.02281
▁հիմք	-9.02345
▁կերպ	-9.02393
հար	-9.02458
▁որքան	-9.02726
▁մայր	-9.02915
▁Արամ	-9.02984
▁ստեղծել	-9.03127
մանը	-9.03191
▁այլեւ	-9.03207
▁G	-9.03278
ոպ	-9.03296
▁բառ	-9.03341
▁շարունակում	-9.03433
▁երկ	-9.03596
▁հաղթանակ	-9.03687
▁ճանապարհ	-9.03704
▁հստակ	-9.03756
▁աշխատում	-9.0389
ch	-9.0396
▁տեղեկություններ	-9.03974
▁լինում	-9.03996
ԱՀ	-9.0406
▁ապրում	-9.04109
թեր	-9.0413
▁այժմ	-9.04285
▁երեխաների	-9.04466
Ջ	-9.04529
▁նախորդ	-9.04689
▁ժամկետ	-9.04711
տես	-9.0505
կայ	-9.05161
▁նոյեմբերի	-9.0521
▁E	-9.05344
▁վարչության	-9.05393
▁վերա	-9.05556
յակ	-9.05609
▁կես	-9.0562
▁Ամ	-9.05845
տա	-9.05963
▁հաշվի	-9.06085
յո	-9.06101
▁օգտագործել	-9.06198
▁Տեր	-9.06318
տն	-9.0632
▁շնորհիվ	-9.06334
L	-9.06348
▁գեր	-9.06373
▁Դավիթ	-9.06379
▁Լի	-9.0641
▁ֆինանսական	-9.06418
▁երկրում	-9.06442
▁նյութեր	-9.06482
▁ներքին	-9.06565
▁օրեր	-9.06786
▁համայնք	-9.0679
▁Համ	-9.06845
ոզ	-9.06927
▁խոսք	-9.07131
պր	-9.07173
ԱՄ	-9.07279
գա	-9.07317
▁Լեւոն	-9.07328
ակարգ	-9.07357
▁արդար	-9.07362
▁ուղղ	-9.07426
ԱՅ	-9.07589
ույ	-9.07617
▁լրատվական	-9.07759
մտ	-9.0782
Ար	-9.07845
▁սովոր	-9.07951
▁իրավիճակ	-9.08035
▁քաղաքացիական	-9.08047
▁հար	-9.0805
իան	-9.08082
w	-9.08105
▁Որ	-9.08318
▁Թե	-9.08362
▁մուտք	-9.08363
▁դառնում	-9.08376
▁քննչական	-9.08422
տեր	-9.08433
▁օ	-9.08482
▁կրթության	-9.08488
▁հունիսի	-9.08623
▁վարչապետի	-9.08651
▁Եր	-9.08674
▁արել	-9.08679
տո	-9.08733
▁հուլիսի	-9.08775
▁րոպե	-9.08832
▁մարմնի	-9.09005
չական	-9.09196
▁քաղաքում	-9.09224
▁տոկոս	-9.09455
at	-9.09495
▁Լեռնային	-9.09674
գար	-9.09681
▁Ի՞նչ	-9.09715
▁հանձն	-9.09729
▁խոշոր	-9.09803
▁Փաշինյանի	-9.10116
▁մշակույթի	-9.102
▁դատական	-9.10335
▁ուժերի	-9.1034
▁ժ	-9.10344
աճ	-9.1043
R	-9.10475
▁իշխանության	-9.10498
▁հերոս	-9.10501
▁բավարար	-9.10588
ակից	-9.10615
առն	-9.1068
▁արտահայտ	-9.10728
▁տեսնել	-9.10769
▁Շատ	-9.10854
Ծ	-9.10886
▁ներկայացնել	-9.11066
v	-9.11119
▁հան	-9.11157
▁բացահայտ	-9.11229
▁Գլխավոր	-9.11247
ատու	-9.11294
▁վիրավոր	-9.11299
▁կարգով	-9.11383
▁Տիգրան	-9.11441
▁գրավ	-9.11544
▁D	-9.11604
նչ	-9.11672
▁կնոջ	-9.11683
▁համաշխարհային	-9.11716
▁հաղորդում	-9.11781
ոբ	-9.11863
▁կյանք	-9.11943
▁ուրախ	-9.12015
▁կենտրոնի	-9.12023
▁հունվարի	-9.12108
▁երբեք	-9.12201
ԱՏ	-9.12237
▁վերաբերում	-9.1227
▁կանանց	-9.1233
▁մահ	-9.12352
▁ինքնա	-9.12422
Ժ	-9.12434
▁դեռեւս	-9.1244
▁իրավական	-9.1256
պետ	-9.12571
պի	-9.12642
▁հերթական	-9.1267
արգ	-9.1272
▁ունենք	-9.12784
մեն	-9.12811
▁ունեցավ	-9.12904
▁տեղակալ	-9.12987
▁հասցե	-9.13011
▁արժեք	-9.13206
▁շահ	-9.1327
▁ընդուն	-9.13403
▁ելույթ	-9.13405
▁ընկեր	-9.13544
▁դիմաց	-9.13698
▁Ո	-9.13736
▁գլխ	-9.13737
քան	-9.13833
տակ	-9.13966
▁հետաքրքիր	-9.14081
es	-9.14109
▁նշում	-9.14127
▁ներկայաց	-9.1421
▁հանդիպել	-9.14338
Փ	-9.144
լե	-9.14407
տոն	-9.14409
▁Ձ	-9.1472
▁սիրում	-9.14793
անալու	-9.14923
րոն	-9.14936
▁բանակ	-9.1499
▁մրցանակ	-9.15014
▁ԵՄ	-9.15176
պտ	-9.15184
▁առումով	-9.15246
▁երեխայի	-9.1527
▁Օր	-9.15452
'	-9.1562
տան	-9.15626
▁դե	-9.15706
▁իրենք	-9.15769
▁խաղում	-9.15803
▁խնդիրների	-9.15828
▁մատուց	-9.15911
le	-9.16009
▁դի	-9.16068
վազ	-9.1607
▁ընտանիքի	-9.16105
▁բնական	-9.16152
ացրել	-9.16383
▁լուսանկար	-9.16385
▁քաղաքացի	-9.16522
▁համեմատ	-9.16539
▁ռուսական	-9.16635
ՙ	-9.16691
ամարտ	-9.16709
▁դպրոցի	-9.16771
ափոխ	-9.16873
▁բուժ	-9.16934
re	-9.17075
▁սեր	-9.17099
▁արդյունք	-9.17186
▁դատարանի	-9.17221
▁տվյալ	-9.17244
а	-9.17278
▁գտնել	-9.17323
▁Եվրոպայի	-9.17334
▁մինչ	-9.17365
▁ընտրությունների	-9.17387
▁ընդամենը	-9.17459
▁արեւ	-9.17476
ահան	-9.17507
▁հանրային	-9.17508
▁հոր	-9.17579
▁ձեւ	-9.17579
ացումը	-9.17645
it	-9.17652
ավորման	-9.17661
▁Կա	-9.177
▁լրագրողների	-9.18174
▁Ղ	-9.18194
N	-9.18301
▁սխալ	-9.18318
▁քաղաքականության	-9.18377
▁աստիճան	-9.18597
▁բժշկական	-9.18631
▁ստեղծ	-9.18809
▁ծրագրերի	-9.18827
▁բաժնի	-9.18862
դա	-9.1887
▁կրկին	-9.18874
▁խոսում	-9.18898
▁Վրաստանի	-9.19046
▁իրականացման	-9.19174
▁ցուցակ	-9.19233
▁ուշ	-9.19281
▁Ց	-9.1931
▁էինք	-9.19331
▁ցավ	-9.19445
▁զոր	-9.19459
▁ուղղակի	-9.19481
▁նախա	-9.19504
▁ստորագր	-9.19537
▁կոդը	-9.19587
▁Հար	-9.19602
ավան	-9.19633
ախոս	-9.19641
▁երրորդ	-9.19743
▁աշխատանքներ	-9.19925
▁այց	-9.20002
▁կազմակերպությունների	-9.20047
նես	-9.2007
▁Առ	-9.20091
▁բար	-9.20104
▁բողոք	-9.2014
մբ	-9.20152
▁համալսարանի	-9.20285
▁լույս	-9.20296
▁այցելել	-9.20425
▁համա	-9.20479
▁ցուցադր	-9.20545
▁միասին	-9.20726
▁պաշտոն	-9.20768
▁արձագանք	-9.20857
▁պատերազմի	-9.20897
▁գործակալություն	-9.20943
▁կարողանում	-9.20968
▁դիմ	-9.21184
▁աղ	-9.2148
ացնելու	-9.21535
ուդ	-9.21718
▁ակումբ	-9.21723
▁կանխ	-9.2177
▁մշակութային	-9.21797
▁մարմինների	-9.21803
▁աշխատանքների	-9.21863
▁Պար	-9.21922
Ց	-9.21972
▁Ճ	-9.21981
▁գրեթե	-9.21981
▁քայլեր	-9.22071
▁նամակ	-9.22129
▁ինչու	-9.22324
]:	-9.22331
ինք	-9.22364
▁պահպան	-9.22422
խտ	-9.22445
▁կատարում	-9.22467
Ձ	-9.22493
▁ժողովի	-9.22633
▁Գագիկ	-9.22705
▁բաժին	-9.22725
▁զենք	-9.228
▁քաղաքացիների	-9.23068
▁ստանալու	-9.23088
▁ուսանող	-9.23134
լո	-9.23243
Ֆ	-9.23281
բան	-9.23345
▁կառուց	-9.2344
ենտ	-9.23539
▁հույս	-9.23556
ավորում	-9.23639
▁փետրվարի	-9.23674
▁անձնական	-9.23698
▁մասնավորապես	-9.23777
▁գաղափար	-9.23826
▁տարիներին	-9.23946
▁բեր	-9.24018
▁դրական	-9.24046
ամաս	-9.24068
▁կո	-9.24182
▁ոչինչ	-9.24198
ra	-9.24212
▁չար	-9.24223
▁ներկայացուցիչ	-9.24242
թթ	-9.24406
▁ստանալ	-9.24424
▁ունենում	-9.24446
ազդ	-9.24475
ՄԱՆ	-9.24499
is	-9.24554
▁Բացի	-9.24684
▁փող	-9.24752
Ու	-9.24845
▁ռե	-9.24949
ՈՒԹՅԱՆ	-9.25007
▁լուրեր	-9.25096
▁առանձին	-9.25133
▁միջ	-9.25156
▁լայն	-9.25161
▁պլան	-9.25476
▁օրենքով	-9.25486
▁Թերթ	-9.25548
պատ	-9.25583
ահայ	-9.25609
▁տուր	-9.25652
▁բնակիչ	-9.25667
x	-9.25794
այում	-9.258
▁այլեւս	-9.25867
▁խնդիրը	-9.25877
▁քարտուղար	-9.25933
▁դեր	-9.26002
▁գործով	-9.26094
▁I	-9.261
▁դարձավ	-9.26112
ic	-9.26165
▁միջոց	-9.26167
▁հասկանալ	-9.26212
▁թուրք	-9.26252
▁առջեւ	-9.26431
▁հայր	-9.26445
ութիւն	-9.26455
(	-9.26549
▁կայքում	-9.26677
▁հաշվարկ	-9.26699
▁կասկած	-9.26772
▁հանդեպ	-9.26796
▁բարդ	-9.2685
▁կենտրոնում	-9.26893
▁Հիշեցնենք	-9.26961
▁ընկերներ	-9.26973
▁տեղում	-9.27138
▁Կր	-9.27239
քում	-9.27356
▁պայմանավորված	-9.27428
▁փուլ	-9.27465
▁պարզապես	-9.27472
▁գնալ	-9.27476
▁գործերի	-9.27538
▁կոմիտեի	-9.27601
▁խաղաղ	-9.27603
е	-9.27619
▁Ստ	-9.27621
ունակ	-9.27705
▁խմբագրել	-9.27723
▁Ռոբերտ	-9.27746
▁W	-9.27749
▁ռուս	-9.27864
▁անվճար	-9.2788
▁գեղեցիկ	-9.279
▁լինեն	-9.27907
աչ	-9.28043
▁այսպես	-9.28066
▁դատ	-9.28152
]։	-9.2818
▁կապակցությամբ	-9.28237
▁օրերին	-9.28242
ով՝	-9.28279
▁թե՛	-9.28298
▁ապահով	-9.28412
▁հիմն	-9.2846
▁մաս	-9.2851
▁հայտնվել	-9.28555
▁նվիր	-9.28628
▁գիտական	-9.28654
▁Ղարաբաղի	-9.28725
Յ	-9.28751
▁միության	-9.28845
▁դասարան	-9.28983
▁հիշատակ	-9.29011
սպ	-9.29108
▁գործի	-9.29116
▁Ռո	-9.29118
▁թթ	-9.29145
կամ	-9.29176
▁ազդեցություն	-9.29251
el	-9.29321
▁եղանակ	-9.29362
▁մասնագիտական	-9.29395
▁հոգեւոր	-9.29404
անտ	-9.29422
ՈՒԹՅՈՒՆ	-9.29463
ստր	-9.29479
▁միջին	-9.29529
▁գիտ	-9.29597
▁նախարարի	-9.29606
պես	-9.29707
▁ներկայացված	-9.29782
▁տր	-9.29784
▁համարում	-9.29804
▁տեսակ	-9.2981
▁հանձնաժողով	-9.29816
եխ	-9.29924
▁•	-9.29955
նենք	-9.3
▁կտա	-9.30121
▁Իմ	-9.30142
Հայ	-9.30145
ատեր	-9.30145
▁օգոստոսի	-9.30185
z	-9.30261
▁դառնալ	-9.3028
▁հասկաց	-9.30289
ոնի	-9.30324
ay	-9.30326
▁հիման	-9.30382
▁հա	-9.30429
տե	-9.30506
ակցություն	-9.30533
▁ծրագրեր	-9.30575
▁Դրա	-9.30587
▁եկեղեցու	-9.3069
F	-9.30789
ՆԵՐԻ	-9.30793
եցինք	-9.30875
▁վտանգ	-9.30921
%-	-9.30941
Մենք	-9.30949
րեց	-9.30988
▁կգ	-9.30998
տու	-9.31028
▁Ժ	-9.31034
▁Հայկ	-9.31097
▁R	-9.3115
▁համարվում	-9.312
▁մեկի	-9.31298
▁խաղի	-9.31325
▁նիստ	-9.31328
▁կազմել	-9.3137
բի	-9.31451
▁մեկնարկ	-9.31515
▁անունը	-9.31687
ակալ	-9.31731
▁որակ	-9.31779
▁մայրաքաղաք	-9.3185
ի՞	-9.31863
▁ծրագիրը	-9.31916
▁նախագահը	-9.31969
▁քննարկել	-9.31986
▁կյանքը	-9.32035
▁որոշման	-9.32057
▁ոլորտի	-9.32084
▁տեղեկացնում	-9.32248
▁ռեժիմ	-9.32322
▁հին	-9.32345
▁բացի	-9.32469
▁տվեց	-9.32534
▁հատված	-9.32572
▁Դե	-9.32643
▁ուժեղ	-9.32685
ԱՍ	-9.32706
▁երկիր	-9.32928
արյան	-9.32944
▁միակ	-9.32973
▁ապրել	-9.33015
▁Ման	-9.33044
եհ	-9.33169
▁թիվը	-9.33329
▁Աստված	-9.33348
▁հաջող	-9.33373
▁փոխարեն	-9.33401
ատուն	-9.33597
▁հիմնականում	-9.33637
▁ավագանու	-9.33743
▁խորհրդարանական	-9.3378
▁դեպք	-9.33783
▁բավական	-9.33859
▁վիճակ	-9.33949
▁կարգավորման	-9.34128
▁ուսումնական	-9.34163
▁դեպ	-9.34164
մայ	-9.3426
ագրական	-9.34286
▁Միացյալ	-9.34372
կր	-9.34548
▁մնում	-9.34565
▁լրագրող	-9.34646
▁տրամադր	-9.34649
ախտ	-9.34697
▁գետ	-9.34747
դեր	-9.34856
▁երեկ	-9.35003
▁ՄԱԿ	-9.35157
▁կոր	-9.35236
ոստ	-9.35352
▁հավատ	-9.35417
▁զինվոր	-9.35769
պար	-9.35786
▁քաշ	-9.3581
▁իհարկե	-9.35823
▁ստանում	-9.35829
կիր	-9.35852
▁Հա	-9.35964
՜	-9.36015
▁խոս	-9.36064
▁կարգ	-9.36172
▁գործեր	-9.36198
▁O	-9.36365
▁թանգարան	-9.36535
▁պարտ	-9.36651
▁դաշտ	-9.36694
▁շենք	-9.36752
ագիտական	-9.36847
▁պակաս	-9.36868
ույց	-9.36916
գո	-9.3692
ԵՆ	-9.37003
▁շրջ	-9.3705
▁հիմնադրամի	-9.37054
▁խաղը	-9.37147
▁ժողով	-9.37187
▁պայմանագիր	-9.37216
▁կազմակերպ	-9.37259
երգ	-9.3727
համ	-9.37447
▁հայերի	-9.37538
ակտ	-9.37625
▁արտադր	-9.37669
▁ընկերությունը	-9.37691
Հայաստան	-9.37695
▁ցեղասպանության	-9.37721
▁հավասար	-9.37752
▁հի	-9.37805
▁մտած	-9.37849
‎	-9.37896
ուռ	-9.3792
▁հերթին	-9.37929
▁իշխանությունների	-9.37938
▁անդամների	-9.37984
▁թարգման	-9.38107
▁#	-9.3812
▁արձակ	-9.38139
▁Մայր	-9.38153
ազան	-9.38191
▁շրջանի	-9.38229
▁ծանոթ	-9.38258
▁տարբերակ	-9.38317
▁մրց	-9.38362
▁կայաց	-9.38405
ուժ	-9.38428
▁զոհ	-9.38456
▁ավագ	-9.38493
▁զին	-9.38662
▁մրցույթ	-9.38684
▁պատմական	-9.38924
▁ոստիկան	-9.39013
▁շարժ	-9.39025
▁խմբակցության	-9.39074
ing	-9.3908
▁հակառակ	-9.39139
▁գործողությունների	-9.39193
ri	-9.39248
▁տեղական	-9.39262
խնդր	-9.39316
▁այդպիսի	-9.3936
նիկ	-9.39528
▁կառավարությունը	-9.39541
▁իրար	-9.39605
▁դատարան	-9.39631
▁համերգ	-9.39644
ագրեր	-9.39647
ԱԳ	-9.39763
▁հայրենիք	-9.39772
▁ծառայությունների	-9.39802
▁հնչ	-9.3991
▁բառեր	-9.39926
ir	-9.39967
▁սպասում	-9.39968
մունք	-9.39997
▁հավ	-9.40001
բա	-9.40016
▁բավականին	-9.40032
▁տեղափոխ	-9.4007
▁Ֆրանսիայի	-9.40073
▁հիվանդ	-9.40137
▁գիշեր	-9.40193
▁հաղորդ	-9.40219
▁Յ	-9.40229
▁մարզում	-9.40286
▁խորհուրդ	-9.40303
▁հրապարակել	-9.40304
ինչ	-9.40321
▁Մարտի	-9.40379
▁արտասանություն	-9.40401
▁ծրագիր	-9.40458
▁արգել	-9.40564
ձոր	-9.40591
▁դեղ	-9.40601
▁համալսարան	-9.40647
ԱՌ	-9.40713
▁բարեկամ	-9.40749
▁Բոլոր	-9.40756
եռն	-9.40825
մեր	-9.40853
▁գոյություն	-9.4093
▁Մեկ	-9.40985
▁նստ	-9.41036
▁փրկ	-9.41074
▁ասած	-9.41074
▁կր	-9.41223
▁մեղադրանք	-9.41267
st	-9.41312
այր	-9.41363
▁Արա	-9.41484
▁սպաս	-9.41553
▁վախ	-9.41592
—	-9.41616
ներս	-9.41652
▁չունեն	-9.41671
ոռ	-9.41674
▁ոք	-9.41721
▁եվրոպական	-9.41742
եի	-9.41753
▁մասի	-9.41761
▁կրթական	-9.41762
▁տա	-9.41808
▁Գործ	-9.4182
▁արդյոք	-9.4195
▁ինչի	-9.4196
ակը	-9.4203
▁դիտ	-9.42033
▁ընթացք	-9.42241
▁մերժ	-9.42247
▁Գիտ	-9.42261
▁նախաձեռն	-9.42315
G	-9.42375
խորհրդ	-9.42434
▁[	-9.42464
▁իրականացնել	-9.42513
▁բնակչության	-9.42544
անձ	-9.42547
▁արվեստ	-9.42551
▁նախագծի	-9.42605
▁դարձ	-9.42613
il	-9.42617
▁հեռաց	-9.42617
ացող	-9.42664
▁հարաբերություններ	-9.42681
աշար	-9.42684
▁գործել	-9.42699
▁ժամանակակից	-9.42715
▁ծով	-9.42727
▁Վարդան	-9.42805
▁Վերջին	-9.42903
▁թագավոր	-9.42916
▁խնդիրները	-9.43224
▁ունենա	-9.43272
▁խումբ	-9.43277
▁միջոցների	-9.43278
▁ջ	-9.43357
▁կայուն	-9.43372
▁գործարար	-9.43515
նեն	-9.4353
▁ԵՎ	-9.43578
▁մասնակցում	-9.43582
ուստ	-9.43675
▁որոշումը	-9.43768
ենց	-9.43795
▁պատրաստվում	-9.4387
▁V	-9.43899
▁հարցազրույց	-9.43925
▁հարված	-9.43932
ստան	-9.43974
▁մեղադր	-9.44044
▁փոքրիկ	-9.44044
▁Ոչ	-9.44059
թե	-9.44267
▁պայքարի	-9.44295
ոչ	-9.44312
▁Ազատ	-9.44312
▁Վեր	-9.44361
▁սպան	-9.44407
րին	-9.44554
▁հասկանում	-9.44601
▁աշխատանքը	-9.44812
▁վաճառ	-9.44893
▁տարիների	-9.44928
▁կառավար	-9.4493
▁հրաման	-9.45019
▁տարիներ	-9.45019
▁Կո	-9.45029
▁ստ	-9.45072
▁գյուղի	-9.45113
▁գրող	-9.45147
դե	-9.45175
▁ստուգ	-9.45217
▁պարտավոր	-9.45242
▁կիրառ	-9.4535
ակներ	-9.45533
▁հիվանդանոց	-9.45551
ԻՐ	-9.45591
▁տալու	-9.45616
▁օտար	-9.45697
▁տվյալների	-9.45717
▁մասնակցելու	-9.4572
▁գազ	-9.45755
րած	-9.4588
▁պայմաններում	-9.45892
▁ընդ	-9.45903
▁վերադարձ	-9.45903
▁մասնակից	-9.45959
▁գործընթաց	-9.45965
▁―	-9.46016
էն	-9.46062
▁զինված	-9.46151
▁ունենալու	-9.46159
▁որոշել	-9.46182
ro	-9.4628
▁սահմանափակ	-9.4639
▁ուժի	-9.46447
▁կյանքում	-9.4668
▁հզոր	-9.46727
պո	-9.46807
▁օդ	-9.46865
▁ուշադրություն	-9.4692
▁հանրության	-9.47001
▁վարորդ	-9.47006
▁աշխատանքները	-9.47048
▁Տար	-9.47057
▁պատասխանատու	-9.47104
▁Վար	-9.47161
▁նշ	-9.47238
▁կտր	-9.47391
▁մշակ	-9.47399
անս	-9.47485
բաժան	-9.475
▁տեղափոխվել	-9.47557
ՆԵՐ	-9.4765
▁խոսքով	-9.47655
▁էջում	-9.47715
▁առթիվ	-9.47752
▁թե՞	-9.47763
▁բնույթ	-9.47809
▁Հոդված	-9.47861
us	-9.4787
ur	-9.4791
Ժամանակ	-9.47941
ԱՎ	-9.47958
▁ստաց	-9.47975
▁հայերեն	-9.48016
▁ցանց	-9.4803
▁Հովհաննես	-9.48053
▁հայտարարեց	-9.48089
▁առողջ	-9.48145
րկ	-9.48146
▁Ավելի	-9.48228
▁հայտնեց	-9.48263
Հայաստանի	-9.4828
▁ջուր	-9.48289
անկար	-9.48332
խմբագրել	-9.48338
ed	-9.48362
▁դրան	-9.48369
▁օրենսգրքի	-9.4842
▁ծառայություններ	-9.4845
▁Հիմա	-9.48493
▁արձանագր	-9.4853
▁իրականացնում	-9.48576
օգտագործ	-9.48578
վոր	-9.48591
▁մնալ	-9.48668
▁քննարկում	-9.4873
▁քննադատ	-9.48757
եշ	-9.48902
ՀՀ	-9.48951
ապա	-9.48988
▁հարցին	-9.48995
կային	-9.48999
▁եզր	-9.49006
▁կատարված	-9.49012
յանն	-9.49017
ԱՊ	-9.49024
▁հարաբերությունները	-9.49087
▁սենյակ	-9.49094
▁շրջանակում	-9.49151
օրյա	-9.49168
▁արվեստի	-9.4926
ույն	-9.49263
▁դրանից	-9.49379
▁նկարահան	-9.49386
▁ներկայ	-9.49446
հրատարակ	-9.49452
▁անցել	-9.49516
▁բանկի	-9.49529
եին	-9.49533
թա	-9.49561
▁գիտակց	-9.49583
▁պայման	-9.49644
▁տեսակի	-9.49744
ոհ	-9.4979
▁բժիշկ	-9.49968
▁Աղ	-9.50001
▁եւ՛	-9.50137
▁հր	-9.50164
դադար	-9.5018
▁կրկն	-9.50377
երկր	-9.50457
▁ընտրել	-9.50479
գեր	-9.50575
▁մասով	-9.50621
ռն	-9.50629
▁կրակ	-9.50678
Երեւան	-9.50695
▁գոլ	-9.507
ԵԼ	-9.50708
▁լուծում	-9.50726
▁խնդրի	-9.50813
պեր	-9.50988
ադիր	-9.51063
▁հրա	-9.51095
Ան	-9.51105
▁պահանջում	-9.51124
▁Բա	-9.51127
▁պատմություն	-9.51131
եկան	-9.51236
▁իմաստ	-9.51263
▁նյութ	-9.51286
▁պարտադիր	-9.51322
▁Կան	-9.51385
▁մրցաշար	-9.51444
et	-9.51457
▁հավաքականի	-9.51469
▁դերասան	-9.51478
▁հանգստ	-9.51482
ոյան	-9.51501
▁ընդունում	-9.51503
▁մասն	-9.51504
▁առանձն	-9.51524
ացիոն	-9.51642
ատես	-9.51669
▁ընտրական	-9.51725
Y	-9.51764
▁ֆուտբոլիստ	-9.51798
▁մտահոգ	-9.51799
ad	-9.51805
▁ամփոփ	-9.51818
▁ԵԱՀԿ	-9.51824
▁զինվորական	-9.51876
▁Հարց	-9.51879
աձեւ	-9.52054
▁Պատ	-9.52059
▁հայտարարություն	-9.52211
▁միջոցառումների	-9.52285
▁դարի	-9.52291
▁հինգ	-9.52336
▁>	-9.52337
կեր	-9.52514
▁աջակցություն	-9.52517
երս	-9.5253
т	-9.52549
▁Սիր	-9.5261
▁թեմայով	-9.52642
▁աղջիկ	-9.52645
▁դատապարտ	-9.52667
▁մշտական	-9.52695
▁անվանում	-9.52708
▁քաղաքապետ	-9.52751
▁արտա	-9.52837
▁կարծիքով	-9.52857
▁թերթ	-9.52919
▁լսել	-9.52945
▁Սամվել	-9.53038
▁Էլ	-9.53089
Պետրոսյան	-9.53091
▁կախված	-9.53113
▁ինստիտուտ	-9.53114
▁խիստ	-9.53121
▁առնելով	-9.53137
▁կաթ	-9.53178
ՈՂ	-9.53223
▁կլինեն	-9.53236
▁Այստեղ	-9.5331
▁միջոցներ	-9.5343
▁առաջարկում	-9.5352
▁հայոց	-9.53638
▁մասնակիցների	-9.53653
▁կատարվում	-9.53747
▁հետագա	-9.53747
▁Այ	-9.5379
▁հասնել	-9.53938
▁տրվում	-9.5406
▁Ին	-9.54156
▁փորձել	-9.54165
աստան	-9.54239
գնահատ	-9.54254
▁գնաց	-9.54286
ակա	-9.54326
ագրություն	-9.54335
▁սկսում	-9.54425
▁համալիր	-9.54511
կոն	-9.54576
▁Ահա	-9.54582
պան	-9.54583
▁սկզբունք	-9.54611
▁կոն	-9.54779
▁չէին	-9.54781
▁հաս	-9.54851
▁Նախ	-9.54869
▁աշխատակազմի	-9.54938
▁գերազանց	-9.5494
▁տնտեսության	-9.54976
ադարձ	-9.55041
ակերպ	-9.5505
տիր	-9.55107
▁ծախս	-9.55126
▁ծառայող	-9.55149
▁կարճ	-9.55209
▁ջերմ	-9.55218
հեռ	-9.55324
▁մար	-9.55362
▁աշխատավարձ	-9.55393
▁կարգավիճակ	-9.55414
▁դատավոր	-9.55452
▁ֆակուլտետ	-9.55623
▁նախարարություն	-9.55684
▁օգտագործում	-9.55996
ացու	-9.56046
▁Մխիթարյան	-9.56152
իայում	-9.5616
▁նշանակություն	-9.56187
н	-9.5627
աբանական	-9.56341
▁հնարավորություններ	-9.56411
▁Վարչապետ	-9.56443
▁Մարգարյան	-9.56443
▁մոդել	-9.56455
▁Ընդ	-9.5647
Ժողովուրդ	-9.56493
▁տեղեկատվություն	-9.56523
▁հրապարակում	-9.56609
▁եկավ	-9.5663
▁գործունեությունը	-9.56654
▁կարգի	-9.56682
▁հետեւ	-9.56782
յուս	-9.56827
▁ԼՂՀ	-9.5686
հա	-9.56869
▁դիրք	-9.56905
▁տեսանյութ	-9.56908
▁Նյու	-9.56968
▁հեշտ	-9.56991
▁հուշ	-9.57012
▁Ֆր	-9.57104
տոր	-9.5711
գան	-9.57128
հետաքրքր	-9.57131
▁ջանքեր	-9.57256
ol	-9.57265
▁հարմար	-9.57276
▁կեղծ	-9.57439
▁հանդիպումներ	-9.57502
▁գլուխ	-9.57561
անգլ	-9.57562
▁եռ	-9.57593
▁ցուցահանդես	-9.57594
▁Դու	-9.57612
▁հոդված	-9.57647
▁ներկայացուցիչների	-9.57654
▁ենթակա	-9.57661
լոր	-9.57711
▁նշան	-9.57754
կատ	-9.57756
▁սեւ	-9.57763
▁չորս	-9.57861
▁առաջնության	-9.57926
▁խմ	-9.58087
▁քար	-9.58143
եցնել	-9.58144
▁շնորհ	-9.58146
ազգ	-9.5818
▁հակամարտության	-9.582
արկում	-9.58232
▁կապերի	-9.58248
▁նորից	-9.5826
▁հանգ	-9.58263
▁Կոն	-9.58265
▁հանգիստ	-9.58279
▁բանկ	-9.58316
ամս	-9.58339
▁փառատոն	-9.58358
▁աչքեր	-9.58391
սոն	-9.58446
▁լուս	-9.58479
ագիրը	-9.58543
▁փաստաթղթեր	-9.58565
ուք	-9.58639
▁կարողանա	-9.58644
▁այդքան	-9.58648
իլի	-9.58862
գետ	-9.58929
▁փաստաբան	-9.59005
▁J	-9.59041
▁գիտության	-9.59046
▁թափ	-9.59063
ենս	-9.59134
▁երկրներում	-9.59142
▁ընդլայն	-9.59161
▁արտահերթ	-9.59195
▁խոսքը	-9.59333
om	-9.5936
▁իրավիճակը	-9.5942
ավորված	-9.59434
▁ապագա	-9.59437
▁թիմ	-9.59498
▁փոփոխություն	-9.5951
▁էլեկտրոնային	-9.59514
▁թիմի	-9.59521
Ճ	-9.5957
ափակ	-9.59611
որոշ	-9.59705
▁համոզ	-9.59707
H	-9.59795
▁հանդիպումը	-9.59854
р	-9.5992
բաց	-9.59956
▁աղբյուր	-9.60038
▁Հայր	-9.60038
▁պես	-9.60134
▁մահացել	-9.60139
▁օրակարգ	-9.60143
▁տարածքներ	-9.60144
▁ամերիկյան	-9.6021
տիկ	-9.60266
▁ցանկություն	-9.60315
▁տեղեկատվության	-9.60374
▁մարդը	-9.60452
▁Նահանգներ	-9.60463
արժան	-9.60473
▁չափով	-9.60477
▁համակարգը	-9.60487
րջ	-9.60493
▁կարծես	-9.60518
սպառ	-9.60578
▁ծառայություն	-9.60598
արանի	-9.60668
▁գրասենյակ	-9.60677
ատան	-9.60733
▁դեպքերում	-9.60774
ավայր	-9.60855
▁տեր	-9.60974
լուսանկարներ	-9.61032
ելուց	-9.61073
վիր	-9.61089
չության	-9.61099
▁արդյունքները	-9.611
▁սահմաններում	-9.61118
▁ստիպված	-9.61204
▁վարձ	-9.61216
▁չեք	-9.61229
▁ստեղծում	-9.61235
▁բերում	-9.61266
ասեր	-9.613
ույր	-9.61333
▁խաղալ	-9.61368
գեն	-9.61401
’	-9.61407
▁Նորություններ	-9.6151
▁կինը	-9.61516
գծ	-9.61529
▁Նրանց	-9.61546
▁օգնել	-9.6163
օգն	-9.6164
▁մահվան	-9.6167
աչափ	-9.61676
▁սպասվում	-9.61685
▁հո	-9.61706
տիպ	-9.61749
▁Լե	-9.6197
▁կետ	-9.62073
▁հիմնադր	-9.62086
▁հեռախոս	-9.62087
▁վերած	-9.62286
ացան	-9.62318
ահատ	-9.62323
▁եվրո	-9.62331
▁ուղեւոր	-9.62353
▁կերպար	-9.62385
▁զգում	-9.62385
▁սր	-9.62505
▁Ալեքսանդր	-9.62523
▁հարկային	-9.62717
անձն	-9.62723
▁ապահովել	-9.62741
▁տեղեկատվական	-9.62753
▁թուրքական	-9.62794
▁միջոցառումներ	-9.62816
ճար	-9.62884
սա	-9.62895
▁հանդիսանում	-9.63093
▁իրականացվում	-9.63104
▁նախապատրաստ	-9.63112
▁Նշենք	-9.63178
▁Վլադիմիր	-9.63237
▁մտածում	-9.63284
▁Ռուսաստան	-9.63313
▁ֆիլմ	-9.63363
▁Կենտրոնական	-9.63413
▁արտակարգ	-9.63439
▁իրավունքի	-9.63451
վելով	-9.63451
▁կատար	-9.63525
▁ձեւով	-9.63539
▁գործը	-9.63557
Հրապարակ	-9.63604
▁որոշումներ	-9.63621
ակցության	-9.6366
ո՞ւմ	-9.63746
▁K	-9.63759
անքի	-9.63808
▁կերպով	-9.63824
անակ	-9.63834
ավեր	-9.63852
ia	-9.63909
▁հասել	-9.64
▁Գրիգոր	-9.64004
AM	-9.64014
▁օգտագործման	-9.64014
▁տեխնիկական	-9.64023
▁ընկերություն	-9.64032
▁ադրբեջանական	-9.64093
▁կինո	-9.64148
▁պատմ	-9.64165
▁երկիրը	-9.64166
▁մոր	-9.642
▁ստեղծված	-9.64214
▁կատարած	-9.64244
▁ԵՊՀ	-9.64266
▁ծնվել	-9.64295
▁Արտ	-9.64309
▁անցյալ	-9.64386
մոն	-9.64407
ընթաց	-9.64448
▁ծնող	-9.64539
Ղ	-9.64564
▁կայացած	-9.64587
կին	-9.64589
▁մնացել	-9.64636
▁առնվազն	-9.64649
▁առաջնություն	-9.64665
նշանակ	-9.64696
ուբ	-9.64709
լար	-9.64732
▁չնայած	-9.64745
▁հեռու	-9.64756
▁պահել	-9.64818
▁բարի	-9.64883
▁Եվրոպական	-9.64927
▁ոճ	-9.64997
ացիա	-9.65012
▁նախագծ	-9.65038
ոխ	-9.65075
▁ֆիզիկական	-9.65185
▁տաք	-9.65188
օրինակ	-9.65298
▁հրաժարական	-9.65305
քային	-9.65309
▁մեդալ	-9.65387
▁հայտարար	-9.65398
լավ	-9.65423
▁քննարկումներ	-9.65426
▁գույքի	-9.6546
▁երբեմն	-9.65473
▁ավտո	-9.65498
ունդ	-9.65501
ամա	-9.65501
▁կին	-9.65558
▁խոսքով՝	-9.65715
▁Թուրքիան	-9.65824
▁վիճակում	-9.65834
▁կոնկրետ	-9.65838
հիշ	-9.6585
;	-9.65899
▁շեշտ	-9.65924
▁Ռա	-9.65969
▁խաղեր	-9.66001
ենդ	-9.66023
▁գրառում	-9.66063
ասաց	-9.6609
▁ապահովում	-9.66155
▁մատ	-9.66165
րիկ	-9.66186
▁ծառ	-9.6621
ղա	-9.66224
▁պետություն	-9.66243
▁ո՛չ	-9.66296
▁թվական	-9.66345
▁մարտ	-9.66345
▁Մանուկյան	-9.66369
իզմ	-9.664
▁իշխան	-9.6641
▁ՀԿ	-9.66446
▁տղա	-9.66519
▁մնացած	-9.66533
ԵԿ	-9.66556
▁մտածել	-9.66632
▁գալու	-9.66644
▁գնա	-9.6665
եցնում	-9.66709
▁Գերմանիայի	-9.66712
մաս	-9.66738
▁նկատ	-9.66767
Այս	-9.66913
արձակ	-9.66949
▁թվականից	-9.66971
▁կենտրոնական	-9.67024
с	-9.6709
ՅԱՆ	-9.67093
▁նախագիծը	-9.67137
▁կարգավոր	-9.67175
իկա	-9.67182
▁տարածքային	-9.67249
▁առաջատար	-9.67258
▁կառավարություն	-9.67313
▁Հարությունյանը	-9.67403
▁սկսած	-9.67451
▁համաժողով	-9.67533
ակետ	-9.67542
ացրեց	-9.67597
րանք	-9.67613
▁Լա	-9.67685
ագիտության	-9.67716
▁թանկ	-9.67724
▁թատրոն	-9.67724
▁պայմաններ	-9.67731
▁հետագայում	-9.67816
իկայի	-9.67871
յուղ	-9.67873
Ռեալ	-9.67938
ոջ	-9.67996
լան	-9.68005
ՈՎ	-9.68048
▁մաքր	-9.68064
յանին	-9.68081
▁անհատ	-9.6809
▁սկսեց	-9.68126
▁աշակերտ	-9.68151
▁ունեմ	-9.68179
ուհու	-9.68192
▁ուղիղ	-9.68198
▁անմիջապես	-9.68217
մին	-9.6843
▁Հովհաննիսյան	-9.68497
▁կապի	-9.68519
▁Ադրբեջանը	-9.68606
ԵՍ	-9.6871
▁հայրեն	-9.68778
▁օգտվել	-9.69023
ԱԶ	-9.69073
▁քննարկման	-9.69123
▁բանակի	-9.69144
▁անվտանգ	-9.69162
զա	-9.69184
▁Թա	-9.69191
▁մանրամասն	-9.69221
յով	-9.6932
ողները	-9.69362
▁տեսել	-9.69385
▁կատարվել	-9.69399
▁Բր	-9.69406
▁փոխել	-9.69437
նջ	-9.69448
զմ	-9.69506
▁հարցի	-9.69539
▁կազմակերպել	-9.69634
to	-9.69694
▁կաս	-9.69744
▁Աշոտ	-9.6975
▁կայան	-9.69758
՚	-9.69765
▁լուսանկարներ	-9.69777
իստական	-9.69855
▁ճանաչում	-9.69895
▁(«	-9.69939
աձ	-9.69982
ԱՑ	-9.70033
▁ՊՆ	-9.7007
▁դնել	-9.7008
իչը	-9.70102
ները՝	-9.70262
▁դպրոցներ	-9.70291
ԱԼ	-9.70323
▁գիտնական	-9.70483
▁հոդվածներ	-9.70504
▁ահա	-9.70522
անյան	-9.70624
▁Գեւորգ	-9.70625
▁գործողություններ	-9.70706
▁վարչություն	-9.70707
▁հատկաց	-9.70737
▁զբաղվել	-9.70762
▁ստեղծագործ	-9.70781
▁բացառ	-9.70788
▁No	-9.70851
խր	-9.70877
▁ամենը	-9.70899
▁ուր	-9.70899
▁երկրներ	-9.70909
▁կլ	-9.70929
▁շենքի	-9.70938
▁քն	-9.7094
ոֆ	-9.70942
լանդ	-9.70981
▁ապրանք	-9.71001
▁անցնում	-9.71019
▁ուսուցիչ	-9.71044
▁չպետք	-9.71062
Մի	-9.71091
▁սարք	-9.71095
▁ընդհանրապես	-9.71113
▁գործընկեր	-9.71144
▁տեխնոլոգիաների	-9.71255
ժան	-9.71343
▁նպատակն	-9.71377
աժողով	-9.71398
թար	-9.71408
ոշ	-9.71415
▁վերաբերմունք	-9.71418
ա՛	-9.71445
▁Արարատ	-9.71533
▁միեւնույն	-9.71607
▁ապահովման	-9.71626
▁չես	-9.71693
▁պարագայում	-9.71833
▁ամբողջական	-9.71852
▁ԵՐԵՎԱՆ	-9.71871
խախտ	-9.71877
▁ընտրություններ	-9.71882
▁դպրոցում	-9.71901
▁ընտրություններին	-9.71925
▁պահպանման	-9.71934
▁հյուրանոց	-9.71939
▁աշխատող	-9.7198
▁անտառ	-9.72053
▁հրամանատար	-9.72075
▁Հակոբյան	-9.72084
▁հղում	-9.72106
▁գործունեություն	-9.72175
▁ավելին	-9.72177
▁իսկապես	-9.72273
▁փոխանց	-9.72278
ացիայի	-9.72346
▁բյուջե	-9.72383
▁գործընթացը	-9.72396
ալու	-9.72422
▁Մոսկվայի	-9.72491
▁հիմնավոր	-9.72509
▁ՀՅԴ	-9.72568
▁օգնություն	-9.72605
▁Կարապետյանը	-9.72611
պա	-9.72647
▁ուղարկել	-9.72805
▁ՄԱՍԻՆ	-9.72818
▁Աբ	-9.72865
▁մեկնել	-9.7288
▁սովորել	-9.72922
▁Պետք	-9.72928
▁Խաղ	-9.73006
տվ	-9.73083
▁մարզիչ	-9.73136
▁քաղաքացիներ	-9.7314
▁անցած	-9.73185
▁լս	-9.73221
▁Սար	-9.73241
▁վիճակը	-9.7327
▁ավարտել	-9.73294
▁հուշարձան	-9.73345
տեն	-9.7337
▁մարդկային	-9.73384
▁Մակ	-9.73401
հայ	-9.73416
ույս	-9.73438
▁միասնական	-9.73478
▁պայքար	-9.73518
արշավ	-9.73523
▁դրսեւոր	-9.73549
▁տարին	-9.73561
ասիր	-9.73572
▁մլրդ	-9.7361
▁Արցախ	-9.73614
պորտ	-9.73633
+	-9.73643
▁անցկաց	-9.73749
անան	-9.73764
▁վերջնական	-9.73778
▁լուծման	-9.73794
▁հարավ	-9.7383
▁տարբերություն	-9.73866
▁պատասխանել	-9.73878
▁դեպքեր	-9.74038
փոփոխ	-9.74043
▁գործարք	-9.7405
▁նախարարությունը	-9.74233
▁իրականում	-9.74249
▁անձ	-9.74284
▁անձն	-9.74289
▁մանր	-9.743
▁պնդում	-9.74334
▁գող	-9.74342
▁գույք	-9.74501
▁ջան	-9.74619
в	-9.74632
ագրության	-9.74637
▁ձերբակալ	-9.74637
▁մետր	-9.74716
▁դատախազ	-9.74729
ռան	-9.74739
▁պատասխանեց	-9.74791
▁Քաղաք	-9.74819
ուխ	-9.7488
▁[...]	-9.74917
V	-9.74931
▁Կարող	-9.74967
▁Ռուսաստանը	-9.75025
ագրի	-9.75056
▁բանաստեղծ	-9.75071
U	-9.75129
▁խոչընդոտ	-9.7515
անքներ	-9.75151
▁հարեւան	-9.75222
▁Հաջորդ	-9.75244
Իմ	-9.75303
▁կուսակցություն	-9.75359
▁անձինք	-9.75378
▁տեքստ	-9.75418
ատր	-9.75435
▁զինծառայող	-9.75486
▁Օրինակ	-9.75506
▁ֆիլմեր	-9.75546
▁դեպքի	-9.75551
▁հաշվով	-9.75559
▁սիրելի	-9.75613
ատոր	-9.75694
▁ներքո	-9.75709
Ադրբեջան	-9.75788
▁ռազմա	-9.75799
▁ընդգծել	-9.7584
նեմ	-9.75871
▁դար	-9.75914
▁խոսքեր	-9.76014
▁Սիրիայի	-9.76022
շին	-9.7608
▁չեմպիոն	-9.76128
▁միմյանց	-9.76209
▁սկս	-9.7622
un	-9.76267
▁բարե	-9.76291
▁կառույց	-9.76372
▁Երկրորդ	-9.76391
▁պատճառը	-9.76416
▁ինչո՞ւ	-9.76474
ացույց	-9.76502
▁չափազանց	-9.76547
▁խառն	-9.76575
▁պրո	-9.76577
լու	-9.76588
▁վերանորոգ	-9.76662
▁հարցն	-9.7667
▁հասանելի	-9.76701
▁Մո	-9.76726
սրտ	-9.76735
▁երաժշտական	-9.76736
▁Եղ	-9.76743
▁վերահսկ	-9.76754
▁պահպանել	-9.76798
▁գնել	-9.76867
պէս	-9.76898
▁ուսանողների	-9.76941
▁լուծ	-9.76945
▁դարձնել	-9.76964
▁օգտակար	-9.77027
ՐԱ	-9.77055
▁գործընթացի	-9.77121
այտ	-9.77127
▁այլընտրանք	-9.7715
▁ցածր	-9.77191
արկել	-9.772
▁փողոցում	-9.77201
▁Անդր	-9.77235
▁Այլ	-9.7727
▁ներկայացուցիչներ	-9.77272
▁պետությունների	-9.77273
▁Քոչարյանի	-9.77282
▁վարկ	-9.77321
ե՞ք	-9.77363
▁կատարման	-9.7737
▁պատասխանատվություն	-9.77381
ադի	-9.77427
ֆր	-9.77428
գլ	-9.77441
ԱՅԻՆ	-9.77481
▁անհատական	-9.77487
▁երեւույթ	-9.77489
▁Սույն	-9.77511
ՈՒՆ	-9.77569
X	-9.77581
▁նախագծեր	-9.77592
աբանության	-9.77602
գամ	-9.77665
ացվել	-9.77743
▁ճարտարապետ	-9.77757
▁բողոքի	-9.7776
▁կայքը	-9.77762
▁մարզպետ	-9.77893
թոն	-9.77943
▁ամբողջությամբ	-9.77995
and	-9.78013
▁պապ	-9.78017
▁ոստիկանություն	-9.78041
as	-9.78046
▁կիս	-9.78054
▁տանը	-9.78137
▁կանգնած	-9.78253
▁լեզվի	-9.78299
▁սպիտակ	-9.78327
▁քարոզ	-9.78353
▁ստացվել	-9.78466
▁կանգ	-9.78519
▁առիթ	-9.78522
▁Երկ	-9.7857
▁հիմնադրամ	-9.78582
▁ընտրություն	-9.78583
▁ջրի	-9.78593
Ելք	-9.78606
ոսի	-9.78616
մատ	-9.78647
ա՞	-9.78651
▁ԱԱԾ	-9.78663
▁հրաժարվել	-9.78671
թղթ	-9.78681
▁վիճակի	-9.78682
▁լրացուցիչ	-9.78728
տնտես	-9.7873
▁պարտք	-9.78736
▁վտանգավոր	-9.78763
աւոր	-9.7881
▁բազմ	-9.78914
▁իրականացնելու	-9.78931
▁նպատակներ	-9.78948
իկյան	-9.79007
▁կրթություն	-9.7903
▁տեսակետ	-9.79087
ազար	-9.79108
▁փաթեթ	-9.79135
▁ընկերությունների	-9.79137
▁տեղը	-9.79143
▁Վարդանյան	-9.79185
▁գոնե	-9.79196
▁բարձրագույն	-9.79228
եքս	-9.79231
▁Սերգեյ	-9.79315
▁վառ	-9.79366
▁Հետ	-9.79383
▁մասնակցություն	-9.79403
▁ընկած	-9.7942
▁բաներ	-9.79443
▁Նման	-9.7946
▁ստեղծման	-9.79492
▁Արտասանել	-9.79552
ոնե	-9.79567
▁ստեղծվել	-9.79579
▁ամսվա	-9.79606
▁մնաց	-9.79673
▁ներգրավ	-9.79682
л	-9.79738
▁որոշմամբ	-9.79773
▁Ստեփան	-9.79809
▁իրավա	-9.79819
▁ինչպե՞ս	-9.79831
▁նպաստ	-9.79878
▁Շիրակի	-9.79891
▁միաժամանակ	-9.79908
▁ծննդյան	-9.80014
▁փուլում	-9.80087
յաց	-9.80224
▁ամբիոն	-9.80287
▁դասախոս	-9.80342
▁բանակցություններ	-9.80349
▁դրությամբ	-9.8046
▁մասնագետ	-9.80537
▁ուսումնասիր	-9.80581
▁տեղադր	-9.80599
▁Սեր	-9.80642
▁մանկ	-9.80645
▁ժողովրդական	-9.80673
▁նախնական	-9.80781
▁օնլայն	-9.80793
▁գործադիր	-9.8083
▁գրքեր	-9.80835
▁դիտարկ	-9.80894
▁քաղաքներ	-9.80919
▁դատարանը	-9.80967
▁վերջո	-9.81008
▁մղ	-9.81068
ru	-9.81088
▁Իհարկե	-9.81094
▁որոնցից	-9.81152
▁Յու	-9.81169
աքս	-9.81194
▁շուտ	-9.81341
▁Նույն	-9.81479
սեր	-9.81521
կով	-9.81529
▁ասուլիս	-9.816
▁դիրքորոշում	-9.81636
բար	-9.81647
▁Փարիզ	-9.81685
▁կողմը	-9.81778
ուհին	-9.81849
▁օրենքներ	-9.81859
▁արմատ	-9.81918
▁կանայք	-9.81922
▁ՓԲԸ	-9.81949
▁մակարդակի	-9.8196
▁ծառայությունը	-9.81964
▁Հարավային	-9.82056
ՄԻ	-9.8207
▁Սարգսյանն	-9.82135
▁կառուցվածք	-9.82136
ակիր	-9.82174
▁զրկ	-9.82213
վածք	-9.82243
▁ընտրության	-9.82293
կատար	-9.82331
▁մեթոդ	-9.82334
▁ընկ	-9.82353
?	-9.82449
▁հաստատել	-9.82462
վիճ	-9.82472
▁Ընտր	-9.82521
▁հավաստ	-9.82598
կենդան	-9.82653
▁on	-9.8266
▁զանգ	-9.82681
▁Կենտրոն	-9.82797
▁կրում	-9.82805
▁իշխանություն	-9.8286
▁ուղեկց	-9.82867
▁տեղեկ	-9.82939
▁ղեկավարի	-9.82965
▁հն	-9.83035
▁գործարան	-9.83064
բու	-9.83088
▁քարտ	-9.83092
▁Սարգսյան	-9.83204
▁արտադրանք	-9.83273
սան	-9.83289
▁դաշինք	-9.83362
▁ենթարկել	-9.83363
▁ակնհայտ	-9.83364
▁հարթակ	-9.83366
Արմենպրես	-9.83369
▁սահմանադրական	-9.83445
th	-9.83625
կրճատ	-9.83641
▁Ռե	-9.83668
▁հիմնադիր	-9.83689
▁բնակ	-9.83741
▁հասարակություն	-9.83784
▁Ինձ	-9.83832
▁հարցերով	-9.83858
ացնի	-9.83862
▁իրավաբանական	-9.8388
de	-9.83928
▁ուժեր	-9.83991
▁Որոշ	-9.83994
▁թարմ	-9.84017
▁տեղեկություն	-9.84055
▁լրատվամիջոցներ	-9.84075
▁ակումբի	-9.84128
▁շահերի	-9.84145
▁նկարագր	-9.84145
մո	-9.8417
▁ենթարկվել	-9.84195
արմ	-9.84202
ընկեր	-9.84207
փոխ	-9.84252
֊	-9.84317
▁հայտնաբերվել	-9.84325
դիր	-9.84355
▁դադարեց	-9.84393
▁Բան	-9.84444
▁ներմուծ	-9.84512
▁վայրեր	-9.84534
▁ֆեյսբուքյան	-9.84552
к	-9.84587
աքար	-9.84648
▁պայմանագրի	-9.84741
▁թողնել	-9.84752
▁Չնայած	-9.84918
▁հայացք	-9.85053
▁մասնավոր	-9.85065
▁հետեւանքներ	-9.85077
▁հանրապետության	-9.85146
▁առաջիկա	-9.85204
ադրություն	-9.85219
▁խնդրում	-9.85228
▁նախարարը	-9.8525
▁ուներ	-9.85274
▁News	-9.85317
▁քնն	-9.85397
▁շուկա	-9.85406
▁գործիչ	-9.85489
▁այսօրվա	-9.85498
հետախուզ	-9.85499
▁մշտապես	-9.85508
▁Աստծո	-9.85515
▁երազ	-9.85516
կե	-9.8554
ֆոտո	-9.85547
▁Հյուսիսային	-9.85555
▁իրականացվող	-9.85559
▁երեխա	-9.85598
,—	-9.85733
▁իշխանությունները	-9.85755
▁լրաց	-9.85782
▁սենյականոց	-9.85814
կտ	-9.85822
▁Պա	-9.85837
▁փոխանակ	-9.85847
▁վայել	-9.85851
▁թվում՝	-9.85856
ma	-9.85907
▁պատմությունը	-9.86054
զր	-9.86135
▁հաղթել	-9.86164
▁հիշեց	-9.86187
▁միջավայր	-9.8622
▁հանր	-9.86231
▁կենդանի	-9.86246
ut	-9.86259
ողություն	-9.86311
ոյանը	-9.86348
▁շարունակել	-9.86379
▁տասնյակ	-9.86393
▁ժողովուրդը	-9.8641
▁հայտարարություններ	-9.86412
▁Երեկ	-9.86471
▁Հոկտեմբերի	-9.86478
▁չկան	-9.8653
▁Մարտիրոսյան	-9.86541
ընթերց	-9.86547
▁հանել	-9.86565
անիշ	-9.86569
թյուն	-9.86578
▁իրականացնող	-9.86592
▁քանդ	-9.86638
▁աշխատակիցների	-9.86715
▁ինստիտուտի	-9.86805
▁Պետական	-9.86856
▁տղամարդ	-9.8686
իզմի	-9.86917
▁չունե	-9.86919
▁ծառայ	-9.86983
վերականգն	-9.87021
▁գտնում	-9.87041
▁առողջության	-9.87052
▁գյուղում	-9.87074
▁ներդրում	-9.87145
▁քննություն	-9.87223
▁կողքին	-9.87246
▁Լու	-9.87266
▁զգաց	-9.87285
▁մատակարար	-9.87308
▁ներկայացրեց	-9.87385
▁Հիսուս	-9.87396
▁կազմակերպություններ	-9.87425
▁շարժման	-9.87532
▁հայաստանյան	-9.87554
▁շարժում	-9.87558
▁ակտեր	-9.87591
Մանչեսթեր	-9.87645
▁ժամանակահատվածում	-9.87645
▁նշվում	-9.87666
թող	-9.87666
▁գործնական	-9.87825
K	-9.87826
▁ընտանիք	-9.87834
▁հոգի	-9.87835
▁օրինական	-9.87841
▁արտադրության	-9.87869
▁Հայտնի	-9.87906
աշեն	-9.87928
▁մտնում	-9.87951
յին	-9.88027
▁Աստծու	-9.88046
ութիւնը	-9.88058
▁սննդ	-9.88178
▁Ռուբեն	-9.8819
ադրում	-9.88255
▁գուցե	-9.88321
▁Բանկ	-9.88343
▁լց	-9.88352
▁Հովհաննիսյանը	-9.8838
▁Հանրային	-9.8842
▁աջակցել	-9.8844
դիմ	-9.88495
▁նիստը	-9.88498
▁պատմում	-9.88507
▁պատճառներ	-9.88513
▁շրջապատ	-9.88522
▁մթնոլորտ	-9.8854
այական	-9.88542
շար	-9.88549
▁բազմա	-9.88564
▁դահլիճ	-9.88601
Եթե	-9.88687
▁մեկին	-9.88698
պոլի	-9.88702
▁վերց	-9.88709
▁զեկույց	-9.88715
▁ենթադր	-9.88718
▁ճակատ	-9.88854
II	-9.88867
երդ	-9.88872
▁էդ	-9.88894
Արմենիա	-9.88972
▁կանչ	-9.89001
▁ներդր	-9.89081
j	-9.8909
▁Խաչ	-9.89093
▁Ֆրանսիա	-9.89105
▁ուժերը	-9.89163
▁հռչակ	-9.89189
▁Պետ	-9.89191
▁անձը	-9.8926
խար	-9.89388
ent	-9.89415
▁նախկինում	-9.8947
▁համայնքների	-9.89555
▁գիտելիքներ	-9.89579
եփ	-9.89595
գոր	-9.89598
▁Էջմիածնի	-9.89636
um	-9.89654
կալ	-9.89713
դար	-9.8977
▁Զրուցարան	-9.89782
▁ՆԱՏՕ	-9.89867
ակայ	-9.89897
▁տպ	-9.89911
▁տվյալները	-9.89911
▁պատմել	-9.89917
ուղարկ	-9.8995
▁զոհերի	-9.89953
ադրության	-9.89971
▁մեքենաներ	-9.9004
▁Կառավարության	-9.90068
▁ընդդիմադիր	-9.90107
▁խումբը	-9.90109
ցուց	-9.90162
բր	-9.90195
▁մաքսային	-9.90197
▁ինտերնետ	-9.90208
▁Պողոսյան	-9.90226
▁քաղաքականություն	-9.90248
▁շտապ	-9.90267
▁ապրանքների	-9.90286
▁սրբ	-9.90295
▁թեեւ	-9.90296
▁Կամ	-9.90303
▁փոփոխությունների	-9.90377
▁ժողովրդին	-9.90424
▁եղբայր	-9.90434
▁ժամանակավոր	-9.90458
րտ	-9.90474
▁գնահատում	-9.90539
▁մասնաճյուղ	-9.90557
▁խթան	-9.90599
▁ֆիլմի	-9.90603
▁մշակույթ	-9.90609
▁պատգամավորներ	-9.90629
я	-9.90658
▁իշխանությունը	-9.90666
շիկ	-9.90698
▁մարտական	-9.90712
▁Դաս	-9.90734
▁երեկոյան	-9.90808
▁եղավ	-9.90849
թյան	-9.90867
▁գրադարան	-9.9087
▁շնորհակալություն	-9.90924
հուս	-9.90936
▁առավելագույն	-9.90936
առու	-9.91016
▁բուհ	-9.91079
▁պատվիր	-9.91083
▁կդառնա	-9.91154
▁ուրեմն	-9.91175
▁ցուցանիշ	-9.91328
▁փոխանցում	-9.91335
▁նշանակվել	-9.91354
▁U	-9.91397
նայ	-9.91451
▁աստված	-9.91452
▁կալանավոր	-9.91503
լիս	-9.9152
▁բացասական	-9.91543
▁կիրառել	-9.9162
▁բաները	-9.91654
▁հարուստ	-9.91655
դու	-9.91783
▁ճանաչել	-9.91859
▁անդամները	-9.9187
երորդ	-9.91903
▁արդարադատության	-9.91967
▁աչքի	-9.9201
▁մէջ	-9.9203
Z	-9.92037
▁Նախորդ	-9.92089
▁ահազանգ	-9.92101
▁շարունակվում	-9.92137
▁Մկրտչյան	-9.9214
ընտր	-9.92267
▁տվյալներով	-9.92288
ադաս	-9.92342
▁խորհրդարանի	-9.92349
▁նկատել	-9.92383
▁եղած	-9.92416
տրամ	-9.92455
▁ավանդ	-9.9246
▁Հանրապետություն	-9.92465
վո	-9.92476
▁մարմիններ	-9.92515
▁հայտարարում	-9.92549
▁հիշում	-9.92614
▁ստոր	-9.92635
▁կողմերի	-9.92662
▁էջը	-9.92696
ծան	-9.92697
▁X	-9.9275
արկման	-9.92779
▁օգնության	-9.92808
▁Ներ	-9.92851
▁եմ՝	-9.92872
▁Թուրքիայում	-9.92902
▁տնտեսություն	-9.92908
▁ավտոմեքենա	-9.92909
▁ծնված	-9.92969
▁հյուր	-9.92991
▁տոկոսը	-9.92994
▁մանրամասներ	-9.93033
▁քանակ	-9.93062
▁արտասանել	-9.93181
▁առաք	-9.93213
▁անուններ	-9.93218
արվեստ	-9.93233
Ծառուկյան	-9.93295
▁The	-9.93303
ագրում	-9.93319
▁Տես	-9.93334
▁Գեր	-9.93354
ականության	-9.93385
▁եթեր	-9.93437
▁ճանաչ	-9.93444
Ազգ	-9.93543
ագիծ	-9.93561
▁կարգը	-9.93606
▁ներկայացնելու	-9.9364
▁գնահատել	-9.93657
▁ԱԳՆ	-9.93681
▁►	-9.93696
▁անելու	-9.93826
▁Այժմ	-9.93869
▁ուղերձ	-9.93894
me	-9.93897
պահ	-9.93952
Նոր	-9.93971
▁նահանգ	-9.94031
ֆեր	-9.94094
▁ապր	-9.94128
գույն	-9.9413
▁վավեր	-9.94275
▁արդյունքներ	-9.94293
▁առեւտրային	-9.94353
▁Սեպտեմբերի	-9.94409
▁օպերատիվ	-9.94434
▁պարզել	-9.94563
▁Աշխատանք	-9.94617
▁Որպես	-9.94626
▁դաշինքի	-9.94631
▁սկսվել	-9.94657
▁Քանի	-9.9471
▁որդու	-9.9473
▁հարկավոր	-9.94733
▁իրականացվել	-9.94735
րամ	-9.94747
▁Փոքր	-9.9475
փորձ	-9.94776
▁խոսնակ	-9.94807
▁Ծրագր	-9.94852
▁ռեժիսոր	-9.94855
▁լուծել	-9.94866
ընկալ	-9.94899
▁նիստի	-9.94911
▁թվով	-9.9494
▁Ապրիլի	-9.94956
▁Ավետիսյան	-9.94977
▁հաց	-9.95012
▁հետեւում	-9.95056
▁գործիչներ	-9.95057
▁քվեարկ	-9.95133
ԵՏ	-9.95153
▁անգլերեն	-9.95165
րու	-9.95172
▁մասնակցությամբ	-9.95288
առաջադր	-9.95289
գտ	-9.95396
ակցի	-9.954
▁Chat	-9.95421
▁նշելով	-9.95423
▁հայտարարության	-9.95431
▁ՀԱՊԿ	-9.95507
▁հաղթող	-9.95508
▁առեւտրի	-9.95515
▁կանխատես	-9.95571
▁Ակ	-9.95591
▁Նախարար	-9.95594
▁Գրիգորյանը	-9.95596
▁ԲՀԿ	-9.95601
չափ	-9.95671
▁հիմնարկ	-9.95695
А	-9.95703
գիտ	-9.95705
▁հարցերը	-9.95734
▁ձեւակերպ	-9.95784
եբ	-9.95807
▁արդյունքների	-9.9589
▁միջավայրի	-9.95897
▁համակարգում	-9.95915
▁սովորական	-9.95918
▁ճաշ	-9.9593
▁հագուստ	-9.95948
▁անդրադարձել	-9.95966
▁հավելված	-9.95976
▁Պարզ	-9.95998
▁միջնորդ	-9.96069
▁վերադառնալ	-9.96095
պիսի	-9.96134
▁Լավ	-9.96142
▁ինքնաթիռ	-9.96179
ե՛ք	-9.962
▁բյուջեի	-9.96202
▁հայց	-9.96213
▁հարյուր	-9.96231
▁մոտեցում	-9.96236
▁ուշադրության	-9.9624
Մեր	-9.96258
Ղարաբաղ	-9.96362
▁Կարծում	-9.96362
ter	-9.96385
▁ապօրինի	-9.96475
աշրջան	-9.96476
▁պատժ	-9.96483
▁բալ	-9.96486
▁գովազդ	-9.96517
հանգ	-9.96518
▁Փաշինյան	-9.9652
▁անընդհատ	-9.96539
▁դառնա	-9.96623
▁Թրամփի	-9.96725
li	-9.96741
▁եկեղեցին	-9.96744
▁առաջարկել	-9.96791
▁թաղ	-9.96796
▁Գյումրի	-9.96858
ul	-9.96928
▁ակցիա	-9.96937
լր	-9.96947
ԻՄ	-9.97005
▁բլոգ	-9.97008
եֆ	-9.9709
▁Սե	-9.97141
▁նվազագույն	-9.97154
▁Ուկրաինայի	-9.97164
▁փոխնախագահ	-9.97178
W	-9.97186
ժե	-9.97214
▁արժե	-9.97257
▁նրանից	-9.97265
▁շախմատ	-9.97304
▁կապիտալ	-9.97309
▁արտգործնախարար	-9.97454
▁Երկու	-9.97467
▁իրավիճակի	-9.97564
▁գնդակ	-9.97623
▁Միայն	-9.97642
▁տեսք	-9.97648
▁գրքի	-9.97681
▁մարմինը	-9.97686
▁Միջազգային	-9.97691
▁չգիտե	-9.97775
▁լսում	-9.97796
▁ամուսնու	-9.97863
▁ճանապարհը	-9.97887
▁կայքի	-9.97898
▁հանք	-9.97902
la	-9.97977
▁գնահատական	-9.97987
▁սպառնալիք	-9.97997
հասարակ	-9.98014
բլ	-9.98066
▁Նալբանդյան	-9.98089
▁աջակցության	-9.98122
ամբար	-9.98163
▁համանախագահ	-9.98167
▁պարոն	-9.98173
▁Ինչպե՞ս	-9.98173
▁վկայ	-9.98214
▁քաղ	-9.98216
պառ	-9.98236
▁աստղ	-9.9826
▁ներառ	-9.98281
▁մարմին	-9.98301
▁ծածկ	-9.98349
ցիա	-9.98353
▁առավոտյան	-9.98355
▁անունով	-9.98394
▁գտն	-9.98477
][	-9.98478
▁գիտությունների	-9.98567
▁կազմակերպում	-9.98613
▁Հեր	-9.98618
պե	-9.98619
▁թերթը	-9.98668
▁Ջոն	-9.98671
▁երեխաներին	-9.98701
ոլոգ	-9.98707
▁վարչապետը	-9.9871
▁Խոս	-9.98756
▁ներկայացվել	-9.98768
▁սկիզբ	-9.9877
▁պաշտոնյաներ	-9.9882
▁այր	-9.9886
ev	-9.98869
▁ստացած	-9.98887
սպան	-9.98931
▁հավաքական	-9.98975
▁գրական	-9.99033
▁վերաբերող	-9.99035
▁կազմակերպման	-9.99109
▁մրցույթի	-9.99134
▁ԱՐՄԵՆՊՐԵՍ	-9.99168
▁զբաղվում	-9.99216
ֆոն	-9.99247
▁հուզ	-9.99298
▁տրված	-9.99329
սեն	-9.99341
▁ճանապարհով	-9.99344
թան	-9.9939
հաս	-9.99456
▁հայտնաբեր	-9.99507
▁ներկայացուցիչները	-9.99508
▁մակարդակ	-9.99513
▁դիրքեր	-9.99582
▁պաշտոնում	-9.99584
▁անցնել	-9.99596
անելի	-9.99604
ak	-9.99736
▁Գոր	-9.99741
▁հրաժարվ	-9.99746
ա՜	-9.99803
ի՛ր	-9.99808
os	-9.99833
▁օբյեկտ	-9.99865
▁հեռուստա	-9.99876
▁Տեղ	-9.99883
Փաստ	-9.99888
Երկիր	-9.99904
Կար	-9.99918
▁գրանցվել	-9.9992
▁գեղեցկ	-10.0002
▁մեղք	-10.0002
▁հրդեհ	-10.0009
▁հավանական	-10.0009
▁հեռա	-10.001
ԵՄ	-10.0014
▁թվականներին	-10.0018
▁խաչ	-10.0028
▁վթար	-10.0028
▁pp	-10.0035
▁այսպիսի	-10.0037
եյն	-10.0054
▁Լոնդոն	-10.0055
▁գումարը	-10.0059
▁Թրամփը	-10.0061
լատ	-10.0067
▁Լոռու	-10.007
▁գրված	-10.0074
պայ	-10.0075
ԻԿ	-10.0075
▁կարդալ	-10.0076
քաղաքական	-10.0076
▁Մարդու	-10.0077
▁Գրիգորյանի	-10.0079
մահ	-10.0084
▁ուղղություններ	-10.0085
▁երթեւեկ	-10.0085
▁գաղտնի	-10.0087
▁կիրառում	-10.0089
▁հիվանդություններ	-10.0089
ե՞լ	-10.009
▁կհ	-10.0092
▁օգնում	-10.0096
տային	-10.0099
▁Հանրապետությունում	-10.0108
ոգեւոր	-10.0111
▁Աննա	-10.0111
▁Դատ	-10.0113
▁տրամադրել	-10.0117
▁սրահ	-10.012
▁Շահ	-10.0121
▁ընդունվել	-10.0131
▁կազմակերպված	-10.0138
*	-10.0142
▁հաճելի	-10.0144
այք	-10.0144
▁նիստում	-10.0147
այսուհետ	-10.0149
▁դոլարի	-10.0156
▁համացանց	-10.0158
դիտ	-10.0161
▁պաշտոնը	-10.0162
▁ձեռ	-10.0165
▁անդամներ	-10.0166
▁դեպքերի	-10.0168
▁տված	-10.0173
ողության	-10.0175
▁բացատր	-10.0177
▁տեսանկյունից	-10.0181
▁ձգ	-10.0182
▁գրականության	-10.0182
▁երգեր	-10.0184
ազրկ	-10.0188
▁Հենց	-10.0188
▁վերջերս	-10.0192
▁ԽՍՀՄ	-10.0195
▁ներառում	-10.0207
▁հետեւել	-10.021
▁Նոյեմբերի	-10.0212
▁Ներկայ	-10.0215
ab	-10.0215
▁Արդեն	-10.0218
ունք	-10.022
д	-10.0235
▁Տարոն	-10.0235
▁քաղաքապետարանի	-10.0237
▁ընդունված	-10.0243
անալով	-10.0245
լիկ	-10.0246
▁ամենամեծ	-10.0246
▁նպատակը	-10.0247
▁Համա	-10.0248
▁հասնում	-10.0248
▁մարմն	-10.0253
▁համաձայնագիր	-10.0254
▁անդրադարձ	-10.0262
▁գտնվել	-10.0263
▁նախագահական	-10.0264
▁անհնար	-10.0268
▁շրջանների	-10.0272
▁մտքեր	-10.0276
▁գծով	-10.0276
▁ռադիո	-10.0277
▁երեւում	-10.028
▁որդին	-10.0288
▁գտել	-10.0289
սակ	-10.029
▁Comments	-10.0291
▁սկզբ	-10.0291
▁արժանի	-10.0292
▁վճարել	-10.0292
▁Ռի	-10.0297
▁Մոսկվա	-10.0298
▁ազատության	-10.0306
▁հասցնել	-10.0317
▁ժողովուրդ	-10.0318
Կովկաս	-10.0322
▁ավիա	-10.0324
▁Arm	-10.0326
▁պարբերական	-10.0327
▁վաղուց	-10.0329
▁գեներալ	-10.033
▁միլիարդ	-10.033
▁Բեր	-10.0331
▁Off	-10.0332
▁մասում	-10.0338
հանձնարար	-10.0341
շա	-10.0341
▁արյուն	-10.0344
▁նետ	-10.0344
գե	-10.0348
▁Առաջ	-10.0349
▁նավ	-10.0354
te	-10.0355
▁մեղավոր	-10.0366
▁ձգտում	-10.0373
▁անհրաժեշտություն	-10.0376
մե	-10.038
▁միտք	-10.0381
▁նվեր	-10.0383
▁ուստի	-10.0385
▁տիրապետ	-10.0385
▁պաշտոնակատար	-10.0387
▁հաղորդագրություն	-10.0389
em	-10.0389
▁նայում	-10.039
▁Վան	-10.04
▁բոլորին	-10.0402
կել	-10.0403
▁թէ	-10.0405
▁հյուսիս	-10.0413
▁աղջկա	-10.0415
▁կամք	-10.0417
ag	-10.0417
▁մեքենայ	-10.0418
▁կազմակերպություն	-10.042
▁կոչում	-10.0425
▁թաղամաս	-10.0433
ՈՆ	-10.0439
▁քաղաքապետի	-10.0439
▁բացառիկ	-10.044
▁ավանդույթ	-10.0441
սահման	-10.0454
▁+	-10.0456
▁այնուհետեւ	-10.0457
▁կառուցել	-10.0459
▁ծնողների	-10.0461
▁կոմիտե	-10.0471
▁հոգե	-10.0471
▁անկախության	-10.0477
▁էներգիա	-10.0477
▁կգա	-10.0478
▁առողջապահության	-10.0478
այս	-10.0478
▁իմանալ	-10.0479
մոլ	-10.0479
▁ունենալով	-10.0482
▁ժամանակաշրջան	-10.0489
▁առաջադրվել	-10.049
▁նախաձեռնությամբ	-10.0492
▁ոտք	-10.0493
▁օրենք	-10.0496
▁Մինասյան	-10.0497
▁Մոսկվայում	-10.05
խմբ	-10.0502
քաղաք	-10.0503
▁հանգամանքներ	-10.0514
▁հատվածում	-10.0519
▁ՀԱՅԱՍՏԱՆԻ	-10.052
▁սոցիալ	-10.0523
▁ոլորտներում	-10.0543
▁նախագիծ	-10.0543
▁բանաձեւ	-10.0546
▁ապահովելու	-10.0549
▁հանրապետական	-10.0551
▁Ամենայն	-10.0557
▁պայքարում	-10.0559
▁ներկայիս	-10.0561
▁Վրաստան	-10.0564
▁միջոցառում	-10.0565
▁Մայիսի	-10.0569
▁զգալի	-10.0575
▁Արման	-10.0581
այցել	-10.0583
դալ	-10.0584
▁նեղ	-10.0589
ne	-10.0594
▁բացման	-10.0594
▁խմբագր	-10.0596
▁Ամերիկայի	-10.0603
▁հուն	-10.0605
▁Բու	-10.0606
▁→	-10.0606
▁երկաթ	-10.0612
▁բնորոշ	-10.0614
▁հպարտ	-10.0614
▁սկզբունքներ	-10.0615
աշխատ	-10.0616
▁դիվանագիտական	-10.0618
▁ռեսուրսներ	-10.0618
▁վաստակ	-10.0625
▁ճնշում	-10.0627
▁շատերը	-10.0628
ա՞ն	-10.0634
▁նախատեսվում	-10.064
▁նախընտրական	-10.0645
▁աշխատակից	-10.0646
▁խնդրել	-10.0651
ստեղծ	-10.0651
▁դրված	-10.0651
▁ինչքան	-10.0651
▁բարեփոխումների	-10.0652
ԿԱ	-10.0653
▁Հանդիպման	-10.0654
՞ր	-10.0661
▁ՍՊԸ	-10.0667
▁Հանրապետական	-10.0671
▁պատվիրակության	-10.0676
▁Պապ	-10.0676
▁գործողությունները	-10.0676
▁Ռուս	-10.0677
▁ընտրվել	-10.0677
▁տարածաշրջանային	-10.0677
▁Բաղդասարյան	-10.0679
ամիտ	-10.0681
եջ	-10.0681
▁թվի	-10.0684
▁ավանդական	-10.0686
▁հանուն	-10.0688
▁բացել	-10.0688
ջան	-10.0692
▁հարազատ	-10.0695
▁Այո	-10.0696
Հայկական	-10.0697
se	-10.0697
▁օդանավակայան	-10.0699
ce	-10.0702
ատիկ	-10.0702
արձան	-10.0705
▁գազի	-10.0707
սմ	-10.0707
▁Արսեն	-10.0709
▁երկրպագու	-10.0709
արեւելյան	-10.0709
▁ծեծ	-10.0712
▁երաշխավոր	-10.0713
▁փաստեր	-10.0714
▁մասնագետներ	-10.0717
▁ԶԼՄ	-10.0723
▁կենսա	-10.0726
ավառ	-10.0728
▁Հարությունյան	-10.0734
▁տառ	-10.0737
▁ճգնաժամ	-10.0739
▁հարաբեր	-10.074
▁արարողություն	-10.074
▁Մանվել	-10.0745
▁́	-10.0748
▁սեռական	-10.075
▁սրտի	-10.0751
▁կարմիր	-10.0754
▁երեխաները	-10.0756
▁գյուղատնտեսության	-10.0758
Տեղեկ	-10.0764
▁տարածաշրջանում	-10.0764
▁Կարապետյանի	-10.0766
▁շուտով	-10.0767
▁Թումանյան	-10.0769
▁հասնելու	-10.0774
▁տարում	-10.0774
▁լինելով	-10.0775
▁St	-10.0777
▁բերելու	-10.078
▁ՀԱՆՐԱՊԵՏՈՒԹՅԱՆ	-10.0788
▁Արդ	-10.0788
▁իրադարձություններ	-10.0792
▁աշխարհը	-10.0795
lo	-10.0797
▁քննության	-10.0798
առաջ	-10.0798
▁երեխան	-10.0802
▁վերցնել	-10.0805
▁հոգեբան	-10.0809
▁կռ	-10.0817
▁չէ՞	-10.0818
▁կայք	-10.082
▁բնակիչների	-10.0821
▁Մինչեւ	-10.0825
իչների	-10.0831
▁լիարժեք	-10.0834
▁միջնակարգ	-10.0837
կործան	-10.0837
Սա	-10.0838
▁խորհրդարան	-10.0839
լեր	-10.0846
▁բեմ	-10.0846
▁ուղին	-10.0865
▁թատրոնի	-10.0865
▁հայտարարությունը	-10.0871
▁գործակալության	-10.0871
▁երիտասարդների	-10.0875
Պատմ	-10.0876
▁հյուրեր	-10.0879
▁գոտի	-10.0879
▁գործիք	-10.0884
▁առանձնահատկություններ	-10.0885
արժեք	-10.0885
էր	-10.0886
▁ծանոթանալ	-10.0888
▁համոզված	-10.0891
խան	-10.0894
▁հաշվին	-10.0899
եալ	-10.0899
▁իրավունքը	-10.0901
▁Արցախում	-10.0903
միջ	-10.0906
▁Պուտինի	-10.091
▁Էր	-10.0911
▁միջադեպ	-10.0915
ամր	-10.0916
▁վարք	-10.0917
▁սովորող	-10.0921
▁դուր	-10.0921
▁ամերիկացի	-10.0924
▁Մինսկի	-10.0925
▁դիտարկում	-10.0926
միր	-10.0926
եվ	-10.0927
▁կետեր	-10.0931
արք	-10.0932
▁ստեղծագործություններ	-10.0936
▁քաղաքացու	-10.0936
▁ֆոնդ	-10.0938
▁Մարտ	-10.0941
▁ճանապարհին	-10.0943
ռչ	-10.0944
▁անցկացնել	-10.0944
▁քննարկ	-10.0953
▁Գեղ	-10.0957
▁հետաքրքրություն	-10.0961
▁դերը	-10.0963
▁Գար	-10.0965
▁մարզային	-10.0965
▁կոչվում	-10.0969
▁հրաշալի	-10.0972
▁Սյունիքի	-10.0974
▁ո՞ր	-10.0976
▁ֆուտբոլի	-10.0984
հրավիր	-10.0986
▁տարբերակը	-10.0987
▁աղքատ	-10.0992
▁վաճառք	-10.0997
դիպ	-10.1003
▁շուկայում	-10.1004
բե	-10.1005
▁նկարիչ	-10.1008
▁Գեւորգյան	-10.1009
▁որակի	-10.1011
▁անկեղծ	-10.1026
▁Բաց	-10.1027
▁տպագր	-10.1033
▁երթ	-10.1034
▁Սարգսյանին	-10.1037
▁լուծումներ	-10.1041
▁Մոն	-10.1043
▁պարունակում	-10.1045
եցման	-10.1047
▁մեռ	-10.1048
▁հագ	-10.105
▁Արտակ	-10.105
▁պատշաճ	-10.1053
▁ստեղծելու	-10.1054
Յորք	-10.1055
▁տանում	-10.1056
▁Փորձ	-10.1057
▁պրոֆեսոր	-10.1058
▁կառույցների	-10.1065
▁այսինքն	-10.1069
▁երիտասարդական	-10.1074
▁գումարներ	-10.1075
▁Video	-10.1078
▁բռնության	-10.1082
▁աղբ	-10.1092
▁պահանջել	-10.1095
▁թեթեւ	-10.1101
▁երազանք	-10.1102
▁chat	-10.1106
ացեք	-10.1109
▁ձեւավորման	-10.1112
▁Մեզ	-10.1113
▁կստանա	-10.1117
զարգաց	-10.1118
▁աղբյուրներ	-10.112
▁հիմքեր	-10.1121
ամե	-10.1123
▁վարույթ	-10.1123
op	-10.1124
▁սերունդ	-10.1128
մեքենա	-10.113
Սասնա	-10.114
▁ցեղասպանություն	-10.1141
▁պատկանում	-10.1141
▁Սահակ	-10.1143
եցրել	-10.1143
▁բաժնում	-10.1143
▁նորմալ	-10.1144
▁փոփոխվել	-10.1147
տրոն	-10.1147
▁Ռուսաստանում	-10.1148
▁խանութ	-10.1149
▁ալիք	-10.1151
▁ստորագրել	-10.1151
▁արեց	-10.1156
▁Կաթողիկոս	-10.1157
▁պարտականություններ	-10.1162
բուժ	-10.1162
▁ծրագր	-10.1172
▁սիրո	-10.1172
▁ներսում	-10.1174
դին	-10.1175
▁գիշերը	-10.1185
▁իրավապահ	-10.1188
▁կոչված	-10.1191
▁մաշկ	-10.1194
▁քաղաքականությունը	-10.1194
▁հանգամանք	-10.12
ta	-10.1202
▁զիջ	-10.1206
▁ավարտին	-10.1211
▁շփման	-10.1216
▁ընտանեկան	-10.1222
▁Սահակյանը	-10.1226
▁մակնիշի	-10.1226
▁վկայում	-10.1233
▁հարձակում	-10.1235
▁Միջ	-10.1237
▁եկամուտ	-10.1237
▁հանկարծ	-10.1244
▁օրգանիզմ	-10.1244
▁թիմը	-10.1256
▁ֆինանսավոր	-10.1259
▁պատասխանատվության	-10.1261
▁Էդուարդ	-10.1266
▁հե	-10.1266
▁Ինչո՞ւ	-10.1267
▁ցուցա	-10.1268
▁Գարեգին	-10.1269
անջ	-10.127
▁Յունայթեդ	-10.127
▁լիներ	-10.1272
▁Սահմանադրության	-10.1273
Արմ	-10.1275
▁կատարող	-10.1275
▁Հովիկ	-10.1279
▁տոկոսով	-10.1282
▁գրասենյակի	-10.1282
▁Ժամ	-10.1283
▁բերված	-10.1287
▁տպավորություն	-10.1293
▁անշարժ	-10.1294
▁օրենքը	-10.1296
▁of	-10.1297
▁Ընդհանուր	-10.1298
▁Հայաստանն	-10.1299
▁փոխվել	-10.1301
▁Վանաձորի	-10.1305
հատ	-10.1305
▁տեղեկաց	-10.1305
▁գոհ	-10.1305
րեք	-10.1306
ջեր	-10.1306
Աշխարհ	-10.131
▁Դրանք	-10.131
▁զուգ	-10.131
Վանաձոր	-10.1315
▁Հաշվ	-10.1315
▁աղջիկներ	-10.1317
մայի	-10.1317
տին	-10.1318
բայ	-10.1319
▁սեղմ	-10.1319
ոփ	-10.132
Սեւան	-10.132
▁Մինչ	-10.1322
խոս	-10.1322
▁զրույց	-10.1322
▁համաձայնագրի	-10.1326
▁հարցերին	-10.133
▁Սպիտակ	-10.1332
▁Ոստիկանության	-10.1335
▁Եւ	-10.1349
▁Հակոբյանը	-10.1353
▁Տր	-10.1359
▁նայել	-10.136
ստեր	-10.136
▁նավթ	-10.1367
▁հավատում	-10.137
դարձ	-10.1371
▁իրավունքները	-10.1376
▁պատժամիջոցներ	-10.1379
▁սպասարկման	-10.1386
ՈՒՐ	-10.139
իչներ	-10.1391
արթ	-10.1391
ացնող	-10.1393
▁տղամարդկանց	-10.1395
դատ	-10.1396
▁Խաղալ	-10.1405
▁ստացված	-10.1407
▁Հակոբ	-10.1408
▁սարքավորումներ	-10.1409
▁ժամանել	-10.1409
▁Վահան	-10.141
▁հրավիրել	-10.1415
▁ավելացնել	-10.1419
▁պատվ	-10.1421
▁Այսպիսով	-10.1423
▁արժանացել	-10.1425
▁ազատվել	-10.1429
▁Արեւ	-10.1432
▁դնում	-10.1436
ot	-10.1437
▁եզրափակիչ	-10.1437
ac	-10.1437
▁հաստատում	-10.144
ավարտ	-10.1447
▁Արմավիրի	-10.1449
դոն	-10.1451
▁ծրագրերը	-10.1455
▁տասն	-10.1456
▁առմամբ	-10.1464
▁Շարմազանով	-10.1469
▁Մալ	-10.1469
▁Re	-10.1477
co	-10.1483
հետեւ	-10.1486
աբանություն	-10.1488
▁Դեկտեմբերի	-10.149
▁լիգայի	-10.15
ամյակին	-10.1503
▁Յուրաքանչյուր	-10.1503
▁առարկա	-10.1503
▁↑	-10.1508
▁մտավոր	-10.1509
ղեկ	-10.151
▁լեզուներ	-10.1516
▁մասնագետների	-10.1517
▁կենսաթոշակ	-10.1519
ցիայի	-10.1521
▁համաձայն՝	-10.1521
▁պատկանող	-10.1522
▁խաղերի	-10.1528
▁Հետո	-10.1532
▁Արարատի	-10.1533
▁փախ	-10.1534
di	-10.1535
▁համագործակցությունը	-10.1536
▁պարգեւ	-10.1536
▁ղեկավարների	-10.1538
!	-10.1538
▁ներդրումների	-10.1542
▁քաղաքը	-10.1549
լայ	-10.155
▁մեղ	-10.1552
▁Ստեփանակերտ	-10.1561
▁արժեքը	-10.1562
▁հայտնաբերել	-10.1579
▁հարթ	-10.1583
▁պաշար	-10.1587
▁Քո	-10.1587
▁սահմանում	-10.1587
▁ինքնուրույն	-10.1588
▁անպայման	-10.1593
▁ձայներ	-10.1598
▁Քար	-10.1602
м	-10.1604
▁սիրտ	-10.1605
պատասխան	-10.1605
Եր	-10.1608
▁կկարողանա	-10.1608
▁անմիջական	-10.1608
▁համապատասխանում	-10.1612
▁Էջմիածին	-10.1613
▁խաղացող	-10.1625
եւան	-10.1626
ատոմ	-10.163
▁ամուսին	-10.1633
▁լեզու	-10.1634
▁Դոնալդ	-10.1634
▁ադրբեջանցի	-10.1636
▁ձեւաչափ	-10.1642
▁Քրիստոսի	-10.1643
▁շենքեր	-10.1644
▁կուսակցությունը	-10.1646
ութիւններ	-10.1647
Համայնք	-10.1653
ցիոն	-10.1654
▁հարակից	-10.1657
▁Քրիստ	-10.1657
արգել	-10.1657
▁լճ	-10.1661
▁դաշտում	-10.1666
Պետերբուրգ	-10.1668
▁հեղափոխություն	-10.1674
▁անհայտ	-10.168
▁տարածել	-10.1683
▁արդյունա	-10.1688
շատ	-10.1688
▁Գրիգորյան	-10.1689
▁Այսինքն	-10.1692
▁ամրագր	-10.1693
▁ներդրումային	-10.1693
▁պատահական	-10.1695
▁հայեր	-10.1695
ուած	-10.17
▁Կարապետյան	-10.1701
▁զարգացումներ	-10.1703
▁կարողացել	-10.1709
▁ընթացիկ	-10.1712
▁զույգ	-10.1719
▁խորհուրդը	-10.1721
▁լուր	-10.1725
▁աճել	-10.1727
▁ոչնչաց	-10.1732
▁ընտրությունները	-10.1733
▁նշանակել	-10.1734
ցիների	-10.1736
քննարկ	-10.1738
▁ընդգրկված	-10.1739
▁մրցաշրջան	-10.174
▁ֆրանս	-10.1745
▁հյուրընկալ	-10.1745
▁դրոշ	-10.1746
ֆորմ	-10.1748
▁Հուլիսի	-10.1752
▁հարուցվել	-10.1753
▁իբրեւ	-10.1755
շխ	-10.1758
▁նվագ	-10.1762
▁հաղթ	-10.1765
▁տրանսպորտային	-10.1766
Տեսանյութ	-10.1775
▁սպանության	-10.1784
ՅՈՒ	-10.1786
▁տեսքով	-10.1788
▁քննարկվել	-10.1788
որակ	-10.1793
▁Ավելին	-10.1794
▁փաստաթուղթ	-10.1795
▁իսկական	-10.1797
Ոսկե	-10.1798
լոգ	-10.1799
հայտ	-10.1803
լյա	-10.1805
▁ԵԱՏՄ	-10.181
▁գավաթ	-10.181
▁ոսկե	-10.1811
▁›	-10.1814
▁Արեւելյան	-10.1814
▁վարպետ	-10.1825
ԵՎ	-10.1826
▁մնա	-10.1826
Մեդիա	-10.1827
Քաղաքացիական	-10.1828
▁ընթերցող	-10.1829
հաշիվ	-10.1829
▁ներկայացում	-10.183
▁դասընթացներ	-10.1842
ենթարկ	-10.1849
▁հանրապետություն	-10.1851
▁Վարդ	-10.1854
▁ֆիլմը	-10.1855
զարմ	-10.1859
▁բարձրացման	-10.1861
հետ	-10.1861
դան	-10.1864
▁պրոֆեսիոնալ	-10.1865
ո՞ւ	-10.1867
▁իրականացված	-10.1868
▁գաղտնիք	-10.1869
ԵԼՈՒ	-10.1873
▁Նարեկ	-10.1883
▁ուտել	-10.1884
ունկ	-10.1885
▁Սեւ	-10.1888
▁Արեւելք	-10.1891
▁ձեւավոր	-10.1895
ո՛	-10.1897
▁ամենակարեւոր	-10.1902
▁մտադիր	-10.1902
▁ձախ	-10.1904
ՎԱԾ	-10.1904
▁կլիներ	-10.1905
▁անձամբ	-10.1907
▁բարձրացնել	-10.1907
կենտրոն	-10.1912
անշան	-10.1914
▁մարդուն	-10.1916
▁ազդեցության	-10.1922
▁դասընթաց	-10.1922
▁Այնուհետեւ	-10.1932
▁զարգացում	-10.1935
▁ռազմավարական	-10.1936
▁սերտ	-10.1936
թիվ	-10.1939
▁Հայրապետյան	-10.1939
▁երաժշտություն	-10.1957
▁հաստատություն	-10.1957
ացվի	-10.1962
կոտ	-10.1964
▁շտաբ	-10.1965
▁պայմանների	-10.1967
▁տեղեկացրել	-10.1968
▁խախտում	-10.1968
▁Հունիսի	-10.1978
▁օգտագործվում	-10.1979
ազատ	-10.198
▁մանկական	-10.198
▁ապացուց	-10.1983
Արսենալ	-10.1987
▁կրոնական	-10.1991
▁միանգամից	-10.1992
▁Գասպար	-10.1996
▁օրենքում	-10.2
▁գլխավորությամբ	-10.2005
▁արտահ	-10.2007
աբնակ	-10.2009
▁Կապ	-10.2009
▁այցի	-10.2012
հրա	-10.2013
ցնել	-10.2018
▁տվյալներ	-10.2019
▁դրույթներ	-10.202
▁դառնալու	-10.202
▁մետաղ	-10.2028
ub	-10.2028
▁Աբովյան	-10.2028
▁Իս	-10.2029
▁Մասնավորապես	-10.2031
▁Դո	-10.2032
▁մատչելի	-10.2033
▁հաջողություններ	-10.2039
վեք	-10.204
▁զոհվել	-10.204
խանյան	-10.2046
▁ծեր	-10.2048
▁երկրաշարժ	-10.2049
▁անձնակազմ	-10.2051
▁գիրք	-10.2053
▁թերեւս	-10.2059
▁քվեարկության	-10.2059
գիր	-10.2062
▁սպորտ	-10.2063
▁փորձագետ	-10.2066
ՀԿ	-10.207
ակազմ	-10.207
▁առաջընթաց	-10.207
▁երեխաներ	-10.2095
▁միտում	-10.2097
▁ո՞վ	-10.2098
հաշվ	-10.2099
▁հանձնել	-10.2107
Թուրքիա	-10.2112
▁Տավուշի	-10.2118
▁բաղկացած	-10.212
▁կանաչ	-10.2122
բոս	-10.2127
▁տաճար	-10.2144
▁Օգոստոսի	-10.2144
▁խնամք	-10.2148
▁ընտրություններում	-10.215
▁բաղադրիչ	-10.2151
▁Սուրեն	-10.2154
▁կրակոց	-10.216
ատկ	-10.2163
▁պարբերաբար	-10.2164
▁Իրաք	-10.2168
▁հասց	-10.2172
▁թեմաներ	-10.2172
դո	-10.2182
av	-10.2184
▁առնչվող	-10.2185
ow	-10.2196
▁ներգրավված	-10.2198
▁գանձ	-10.2198
▁փաստաթղթերի	-10.2199
▁փոխարին	-10.2201
▁փոխանցմամբ	-10.2209
▁ջերմաստիճան	-10.2211
▁դարձնում	-10.2214
▁պայմանագրեր	-10.2222
▁բնութագր	-10.2222
▁բախվել	-10.2225
▁տրանսպորտի	-10.223
▁ընթանում	-10.2234
▁ընթացակարգ	-10.2235
պաստ	-10.2236
▁ներառյալ	-10.2242
▁վաճառքի	-10.2243
▁մակերես	-10.2248
▁իրականություն	-10.2251
▁ընկերություններ	-10.2253
▁դրանով	-10.2256
▁պատուհան	-10.2263
Մար	-10.2264
у	-10.2267
▁զրուցել	-10.2267
▁Արեւմտյան	-10.2268
▁զուգահեռ	-10.2271
▁տրամադրում	-10.2271
▁ընդունեց	-10.2284
▁տղամարդու	-10.2296
▁Հոլ	-10.2297
▁սպառող	-10.2297
րավ	-10.2308
▁աշխատելու	-10.231
զգուշ	-10.2314
ոսյան	-10.2317
▁փաստը	-10.2321
դեն	-10.2322
▁Եվրոպա	-10.2324
▁բացարձակ	-10.2325
▁տուժած	-10.2328
▁Իսրայել	-10.2331
▁կրել	-10.2332
▁հանրահավաք	-10.2333
բեկ	-10.2336
▁դերակատար	-10.2336
roulette	-10.2341
▁վերջինիս	-10.2344
▁բանակցությունների	-10.2345
▁հոգու	-10.2347
Գր	-10.2348
▁հորդոր	-10.2351
▁լարված	-10.2354
▁Սիրիայում	-10.2357
▁ներկայացնող	-10.2357
կոր	-10.2359
▁ասելով	-10.2365
՛՛	-10.2371
▁կիսա	-10.2372
բեռն	-10.2373
▁Armenia	-10.2373
▁երկկողմ	-10.2374
▁ՄԱՄՈՒԼ	-10.2376
▁պատրաստել	-10.2376
▁տեղյակ	-10.238
▁​​	-10.2385
▁Քոչարյանը	-10.2386
Շիրակ	-10.2393
▁հանրաքվե	-10.2393
▁մամուլ	-10.2394
ՈՒՅ	-10.2396
▁եկեղեցի	-10.2396
▁վարկային	-10.2406
▁խախտումներ	-10.2407
մեկ	-10.2413
▁ամրապնդ	-10.2413
▁պատվիրակություն	-10.2414
հետազոտ	-10.2415
ԱՇ	-10.2417
▁դիզայն	-10.2417
▁Ամերիկա	-10.2417
▁չհա	-10.2419
▁գիրքը	-10.242
առատ	-10.2421
▁ժամկետում	-10.2426
▁կազմված	-10.2427
ամպ	-10.2427
▁գրավոր	-10.2433
▁Սիմոնյան	-10.244
▁մասնակիցները	-10.244
▁մշակման	-10.2441
▁հոդվածը	-10.2444
թուրքական	-10.2446
▁առաքելություն	-10.2448
▁երաժշտության	-10.2451
▁թր	-10.2453
▁կայանալիք	-10.2456
▁խաղաղության	-10.2457
▁հորիզոնական	-10.2457
▁կետի	-10.2459
▁Ուր	-10.2462
զե	-10.2463
ատվություն	-10.2464
▁նրանցից	-10.2464
ավճար	-10.2466
ediamall	-10.2467
▁վանք	-10.2471
▁մոռաց	-10.2474
▁նկատի	-10.2479
ԱԳՐ	-10.2481
ասենյակ	-10.2482
▁Ch	-10.2483
▁որոշեց	-10.2484
ha	-10.2489
ամետ	-10.2493
ov	-10.2493
▁Վազգեն	-10.2493
նորոգ	-10.2496
ni	-10.2496
▁այնուամենայնիվ	-10.2497
▁գնացել	-10.2497
▁դրել	-10.2499
▁մեկնաբան	-10.2508
▁Հարկ	-10.2511
ավանդ	-10.2512
▁գեղարվեստական	-10.2514
▁աջակցությամբ	-10.2515
▁տիկին	-10.2516
▁Ղազարյան	-10.2519
ո՞վ	-10.252
▁ինքնակառավարման	-10.2521
▁երեւի	-10.2523
▁շրջանակ	-10.2524
վարդ	-10.2526
դյան	-10.2526
▁երջանիկ	-10.2533
Առ	-10.2533
▁բռնություն	-10.2534
▁Free	-10.2544
▁իմաստով	-10.2545
▁Բաբայան	-10.2545
▁պաշտոնապես	-10.2546
▁գրանցման	-10.2548
▁խմբեր	-10.2554
ge	-10.256
▁կանոնակարգ	-10.2568
ետա	-10.2569
▁թեւ	-10.2574
▁պահպանության	-10.2574
▁Փետրվարի	-10.2577
▁այգի	-10.2582
ՍՏ	-10.2583
Օհանյան	-10.2585
▁թողնում	-10.2587
▁ասեմ	-10.2588
▁լրիվ	-10.2591
ագծի	-10.2593
կենս	-10.2596
Արական	-10.2596
▁Մյուս	-10.2598
▁ապրող	-10.2601
▁ասված	-10.2603
փառ	-10.2606
ակցել	-10.2607
▁հմտություններ	-10.2608
համար	-10.2611
▁պահում	-10.2611
▁նվազեց	-10.2614
▁Կբ	-10.262
▁ԼՂ	-10.2622
▁նախաձեռնության	-10.2623
▁ոլորտներ	-10.2625
▁Հարությունյանի	-10.2627
▁տարածված	-10.2627
պարտ	-10.2637
ԻՍ	-10.2642
▁Մարզ	-10.2645
▁օրս	-10.2648
Կամ	-10.2649
▁ստեղծագործական	-10.2649
▁ուսումնասիրել	-10.2651
լեկտ	-10.2655
▁հավաքել	-10.2656
ույք	-10.2656
▁յոթ	-10.2661
▁կարեւորագույն	-10.2663
▁ռիսկ	-10.2673
▁առիթով	-10.2673
բերգ	-10.2677
ատուր	-10.2677
հոս	-10.2678
▁ձեւեր	-10.2678
▁Կոտայքի	-10.2683
բացառությամբ	-10.2687
▁ճյուղ	-10.2688
բուս	-10.2688
▁Ղարաբաղից	-10.2692
▁հաճախորդների	-10.2694
▁անձրեւ	-10.2695
▁անկյուն	-10.2697
▁օրհն	-10.2701
▁վերանայ	-10.2701
▁սկսվում	-10.2702
մալ	-10.2702
▁փաստաթղթ	-10.2706
▁ՀԱՅ	-10.2708
▁մենակ	-10.2709
▁մատն	-10.271
▁հարձակվող	-10.2712
ղճ	-10.2714
▁միջոցները	-10.2715
▁Հիշ	-10.2715
▁Աշխատ	-10.2716
▁զարգացնել	-10.2718
▁մակ	-10.2719
▁հարգանք	-10.272
▁խախտել	-10.2722
Ազատության	-10.2723
հր	-10.2727
Ինչ	-10.2727
▁քանակը	-10.2731
▁հաշվե	-10.2732
▁միջոցառման	-10.2736
▁մեղմ	-10.2736
▁բնագավառում	-10.2745
▁զբաղված	-10.2748
▁գավառ	-10.2757
▁բնության	-10.2764
հոգեբանական	-10.2768
▁սուրբ	-10.2768
▁քաղաքային	-10.2769
▁Ուս	-10.277
այդ	-10.277
▁հետազոտությունների	-10.2771
▁ընկնում	-10.2774
▁իրադարձությունների	-10.2777
▁Պուտինը	-10.2783
ռուսական	-10.2784
▁առաջանում	-10.2786
▁հիմնված	-10.2787
▁Բակո	-10.2793
▁Համաձայն	-10.2793
▁թուլ	-10.2799
▁իրականության	-10.2801
Հար	-10.2801
▁մասնակցության	-10.2802
▁Հասարակ	-10.281
անյութ	-10.2812
▁կուրս	-10.2814
▁անակնկալ	-10.2815
▁հիանալի	-10.2816
▁գինը	-10.2816
▁քանզի	-10.2817
▁չափանիշներ	-10.2819
▁մշակում	-10.282
▁ընկել	-10.2821
▁Իշխան	-10.2823
տիվ	-10.2823
▁նշանակության	-10.2825
▁փուլի	-10.2825
▁աղետ	-10.2826
▁ՊՈԱԿ	-10.283
▁Գյումրու	-10.2835
▁Աշխարհի	-10.2837
▁շուկայի	-10.2838
▁գործընկերների	-10.2846
▁անհրաժեշտության	-10.2847
▁այսինքն՝	-10.285
▁Ադրբեջանում	-10.2853
չյան	-10.2854
▁սցենար	-10.2854
▁հեն	-10.2856
▁Խաչատրյանը	-10.2858
▁խորհրդական	-10.2863
▁պաշտոնատար	-10.2866
▁բեռ	-10.2868
▁Բրիտանիայի	-10.287
▁տեղափոխել	-10.2871
տամ	-10.2871
▁քույր	-10.2873
▁Մադրիդ	-10.2873
▁Ar	-10.2876
▁կտրուկ	-10.288
▁փոխհատուց	-10.288
▁վնասվածք	-10.2883
ti	-10.2885
▁գերեզման	-10.2894
▁կապեր	-10.2895
▁սեղանի	-10.2896
▁Ջր	-10.2903
▁լուսավոր	-10.2904
▁բաժանմունք	-10.2908
▁մոլոր	-10.2909
▁տղաներ	-10.2911
Մխիթար	-10.2915
▁սեն	-10.2928
▁Մարդ	-10.2928
ֆիլ	-10.2931
▁հետաձգ	-10.2933
▁պայմանները	-10.2933
Գերմանիա	-10.2934
ess	-10.2935
▁հավաքածու	-10.294
▁կիսապաշտպան	-10.2942
▁նախընտր	-10.2943
▁պաշտպանել	-10.2945
▁հարցով	-10.2948
▁գնահատման	-10.295
▁վարկանիշ	-10.295
անշ	-10.2951
▁Լո	-10.2955
▁Վիգեն	-10.2955
խաղ	-10.2957
▁եկամուտների	-10.2958
▁իրավիճակների	-10.2958
մասնակց	-10.2962
բազ	-10.2966
▁հաղորդակց	-10.297
սկու	-10.2975
արանում	-10.2975
▁գործողություն	-10.298
Հայերեն	-10.298
▁մակարդակով	-10.2985
▁զանգվածային	-10.2986
▁անցկացրել	-10.2988
▁դարում	-10.2989
▁վարել	-10.2991
▁դիտել	-10.2995
▁վրայ	-10.3
▁Հունվարի	-10.3006
մենտ	-10.3006
▁աշակերտների	-10.3007
▁Պոլ	-10.3008
▁սահմանել	-10.3008
▁հսկ	-10.3012
▁Թբիլիսի	-10.3012
▁գրանցված	-10.3013
մարդ	-10.3015
պահպան	-10.3023
▁կոմ	-10.3026
▁զանգված	-10.3031
▁Հոգ	-10.3032
▁արդիական	-10.3032
▁վերջինս	-10.3035
▁հովանավոր	-10.3046
ֆիկ	-10.3047
▁կոտր	-10.3048
▁օգնությամբ	-10.305
լուծ	-10.3057
▁աչք	-10.3062
պիտ	-10.3065
▁ներդրումներ	-10.3067
▁հասարակայնության	-10.3077
▁ինչպիսի	-10.3078
▁տուրք	-10.3084
ատիվ	-10.3085
▁կարգավորում	-10.3088
պատրաստ	-10.3089
▁Կիր	-10.309
ե՛	-10.3094
▁Փաշինյանն	-10.3098
ամյակի	-10.3099
▁ինչպիսին	-10.3101
▁ելնելով	-10.3102
ԱԲ	-10.3116
▁դիտորդ	-10.3116
ou	-10.3116
▁Եվրամիության	-10.3118
▁ՊԵԿ	-10.312
▁ծառայել	-10.3121
▁քաջ	-10.3129
▁Հնարավոր	-10.3134
▁բանկային	-10.3136
ռո	-10.3136
ոնյան	-10.3141
id	-10.3141
ախաղ	-10.3142
▁Գեղարքունիքի	-10.3142
տնտեսական	-10.3148
▁աշխատակիցները	-10.3151
ձեռն	-10.3154
եկտ	-10.316
▁իրավասության	-10.3163
զբաղ	-10.3163
ասրահ	-10.3167
▁պալատ	-10.3168
▁Իսրայելի	-10.3169
▁լրացնել	-10.3175
▁ծառայությունից	-10.3177
▁Խորհրդ	-10.3177
▁ձերբակալվել	-10.3178
▁ամսագիր	-10.3189
▁զորքերի	-10.319
▁դարեր	-10.3193
▁նահանգի	-10.3195
▁սպասել	-10.3199
▁Մաս	-10.32
▁տեխնիկա	-10.3201
▁ելք	-10.3208
▁ձի	-10.321
▁ունեք	-10.3211
▁իրականացրել	-10.3212
▁զարգացումը	-10.3213
▁բացառապես	-10.3215
▁ընկերոջ	-10.3215
▁տարածաշրջանի	-10.3216
▁Երիտասարդ	-10.3216
▁ինչպիսիք	-10.3216
րոս	-10.3216
▁օտարերկրյա	-10.322
▁կարիերա	-10.3221
▁երես	-10.3222
▁Սարգիս	-10.3222
▁տեսա	-10.3225
▁անցկացման	-10.3231
▁ծագում	-10.3241
▁կանգնեց	-10.3243
▁սկսեցին	-10.3248
▁պայքարել	-10.325
ԵՐԻ	-10.3253
ագրված	-10.3254
▁գաղափարներ	-10.3256
▁պետությունը	-10.3256
▁զվարճալի	-10.326
▁Չար	-10.3262
▁Միքայել	-10.3263
▁ներկ	-10.3264
ԱՂ	-10.3267
▁թռիչք	-10.3267
▁մեծամասնություն	-10.3267
հակ	-10.3269
▁կազմակերպությունը	-10.3281
▁օրենսդրական	-10.3284
▁Times	-10.3287
news	-10.3289
▁համալր	-10.329
▁հաջողություն	-10.329
լետ	-10.3293
▁արտադրող	-10.3294
▁Գյումրիում	-10.3295
▁օժանդակ	-10.3296
հաղորդ	-10.3298
դամ	-10.3304
Կյանք	-10.3304
▁հեքիաթ	-10.331
▁ասվում	-10.3316
▁խոստաց	-10.3317
▁ներուժ	-10.3319
▁խմբակցություն	-10.332
ճան	-10.3332
▁տուգանք	-10.3335
▁բարոյական	-10.3338
▁մաքուր	-10.3339
կայան	-10.334
▁Կոր	-10.3341
▁նպաստել	-10.3341
▁ռեստորան	-10.3342
ակայան	-10.3347
▁ճամբար	-10.3348
▁դասեր	-10.3351
▁հաստատված	-10.3352
▁դժվարություններ	-10.3354
▁շերտ	-10.3362
▁պահանջները	-10.3364
ho	-10.3365
▁Վրաստանում	-10.3367
▁հանդիս	-10.3367
▁խորհրդային	-10.3367
▁կաթողիկոս	-10.3367
▁հսկայական	-10.3368
Բարսելոնա	-10.3371
▁ընտանիքների	-10.3373
▁փոխանցել	-10.3375
▁հատկանիշներ	-10.3378
▁չկար	-10.338
▁Սեն	-10.338
▁վերլուծություն	-10.3381
na	-10.3382
▁բոլորովին	-10.3383
շարժ	-10.3385
▁հազարավոր	-10.3387
▁ֆինանսների	-10.3388
▁զարդ	-10.3388
▁քրիստոնյա	-10.339
▁ԳԱԱ	-10.339
▁Սանկտ	-10.3393
▁մեկնարկել	-10.3395
ջել	-10.3399
▁Հենրիխ	-10.3399
▁տաղանդ	-10.3404
▁գործիքներ	-10.3409
▁անցկացնելու	-10.3413
▁հաջողության	-10.3415
▁վերջում	-10.3415
az	-10.3417
▁պատրաստված	-10.3419
▁համակարգերի	-10.3423
▁բերման	-10.3425
սովոր	-10.3429
▁վերջապես	-10.343
▁պարտավորություն	-10.3435
▁տեղակայված	-10.3436
▁բանտ	-10.3436
▁մասեր	-10.344
ամիջոց	-10.3441
▁փաստացի	-10.3441
▁վերականգնել	-10.3443
▁դատարանում	-10.3448
Վաշինգտոն	-10.3449
▁խանգարում	-10.345
▁պատկերացում	-10.3452
▁chatting	-10.3453
▁շրջակա	-10.3453
ie	-10.3456
▁խմբերի	-10.3468
բոլ	-10.3468
▁ենթադրում	-10.3469
▁Քաղաքական	-10.3471
▁քառ	-10.3475
Վերջ	-10.3478
ard	-10.348
▁ուղե	-10.3482
▁բջջային	-10.3487
ca	-10.3488
▁տարբերակներ	-10.349
▁արդյո՞ք	-10.3493
▁կառավարում	-10.3496
NEWS	-10.3499
▁քարտեզ	-10.3499
▁դպրոցական	-10.35
▁Ազ	-10.3502
▁ծաղկ	-10.3503
▁Չինաստանի	-10.3503
▁Հրանտ	-10.3507
▁ապագայի	-10.3513
▁մտնել	-10.3521
▁ավարտվել	-10.3523
▁պայքարը	-10.3533
▁ֆուտբոլիստներ	-10.3538
▁անունից	-10.354
▁սպորտի	-10.3542
▁սովորաբար	-10.3553
▁վնասվածքներ	-10.3563
պաշտպան	-10.3566
▁թիրախ	-10.3572
▁քահանա	-10.3572
▁հեղափոխության	-10.3573
▁քարոզարշավ	-10.3575
▁Վայոց	-10.3575
ազոր	-10.358
▁հավաքականը	-10.358
▁ժամեր	-10.3582
հաջող	-10.3582
▁կենդանիների	-10.3597
նդուն	-10.3599
▁բարեգործական	-10.3606
▁Անահիտ	-10.3606
▁սփյուռքի	-10.3606
▁կառուցման	-10.361
Ալ	-10.361
▁Մարկ	-10.3613
▁Թագավոր	-10.3617
ամուտ	-10.3618
▁Հունաստան	-10.3618
ber	-10.3619
▁նստած	-10.3622
▁դրամական	-10.3623
Արարատ	-10.3625
▁քամ	-10.3626
▁իրոք	-10.3628
▁վայրում	-10.3634
▁հանգամանքը	-10.3638
▁փորձագետներ	-10.3638
▁հասցրել	-10.3638
հաշվառ	-10.364
ադրբեջանական	-10.3642
արտացոլ	-10.3649
ասար	-10.3651
▁փակել	-10.3651
▁առցանց	-10.3653
▁դասական	-10.3663
▁շարունակելու	-10.3666
հիմն	-10.3666
▁կրթահամալիր	-10.3669
▁թշնամի	-10.3671
▁պալատի	-10.3675
▁Օրենք	-10.3681
ակտիվ	-10.3681
▁ճանաչվել	-10.3685
▁Դիմ	-10.3687
▁վերահսկողության	-10.3688
▁հոսք	-10.3689
▁լեզուն	-10.3691
կապ	-10.3693
թվ	-10.3693
ԱՍՏ	-10.3697
▁կարդաց	-10.3703
▁ձայնագր	-10.3708
▁նյութական	-10.371
▁շնչ	-10.3711
▁սպանել	-10.3716
▁Խաչատրյանի	-10.3717
▁ծախսերի	-10.3719
▁փնտրում	-10.3727
▁շահագործման	-10.373
▁ՕՐ	-10.3731
▁հաղթահարել	-10.3735
▁ծայրահեղ	-10.3738
▁սուր	-10.3739
▁հանցագործություն	-10.374
▁կրոն	-10.3741
▁տեսակներ	-10.3744
ap	-10.3744
▁ուսումնա	-10.3746
▁խաբ	-10.3747
ՔԻ	-10.3757
դաշնակ	-10.3759
▁մակարդակը	-10.3761
▁հրեա	-10.3761
▁Բո	-10.3768
▁եզրակացություն	-10.3769
▁համակ	-10.377
▁հաճախորդ	-10.3775
ացա	-10.3779
եզեր	-10.378
ցիները	-10.3783
▁նկատեց	-10.3783
▁մտքի	-10.3789
▁ծխ	-10.3789
Կառավար	-10.379
ազգային	-10.379
▁զոհված	-10.3791
▁ամենայն	-10.3795
▁լիովին	-10.3803
▁կիրառման	-10.3805
▁երկրա	-10.3805
ներկայաց	-10.3805
▁Լեհաստան	-10.3806
▁տարիքի	-10.3808
▁երբեւէ	-10.381
▁տանել	-10.3813
▁համախմբ	-10.3815
▁կոռուպցիայի	-10.3819
▁դժգոհ	-10.3821
▁բացահայտել	-10.3827
▁Արայիկ	-10.3829
Որ	-10.3833
▁փոփոխության	-10.3836
▁հրավեր	-10.3839
▁սարքեր	-10.3841
▁արտիստ	-10.3845
▁զգա	-10.3852
▁Հեղինակ	-10.3854
▁ցեղ	-10.3857
▁Աթոռ	-10.3862
▁չոր	-10.3864
▁աստերոիդ	-10.3864
Համ	-10.3866
▁ընտանիքը	-10.3867
▁արտահայտություն	-10.3869
Դա	-10.3876
▁Նորք	-10.3877
աշխ	-10.3878
▁Ֆուտբոլ	-10.3878
im	-10.388
▁բուժման	-10.3891
▁եկած	-10.3895
▁թվեր	-10.3897
▁ստանդարտ	-10.3897
ճանաչ	-10.3898
art	-10.3899
▁հակամարտություն	-10.39
>	-10.3901
▁գործոն	-10.3904
▁սկզբում	-10.3909
▁հաստատելու	-10.3909
▁խորհրդարանում	-10.391
▁Ալեքսանյան	-10.3911
▁ժողովածու	-10.3916
▁Խաչատրյան	-10.3917
ե՞ս	-10.3919
▁ամուր	-10.3922
▁Անդրանիկ	-10.3924
▁հասակ	-10.3924
▁ռուսերեն	-10.3932
▁եղբոր	-10.3933
▁հնար	-10.3933
▁պահելու	-10.3934
ation	-10.3935
▁առաջացնում	-10.3938
▁աշխատանքից	-10.3938
▁ընդդեմ	-10.394
▁նվազել	-10.3947
ik	-10.3959
▁օգտին	-10.3968
▁ԱՊՀ	-10.3968
ախումբ	-10.3973
▁Համաշխարհային	-10.3974
▁դաժան	-10.3976
▁Ցուց	-10.3976
▁սուբյեկտ	-10.3979
տուր	-10.3981
▁անդրադառնալով	-10.3986
▁կրող	-10.3991
ate	-10.3991
եղեն	-10.3992
▁պայթյուն	-10.3993
կողմնորոշ	-10.3994
▁ժամանակահատված	-10.3996
▁Դպրոց	-10.3996
▁Քննարկ	-10.3997
▁կայքեր	-10.3998
▁ցանցեր	-10.4002
▁բարձրաձայն	-10.4004
▁հաշվետվություն	-10.4004
▁հեռանալ	-10.4022
Հրազդան	-10.4024
▁խոհանոց	-10.4025
▁Այսպես	-10.4026
▁բնագավառ	-10.4031
▁հետեւաբար	-10.4031
▁հարգ	-10.4045
ry	-10.4047
ԳՈՐԾ	-10.4047
▁ծախսերը	-10.4049
▁մշակել	-10.4049
▁գործառույթներ	-10.4049
‏	-10.4051
▁տեղադրված	-10.4055
▁կառույցներ	-10.4055
▁թողել	-10.4057
▁քննիչ	-10.406
▁արարք	-10.4063
▁լեզվով	-10.4064
▁ծռեր	-10.4066
ացվում	-10.4068
Երեխա	-10.4083
▁հեռանկար	-10.4085
արդյուն	-10.4089
▁Աղա	-10.409
▁Էդվարդ	-10.4101
▁պողոտա	-10.4105
▁մտել	-10.4109
▁նմանատիպ	-10.4116
п	-10.4131
ազարդ	-10.4134
▁հրթիռ	-10.4136
▁լող	-10.4136
▁խորագրով	-10.4137
յլ	-10.4139
▁հանդիսատես	-10.4139
▁Վաղ	-10.4148
գրանց	-10.415
▁հնարավորինս	-10.415
▁առաջարկություններ	-10.4152
▁մեթոդներ	-10.4155
▁համատեքստում	-10.4162
▁հատվածներ	-10.4163
est	-10.4167
ԱԽ	-10.417
▁զեկուց	-10.4173
▁սեփականատեր	-10.4178
▁առաջարկներ	-10.4178
▁դոկտոր	-10.4182
տաս	-10.4185
▁օգնական	-10.4187
▁կողք	-10.4188
▁արարողության	-10.4194
▁երաշխիք	-10.4201
▁ցնց	-10.4203
դակ	-10.4205
▁Դար	-10.4206
▁կազմակերպիչ	-10.4212
▁վարակ	-10.4214
դաս	-10.422
ւած	-10.4221
ԵՂ	-10.4222
▁Անգլիայի	-10.4223
▁‎‡	-10.4227
▁կնքել	-10.4228
▁կողմերը	-10.4229
▁Խան	-10.4229
▁Գյուղ	-10.4232
▁վերաբերվում	-10.4232
▁Այնպես	-10.4234
▁տրվել	-10.4236
▁ղարաբաղյան	-10.4238
հավատ	-10.4239
▁հերթ	-10.424
▁քաղաքապետարան	-10.4242
▁համալսարանում	-10.4242
ացիների	-10.4245
▁կանգնել	-10.425
Դիտ	-10.4251
info	-10.4262
port	-10.4263
▁գյուղացի	-10.4263
й	-10.4268
ԱՐԴ	-10.4269
▁Խորհրդային	-10.4271
▁հնչեց	-10.4273
▁Բագրատ	-10.4273
▁կրթ	-10.4279
▁խմբագիր	-10.4287
▁պատվեր	-10.4288
▁նիստին	-10.429
▁միջուկային	-10.4291
մետ	-10.4294
ատեսակ	-10.4295
▁մասնագիտություն	-10.4295
▁հայերը	-10.4296
▁զգալ	-10.43
▁ստացվում	-10.4303
▁համակարգեր	-10.4305
ex	-10.4305
▁մանկապարտեզ	-10.4306
հու	-10.4308
▁շնորհավորել	-10.4309
▁այգու	-10.4316
▁Թո	-10.4318
▁ուսուցման	-10.432
տեխնիկական	-10.432
▁մազեր	-10.4321
▁Յա	-10.4323
▁հավանաբար	-10.4328
$	-10.4329
▁հոդվածով	-10.4337
▁Սովոր	-10.4339
▁ստորաբաժանումներ	-10.4345
ՈՒՍ	-10.4349
▁քաղցկեղ	-10.4349
▁խրախուս	-10.435
▁ենթակառուցվածք	-10.4351
▁տարածում	-10.4355
▁ներկայումս	-10.4356
▁անցկացվել	-10.436
▁խուսափել	-10.4361
գալ	-10.4364
▁գործողության	-10.4364
▁այցով	-10.4367
Ինչպես	-10.4369
▁Ով	-10.437
▁երեկո	-10.4375
▁երգիչ	-10.4377
▁երիտասարդության	-10.4377
▁Սբ	-10.4379
▁Սրբ	-10.438
Դիլիջան	-10.4383
▁Էդ	-10.4388
▁վարձակալ	-10.4392
▁տեղեր	-10.4395
▁լաբորատոր	-10.4396
▁եռամսյակ	-10.4398
ջյան	-10.4401
▁զբաղեցնում	-10.4408
▁վախենում	-10.4419
▁առնել	-10.4424
▁ասենք	-10.4424
բուրգ	-10.4431
դեմոկրատ	-10.4433
▁պաշտոնից	-10.4436
Q	-10.444
գայ	-10.4445
▁յուրահատուկ	-10.4447
▁գրավել	-10.4447
Էրեբունի	-10.4449
▁հաճույք	-10.4449
▁զարմաց	-10.445
up	-10.4464
▁փոխարինել	-10.4464
▁չունենք	-10.4465
լիմ	-10.447
ci	-10.4473
Բար	-10.4474
▁Սեյրան	-10.4476
պլ	-10.4477
▁ընդգծեց	-10.4488
all	-10.4488
▁բարձրաստիճան	-10.449
»,–	-10.449
▁մինչդեռ	-10.4492
▁բնակավայրեր	-10.4493
▁գիտեն	-10.4494
▁ցուցարար	-10.4496
վագ	-10.4497
▁չգիտեմ	-10.45
ՊԵՏ	-10.4501
արդյունաբերական	-10.4502
▁տարօրինակ	-10.4503
▁Բաքվի	-10.4504
▁ուսուցչ	-10.4506
▁իբր	-10.4507
no	-10.4507
Ֆիլմ	-10.4509
▁սկսվեց	-10.4509
▁տեղադրել	-10.4511
մոռանա	-10.4516
=	-10.4518
▁հայտնվում	-10.4519
С	-10.4523
բժշկ	-10.4526
▁Իսպանիայի	-10.4533
▁Չեմ	-10.4534
▁անտես	-10.4538
ts	-10.4538
ացնեն	-10.4544
▁հաշվառման	-10.4548
ՈՍ	-10.4552
▁տեղամաս	-10.4554
միջամտ	-10.4556
▁Facebook	-10.4566
▁տրամադրություն	-10.4569
▁փախստական	-10.4569
▁դերասանուհի	-10.457
▁Ծառուկյանի	-10.458
եցրեց	-10.4584
ասպան	-10.4586
▁փոխնախարար	-10.4586
▁Home	-10.4586
▁առաջիկայում	-10.4588
հայկական	-10.4594
▁Ալիեւի	-10.461
▁հղումներ	-10.4613
▁օրենսդրությամբ	-10.4614
▁օրվանից	-10.4614
▁պրոցես	-10.4619
ers	-10.4621
▁զգացում	-10.4622
▁բերեց	-10.4626
▁արժեքների	-10.4634
▁ցուցանիշներ	-10.4638
▁սեփականության	-10.4641
▁իրազեկ	-10.4641
▁դատարկ	-10.4642
▁գրականություն	-10.4647
▁վերականգնման	-10.4648
▁Թող	-10.4652
Հայրենիք	-10.4656
▁կայացել	-10.4657
▁քվեարկել	-10.4661
▁առողջական	-10.4664
▁մրցակից	-10.4667
▁տալով	-10.4668
ՏԵՍԱՆՅՈՒԹ	-10.4668
▁Բաղրամյան	-10.4671
ՅԱՆԻ	-10.4671
▁դադարեցնել	-10.4674
▁իմանա	-10.4676
▁լրացումներ	-10.4679
▁սկզբին	-10.4689
▁մեխանիզմներ	-10.4691
▁համայնքային	-10.4696
▁պահպանում	-10.4698
▁Վերջինս	-10.4701
▁Մարիամ	-10.4706
տնօրին	-10.4706
▁Ճիշտ	-10.471
վածքներ	-10.4714
▁փոստ	-10.4714
▁ընդունման	-10.4715
▁սիրահար	-10.4716
մեդ	-10.4716
ութեամբ	-10.4718
▁Լիլիթ	-10.4718
մաքս	-10.4721
▁ցուցաբերել	-10.4734
▁սեռ	-10.4736
▁վարչ	-10.4737
▁մոտեցումներ	-10.4738
վերլուծ	-10.4739
▁Իտալիայի	-10.474
բո	-10.474
▁Ռոնալդ	-10.4742
ռե	-10.4742
վստահ	-10.4742
▁ունեցան	-10.4743
▁զբոսաշրջիկ	-10.4745
▁ավտովթար	-10.4749
▁ռեկտոր	-10.475
▁շարունակական	-10.4757
▁նախապես	-10.4757
▁Եկեղեցու	-10.4758
▁ունեին	-10.4758
▁երիտասարդներ	-10.4762
▁կրծք	-10.4763
աջակց	-10.4763
▁խաղացել	-10.4765
զոր	-10.477
Օր	-10.4771
▁համառ	-10.4772
ատեսակներ	-10.4776
▁ներկայացրած	-10.4781
▁ամիսներին	-10.4782
▁դուստր	-10.4785
ig	-10.4786
բաշխ	-10.4789
ՆԵՐԸ	-10.4791
▁գործած	-10.4794
շահագործ	-10.4796
▁Տո	-10.4797
▁Եգիպտոս	-10.4797
▁գյուղատնտեսական	-10.4797
▁վաճառել	-10.4798
▁տեսահոլովակ	-10.4804
▁մեքենան	-10.4805
Ճանապարհ	-10.4807
▁պաշտպանություն	-10.4807
խնամ	-10.4811
▁առնչությամբ	-10.4816
▁արված	-10.4818
ԱՆԻ	-10.482
▁երկրներից	-10.4824
▁շնորհակալ	-10.4827
▁օրենսդրության	-10.4827
▁ՀԱԿ	-10.4834
▁հասկանա	-10.4835
▁նյարդ	-10.4836
▁Կարմիր	-10.4837
▁վարկեր	-10.4841
▁բնակչ	-10.4847
▁ժողովուրդների	-10.4849
Լավագույն	-10.485
▁վերաբեր	-10.4852
աձայն	-10.4853
▁Վիր	-10.4853
կուսակցական	-10.4853
▁նկարներ	-10.4859
▁վերեւ	-10.486
իրանական	-10.4866
▁գործընթացում	-10.4866
▁խոստում	-10.4871
tor	-10.4873
▁Պետրոսյանը	-10.4875
▁դռներ	-10.4875
▁Էրդողանը	-10.4883
ՊԱՏ	-10.4886
▁հաշտ	-10.4886
▁ուղեղ	-10.4887
▁Բաքու	-10.4888
▁Հնդկաստան	-10.489
sh	-10.4891
ԵՑ	-10.4891
▁կետով	-10.4906
ավր	-10.4911
▁երաժիշտ	-10.4923
▁Կատեգորիա	-10.4926
ացուցիչ	-10.4929
▁հաստ	-10.493
▁ապագայում	-10.4932
եցնելու	-10.4936
ադաշտ	-10.4938
▁գործադր	-10.4939
▁Mo	-10.4945
▁բացվել	-10.4947
▁Խաչատուր	-10.4948
ast	-10.4948
▁առաջնային	-10.495
▁կալանք	-10.4956
▁խոսքերով	-10.4956
▁կուսակցությունների	-10.4961
▁բնականաբար	-10.4961
▁Վիլ	-10.4965
▁հիվանդություն	-10.497
▁Բնակարան	-10.4971
▁լրա	-10.4973
▁ստանձնել	-10.4976
▁Պետրոս	-10.4979
▁Կարեւոր	-10.4985
▁Ժան	-10.4991
▁համաձայնության	-10.4992
▁օրգան	-10.4994
▁տարել	-10.4994
▁Tert	-10.4995
▁երգչուհի	-10.4995
▁Կաս	-10.4997
եթե	-10.5001
▁Բարսեղյան	-10.5008
▁բնապահպանական	-10.5012
▁Google	-10.502
▁գիտեմ	-10.502
▁կայսր	-10.5021
▁հարցրեց	-10.5031
▁ժողովրդավարական	-10.5031
թույլատր	-10.5032
▁կտոր	-10.5032
▁ֆուտբոլ	-10.5036
▁պատիվ	-10.5037
▁ձեւավորում	-10.5043
▁ամբողջովին	-10.5047
▁զգեստ	-10.505
բաղ	-10.5054
▁ռիսկեր	-10.5056
▁հակառակորդի	-10.506
վաճառ	-10.506
▁Պաշտպանության	-10.5069
րիմ	-10.5073
▁հրահանգ	-10.5078
▁գոտում	-10.508
ԱՐԿ	-10.5084
▁թափանցիկ	-10.5087
Կապան	-10.5088
▁հրավիրում	-10.5093
▁պահեստ	-10.5093
▁աղյուսակ	-10.5097
պրես	-10.5101
▁Լիգա	-10.5102
աշխարհ	-10.5108
▁պաշտոնյա	-10.5113
խոստովան	-10.5114
▁ուսումնասիրություններ	-10.5115
▁վեճ	-10.5123
երկու	-10.5129
▁նախատես	-10.513
▁թեմի	-10.5131
Իսլամական	-10.5147
կողմ	-10.5148
▁նպաստում	-10.5148
▁էլեկտրա	-10.5152
▁միջոցներով	-10.5153
վեստ	-10.5158
▁փայտ	-10.5161
▁վայրկյան	-10.5161
աշվիլի	-10.5162
▁կոմպոզիտոր	-10.5162
▁նախատեսում	-10.5163
▁համադր	-10.5163
▁պարտադր	-10.5164
ive	-10.5165
▁թիմեր	-10.5166
▁հետապնդում	-10.5168
▁Co	-10.5174
▁ԱԻՆ	-10.5175
▁անջատ	-10.5175
▁ժամկետով	-10.5175
Նախ	-10.5181
շրջ	-10.5186
&	-10.519
▁Գալ	-10.5197
ախտորոշ	-10.5202
▁տարբերվում	-10.5207
▁Եվրոպայում	-10.5207
▁հաջողվել	-10.5213
▁կառուցվել	-10.5227
ion	-10.5231
▁ինքնասպան	-10.5231
▁Հիմնական	-10.5233
▁Նկար	-10.5233
▁շաբաթվա	-10.5242
▁Դրանց	-10.5244
Բարսելոնայի	-10.5247
▁Կատար	-10.5248
▁հաղթեց	-10.526
ՐԴ	-10.5266
▁բացակայության	-10.527
▁Ուստի	-10.527
▁տոնական	-10.5276
▁առոգան	-10.5278
ղար	-10.5278
▁գործընթացների	-10.5279
▁Բրա	-10.5281
▁տոմս	-10.5287
Առավոտ	-10.5288
ահասակ	-10.529
ոլորտ	-10.5294
▁ծրագրում	-10.5297
ակնկալ	-10.5297
ԳՐ	-10.53
▁ապրելու	-10.53
Անկախ	-10.5301
ությա՞մբ	-10.5301
▁պահանջներին	-10.5302
▁լուծելու	-10.5303
Անձ	-10.5306
▁սերնդի	-10.5308
Ազնավուր	-10.531
▁եկեղեցիներ	-10.531
▁հրաշք	-10.5311
▁Չեմպիոնների	-10.5313
▁տասը	-10.5315
▁գագաթնաժողով	-10.5321
լեյ	-10.5338
ասիրություն	-10.5338
▁անհետ	-10.534
▁ապահովագր	-10.5346
▁վստահություն	-10.5347
▁պայթ	-10.5352
▁բարելավման	-10.5354
▁ծրագրով	-10.5358
▁մասնակցեց	-10.536
ամթերք	-10.5365
▁ամսական	-10.5367
ազատագր	-10.5368
▁ավտոբուս	-10.5373
▁Շար	-10.5378
▁հղել	-10.5378
▁արձանագրել	-10.5379
▁ծնունդ	-10.5384
▁Ապրիլ	-10.5386
ՏԱՐ	-10.5387
▁փոխադարձ	-10.5387
▁հարմարավետ	-10.539
▁ռեկորդ	-10.539
Հիմն	-10.5393
▁ոնց	-10.5395
▁Եվրասիական	-10.5397
▁կադրեր	-10.5402
▁այո	-10.5406
▁Արդյունքում	-10.541
▁Էրդողանի	-10.5413
բանկ	-10.542
▁Դրանից	-10.542
▁ընդդիմություն	-10.5422
▁ճշմարտություն	-10.5425
▁սրա	-10.5425
▁կատակ	-10.5428
▁վարժ	-10.5428
▁Al	-10.543
▁Քիմ	-10.5431
ֆոր	-10.5432
▁չորրորդ	-10.5434
▁ավելորդ	-10.544
Իսկ	-10.5444
▁տարե	-10.5444
▁հանդիսացող	-10.5445
▁մարզերում	-10.5446
▁ճանաչման	-10.5447
կոս	-10.5448
▁Մրց	-10.5448
▁Աշոտյան	-10.5449
պարգեւատր	-10.545
▁հաղորդել	-10.5453
▁Ինքն	-10.5465
▁Վերա	-10.5467
բեմադր	-10.5473
▁Ադ	-10.5484
▁Սահմանադրական	-10.5486
▁կվեր	-10.5496
ֆիլմ	-10.5496
▁մարզպետարան	-10.5497
▁անցկացվում	-10.5499
▁Ցանկ	-10.5499
▁գիտաժողով	-10.5501
▁ականջ	-10.5504
եյլ	-10.5509
▁աղոթք	-10.551
▁հիշողություն	-10.5517
վրացական	-10.5522
▁կմնա	-10.5523
▁բազմիցս	-10.5529
▁նրբ	-10.5532
ե՞ր	-10.5536
▁հաստատման	-10.554
▁տեւող	-10.5541
▁արխիվ	-10.5542
▁ընդառաջ	-10.5545
▁կայացավ	-10.5547
ԱՎՈՐ	-10.5548
log	-10.5552
▁գնալու	-10.5561
▁հիշել	-10.5563
րտասանեք	-10.5566
▁շփ	-10.5567
▁հետեւողական	-10.5571
ամյակը	-10.5577
▁մոտենում	-10.558
▁Միլ	-10.5582
▁ենթա	-10.5588
▁դարձնելու	-10.5591
▁Փոխ	-10.5592
▁բուն	-10.5595
▁Մարդիկ	-10.5597
▁ակադեմիայի	-10.5602
▁տասնամյակ	-10.5605
▁աշխատողների	-10.5606
▁ներկայացվում	-10.5608
ՎԱՐ	-10.561
բոր	-10.5614
ԱՆԿ	-10.5617
Սփյուռք	-10.5617
▁հաստատությունների	-10.5618
▁մեդիա	-10.5624
▁հեռավոր	-10.5624
ընդգրկ	-10.5631
▁պատանի	-10.5633
կուլ	-10.5637
▁Mar	-10.5638
▁համակարգող	-10.5642
▁կառուցված	-10.5648
▁ընտրված	-10.5649
▁համագործակցել	-10.5649
▁ձմեռ	-10.5651
▁լեզվա	-10.5655
▁համարձակ	-10.5656
▁վճարման	-10.5663
▁ոտքեր	-10.5668
առեւտուր	-10.5672
▁արձակուրդ	-10.5672
▁ցերեկ	-10.5674
tr	-10.5682
▁կորցրել	-10.5684
ment	-10.5686
▁շրջաններում	-10.5688
▁ամուսնաց	-10.5692
▁չունեմ	-10.5697
▁տեղեկացրին	-10.5699
▁Հատուկ	-10.57
▁անցնելու	-10.5701
▁ջոկատ	-10.5702
Այն	-10.5703
▁համարժեք	-10.5708
▁գտնվելու	-10.5717
▁Բելառուսի	-10.5719
▁գիտա	-10.5719
▁գլխավորած	-10.572
▁Հետաքրքիր	-10.5728
▁Այսինքն՝	-10.5733
▁վարիչ	-10.5734
▁էկրան	-10.574
ԱՐԱՐ	-10.5745
վայ	-10.5746
▁ընտանիքում	-10.5747
▁Արշակ	-10.5747
▁Բրիտանիա	-10.5748
▁ճշտ	-10.5752
▁Մինչդեռ	-10.5757
▁Աբրահամյանը	-10.5761
անհանգստ	-10.5763
Այդ	-10.5767
▁մեկնաբանել	-10.5769
▁գրանցում	-10.577
▁Զոհրաբյան	-10.5772
▁զուտ	-10.5773
ահարկ	-10.5778
▁տարրեր	-10.5779
TV	-10.578
▁ծայր	-10.5781
▁ծրագրային	-10.5788
▁գյուղական	-10.5789
▁դարձած	-10.5793
▁տրամադրված	-10.5795
▁նշանավոր	-10.5796
▁Դավթյան	-10.5801
▁վկայական	-10.5801
AR	-10.5813
▁բանակցային	-10.5818
▁ֆորում	-10.5819
ԱԴ	-10.5822
▁այսքան	-10.5825
q	-10.5831
▁արժանաց	-10.5831
արեւելք	-10.5835
▁ասես	-10.5837
▁արվում	-10.5839
▁De	-10.5847
▁Սիթի	-10.5848
պատմ	-10.585
Երբ	-10.5852
▁կկայանա	-10.5856
▁Սփյուռքի	-10.5857
բեկյան	-10.5858
▁Վահե	-10.5859
▁Մնացականյան	-10.5861
▁զարմանալի	-10.5862
▁Մարուքյան	-10.5862
▁Երկրի	-10.5864
б	-10.5872
▁գործընկերության	-10.5873
▁սնունդ	-10.5876
▁Արագածոտնի	-10.5879
Արցախ	-10.5887
ԱԾ	-10.5888
կոյի	-10.5889
ղջ	-10.5889
▁պարզաբանում	-10.5904
▁ընդգծ	-10.5907
▁համագործակցություն	-10.5911
▁մանկավարժ	-10.5914
▁Մոտ	-10.5919
▁վիճակագրական	-10.5926
▁բովանդակություն	-10.5926
ոլոգիական	-10.5929
▁բնակելի	-10.5932
▁փրկարար	-10.5935
▁ներկայացման	-10.5936
▁նմուշ	-10.5941
▁ստացավ	-10.5944
▁Ցեղասպանության	-10.5952
are	-10.5957
▁գնով	-10.5958
▁ցանկալի	-10.5961
▁Թեեւ	-10.5962
ԱՆՑ	-10.5963
▁նախաձեռնություններ	-10.5965
ver	-10.5966
▁Օդ	-10.5966
▁բարեփոխումներ	-10.597
▁ընդդիմության	-10.597
փոփ	-10.5971
▁գույներ	-10.598
ապարտ	-10.599
▁ամրապնդման	-10.5998
▁աջակցում	-10.6
▁հեր	-10.6001
▁սպառնում	-10.6008
ell	-10.601
▁կերակր	-10.6017
▁կիրակի	-10.6024
▁թեմայի	-10.6025
▁դեմքի	-10.6026
▁վերադարձնել	-10.603
▁հոտ	-10.6032
▁Զոր	-10.6034
▁Որքան	-10.6036
▁փոխվարչապետ	-10.6037
▁ձու	-10.6047
▁սեմինար	-10.6047
ահավաք	-10.6051
▁Կոմիտասի	-10.6052
▁հարկեր	-10.6053
եկտոր	-10.6058
▁ոմանք	-10.6061
▁Shabat	-10.6062
▁խորհուրդներ	-10.6065
▁վերադարձել	-10.6066
▁շինարարության	-10.6075
▁Ավան	-10.6075
▁մարտահրավերներ	-10.6077
▁շաքար	-10.6081
ագիտություն	-10.6083
▁օլիմպիական	-10.6084
▁քաղաքագետ	-10.6085
▁հարձակման	-10.6085
▁Սասուն	-10.6087
▁արհեստական	-10.6089
▁եկամտ	-10.6089
ացրած	-10.6096
▁հանդերձ	-10.6099
▁դատավարության	-10.6099
հեղափոխական	-10.6102
▁Հանձնաժողով	-10.6113
▁հավատարիմ	-10.6116
ы	-10.6121
ընդհատ	-10.6121
▁Միջին	-10.6121
▁անցկացնում	-10.6125
▁զինծառայողների	-10.6126
▁Միրզոյան	-10.6127
▁հանդիսավոր	-10.6128
▁առայժմ	-10.613
▁միանշանակ	-10.6134
▁ամառային	-10.6136
▁In	-10.614
▁էլեկտրական	-10.6153
ill	-10.6158
Դատարան	-10.6159
▁բերվել	-10.616
զիլ	-10.6165
▁ձեռքբերումներ	-10.6165
▁Հաղորդ	-10.6165
նվաճ	-10.6165
Р	-10.6166
▁Աբրահամյանի	-10.6167
▁կղզի	-10.6168
▁ընձեռ	-10.6169
▁գծում	-10.6169
▁բաժակ	-10.617
▁բաժանորդ	-10.6172
▁the	-10.6175
▁հետեւանք	-10.6176
▁ստվեր	-10.6176
▁հավերժ	-10.6192
▁հետաքնն	-10.6194
▁քոլեջ	-10.6195
▁Նախա	-10.6196
ությ	-10.6199
▁շոու	-10.6202
▁իսլամ	-10.6203
▁Վահրամ	-10.6211
▁Հռոմի	-10.6219
▁կազմակերպելու	-10.6221
▁դաշնակից	-10.6222
▁ՀՔԾ	-10.623
▁գարնան	-10.623
▁զբաղվող	-10.6232
▁բառարան	-10.6234
աթերթ	-10.6242
▁ջարդ	-10.6252
▁Մերձավոր	-10.6254
▁Երուսաղեմ	-10.6259
▁իշխող	-10.6264
▁Միաժամանակ	-10.6265
▁շահերը	-10.6268
▁արհեստ	-10.627
խփ	-10.6271
գնդապետ	-10.6273
г	-10.6275
▁կատեգորիա	-10.628
▁պատիժ	-10.6281
Ազատություն	-10.6282
▁Վարձով	-10.6283
▁վեհ	-10.6283
ե՞ն	-10.6284
▁ֆուտբոլային	-10.6285
▁Իլհամ	-10.6286
անուշ	-10.6288
զոն	-10.6291
▁շքեղ	-10.6294
▁խստ	-10.6295
▁բնապահպանության	-10.63
▁տեսարան	-10.6303
փոշ	-10.6304
▁Մրցույթ	-10.6305
ախմբի	-10.6313
նախարար	-10.6314
▁խափանման	-10.6316
▁պարզվել	-10.6323
▁Ունեն	-10.6324
կերտ	-10.6324
▁An	-10.6328
▁պաշտոններ	-10.6336
▁արտահանման	-10.6341
▁տարր	-10.6344
▁շրջանառության	-10.6344
▁տապալ	-10.6349
▁Հետեւաբար	-10.635
Երկ	-10.6352
▁ճանապարհային	-10.6355
Ուկրաինա	-10.6358
▁հավելյալ	-10.636
▁ինքս	-10.6365
▁հիմնախնդիրներ	-10.6366
▁համահայկական	-10.6369
▁ընթացող	-10.6371
▁հասուն	-10.6375
▁կատարելագործ	-10.6375
▁սմարթֆոն	-10.6379
▁Պրեմիեր	-10.6381
▁արտադրություն	-10.6384
▁հաստատվել	-10.6394
▁հանձնարարական	-10.6396
▁ձեւավորել	-10.6397
▁սպանություն	-10.6401
▁տղայի	-10.6403
ակցական	-10.6405
▁Անվճար	-10.6406
▁Մհեր	-10.6409
▁տիպի	-10.641
▁ահաբեկչական	-10.6412
▁հսկողության	-10.6412
▁ամենամյա	-10.6413
▁անցավ	-10.6417
▁ապրիլյան	-10.6422
▁Քրիստոս	-10.6426
▁ստանա	-10.6426
վալ	-10.6427
▁եկող	-10.6442
▁Ողջ	-10.6454
▁Սկզբ	-10.646
▁մանկավարժական	-10.6462
▁շեղ	-10.6462
▁առկայության	-10.6464
▁Յո	-10.6471
▁Պատասխան	-10.6472
▁արվել	-10.6476
▁տեղաշարժ	-10.6477
▁օբյեկտիվ	-10.6479
▁ճանաչված	-10.6484
▁կիրառվում	-10.6484
▁ակնկալում	-10.6493
▁հաղորդագրության	-10.6494
▁քիմիական	-10.65
▁առաջացել	-10.6507
▁Նաեւ	-10.6511
▁Ծառուկյանը	-10.6514
▁Նաիրա	-10.6514
▁հաշմանդամ	-10.6517
▁անսպասելի	-10.6521
▁ֆեդերացիայի	-10.6524
▁Հարգելի	-10.6525
▁մահացած	-10.6526
▁համաձայնություն	-10.6527
▁արքայ	-10.6528
▁ավտոմատ	-10.6529
▁ակադեմիա	-10.6531
▁Նոյեմբեր	-10.6533
մարզ	-10.6533
▁բեռնել	-10.6534
▁ներդրման	-10.6534
▁աստղեր	-10.6535
▁ինտեգր	-10.6538
▁զորամաս	-10.6538
▁դասակարգ	-10.6539
▁հատակ	-10.6546
▁հոգեկան	-10.6547
▁Մովսես	-10.6554
pl	-10.6558
▁կրկնակի	-10.6561
▁անկում	-10.6563
▁կանխարգելման	-10.6564
▁Նախկին	-10.6573
կովկաս	-10.6575
▁Դաշնության	-10.658
յուզ	-10.659
▁լեռնա	-10.6594
з	-10.6595
▁Անդրադառնալով	-10.6595
▁տարելիցի	-10.6598
▁բացակայություն	-10.66
▁գիծ	-10.6601
արտադր	-10.6601
▁զբաղեցնել	-10.6603
▁Համբարձում	-10.6607
կշռ	-10.6609
▁կողմնակից	-10.661
▁վերահսկողություն	-10.6611
И	-10.6613
▁տեխնոլոգիական	-10.6613
▁բացատրել	-10.6614
▁Բրյուսել	-10.6615
▁Ընկերության	-10.6617
▁ՏՏ	-10.662
▁գործոններ	-10.6622
Նաիրի	-10.6627
▁ՊԲ	-10.6627
Խորհրդարան	-10.6627
լյու	-10.663
▁Ապա	-10.6631
▁Առաքելյան	-10.6633
mo	-10.6639
▁փոր	-10.6641
փար	-10.6643
Ինտեր	-10.6646
▁զեղչ	-10.6647
▁կայացնել	-10.6652
▁Կարդալ	-10.6655
▁դանդաղ	-10.6655
▁ավտոմեքենաներ	-10.6656
▁աշխատակազմ	-10.6659
▁Մուրադյան	-10.666
ԵՆՔ	-10.666
պնդ	-10.6669
▁դավաճան	-10.6671
▁պատկերացնում	-10.6675
մուծ	-10.6677
▁Ո՞ր	-10.6679
▁մանդատ	-10.6681
▁կազմակերպվել	-10.669
▁վերցրել	-10.6691
▁Ջե	-10.6692
համագործակց	-10.6692
▁գրանցել	-10.6698
ու՞մ	-10.6699
կոլ	-10.6701
▁կոռուպցիոն	-10.6703
համակարգ	-10.6704
▁շինարարական	-10.6708
▁դանակ	-10.6709
▁ձկն	-10.6709
▁բնակվող	-10.6718
▁որակավորման	-10.6723
▁մտերիմ	-10.6725
հոգ	-10.6729
▁հաղթահար	-10.673
▁ծաղիկներ	-10.6734
▁կիսվել	-10.6736
▁թեկուզ	-10.674
▁ավտոմեքենայի	-10.6741
▁Յուրի	-10.6742
վտանգ	-10.6743
▁բանկերի	-10.6751
▁ընտրողների	-10.6758
▁ավարտվեց	-10.6762
▁Ալիեւը	-10.6767
▁ճանապարհներ	-10.6775
պարունակ	-10.6781
▁Տոնոյան	-10.6782
▁հեռանկարներ	-10.6786
▁նստաշրջան	-10.6787
▁թվականների	-10.6791
▁ներկայացուցչի	-10.6792
▁աթոռ	-10.6794
yan	-10.6805
our	-10.6808
▁օգուտ	-10.6811
▁ցուցմունք	-10.6811
ՈՑ	-10.6811
ՈԼ	-10.6811
ադրամ	-10.6814
▁հանդիպ	-10.6825
ըմբռն	-10.6828
▁ազդել	-10.6829
▁Ֆրանսիայում	-10.6829
▁հաշվապահ	-10.6833
որդեգր	-10.6836
դպրոց	-10.6837
շնորհ	-10.6837
▁ուշադիր	-10.6848
▁տեսանելի	-10.6854
▁ականատես	-10.6856
▁բնակավայր	-10.6857
▁խորհրդանիշ	-10.6861
արեւմուտք	-10.6868
▁ասպարեզ	-10.6868
արկղ	-10.6872
▁Ոստիկանություն	-10.6874
▁ճանապարհորդ	-10.6875
▁Politik	-10.6882
▁բռնկ	-10.6883
bo	-10.6893
▁Սոցիալ	-10.6894
▁կարդում	-10.6894
տեխնոլոգիա	-10.6895
▁ազատազրկման	-10.6902
երեւակայ	-10.6902
▁հունվար	-10.6904
աբաշխ	-10.6904
▁խաչմերուկ	-10.6907
▁տեղեկացրեց	-10.6909
▁Պաշտօնական	-10.6919
▁Ռուսական	-10.6921
▁օղակ	-10.6921
▁Աթոռոյ	-10.6922
▁Շուշի	-10.6923
ֆիզիկա	-10.6929
օջախ	-10.693
▁քրեակատարողական	-10.6935
▁մտնելու	-10.6935
▁իջեց	-10.6939
▁լվաց	-10.6939
▁լքել	-10.6939
AN	-10.6941
▁թունավոր	-10.6941
▁Օրվա	-10.6941
▁աշնան	-10.6945
▁Ժողով	-10.6952
▁ֆրանսիացի	-10.6956
▁սպա	-10.6966
▁հարգել	-10.6978
▁Տիրոջ	-10.6979
▁Ծնվել	-10.698
▁եղբայրներ	-10.6982
▁սկանդալ	-10.6984
▁մեխանիզմ	-10.6986
▁բազմազան	-10.699
▁առանձնապես	-10.699
▁հավելելով	-10.699
կուս	-10.6993
▁տղամարդիկ	-10.6998
▁փնտրել	-10.6998
▁պատճենեք	-10.7
▁ցր	-10.7004
▁դուռը	-10.7012
ՏԵՂ	-10.7013
հանրա	-10.7018
▁հայեցակարգ	-10.7019
▁Երրորդ	-10.7024
▁գոտու	-10.7025
▁գործընկերներ	-10.7026
▁հեռավորության	-10.7028
աշինության	-10.7031
▁չունեցող	-10.7033
▁կամուրջ	-10.7033
▁անօրինական	-10.7034
ен	-10.7038
▁մարզադաշտ	-10.704
կազմակերպ	-10.7045
▁գերմանական	-10.7052
▁կոշտ	-10.7055
▁կուզե	-10.7059
IN	-10.7064
▁Տաթեւ	-10.7071
▁Մարիա	-10.7072
▁լիցենզիա	-10.7072
վճար	-10.7073
▁ուսումնասիրություն	-10.7074
▁իրավաբան	-10.7076
▁ծիրան	-10.7086
▁Այնուամենայնիվ	-10.709
ԻՑ	-10.7093
▁Նույնիսկ	-10.7093
▁խանգար	-10.7095
▁օպերատոր	-10.71
▁ներքեւ	-10.7105
ՀԱՆ	-10.7109
▁հիվանդության	-10.7114
▁վերադառնում	-10.7114
▁դրվագ	-10.7121
▁հոբելյան	-10.7125
կառուց	-10.7127
▁որակյալ	-10.7136
▁տարածաշրջան	-10.7137
օգտ	-10.7142
▁նվաճել	-10.7144
▁Վիկտոր	-10.7147
ատեղի	-10.7147
▁դատախազություն	-10.7148
▁ապրանքներ	-10.7149
▁զորակոչ	-10.7153
▁Օլիմպիական	-10.7154
▁զգուշաց	-10.7167
▁Միջոցառման	-10.7168
▁առանցքային	-10.7168
▁ապահովագրական	-10.717
▁եկեղեցում	-10.7173
▁ձեւավորված	-10.7175
▁արտագաղթ	-10.7175
տրանսպորտ	-10.7176
ԵՌ	-10.7176
▁դարպաս	-10.7177
ատիրոջ	-10.7178
▁խոսեց	-10.718
▁հարազատների	-10.7184
▁բազա	-10.7185
ack	-10.7187
▁մասնակցի	-10.719
▁Լուս	-10.7193
▁հանցավոր	-10.7205
▁ստուգումներ	-10.721
▁օգտագործվել	-10.7214
ine	-10.7214
@	-10.7217
▁օրոք	-10.7217
թափանց	-10.7219
▁ՆԱԽ	-10.7221
▁նշանակալի	-10.723
▁բազում	-10.7231
▁Դեռ	-10.7232
▁կաշառք	-10.7237
▁ամենաբարձր	-10.724
▁արգելք	-10.7242
News	-10.7246
▁հանցագործության	-10.7247
▁դատախազության	-10.7247
▁դարձյալ	-10.7249
▁կոալիցիա	-10.7249
Քաղաք	-10.725
▁հանցագործությունների	-10.7251
▁առավոտ	-10.7251
▁Արցախյան	-10.7254
▁ակնարկ	-10.7254
▁աստիճանաբար	-10.7254
▁Ընկերություն	-10.7255
▁չկարողացա	-10.7257
▁տրանսֆեր	-10.7268
▁համայնքներում	-10.727
▁ներառված	-10.7273
▁ճանաչելու	-10.7276
▁զանգահարել	-10.7284
հրապարակ	-10.7285
▁թշնամու	-10.7289
վարկ	-10.7293
ազերծ	-10.7295
▁Հարություն	-10.7297
▁առնում	-10.7301
▁ազդում	-10.7304
▁Լուսանկար	-10.7305
աքանակ	-10.7308
▁կորուստներ	-10.7309
▁Եկեղեցի	-10.7311
▁Լոս	-10.7311
ձախող	-10.732
▁վճռ	-10.7321
ագնաց	-10.7334
ԱՐԱՆ	-10.7335
▁Չէ	-10.7336
Կազմակերպ	-10.7336
▁ուսումնասիրության	-10.7337
▁Lurer	-10.7338
▁կոմսություն	-10.734
▁Վահագն	-10.7343
▁հարցաքնն	-10.7343
▁Լյու	-10.7345
▁հետաքննություն	-10.7346
▁կարծ	-10.7346
▁Միեւնույն	-10.7348
vi	-10.7353
▁հրադադարի	-10.7357
▁հյուսիսային	-10.736
▁տրամադրման	-10.7373
▁ապացույց	-10.7376
▁այցելություն	-10.7386
▁կոնգրես	-10.7386
Հավաք	-10.7394
Սկս	-10.7397
▁Ամբողջ	-10.7398
հավասարակշռ	-10.74
▁թույլտվություն	-10.74
▁կօգնի	-10.7402
ամսյա	-10.7405
▁դիմակ	-10.7412
▁Մաշտոցի	-10.7416
թանգարան	-10.7422
▁առհասարակ	-10.7426
▁զայր	-10.7433
▁շինություններ	-10.7437
▁նորություններ	-10.7438
օլիգարխ	-10.7438
▁հայտնվեց	-10.7438
▁խաղաղություն	-10.7439
▁մարզիկներ	-10.7443
▁քսան	-10.7444
Ոստիկան	-10.7444
▁թվային	-10.7447
▁համակարգչային	-10.7449
▁հազ	-10.7449
▁առանձնահատուկ	-10.7452
▁Մայ	-10.7453
▁բնակչությունը	-10.7455
▁գիտենք	-10.7457
▁քանակությամբ	-10.7459
▁Ամերիկյան	-10.7459
▁մարդկության	-10.7462
▁հավելեց	-10.7471
▁գլոբալ	-10.7476
ացնենք	-10.7476
▁հեռախոսահամար	-10.7477
▁Արաբիա	-10.7492
▁ժառանգության	-10.7496
▁ընկալում	-10.7499
աթափ	-10.7513
▁Առաջարկ	-10.7523
▁խորհրդակցություն	-10.7523
Ռուսաստան	-10.7526
▁Դեմ	-10.7529
▁ընտանիքներ	-10.753
▁Դեպքի	-10.753
լուսանկար	-10.7535
▁Ադամ	-10.754
▁Երգ	-10.7542
▁Բելգիա	-10.7543
▁սուրճ	-10.7546
▁անտարբեր	-10.7554
▁տեսախցիկ	-10.7557
▁պատմեց	-10.7559
▁թալան	-10.7561
▁քաղցր	-10.7564
▁փլուզ	-10.7564
▁բնակվում	-10.7566
ատվության	-10.757
▁մնալու	-10.7572
▁արտասահմանյան	-10.7572
▁ապացույցներ	-10.7574
▁բարելավել	-10.7576
▁Բաբլոյան	-10.7577
▁գյուղապետ	-10.7581
▁բժշկի	-10.7587
▁մարմնական	-10.7587
ռազմ	-10.7592
▁առօրյա	-10.7598
▁Սաֆարյան	-10.7599
▁www	-10.7603
Հրա	-10.7606
▁Ֆե	-10.7611
▁աղմուկ	-10.7612
▁հիշեցնում	-10.7612
▁ժողովրդավարության	-10.7617
▁Սեւակ	-10.7617
▁ձեւավորվել	-10.7629
▁հայրենակիցներ	-10.7631
▁հաղորդմամբ	-10.7632
▁մեկնաբանություններ	-10.7633
▁Ուրեմն	-10.7641
▁երկարաձգ	-10.7645
▁հոսանք	-10.7646
մշակ	-10.7649
▁շնորհանդես	-10.7654
▁վիրահատ	-10.7655
ո՛ւ	-10.7664
▁աննախադեպ	-10.7667
▁հետաքրքրված	-10.7668
▁վիզա	-10.7672
▁ինֆորմացիա	-10.7674
▁առընթեր	-10.7676
▁վերցնում	-10.7682
▁այցելեց	-10.7689
▁օպերայի	-10.769
▁սեքս	-10.7691
▁արծաթ	-10.7693
▁Պրո	-10.7699
▁արձանագրվել	-10.7708
իրավական	-10.7708
▁Արտակարգ	-10.771
▁հեռուստաալիք	-10.7711
▁դստեր	-10.7714
▁Հանդիպում	-10.7715
▁ալբոմ	-10.7719
▁բերան	-10.7723
▁հայտարարությամբ	-10.7724
Ւ	-10.7732
▁հանդիպեց	-10.7733
ь	-10.7738
▁չլինի	-10.7739
ժամանակ	-10.774
▁խլ	-10.7747
Br	-10.7754
▁Իրականում	-10.7759
▁ունակություն	-10.7764
Հայոց	-10.7769
▁սպասարկում	-10.777
ահանդես	-10.7773
▁Քոչարյան	-10.7775
▁Գյուլ	-10.7776
▁պարտություն	-10.7778
▁համագումար	-10.7778
▁Վալերի	-10.778
▁սարսափելի	-10.7782
▁տեխնոլոգիաներ	-10.7782
▁դրամաշնորհ	-10.7787
▁պարտավորությունների	-10.779
▁սերմ	-10.7791
▁պետություններ	-10.7793
▁գիտություն	-10.7793
ժամկետ	-10.78
▁Հանրա	-10.7801
▁երկխոսության	-10.7802
▁ողջունել	-10.7802
ուցիչ	-10.7805
ֆորմատ	-10.7806
▁ելույթներ	-10.7813
▁զգացողություն	-10.7817
▁կնքված	-10.7818
▁թերություններ	-10.7825
▁առաջադրված	-10.783
­­­	-10.7844
▁հավանականությամբ	-10.7848
Եվրատեսիլ	-10.7851
▁լիգա	-10.7852
▁ծառեր	-10.7859
▁հարեւանությամբ	-10.7861
▁սուտ	-10.7864
▁հետազոտություն	-10.787
Հոկտեմբեր	-10.7872
▁բացառվում	-10.7888
net	-10.7888
▁միջնադար	-10.7889
▁մայրիկ	-10.7894
▁Լրագրող	-10.79
▁ֆինանսավորման	-10.79
▁առաջադրել	-10.7901
​	-10.7902
▁կարոտ	-10.7902
լուծար	-10.7902
մշակութային	-10.7907
▁փորձեր	-10.7909
Նախագծ	-10.791
▁գծեր	-10.7913
▁պատճեն	-10.792
▁ամառ	-10.7923
▁եզակի	-10.7925
▁ժամանած	-10.7941
▁տնային	-10.7944
▁Մայիս	-10.7945
ե՜	-10.7946
▁պրակտիկա	-10.7948
▁հաշմանդամություն	-10.7949
▁տոննա	-10.7958
▁դիմավոր	-10.796
Նախիջեւան	-10.7964
ity	-10.7967
ակոչ	-10.797
հաստատ	-10.7977
ակերտ	-10.7981
°	-10.7981
▁ԵՏՄ	-10.7985
Մարդ	-10.7986
▁շքանշան	-10.7987
▁Ասատրյան	-10.7994
Հյուսիս	-10.7998
▁Մովսիսյան	-10.8002
▁Հայրապետական	-10.8004
▁մոտավորապես	-10.8004
▁Sputnik	-10.8011
▁վերսկս	-10.8017
Լենին	-10.8018
մեծ	-10.8025
▁Սահակյանի	-10.8032
▁խախտման	-10.8033
▁արդի	-10.8037
ст	-10.8038
▁կցանկանա	-10.804
▁միջնորդություն	-10.8041
▁մեկտեղ	-10.8046
գրադ	-10.8048
▁հաջողությամբ	-10.8048
▁ցավոք	-10.805
▁Մելիքյան	-10.8053
▁Կարելի	-10.8058
▁գործակալ	-10.8059
համաձայն	-10.8062
դեպարտամենտ	-10.8071
▁Առանց	-10.8073
ե՛ր	-10.8073
▁կորցրած	-10.8076
▁բախտ	-10.8083
▁անմեղ	-10.8084
▁Կայք	-10.8089
▁անհանգստաց	-10.8098
▁վարկած	-10.8099
▁հաշվետվություններ	-10.81
▁կորուստ	-10.8104
▁Տնտեսական	-10.8104
▁փաստորեն	-10.8108
▁Հովսեփյան	-10.8109
բուծ	-10.811
պահանջ	-10.8116
▁հարսանիք	-10.8119
▁անցկացվող	-10.8121
▁Apple	-10.8122
▁Քրեական	-10.8126
▁Նշվում	-10.8127
▁կայսրության	-10.8128
▁պահանջարկ	-10.8133
▁բաժանում	-10.8142
▁վճիռ	-10.8144
▁խուսափ	-10.8157
▁կատարյալ	-10.8161
ացրեք	-10.8169
կրթական	-10.8169
▁լիցք	-10.8172
▁Գուցե	-10.8172
Կոմիտաս	-10.818
▁դժբախտ	-10.818
▁խելացի	-10.8183
ԱՆԴ	-10.8185
▁նստավայր	-10.8189
Ֆեյսբուք	-10.819
տեխնիկ	-10.8193
▁ինժեներ	-10.8208
ord	-10.8214
AS	-10.8215
▁համբեր	-10.8215
▁հեշտությամբ	-10.8217
ծնվ	-10.8217
▁անհաջող	-10.8219
▁բրենդ	-10.8221
փնտր	-10.8223
▁կոնվենցիա	-10.8224
▁Քարդաշյան	-10.8227
▁Բարձրագույն	-10.8229
▁Գերմանիայում	-10.8229
▁ավելացել	-10.8236
Շվեդիա	-10.8237
▁զարգացած	-10.824
ՈՒՑ	-10.8245
▁էներգետիկայի	-10.8248
▁լեգենդ	-10.8248
▁առարկաներ	-10.8252
▁կատարեց	-10.8258
▁Գերագույն	-10.8264
▁ուշագրավ	-10.8264
հարձակ	-10.8269
▁փչ	-10.827
▁վճռական	-10.8273
▁վճարումներ	-10.8273
▁տրամադրելու	-10.8274
▁անասնա	-10.8274
Ամեն	-10.8277
▁You	-10.8278
▁Կառավարությունը	-10.8279
Գիրք	-10.8284
▁Կորեայի	-10.829
մատակարար	-10.8293
▁Բաքվում	-10.8296
Նովոստի	-10.83
սպաս	-10.8305
ian	-10.8307
գյուղ	-10.831
Այսօր	-10.8317
▁ոլորտը	-10.8321
▁ազնիվ	-10.8325
▁կոնֆլիկտ	-10.8327
▁անցկացված	-10.833
▁Աղբյուր	-10.8335
▁Կողմ	-10.8336
▁հավատարմագր	-10.8337
▁խօս	-10.8337
▁աղոթ	-10.8338
▁վաստակավոր	-10.8343
▁կրտսեր	-10.8354
▁Հասմիկ	-10.8358
▁հիասթափ	-10.836
▁անիմաստ	-10.836
▁նորանշանակ	-10.836
▁սխալներ	-10.8365
▁փառք	-10.8367
▁Այնտեղ	-10.8372
▁Խմբագրական	-10.8375
▁մասամբ	-10.8376
▁Ալեք	-10.8384
▁Operativ	-10.8386
▁Համակարգ	-10.8387
▁Առավել	-10.8388
▁զբոսաշրջության	-10.8396
ակցում	-10.8402
▁մեկնաբանություն	-10.8403
▁Ներկայումս	-10.841
▁նախօրեին	-10.8412
▁ժանր	-10.8412
▁կայացրել	-10.843
▁գալուստ	-10.8431
▁Դանիելյան	-10.8435
▁սահմանափակումներ	-10.8438
▁քարեր	-10.8442
վաճառք	-10.8443
▁հանցագործ	-10.8445
▁Սաուդյան	-10.8447
▁մարզերի	-10.8448
Լույս	-10.8449
ապատկեր	-10.8451
▁հեռուստաընկերություն	-10.8451
▁դիմադր	-10.8452
▁կորցնել	-10.8453
Պաշտպան	-10.8454
▁ամրոց	-10.8473
Արտ	-10.8477
▁բացատրություն	-10.8479
▁Մելիք	-10.848
▁ներքաղաքական	-10.8482
▁թոռ	-10.8484
▁ահաբեկչության	-10.8487
▁ծաղր	-10.8489
▁հաշ	-10.8489
US	-10.8495
▁երեւույթներ	-10.8498
▁հայտարարագր	-10.8503
▁գրքում	-10.851
▁թաքց	-10.8511
▁Իվան	-10.8512
հոլ	-10.8512
▁խուսափելու	-10.8513
▁հագեցած	-10.8513
▁գագաթ	-10.8525
հանձն	-10.8527
▁կենսաբան	-10.8534
օպերա	-10.8535
▁տեխնիկայի	-10.8536
▁ԵԽԽՎ	-10.8537
▁նշաններ	-10.8541
▁սննդամթերք	-10.8542
▁Միքայելյան	-10.8552
▁հոսպիտալ	-10.8553
▁խմբում	-10.8555
▁հավաքագր	-10.8562
▁երկարատեւ	-10.8563
▁տերմին	-10.8564
Իգական	-10.8565
▁պնդել	-10.8565
▁Անգլերեն	-10.8565
▁պատվավոր	-10.8571
▁խորհրդակց	-10.8572
▁խնայ	-10.8574
▁հասավ	-10.858
▁պատահար	-10.8583
Չելսի	-10.8585
▁քվե	-10.8587
▁Իրավա	-10.8589
Մեծ	-10.859
▁քննարկվում	-10.8592
▁զրուցակից	-10.8612
▁ուսուցում	-10.8612
▁թափուր	-10.8615
▁ստիպում	-10.8618
Արմավիր	-10.8622
▁տեղեկություններով՝	-10.8627
(←	-10.8639
▁ռեսուրս	-10.864
▁հնագույն	-10.8641
ԱՄՆ	-10.8644
▁ՄԱՐԶ	-10.8648
▁առանձնաց	-10.8653
▁ավտոճանապարհի	-10.8656
▁հեռուստաընկերության	-10.8658
▁ԹՎԱԿԱՆԻ	-10.8664
▁շփվել	-10.867
▁ապացուցել	-10.867
▁զնն	-10.8675
ժողովրդավար	-10.8677
▁ՔԿՀ	-10.8677
▁երկխոսություն	-10.8681
К	-10.8687
▁Մամուլ	-10.8687
▁հետազոտություններ	-10.8692
▁սատար	-10.87
▁վերոնշյալ	-10.8703
ներխուժ	-10.8713
հափշտակ	-10.8726
▁Օսմանյան	-10.8726
հաղթ	-10.8726
▁Կանադա	-10.8728
բնակ	-10.873
▁ենթարկվում	-10.8731
▁զերծ	-10.8738
վիդեո	-10.8739
▁կատարվող	-10.8748
▁Գալստյան	-10.8748
▁yerkir	-10.8754
▁եղան	-10.8755
▁դեմքեր	-10.8758
▁գիտեք	-10.876
▁Հայտարար	-10.8763
▁Նշան	-10.8765
▁Ղարաբաղյան	-10.877
▁անչափահաս	-10.8773
▁լեռներ	-10.8781
▁բարձրացում	-10.8787
ԱԼԻՔ	-10.8791
▁Ջորջ	-10.8798
ագծեր	-10.88
▁միկրո	-10.8803
▁բանավեճ	-10.8804
▁ամենեւին	-10.8808
▁դատապարտյալ	-10.8811
▁աճուրդ	-10.8812
▁բխում	-10.8815
▁քրդեր	-10.8816
▁ֆունկցիա	-10.8816
Պուտին	-10.8818
▁բացակայում	-10.8818
▁Առաքելական	-10.8821
▁Էդմոն	-10.8823
▁Սրա	-10.8829
▁ափին	-10.883
▁Ավարտ	-10.8839
▁Ուզում	-10.8839
▁շրջանավարտներ	-10.8843
▁հետաքրքրում	-10.8847
▁ակադեմիական	-10.8856
▁վերամշակ	-10.8857
▁Նազարյան	-10.8858
▁օդանավ	-10.886
▁հաշիվներ	-10.886
▁աուդիտ	-10.8862
J	-10.8868
▁հետազոտության	-10.8872
▁եղեք	-10.8875
Առաջին	-10.8877
մրց	-10.8878
▁Գալուստ	-10.8879
▁Պաշտոնական	-10.8898
▁ամենաշատ	-10.8901
▁Անհրաժեշտ	-10.8903
▁ամսին	-10.8904
▁երկարաժամկետ	-10.8911
▁միանգամայն	-10.8913
VI	-10.8916
▁սկզբանե	-10.892
▁կորցնում	-10.8932
Ի՞նչ	-10.8942
▁Դիտվ	-10.8944
▁Օրաթերթ	-10.895
▁շահույթ	-10.8957
▁ողբերգական	-10.8962
Կենդան	-10.8969
▁պողոտայում	-10.8978
▁Շառլ	-10.8979
▁Արդարադատության	-10.898
▁բեռնատար	-10.8983
ագումար	-10.8984
ապրիլ	-10.8986
Հասկ	-10.8988
▁պատրաստակամություն	-10.8989
IV	-10.8989
▁ճամփորդ	-10.8991
▁զգացմունքներ	-10.8991
video	-10.8993
▁գրոհ	-10.8993
▁փորձառու	-10.8999
Փյունիկ	-10.9002
▁արձանագրություններ	-10.9004
▁հողամաս	-10.901
▁լեզվում	-10.9012
▁Զաքարյան	-10.9012
▁պտտ	-10.9012
▁արտասահման	-10.9014
▁հավատալ	-10.9025
▁Զարուհի	-10.9029
Լուսավոր	-10.9029
Հետք	-10.9031
▁Երկար	-10.9031
▁երեւանյան	-10.9033
▁Մանրամասն	-10.9033
▁ծննդ	-10.9033
սեքսուալ	-10.9034
▁Ro	-10.9035
ԵՔ	-10.904
▁վարժարան	-10.9041
խոզ	-10.9044
▁ընդգրկվել	-10.9056
Աշտարակ	-10.9056
ԱԴՐ	-10.906
▁ակնկալիք	-10.9061
▁կա՛մ	-10.9063
▁հեղինակություն	-10.9064
М	-10.9067
▁դիվանագետ	-10.9069
▁թոշակ	-10.9069
պտղ	-10.9069
Շանթ	-10.907
▁սրճարան	-10.9075
▁Վստահ	-10.9075
▁թանկարժեք	-10.9077
նշել	-10.9087
▁ռազմավարություն	-10.9088
▁Լիբանանի	-10.909
▁մանուկ	-10.9091
▁կիսամյակ	-10.9092
▁Մելքոնյան	-10.9092
▁շանս	-10.9093
▁Գոռ	-10.9095
▁Նշված	-10.9099
▁ենթարկված	-10.91
▁պայմանագրով	-10.9103
▁կոմպ	-10.9104
▁մասնակի	-10.9109
▁Խմբ	-10.911
▁ժպիտ	-10.9114
▁ասոցիացիայի	-10.9115
Իջեւան	-10.9124
tic	-10.9129
▁Երբեմն	-10.9131
▁տոկոսադրույք	-10.9133
▁հարուցված	-10.9135
▁հատկություններ	-10.9135
▁Տարբեր	-10.9137
▁Ավելաց	-10.9139
Խաղաղ	-10.9143
▁Խնդրում	-10.9143
▁Լուսինե	-10.915
ER	-10.915
տանջ	-10.9154
▁դրսեւորումներ	-10.9154
▁List	-10.9156
▁խողովակ	-10.9158
▁Հակառակ	-10.916
▁Մեսրոպ	-10.9162
▁Գայանե	-10.9165
Տղամարդ	-10.9169
▁Սպաս	-10.9185
▁գերատեսչություն	-10.9195
▁սկզբնական	-10.9196
լեգ	-10.9206
▁տխուր	-10.921
▁խոշորագույն	-10.9215
▁մանավանդ	-10.922
▁շնորհավորական	-10.9225
▁ճարպ	-10.9226
▁անշուշտ	-10.9235
▁գերմանացի	-10.924
▁Այդպես	-10.924
▁պոտենցիալ	-10.9248
ՀԱՅԱՍՏԱՆ	-10.9252
▁լսարան	-10.9252
▁շահառու	-10.9257
▁լինեի	-10.9258
Պայման	-10.9258
▁ծխախոտ	-10.9261
▁Ստացվում	-10.9263
▁պատկերացնել	-10.9264
▁չլինել	-10.9268
▁Մասիս	-10.9269
▁տվեք	-10.9277
▁սերիալ	-10.928
ight	-10.9283
▁Ղուկասյան	-10.9283
ֆինանսա	-10.9286
▁պայմանավորվածություններ	-10.9288
▁ժամանց	-10.9294
աբերություն	-10.9296
բովանդակ	-10.9296
▁հրավիրված	-10.93
▁ակտիվորեն	-10.9308
▁շրջանակներ	-10.9309
▁պատմվածք	-10.931
▁բույսեր	-10.9312
▁Սիրիա	-10.9312
▁մէկ	-10.9316
▁հիմնարար	-10.9317
▁համոզմունք	-10.9327
բյուջե	-10.9329
▁կինոյի	-10.9335
▁ամենօրյա	-10.9336
▁Հաճախ	-10.9337
հնազանդ	-10.9339
▁Հասան	-10.9341
▁ուղարկում	-10.9344
▁դեսպանատան	-10.9345
▁Ղազախստանի	-10.9347
▁կարգախոս	-10.9349
▁պատրիարք	-10.935
▁նվազեցնել	-10.9359
▁տիրող	-10.936
▁Փոստանջյան	-10.9361
▁ապստամբ	-10.9368
▁մուլտ	-10.9381
und	-10.9388
▁գործադրել	-10.9388
▁հեռանում	-10.9392
▁տուժող	-10.9394
▁խփել	-10.9394
▁շնորհավորում	-10.94
▁Հրաչյա	-10.9407
▁խաչքար	-10.9409
▁պատմություններ	-10.9414
Ճապոնիա	-10.9418
▁գրաֆիկ	-10.942
▁վերակառուց	-10.9428
Net	-10.9431
▁ծանոթացել	-10.9435
▁խոնարհ	-10.9435
▁Թորոսյան	-10.9435
qu	-10.9436
ՈՒԹՅՈՒՆԸ	-10.9437
սեպտեմբեր	-10.9445
▁գործարկ	-10.9447
▁սիրիական	-10.9448
▁փայլ	-10.945
տեղակայ	-10.9451
▁Հասցե	-10.9451
անկյուն	-10.946
▁հիմունքներ	-10.946
▁նվազում	-10.9464
▁եպիսկոպոս	-10.9471
▁Ցավոք	-10.9475
▁Խոսքը	-10.9476
▁չեզոք	-10.9479
վաստ	-10.9485
▁գաղթ	-10.9491
▁անհապաղ	-10.9495
▁գիտելիք	-10.9498
▁Gisher	-10.9504
▁տիտղոս	-10.951
Հովհ	-10.9518
▁գնաճ	-10.952
▁էներգա	-10.9521
▁խոսակցություններ	-10.9524
▁տհաճ	-10.9526
▁հարյուրավոր	-10.9531
▁ունեցվածք	-10.9532
Ուսանող	-10.9535
▁ուղարկվել	-10.9547
▁դժգոհություն	-10.9547
▁մեջբերում	-10.9548
▁պատճառաբան	-10.9549
min	-10.9549
▁անհասկանալի	-10.955
▁զանազան	-10.955
▁ուղղորդ	-10.9552
▁լարվածություն	-10.9553
▁բաժանել	-10.9565
▁Հիմնադրամ	-10.9566
▁սառը	-10.9576
▁գնահատականներ	-10.9581
▁Ստեղծ	-10.9582
▁կոտոր	-10.9585
▁iPhone	-10.9586
▁պտուղ	-10.9586
▁հումոր	-10.9597
é	-10.9604
▁հաշվետու	-10.9605
Ջավախք	-10.9606
▁իրադարձություն	-10.9608
գոռ	-10.9612
▁շունչ	-10.9613
▁կինոփառատոն	-10.9617
▁Առողջապահության	-10.9619
▁մայիս	-10.9622
Ուրախ	-10.9632
▁ներողություն	-10.9634
▁իրավասու	-10.9639
▁մոտակայքում	-10.9644
աբույժ	-10.9649
Շնորհավոր	-10.9651
▁որդիներ	-10.9651
կառավար	-10.966
Նուբարաշեն	-10.966
▁թռչուն	-10.9662
▁Ֆրանկոֆոնիայի	-10.9666
ջանյան	-10.9668
▁զավակներ	-10.9668
▁փոխգործակց	-10.9671
▁պատկերասրահ	-10.9681
Լուրեր	-10.9683
▁մեղադրյալ	-10.9696
Իրավունք	-10.9711
իւր	-10.9712
▁բյուջետային	-10.9715
▁Տեգեր	-10.9718
▁ձյուն	-10.9733
▁մամլո	-10.9734
▁Տարածք	-10.9735
Շնորհակալ	-10.9745
age	-10.9745
▁Համալսարան	-10.9748
▁բարենպաստ	-10.975
▁առաջնահերթություն	-10.9753
▁Փաստաբան	-10.9762
▁Շուշան	-10.9764
Գյուղատնտես	-10.9764
վարչակազմ	-10.9779
▁ընդգրկում	-10.9783
▁իրավապաշտպան	-10.9787
▁հազիվ	-10.979
▁Անվտանգության	-10.9804
▁չվերթ	-10.9814
▁Գաբրիել	-10.9823
▁կտավ	-10.9826
Մշակ	-10.9828
▁շինարարություն	-10.9829
▁պատմաբան	-10.984
▁Game	-10.9848
ամերիկյան	-10.9851
▁ձեռքբերման	-10.9859
▁ձեռքբերում	-10.986
▁գերակա	-10.9861
▁պրեմիերա	-10.9864
▁գործառույթ	-10.9865
▁Instagram	-10.9868
Ընկեր	-10.9873
▁ԿԸՀ	-10.9875
▁ՀԱՄԱ	-10.9885
Լիվերպուլ	-10.9891
▁պետքարտուղար	-10.9898
▁խոստանում	-10.9903
կեղծ	-10.9904
ոկրատ	-10.9905
▁Արփինե	-10.9905
▁WhatsChat	-10.9907
հայտարար	-10.9921
▁ահաբեկիչ	-10.9923
▁առաքելության	-10.9929
▁երջանկություն	-10.9933
▁Դերասան	-10.9942
▁Քննչական	-10.9942
▁ոստիկանապետ	-10.9943
▁խանութներ	-10.9955
▁մարդասիրական	-10.9958
▁ՊԵՏԱԿԱՆ	-10.9965
▁արգելափակ	-10.9969
▁ժառանգություն	-10.997
В	-10.9972
▁ներդաշնակ	-10.9977
▁նույնքան	-10.9992
մոբիլ	-10.9992
Պատերազմ	-10.9993
▁մասնակցող	-10.9995
աոճ	-10.9995
▁նորմատիվ	-10.9995
▁Սեւանա	-10.9999
▁Սմբատ	-11.0002
ստուդիա	-11.0006
▁աշխատատեղեր	-11.0012
▁օգտվում	-11.0015
▁Շնորհակալություն	-11.0017
▁Արդյո՞ք	-11.0019
▁ճշգրիտ	-11.0019
▁Ժիրայր	-11.0023
ass	-11.0026
ճշմարտ	-11.0028
▁Գեղամ	-11.0031
▁վերարտադր	-11.0031
▁Սեֆիլյան	-11.0033
▁խտրական	-11.004
▁ճնշման	-11.0063
▁Այդպիսի	-11.0063
▁ճառագայթ	-11.0065
▁գնդի	-11.0067
▁Խոշոր	-11.007
ook	-11.007
▁շոշափ	-11.0072
▁Արեւմուտքի	-11.0075
▁Ավագյան	-11.0075
▁եզրակացության	-11.0079
▁Աֆրիկա	-11.008
Թրամփ	-11.0084
▁տեղեկանք	-11.0091
Ժառանգություն	-11.0091
▁հետապնդ	-11.0094
▁Արծրուն	-11.0096
▁օգտատերերի	-11.0099
▁վեբ	-11.0101
▁Հետագայում	-11.0105
▁ՀԱՄԱՐ	-11.0105
▁փայլուն	-11.0106
▁սարսափ	-11.0109
▁գցել	-11.0111
▁Արտաքին	-11.0112
▁բանաստեղծություններ	-11.0119
▁Ճապոնիայի	-11.0122
▁ոռոգման	-11.0124
Մոլդովա	-11.0126
end	-11.0131
▁գործունեությամբ	-11.0136
▁էլեկտրաէներգիայի	-11.0142
▁ալկոհոլ	-11.0143
ace	-11.0146
▁պահվածք	-11.0151
▁լրատվության	-11.0159
Եվրամիություն	-11.0162
▁զորամասեր	-11.0171
press	-11.0183
հարդար	-11.0185
▁զբաղեցրել	-11.0185
պատվաստ	-11.0186
▁կոմունա	-11.0187
▁Վենետիկ	-11.0188
▁Էդգար	-11.0197
▁հետազոտական	-11.0198
▁պարագաներ	-11.0202
▁կռիվ	-11.0213
▁Տնտես	-11.0213
գլխ	-11.0219
Գազպրոմ	-11.0223
▁համագործակցում	-11.0228
▁բուռն	-11.0238
▁վիրահատություն	-11.0239
▁համերաշխ	-11.024
▁շարժիչ	-11.0241
▁ինքներդ	-11.0242
ра	-11.0248
Ինձ	-11.0249
▁կոնֆերանս	-11.0249
Զվարթնոց	-11.0256
▁արգելոց	-11.0261
▁Թիֆլիս	-11.0261
▁ստիպել	-11.0263
▁յուրօրինակ	-11.0264
▁զավակ	-11.0275
▁հակամարտ	-11.0277
▁անդրադառնալ	-11.0286
դարյան	-11.029
ստրուկ	-11.0291
▁օրաթերթը	-11.0304
▁ե՛ւ	-11.0304
на	-11.0316
▁զարգանում	-11.0316
▁Մաքսային	-11.0316
▁հրաժեշտ	-11.0319
▁Թովմասյան	-11.0328
▁սահմանամերձ	-11.0328
▁ազատամարտիկ	-11.0331
▁Կանադայի	-11.0339
մոտիվ	-11.034
▁օրաթերթի	-11.0346
▁շփումներ	-11.0355
▁Ալբերտ	-11.0355
▁Ցանկացած	-11.0357
բարձր	-11.0361
▁Միհրան	-11.0364
▁ընդհանր	-11.0368
▁տատիկ	-11.0372
աղբյուր	-11.0376
ка	-11.0376
▁շփոթ	-11.0381
Գլխաւոր	-11.0381
ect	-11.0384
▁փոքրամասնություն	-11.0391
▁ամսագրի	-11.0403
IT	-11.0405
այժմ	-11.0418
հոկտեմբեր	-11.0422
▁Պատմա	-11.0427
▁Պատկեր	-11.0436
▁կոլեկտիվ	-11.0439
▁հեռացնել	-11.0446
▁հեռախոսազրույց	-11.0451
▁վերապատրաստման	-11.0451
▁հայհոյ	-11.0451
▁բրիտանական	-11.0461
▁կահույք	-11.0464
▁վերլուծաբան	-11.0464
▁շահագրգիռ	-11.0471
▁Վերջերս	-11.0471
▁հյուպատոս	-11.0476
▁թղթակից	-11.0486
▁Սեբաստացի	-11.0488
▁խոստովանել	-11.0491
▁հարստաց	-11.05
▁ՀՖՖ	-11.051
¬	-11.0515
▁Իսահակ	-11.0517
▁հավանություն	-11.0518
ՎԵԼ	-11.0519
▁վերաքննիչ	-11.0522
▁Դմիտրի	-11.0534
▁թելադր	-11.0544
Ռոս	-11.0551
Բայց	-11.0553
▁Խորհուրդ	-11.0554
▁օրենսգրքում	-11.0554
նախա	-11.0555
▁հրեշտակ	-11.0559
▁միտված	-11.0559
▁ֆրանսերեն	-11.056
▁փորձաքննություն	-11.0566
▁Կարինե	-11.0569
▁հրապարակումներ	-11.0573
▁Դժվար	-11.0579
▁մոլորակի	-11.0587
ч	-11.0588
▁բխող	-11.0596
հավասար	-11.0601
▁մատնանշ	-11.0602
▁գրպան	-11.0612
▁միգուցե	-11.0613
▁առարկայի	-11.0613
▁պաշտ	-11.0614
▁Շաբաթ	-11.062
▁ներդնել	-11.0628
▁անընդունելի	-11.0635
▁կենցաղային	-11.0636
▁հավելել	-11.0637
բանտարկ	-11.0641
▁Կորեա	-11.0646
▁ընդարձակ	-11.0651
ՌՇԼ	-11.0658
▁ազնվ	-11.0659
▁by	-11.0659
▁Երվանդ	-11.066
Ֆոտո	-11.0665
▁Այվազյան	-11.0668
▁բարերար	-11.067
visit	-11.0675
▁Արտաշատ	-11.0677
▁հանրահայտ	-11.0682
ալեզու	-11.0685
▁բաժնետոմսեր	-11.069
▁ճակատամարտ	-11.0693
▁Դեկտեմբեր	-11.0694
▁թույլատրել	-11.0702
▁Աբրահամ	-11.0704
Բանանց	-11.0706
▁վարդապետ	-11.0708
▁Ֆինանսական	-11.0714
▁Կիպրոս	-11.0715
▁փորձաքննության	-11.0722
▁Տեխնիկական	-11.073
▁Օսիպյան	-11.0747
▁բազայի	-11.0752
▁ջնջ	-11.0757
դառնալ	-11.0759
▁բովանդակության	-11.0762
▁Հատկապես	-11.0762
▁տրամաբանական	-11.0762
▁ատյանի	-11.0764
▁չեղարկ	-11.0765
▁միջանցք	-11.077
▁թվաց	-11.077
▁ինքնիշխան	-11.0775
▁կապույտ	-11.0775
▁զրո	-11.0778
▁խմբավորում	-11.078
▁Վանեցյան	-11.0781
Օպերա	-11.0785
▁դինամիկ	-11.0788
▁անընդմեջ	-11.0792
Նովա	-11.0796
▁Pro	-11.0801
ֆեդերացիա	-11.0807
▁բովանդակությամբ	-11.081
▁անարդար	-11.0813
▁ներկայանալ	-11.0816
▁հանգեցնել	-11.0819
▁Ադրբեջանական	-11.082
▁նուրբ	-11.0825
▁տեղեկացնել	-11.0835
▁վկայակոչելով	-11.0843
▁ակցիայի	-11.0844
մասնագիտ	-11.0873
▁կոպիտ	-11.0878
▁կգնա	-11.0878
▁խմբակ	-11.0881
▁այցելում	-11.0882
բանասիրական	-11.0884
▁առողջապահական	-11.0889
▁ընկնել	-11.0893
▁ուղղաթիռ	-11.0894
▁պարունակող	-11.0902
▁Տվյալ	-11.0904
▁մոռանալ	-11.0918
▁զգալիորեն	-11.0919
▁Ամիրյան	-11.092
▁գորգ	-11.0924
Արեւմուտք	-11.0929
▁Մասնակց	-11.0938
Զինվոր	-11.0939
Ալաշկերտ	-11.095
▁պայծառ	-11.0952
▁հազվադեպ	-11.096
▁թիկունք	-11.096
▁ճշմարիտ	-11.0962
▁հյութ	-11.0963
▁Ներքին	-11.0976
դոյան	-11.0977
▁մրցունակ	-11.0978
▁կանցկացվի	-11.0983
Ընտանիք	-11.0985
▁պէտք	-11.0988
▁միջպետական	-11.0996
▁կիլոմետր	-11.0998
▁դիպլոմ	-11.1001
←	-11.1002
▁երկինք	-11.1002
Տարվա	-11.1003
ՄՏՍ	-11.1011
ճշգրտ	-11.1019
Բժշկ	-11.1027
Լեռն	-11.1028
▁օրենսգրքով	-11.1034
ash	-11.1057
▁պրոդյուսեր	-11.1058
▁հերթապահ	-11.1063
Մեղրի	-11.1064
▁Պատրաստ	-11.107
▁Հենրի	-11.1072
▁մաթեմատիկա	-11.1085
▁Իտալիայում	-11.1086
▁անխուսափելի	-11.1086
Բավարիա	-11.1087
£	-11.1089
▁ներշնչ	-11.1089
ոգեշնչ	-11.1094
▁Սոնա	-11.1094
▁խմբային	-11.1097
▁ամբաստանյալ	-11.1099
սկավառակ	-11.1099
▁Երեխաների	-11.112
▁ներգաղթ	-11.112
▁հիմնախնդրի	-11.1122
▁երկնքի	-11.1124
▁ուրբաթ	-11.1128
▁վնասակար	-11.1128
▁fun	-11.1135
▁քառօրյա	-11.1137
▁կարո՞ղ	-11.114
ֆոտոշարք	-11.114
▁հանրակրթական	-11.1148
Ալիեւ	-11.116
▁հակված	-11.1162
▁ոսկու	-11.117
▁Շարունակ	-11.1171
▁Մշակույթի	-11.1172
Բելառուս	-11.1172
▁տուժել	-11.1183
▁կոնյակ	-11.1186
lur	-11.1191
ճակատ	-11.1194
▁ԿԵՆՏՐՈՆ	-11.1198
Т	-11.1224
▁նոտար	-11.123
▁կմասնակցի	-11.1233
▁պարտականություն	-11.1234
▁վերլուծական	-11.1243
tion	-11.1243
▁եվրա	-11.1252
▁Լուսավորիչ	-11.1253
▁հսկողություն	-11.1258
ар	-11.1258
▁օժտված	-11.1258
▁Ֆիլիպ	-11.1261
▁բժշկության	-11.1266
▁Պարզապես	-11.1276
Mercedes	-11.1277
▁Հավատ	-11.1285
Միլան	-11.1289
▁վերլուծության	-11.1292
▁զորավարժություններ	-11.1295
ախնդիր	-11.1298
▁ամուսնություն	-11.1308
▁Կառլ	-11.1308
թերապիա	-11.131
խուզարկ	-11.131
▁Սարոյան	-11.1311
▁անելիքներ	-11.1316
հանդուրժող	-11.1317
▁երանգ	-11.132
▁հացադուլ	-11.1322
▁գեղանկար	-11.133
Ջերմուկ	-11.1332
▁տաղավար	-11.1335
▁հեղուկ	-11.1343
▁ասոցիացիա	-11.1352
▁Meet	-11.1362
▁Have	-11.1363
▁անծանոթ	-11.1364
▁առնչություն	-11.1373
▁անդրադառնում	-11.138
ish	-11.1381
▁պատկանել	-11.1385
▁քայքայ	-11.1386
օղլու	-11.1388
▁պայմանագրային	-11.1391
▁հանդիսանալ	-11.1402
Մարաշ	-11.1406
Gold	-11.141
▁Կոստա	-11.1414
համապատասխան	-11.1415
▁Չգիտե	-11.1422
▁գնորդ	-11.1423
Դեմիրճյան	-11.1428
Սյունիք	-11.1429
▁աւելի	-11.1436
Թադեւոսյան	-11.1439
▁կեղտ	-11.1441
▁եկեք	-11.1478
▁կասեցված	-11.1493
▁Ռեջեփ	-11.1496
ԳԻՏ	-11.1498
Աբրահամյան	-11.1502
▁հարձակվել	-11.1507
մեկուսաց	-11.1511
▁ինտենսիվ	-11.1512
Photo	-11.1515
արդյունավետ	-11.1518
հավաք	-11.152
դեկտեմբեր	-11.1521
▁ծագման	-11.1523
▁տեւական	-11.1523
▁կօգնեն	-11.1525
Ընդուն	-11.1526
▁քառորդ	-11.1529
▁տարեդարձի	-11.1531
▁նորմերի	-11.1532
▁Հալեպ	-11.1534
▁մահացու	-11.1538
▁տույժ	-11.155
▁օգտատեր	-11.1554
▁ենթակետ	-11.1556
▁կոճակ	-11.1561
Ֆինանս	-11.1561
▁զբաղվ	-11.1567
▁Գոհար	-11.1569
▁կղզու	-11.157
▁խմիչք	-11.1577
▁կայքէջ	-11.1582
line	-11.1585
▁ամոթ	-11.1596
▁դարաշրջան	-11.1601
▁Աստվածածին	-11.1602
▁Թուրքական	-11.1604
Ռադիո	-11.1606
▁հայազգի	-11.1608
Զեյթուն	-11.161
ՌԻԱ	-11.1611
▁իրականացրած	-11.1616
▁նվագախմբի	-11.1616
▁տիրույթ	-11.1618
Media	-11.1621
▁Պողոս	-11.1625
▁ընդգրկել	-11.1638
▁Daily	-11.164
▁համընդհանուր	-11.1642
▁Պատգամավոր	-11.1645
▁Ջեյմս	-11.1645
▁Ավետարան	-11.1645
▁տնտեսագետ	-11.1645
▁մտադրություն	-11.1648
▁վիտամին	-11.1656
▁Դեսպան	-11.1656
▁Վճռաբեկ	-11.167
▁արցախյան	-11.1675
Լոռի	-11.1685
ер	-11.1687
բարեփոխ	-11.1701
▁Դիտումներ	-11.1703
Հաղթանակ	-11.1708
Առաքել	-11.1712
Մանկական	-11.1717
▁հերքում	-11.1724
▁գիտեի	-11.1726
▁գտած	-11.1736
Բժիշկ	-11.1741
▁Հետազոտ	-11.1741
▁ակտիվիստներ	-11.1742
▁շտեմարան	-11.1747
▁վիրուս	-11.1751
▁վառելիք	-11.1753
▁գիտահետազոտական	-11.1755
Բախշյան	-11.1755
▁խորհրդատվություն	-11.1755
▁շտկ	-11.1761
▁օրենսգիրք	-11.1764
▁բարելավում	-11.177
▁դարպասապահ	-11.1777
մեխանիկ	-11.178
▁Փաստորեն	-11.1781
▁հանքավայր	-11.1782
▁Omegle	-11.1783
▁տեսլական	-11.1795
▁Ռաֆայել	-11.18
▁Կազմակերպության	-11.1804
▁օվկիանոս	-11.1814
▁Չէ՞	-11.1815
▁ուղարկեք	-11.1823
▁ընդերք	-11.1828
▁տիեզերք	-11.183
▁հասցնում	-11.1834
▁բրոնզե	-11.1839
▁գունավոր	-11.1843
Մատենադարան	-11.1847
▁երկուշաբթի	-11.185
▁Դանիել	-11.1852
·	-11.1853
▁նշանակված	-11.1856
▁անգլիական	-11.1861
▁Ծաղկաձոր	-11.1864
Միջոցառում	-11.1869
▁մասշտաբ	-11.1869
▁արժեթղթեր	-11.187
սփյուռք	-11.1872
▁արքա	-11.1898
▁բաժնետիրական	-11.1906
▁բարեկարգ	-11.1909
▁խոնավ	-11.1915
▁համարանիշի	-11.1921
▁ուղեցույց	-11.1923
▁մասնագիտացված	-11.1929
▁անվերջ	-11.1934
▁գագաթաժողով	-11.1946
▁Սայաթ	-11.1951
▁իտալական	-11.1954
▁մաղթում	-11.1971
▁Ամանորի	-11.1977
▁ոչնչացնել	-11.1979
▁ընտրատեղամաս	-11.1988
▁սփյուռքահայ	-11.1988
▁Արոնյանը	-11.1988
փիլիսոփա	-11.1996
▁տարատեսակ	-11.2002
▁նպատակահարմար	-11.2005
▁անցկացրեց	-11.2012
▁թաքնված	-11.2016
▁կշարունակի	-11.2019
▁խմբավորման	-11.2019
▁կայարան	-11.2022
▁ապրանքանիշ	-11.2024
▁պատասխանատվությամբ	-11.2025
Քոչար	-11.2032
▁հալած	-11.2034
Շվեյցարիա	-11.2042
▁չգիտի	-11.2049
▁մոտենալ	-11.2053
▁Վերաքննիչ	-11.2056
Ժողովրդա	-11.2056
▁Մասնակից	-11.2059
▁մրցակցության	-11.206
▁խելք	-11.2067
▁աշխարհաքաղաքական	-11.2073
▁Կրեմլ	-11.2076
▁արտոնագր	-11.2099
▁մենաշնորհ	-11.2102
▁լեռան	-11.2105
▁ֆիքս	-11.2111
Սուրբ	-11.2115
Սեբաստիա	-11.2125
▁բորսա	-11.2125
Թանգարան	-11.2129
հունիս	-11.2136
▁ՀԱՄԱՅՆՔ	-11.2139
▁Սողոմոն	-11.2142
ճանապարհ	-11.2157
▁առաջնահերթ	-11.2167
▁Ժամանակակից	-11.2171
▁խոցելի	-11.2174
հնդկ	-11.2175
▁մասնագիտության	-11.2176
▁Ձմեռ	-11.218
Ֆիզիկա	-11.2183
▁օգտագործող	-11.2186
▁սոցցանց	-11.2191
Հունգարիա	-11.2192
ացուցակ	-11.2193
▁քրոջ	-11.2194
▁մօտ	-11.2194
▁գաղութ	-11.2195
▁կարտոֆիլ	-11.2203
▁հրատապ	-11.2206
▁ռազմավարության	-11.2208
▁կներկայացնի	-11.2211
▁ժայռ	-11.2214
▁բանջարեղեն	-11.2217
▁վերահաստատ	-11.2219
▁վրաերթի	-11.2223
սկզբի	-11.2225
պատճառ	-11.2225
▁հիշողության	-11.2226
▁ձմռան	-11.2229
▁բորբոք	-11.2235
▁HTML	-11.224
▁Ռիչարդ	-11.224
▁ՀԱՐՑ	-11.2243
The	-11.2244
▁ճակատագրի	-11.2251
▁Սոչի	-11.2254
▁ճակատագիրը	-11.2264
▁թղթակցի	-11.2267
▁միջամտություն	-11.2279
▁նորակառույց	-11.2281
խեղդ	-11.2282
▁Սահմանադրություն	-11.2284
▁սեզոն	-11.229
ом	-11.2297
▁դրսում	-11.2299
▁օրենսդիր	-11.2302
ազուրկ	-11.2307
▁ռոք	-11.2311
հռոմեական	-11.2322
▁հերքել	-11.2324
▁նայեց	-11.2341
▁արցունք	-11.2346
▁համապարփակ	-11.2348
▁Պատարագ	-11.2363
▁արթնաց	-11.2369
▁Կիրակոսյան	-11.2369
▁արժույթ	-11.2384
▁ընտ	-11.2388
▁Ներսիսյան	-11.239
▁Աղջիկ	-11.2393
▁Երեւի	-11.2394
▁հանցանք	-11.2399
▁տարաձայնություններ	-11.2402
▁տուգան	-11.2402
Համացանց	-11.2418
Օսկար	-11.2419
▁Կոստանյան	-11.2422
▁տրամաբանություն	-11.2431
▁կախարդ	-11.2431
ԱԿԱՐԳ	-11.2437
▁հակասում	-11.2455
շղթայ	-11.2455
ամերձ	-11.2458
~	-11.2464
▁վերադառնա	-11.2466
▁Զեյնալյան	-11.2473
▁ԱՇԽԱՏ	-11.2479
նախագահ	-11.2481
▁փոխհարաբերություններ	-11.2491
▁Անկախության	-11.2493
քննություն	-11.2496
▁հանգեցնում	-11.2512
▁Պորտուգալիա	-11.2514
▁Եղիազարյան	-11.252
▁սակագներ	-11.2527
▁ԿԱՌԱՎԱՐՈՒԹՅԱՆ	-11.2527
Н	-11.2529
▁ձեռնտու	-11.2529
ահաբեկ	-11.253
▁ագրեսիվ	-11.2532
▁Նախնական	-11.2538
Օգտագործ	-11.2541
▁պատարագ	-11.2541
ծաղիկ	-11.2552
▁Ստամբուլի	-11.2553
▁Փետրվար	-11.2554
հուլիս	-11.2555
▁մասնագիտությամբ	-11.2557
▁պրոբլեմ	-11.2571
▁Ծննդյան	-11.2574
▁կնպաստի	-11.2577
▁պարգեւատրվել	-11.2589
▁Զինված	-11.2599
▁սնանկ	-11.26
▁շահագրգռված	-11.2604
▁հավելում	-11.2609
▁արտերկրում	-11.2626
▁դոցենտ	-11.2626
▁հումանիտար	-11.2629
բարելավ	-11.263
▁սադրանք	-11.2632
▁բջիջներ	-11.2635
հեղինակ	-11.2635
▁վճռաբեկ	-11.2641
Յուվենտուս	-11.2644
▁Չեխիայի	-11.2659
▁մարտահրավեր	-11.2665
▁զբաղեցրած	-11.2665
▁Դեռեւս	-11.2668
▁նահատակ	-11.2671
▁Մեկնաբանությունները	-11.2679
Ազատ	-11.2679
փրկարարական	-11.2686
▁ճկուն	-11.2689
▁Շահումյան	-11.269
▁զբոսաշրջային	-11.2692
▁առեւտրական	-11.2695
▁Վարուժան	-11.2695
▁շուկայական	-11.2701
▁ՀԲԸՄ	-11.2707
▁Գիտնականներ	-11.272
▁Բաժին	-11.2728
▁Չարենցի	-11.2729
▁Read	-11.2731
▁ավազակ	-11.2732
▁մարգարե	-11.2732
Էստոնիա	-11.2734
▁ընտրատարածք	-11.2735
▁անապահով	-11.2748
▁Հիվանդ	-11.2756
▁մասնաշենք	-11.2759
▁Տրանսպորտ	-11.2762
▁աղտոտ	-11.2765
▁ափսոս	-11.2769
▁գնահատվում	-11.2769
Լարս	-11.2784
▁պոեզիա	-11.2787
▁օգտվող	-11.2787
▁պլաստիկ	-11.279
▁տնտեսվարող	-11.2796
▁էկոնոմիկայի	-11.2799
▁կարգապահական	-11.2799
▁գոյատեւ	-11.2802
Ավստրիա	-11.2803
առեւանգ	-11.2812
О	-11.2815
▁լեռնային	-11.2816
▁լայնածավալ	-11.2821
▁Ներսես	-11.2821
▁քրդական	-11.2831
▁Գուրգեն	-11.2836
▁ե՞րբ	-11.284
▁ազդեցիկ	-11.2852
▁ֆինանս	-11.2855
▁ռուբլի	-11.2864
▁Վարկանիշ	-11.2864
▁սխեմա	-11.2864
▁հովիվ	-11.287
▁Տեղեկատվական	-11.2879
Կարծում	-11.288
▁ամենահայտնի	-11.2883
▁ողջունում	-11.2893
▁կաթոլիկ	-11.2895
▁օրինագիծ	-11.2911
Ամուսն	-11.2914
▁արաբական	-11.2914
պայքար	-11.2916
▁Հունվար	-11.2916
▁Էջմիածնում	-11.2917
▁ոսկի	-11.2919
▁դրույքաչափ	-11.2935
▁ԱՌԱՋ	-11.2942
Գաբրիելյան	-11.2944
▁Ուկրաինայում	-11.2948
թուրք	-11.295
▁չարաշահումներ	-11.2979
▁պրակտիկ	-11.2986
օգոստոս	-11.299
▁նորընտիր	-11.2998
▁այդպիսով	-11.3004
▁Հարցազրույց	-11.3007
▁Ֆրանսերեն	-11.3017
կենցաղ	-11.3018
նոյեմբեր	-11.3019
▁ատամներ	-11.302
▁ԸՆԴ	-11.3029
▁պիտակ	-11.3031
▁Արաբական	-11.3036
▁հակակոռուպցիոն	-11.3039
▁Աստուած	-11.3042
▁դեռահաս	-11.3043
▁Posted	-11.3046
▁ենթակայության	-11.3048
▁հարստություն	-11.3053
հռչակ	-11.3055
▁պաշտոնավարման	-11.3058
▁Continue	-11.3089
▁սովետական	-11.3092
▁հավատացյալ	-11.3099
▁Աստվածաշունչ	-11.3108
▁ինքդ	-11.3111
▁ամէն	-11.3113
աստիճան	-11.3122
▁ցուցաբերում	-11.3124
Նորվեգիա	-11.3124
▁մեծամասնության	-11.313
Ղազախստան	-11.3138
▁կինոթատրոն	-11.3143
▁կամրջի	-11.3144
▁ռադիոկայանի	-11.315
П	-11.3153
լեյտենանտ	-11.3153
▁Արծվիկ	-11.3153
▁թույլտվության	-11.3153
▁նորաձեւության	-11.3156
▁Չինաստանում	-11.3159
▁Արտաշես	-11.3162
▁էֆեկտ	-11.3172
Հաջող	-11.3175
▁more	-11.3175
▁իմացություն	-11.3178
Գործ	-11.3184
▁Կինո	-11.3184
▁Ենթադր	-11.3185
Պետական	-11.3187
Մարտակերտ	-11.3191
▁Ուղե	-11.3202
Բարգավաճ	-11.321
Եվրասիա	-11.3211
▁National	-11.3213
ախմբեր	-11.3215
Խոսք	-11.3239
▁մեզանից	-11.3241
▁սոսկ	-11.3253
▁ռոմանտիկ	-11.3255
▁չափորոշիչներ	-11.3258
Ապարան	-11.3261
▁տառապանք	-11.3262
▁թաքցնել	-11.3272
Սովետական	-11.3275
▁քաղբանտարկյալ	-11.3278
▁Մալաթիա	-11.3282
փոքր	-11.3284
▁Եհովայի	-11.3291
▁Իռլանդ	-11.3294
▁Սիմոն	-11.3299
▁դաշնային	-11.33
Բոլոր	-11.3301
▁տագնապ	-11.3307
▁Տեղադրել	-11.3313
Plus	-11.332
▁Թայիփ	-11.3326
▁Նախատեսվ	-11.3333
▁տառապում	-11.3339
▁Ծրագիրը	-11.3352
▁դիրիժոր	-11.3355
▁ազդանշան	-11.3355
▁ՊՊԾ	-11.3362
▁վերջիններիս	-11.3362
▁Բրիտանական	-11.3368
ակցված	-11.3373
▁Տեխաս	-11.3375
▁շրջագայ	-11.3378
▁ճամփ	-11.339
▁նախաքննություն	-11.3392
▁հուսահատ	-11.3401
▁ամպրոպ	-11.3407
▁բարձունք	-11.3421
▁առնչվում	-11.3424
▁ցուրտ	-11.3437
▁դափնեկիր	-11.3447
▁ՄԻԵԴ	-11.3457
▁մարքեթինգ	-11.346
▁համբավ	-11.346
▁սիրիահայ	-11.346
▁ճեմարան	-11.3463
▁պատրաստակամ	-11.3463
▁նվաճումներ	-11.3466
ինտեգրման	-11.3469
Եվրոպա	-11.347
▁ARM	-11.347
▁հողատարածք	-11.348
▁Լրատվական	-11.3486
▁Հեռուստա	-11.3489
▁Բադալյան	-11.3493
▁ագրեսիա	-11.3494
▁պատահել	-11.3495
▁ոտնահար	-11.3496
▁Բալայան	-11.3503
▁քիմիա	-11.3512
▁Windows	-11.3513
▁սթրես	-11.3516
լիցենզավոր	-11.3516
▁մահմեդական	-11.3516
▁առաքելական	-11.3517
▁արքեպիսկոպոս	-11.3522
▁վիրտուալ	-11.3529
▁COUNTY	-11.3532
▁Զուրաբյան	-11.3532
▁թուղթ	-11.3533
▁ռեյտինգային	-11.3536
▁Սեդրակ	-11.3536
▁լոլիկ	-11.3543
▁հակառակորդը	-11.3543
▁Արմինե	-11.3543
▁քարոզչություն	-11.3543
▁ՄԻԱՎ	-11.355
▁Նարինե	-11.3555
Գանձասար	-11.3559
▁հանդուրժ	-11.3562
Մաթեւոսյան	-11.3562
▁Առողջ	-11.3562
Մոսկվա	-11.3569
▁առասպել	-11.3572
▁Վաճառվում	-11.3575
▁Հունիս	-11.3577
▁կահավոր	-11.3579
Г	-11.3582
▁աշխարհահռչակ	-11.3582
▁կուտակային	-11.3582
▁տոհմ	-11.3586
▁ամերիկա	-11.3596
▁ՊՍԺ	-11.3605
Պաշտոն	-11.361
▁մաղթել	-11.3612
▁Twitter	-11.3615
▁ո՞նց	-11.3619
▁ամենատարբեր	-11.3625
▁Առցանց	-11.3629
▁օպտիմալ	-11.3632
▁խորհրդանշական	-11.3635
▁ավտոճանապարհներ	-11.3636
▁տարեվերջ	-11.3642
▁Մայքլ	-11.3652
▁մերձավոր	-11.3652
▁Արզումանյան	-11.3662
▁ՖՈՏՈՌԵՊՈՐՏԱԺ	-11.3662
Պահանջ	-11.3665
▁պատմամշակութային	-11.3672
▁իրավասություն	-11.3675
ուղեծրի	-11.3676
▁բազմակողմանի	-11.3679
▁ծանուցում	-11.3679
▁Հրանուշ	-11.3679
▁Ստորեւ	-11.3679
▁թվաքանակ	-11.3703
ль	-11.3703
▁ՄԻՊ	-11.3713
▁եթէ	-11.3714
▁լեգիտիմ	-11.3716
▁բասկետբոլ	-11.3719
▁օլիմպիադա	-11.3736
▁հրշեջ	-11.3736
▁ամսաթիվ	-11.3743
▁Next	-11.3746
▁նախաքննության	-11.375
▁սատանա	-11.375
▁Արագած	-11.375
▁մկրտ	-11.3757
▁reading	-11.376
▁Հաստատ	-11.376
▁Փառատոն	-11.3763
փետրվար	-11.3772
▁Եսայան	-11.3782
▁Վեհափառ	-11.3784
©	-11.3787
▁պանիր	-11.3789
առողջ	-11.38
▁Ընթերց	-11.3807
―	-11.3814
ադրբեջան	-11.3814
▁եվրոպացի	-11.3824
Օսկանյան	-11.3831
▁Նպատակ	-11.3835
▁Մասնագիտ	-11.3835
▁Շվեյցարիայի	-11.3838
▁կուլտուրա	-11.3841
▁Android	-11.3845
▁Շուտով	-11.3849
▁եզդի	-11.385
▁Beeline	-11.3852
▁ուռուցք	-11.3855
▁լռություն	-11.3868
▁Շարժման	-11.3872
▁սթափ	-11.3883
Թարգման	-11.3892
▁օրիգինալ	-11.3896
▁ահռելի	-11.3896
բացահայտ	-11.3899
▁Մտցնել	-11.39
▁ծանրաբեռնված	-11.3903
▁տիեզերական	-11.3903
▁կադրային	-11.3932
▁Post	-11.3943
Մտած	-11.3951
▁փեսա	-11.3956
▁պատշգամբ	-11.3958
▁ռուսաստանցի	-11.3961
▁տիկնիկ	-11.3969
▁աշխատատեղ	-11.3971
▁հրազենային	-11.3975
▁խորամանկ	-11.3975
▁Հստակեցնել	-11.3979
կայանքներով	-11.3985
▁Ակնհայտ	-11.3986
▁Հուլիս	-11.3989
Д	-11.3993
▁պայուսակ	-11.3993
▁խորհրդատու	-11.4002
▁դիրքորոշման	-11.4003
դաշնամուր	-11.401
▁Ժնեւ	-11.4014
▁կպցրեք	-11.4017
▁Ինչու՞	-11.4029
▁Մկրտիչ	-11.4041
▁արքայազն	-11.4045
արտասան	-11.405
▁տուփ	-11.406
▁Ձեռք	-11.4066
х	-11.4069
**	-11.4071
Համագործակց	-11.4072
▁վիճարկ	-11.4079
▁պարտատոմսեր	-11.4087
▁Ակումբ	-11.4087
▁Քանաքեռ	-11.4104
զինամթերք	-11.411
▁Անցյալ	-11.4111
▁անվավեր	-11.4129
▁ֆիզիկայի	-11.4129
▁ձեռներեց	-11.4136
մետրանոց	-11.4136
▁ԵԿՄ	-11.4137
Երիտասարդ	-11.4144
▁ապարատ	-11.4158
▁ISSN	-11.4171
▁համամասնական	-11.4178
▁Մելքումյան	-11.4178
▁Հրայր	-11.4178
▁here	-11.4181
▁կբարձրանա	-11.4185
▁հազարամյակ	-11.4186
▁Գեորգի	-11.4192
Վրաստան	-11.4198
▁Ստամբուլում	-11.4199
▁ռոբոտ	-11.4203
▁հրատարակչություն	-11.421
▁ընտրակաշառք	-11.4217
<	-11.422
▁Life	-11.4231
▁Հրատարակ	-11.4234
▁օրենսդրություն	-11.4234
▁Previous	-11.4242
▁Iravunk	-11.4249
▁անուղղակի	-11.4252
▁ողբերգություն	-11.4256
▁Online	-11.4274
▁հուշահամալիր	-11.4274
▁New	-11.4278
▁լրջորեն	-11.4284
▁յայտն	-11.4299
▁անթույլատրելի	-11.4306
▁մտքով	-11.4307
▁թմրամիջոց	-11.4309
▁անհեթեթ	-11.4309
◆	-11.4879
ш	-11.5206
ц	-11.5666
Б	-11.5819
З	-11.5831
′	-11.594
ж	-11.5949
ю	-11.6392
ф	-11.8086
•	-11.9161
⁄	-11.937
�	-11.9622
🙂	-11.9726
#	-12.0083
Л	-12.0288
á	-12.0552
ا	-12.0713
ü	-12.0781
У	-12.0981
“	-12.1121
‹	-12.1235
Е	-12.1365
×	-12.1503
{	-12.1847
◈	-12.1877
α	-12.2039
‘	-12.2179
‚	-12.221
^	-12.2449
Я	-12.2836
í	-12.3203
Ф	-12.353
}	-12.4199
щ	-12.8431
→	-12.9068
Ч	-13.0297
́	-13.283
﻿	-13.4334
‡	-15.3877
›	-15.4474
↑	-16.6549
\	-17.0775
►	-17.0775
