<pad>	0
<unk>	0
<s>	0
</s>	0
<mask>	0
<0x00>	0
<0x01>	0
<0x02>	0
<0x03>	0
<0x04>	0
<0x05>	0
<0x06>	0
<0x07>	0
<0x08>	0
<0x09>	0
<0x0A>	0
<0x0B>	0
<0x0C>	0
<0x0D>	0
<0x0E>	0
<0x0F>	0
<0x10>	0
<0x11>	0
<0x12>	0
<0x13>	0
<0x14>	0
<0x15>	0
<0x16>	0
<0x17>	0
<0x18>	0
<0x19>	0
<0x1A>	0
<0x1B>	0
<0x1C>	0
<0x1D>	0
<0x1E>	0
<0x1F>	0
<0x20>	0
<0x21>	0
<0x22>	0
<0x23>	0
<0x24>	0
<0x25>	0
<0x26>	0
<0x27>	0
<0x28>	0
<0x29>	0
<0x2A>	0
<0x2B>	0
<0x2C>	0
<0x2D>	0
<0x2E>	0
<0x2F>	0
<0x30>	0
<0x31>	0
<0x32>	0
<0x33>	0
<0x34>	0
<0x35>	0
<0x36>	0
<0x37>	0
<0x38>	0
<0x39>	0
<0x3A>	0
<0x3B>	0
<0x3C>	0
<0x3D>	0
<0x3E>	0
<0x3F>	0
<0x40>	0
<0x41>	0
<0x42>	0
<0x43>	0
<0x44>	0
<0x45>	0
<0x46>	0
<0x47>	0
<0x48>	0
<0x49>	0
<0x4A>	0
<0x4B>	0
<0x4C>	0
<0x4D>	0
<0x4E>	0
<0x4F>	0
<0x50>	0
<0x51>	0
<0x52>	0
<0x53>	0
<0x54>	0
<0x55>	0
<0x56>	0
<0x57>	0
<0x58>	0
<0x59>	0
<0x5A>	0
<0x5B>	0
<0x5C>	0
<0x5D>	0
<0x5E>	0
<0x5F>	0
<0x60>	0
<0x61>	0
<0x62>	0
<0x63>	0
<0x64>	0
<0x65>	0
<0x66>	0
<0x67>	0
<0x68>	0
<0x69>	0
<0x6A>	0
<0x6B>	0
<0x6C>	0
<0x6D>	0
<0x6E>	0
<0x6F>	0
<0x70>	0
<0x71>	0
<0x72>	0
<0x73>	0
<0x74>	0
<0x75>	0
<0x76>	0
<0x77>	0
<0x78>	0
<0x79>	0
<0x7A>	0
<0x7B>	0
<0x7C>	0
<0x7D>	0
<0x7E>	0
<0x7F>	0
<0x80>	0
<0x81>	0
<0x82>	0
<0x83>	0
<0x84>	0
<0x85>	0
<0x86>	0
<0x87>	0
<0x88>	0
<0x89>	0
<0x8A>	0
<0x8B>	0
<0x8C>	0
<0x8D>	0
<0x8E>	0
<0x8F>	0
<0x90>	0
<0x91>	0
<0x92>	0
<0x93>	0
<0x94>	0
<0x95>	0
<0x96>	0
<0x97>	0
<0x98>	0
<0x99>	0
<0x9A>	0
<0x9B>	0
<0x9C>	0
<0x9D>	0
<0x9E>	0
<0x9F>	0
<0xA0>	0
<0xA1>	0
<0xA2>	0
<0xA3>	0
<0xA4>	0
<0xA5>	0
<0xA6>	0
<0xA7>	0
<0xA8>	0
<0xA9>	0
<0xAA>	0
<0xAB>	0
<0xAC>	0
<0xAD>	0
<0xAE>	0
<0xAF>	0
<0xB0>	0
<0xB1>	0
<0xB2>	0
<0xB3>	0
<0xB4>	0
<0xB5>	0
<0xB6>	0
<0xB7>	0
<0xB8>	0
<0xB9>	0
<0xBA>	0
<0xBB>	0
<0xBC>	0
<0xBD>	0
<0xBE>	0
<0xBF>	0
<0xC0>	0
<0xC1>	0
<0xC2>	0
<0xC3>	0
<0xC4>	0
<0xC5>	0
<0xC6>	0
<0xC7>	0
<0xC8>	0
<0xC9>	0
<0xCA>	0
<0xCB>	0
<0xCC>	0
<0xCD>	0
<0xCE>	0
<0xCF>	0
<0xD0>	0
<0xD1>	0
<0xD2>	0
<0xD3>	0
<0xD4>	0
<0xD5>	0
<0xD6>	0
<0xD7>	0
<0xD8>	0
<0xD9>	0
<0xDA>	0
<0xDB>	0
<0xDC>	0
<0xDD>	0
<0xDE>	0
<0xDF>	0
<0xE0>	0
<0xE1>	0
<0xE2>	0
<0xE3>	0
<0xE4>	0
<0xE5>	0
<0xE6>	0
<0xE7>	0
<0xE8>	0
<0xE9>	0
<0xEA>	0
<0xEB>	0
<0xEC>	0
<0xED>	0
<0xEE>	0
<0xEF>	0
<0xF0>	0
<0xF1>	0
<0xF2>	0
<0xF3>	0
<0xF4>	0
<0xF5>	0
<0xF6>	0
<0xF7>	0
<0xF8>	0
<0xF9>	0
<0xFA>	0
<0xFB>	0
<0xFC>	0
<0xFD>	0
<0xFE>	0
<0xFF>	0
,	-3.1033
▁	-3.37187
▁է	-3.69546
:	-3.8495
ի	-3.89476
ը	-4.07949
ն	-4.27025
-	-4.39165
▁եւ	-4.43578
1	-4.44681
.	-4.49786
0	-4.61306
2	-4.79293
▁«	-4.84062
▁են	-4.87817
▁որ	-4.96108
ում	-4.99425
։	-5.04077
»	-5.07123
ին	-5.07849
՝	-5.26631
ով	-5.44943
ից	-5.59037
3	-5.60548
▁ու	-5.61852
9	-5.65259
5	-5.66847
▁(	-5.67976
ների	-5.72161
▁համար	-5.74123
)	-5.79194
4	-5.79274
8	-5.80767
`	-5.83777
▁էր	-5.91635
▁հետ	-5.92619
7	-5.93181
6	-5.96366
▁մի	-6.06466
ները	-6.0765
ել	-6.08167
ներ	-6.10544
ական	-6.10906
▁մասին	-6.15012
▁իր	-6.15642
▁-	-6.21253
ության	-6.25081
▁այն	-6.25711
թ	-6.2598
ու	-6.27028
ց	-6.29917
▁այդ	-6.30399
▁նաեւ	-6.31229
ս	-6.32882
ային	-6.33219
▁կարող	-6.38618
▁թե	-6.391
▁էլ	-6.39416
...	-6.44215
▁ՀՀ	-6.45192
ա	-6.45936
▁չի	-6.47621
ված	-6.48451
▁եմ	-6.48597
▁_	-6.51864
▁այս	-6.5337
▁Հայաստանի	-6.55016
ման	-6.55149
▁կամ	-6.58293
▁կ	-6.63141
▁ոչ	-6.6481
▁պետք	-6.69853
րդ	-6.70596
▁մեջ	-6.71484
▁մեր	-6.72292
▁ենք	-6.72839
▁այլ	-6.74772
▁շատ	-6.76131
▁ավելի	-6.78541
վել	-6.78887
վում	-6.7968
ք	-6.80107
ող	-6.81643
▁ինչ	-6.83577
ություն	-6.84114
▁նոր	-6.8685
▁վրա	-6.86972
▁ես	-6.88301
▁նա	-6.88743
ությունը	-6.89167
▁ժամանակ	-6.90033
եց	-6.93078
▁հետո	-6.93584
ած	-6.95723
▁իսկ	-6.95971
եր	-6.96329
▁ինչպես	-6.97196
▁կողմից	-6.98086
/	-6.98356
▁որը	-6.98806
ան	-7.00047
են	-7.00196
▁իրենց	-7.04357
ր	-7.05466
▁Այս	-7.06378
▁մեծ	-7.07695
▁քանի	-7.10409
▁բոլոր	-7.10569
am	-7.10783
ելու	-7.11055
▁նրա	-7.11838
­	-7.13168
▁էին	-7.13908
▁բայց	-7.14726
որ	-7.15232
երի	-7.16091
▁մեկ	-7.16097
▁Հ	-7.16331
▁միայն	-7.1698
▁չ	-7.18001
▁որոնք	-7.183
▁առաջին	-7.1926
▁անգամ	-7.20075
▁եք	-7.23723
▁չեն	-7.24786
▁չէ	-7.26421
ությամբ	-7.27062
▁թ	-7.28233
▁երբ	-7.28432
մ	-7.29261
▁Ս	-7.2935
կ	-7.29384
վի	-7.29786
▁դա	-7.29836
եք	-7.31962
▁ընթացքում	-7.32917
▁հայ	-7.33232
յան	-7.33323
▁մոտ	-7.34602
▁եթե	-7.35156
▁տեղի	-7.36887
▁առաջ	-7.37429
ներից	-7.38076
ը՝	-7.38345
▁նախագահ	-7.39774
դ	-7.40832
▁ան	-7.41092
▁ամեն	-7.41307
▁մենք	-7.41374
ներին	-7.41738
▁Հանրապետության	-7.42363
▁պետական	-7.42485
▁իմ	-7.45339
»,-	-7.47006
▁եղել	-7.47585
▁Ա	-7.48088
▁ունի	-7.48546
▁արդեն	-7.48738
▁որպես	-7.48981
▁նրանց	-7.4913
տ	-7.49259
▁տարի	-7.49738
երը	-7.53246
▁բան	-7.53285
▁Նա	-7.53357
▁Մ	-7.53568
▁երկու	-7.5358
իս	-7.55771
▁մինչեւ	-7.55798
ակ	-7.55825
»:	-7.55916
▁Կ	-7.56005
▁թվականի	-7.57823
▁լավ	-7.59758
▁սակայն	-7.60086
▁դեպքում	-7.62659
▁ԱՄՆ	-7.62915
▁ապա	-7.63292
ո	-7.63706
▁Հայաստանում	-7.63718
▁նման	-7.63748
»-	-7.64179
▁քաղաքական	-7.64272
▁դեմ	-7.64296
ե	-7.66674
▁Գ	-7.66761
▁–	-7.66857
▁օր	-7.673
▁ասաց	-7.6746
Ա	-7.68033
▁միջազգային	-7.68778
վեց	-7.70655
վող	-7.70856
եւ	-7.71347
▁ինձ	-7.71702
s	-7.71803
Ի	-7.72355
ներն	-7.73207
▁տարբեր	-7.73282
ալ	-7.73499
ուն	-7.73581
▁այսօր	-7.75165
▁վերաբերյալ	-7.75272
եմ	-7.7678
▁կա	-7.78114
▁ասել	-7.78191
▁ազատ	-7.78244
գ	-7.7914
▁նրան	-7.7983
▁Բ	-7.82252
▁Երեւանի	-7.82511
▁դուրս	-7.83152
Ն	-7.83894
ենք	-7.83967
իկ	-7.85245
▁որտեղ	-7.85312
ավոր	-7.8569
▁ձեր	-7.8604
Ս	-7.86108
[	-7.86424
Հ	-7.86547
),	-7.87041
▁գլխավոր	-7.87212
▁Այդ	-7.8767
ներով	-7.87719
▁մարդկանց	-7.87779
ավ	-7.87845
ծ	-7.88052
յի	-7.88124
իր	-7.88462
▁Ես	-7.88527
▁քան	-7.88664
▁վերջին	-7.89319
▁Իսկ	-7.89606
ելով	-7.9046
▁—	-7.90587
▁Է	-7.90786
▁մեզ	-7.90862
▁բարձր	-7.91039
▁կարեւոր	-7.91152
▁տալիս	-7.91498
▁որեւէ	-7.92063
▁ազգային	-7.9408
ներում	-7.94663
յանը	-7.9505
Գ	-7.9602
ոն	-7.96316
▁ասում	-7.96986
Մ	-7.97859
▁Եթե	-7.97884
▁նրանք	-7.98623
▁հայկական	-7.98639
▁մարդ	-7.9894
▁ունեցել	-7.99395
վ	-7.99399
▁Մի	-8.00161
▁նկատմամբ	-8.00436
▁Վ	-8.00658
▁Եվ	-8.00668
առ	-8.00703
շ	-8.0112
Կ	-8.01328
▁նույն	-8.01845
▁ձեռք	-8.02123
▁Երեւան	-8.02446
ես	-8.02704
լ	-8.02837
ատ	-8.03158
այի	-8.03211
▁վեր	-8.03381
▁որի	-8.03795
չ	-8.04373
–	-8.05063
▁լինի	-8.05253
ար	-8.05287
▁առանց	-8.05709
▁դուք	-8.05768
▁միջեւ	-8.0673
▁կարելի	-8.06958
▁...	-8.06993
▁շուրջ	-8.07837
▁չեմ	-8.07925
▁կառավարության	-8.08283
▁թվականին	-8.08617
ամյա	-8.08775
▁մ	-8.08835
վեն	-8.08872
▁դրա	-8.08963
▁Հայաստան	-8.09053
եղ	-8.09708
▁մեկը	-8.09805
▁սա	-8.09886
▁հնարավոր	-8.10037
որեն	-8.10268
▁շարք	-8.10387
▁Տ	-8.10702
]	-8.1087
▁լինել	-8.11694
▁Բայց	-8.11718
▁դրամ	-8.1197
▁հայտնի	-8.12667
▁տարվա	-8.1275
▁ըստ	-8.12961
Բ	-8.13038
▁զարգացման	-8.13305
▁ա	-8.14219
▁ամբողջ	-8.14273
զ	-8.1433
▁կան	-8.15054
կան	-8.15258
▁անդամ	-8.15333
▁Սա	-8.15433
▁դեռ	-8.15666
▁եւս	-8.15775
▁Հայ	-8.16007
Տ	-8.16045
▁հենց	-8.16052
ռ	-8.16163
▁նախարար	-8.16331
աս	-8.16468
▁համապատասխան	-8.1727
բ	-8.17272
հ	-8.1745
▁Սերժ	-8.17691
անում	-8.1773
▁անհրաժեշտ	-8.18266
▁ղեկավար	-8.18516
▁ս	-8.18566
▁երկրի	-8.18646
▁Այն	-8.18974
▁մարդիկ	-8.19562
▁ունեցող	-8.20182
▁տեղ	-8.20376
▁որպեսզի	-8.20861
ուց	-8.20997
▁/	-8.21197
▁Ն	-8.21336
ղ	-8.22015
▁Նիկոլ	-8.22423
▁անվան	-8.23394
▁աշխարհի	-8.2353
▁Ձեր	-8.23579
▁կլինի	-8.23625
▁Ռուսաստանի	-8.23815
▁օրը	-8.23822
▁որոշ	-8.24279
▁պատճառով	-8.24596
▁ԱԺ	-8.2495
յ	-8.25622
▁միջոցով	-8.2647
▁ուզում	-8.26484
ժ	-8.26504
աց	-8.26534
▁Ինչպես	-8.26793
▁Մենք	-8.27074
ամ	-8.27126
▁Ի	-8.2722
▁չէր	-8.27291
▁կապված	-8.27503
ումը	-8.27575
▁որոնց	-8.27706
▁մյուս	-8.28245
ուր	-8.28336
▁ովքեր	-8.2855
▁նախկին	-8.28655
▁ձեզ	-8.28838
պ	-8.28866
իչ	-8.29122
▁Շ	-8.29135
▁հնարավորություն	-8.29294
▁ունեն	-8.29469
▁երկրորդ	-8.3038
▁ժամը	-8.30493
Վ	-8.30763
▁իրեն	-8.30868
▁տնտեսական	-8.31091
▁հիմնական	-8.31184
այ	-8.31253
եցին	-8.31729
▁տակ	-8.31753
▁բ	-8.31817
▁Խ	-8.32146
▁լինելու	-8.32311
▁գ	-8.32571
▁նշել	-8.33327
▁Թ	-8.3428
▁ընդհանուր	-8.34369
ահ	-8.34441
▁Մեր	-8.35033
▁Ան	-8.35086
▁Դա	-8.35274
▁չկա	-8.35669
▁Սակայն	-8.35766
ոտ	-8.35894
▁հազար	-8.35992
▁Պ	-8.3602
y	-8.36157
յանի	-8.36182
▁անել	-8.36205
».	-8.36252
):	-8.36277
ձ	-8.36668
աղ	-8.37002
▁Ադրբեջանի	-8.37253
▁տարեկան	-8.37259
▁Ք	-8.37945
▁համաձայն	-8.38186
ճ	-8.38291
▁Արմեն	-8.38486
▁Ազգային	-8.38498
▁առ	-8.38624
ախ	-8.38705
▁բաց	-8.38759
▁Նոր	-8.38993
▁հետեւյալ	-8.39539
▁որովհետեւ	-8.40244
▁հայտարարել	-8.40335
▁Հայաստանից	-8.40406
▁դրանք	-8.40499
▁Թուրքիայի	-8.40525
▁պաշտպանության	-8.40591
Ը	-8.40952
▁լավագույն	-8.40981
▁Դ	-8.41395
▁Սարգսյանը	-8.41765
▁հատուկ	-8.41811
▁ի՞նչ	-8.42023
▁նախագահի	-8.42039
▁թույլ	-8.42217
յա	-8.42249
Ք	-8.42547
▁հիմա	-8.42612
Պ	-8.43048
▁մարդու	-8.43204
▁այստեղ	-8.43291
▁Ար	-8.43435
▁երեք	-8.44009
ազ	-8.44242
▁յուրաքանչյուր	-8.44647
a	-8.44704
▁հանդես	-8.44736
աշ	-8.44955
▁նշեց	-8.45023
▁կատարել	-8.45029
▁միշտ	-8.45132
ւ	-8.45164
▁հայտնել	-8.45314
▁Լ	-8.4561
n	-8.45733
խ	-8.45733
▁ցույց	-8.45758
է	-8.45846
ոս	-8.45948
▁Այսօր	-8.46266
ագ	-8.463
տեսանյութ	-8.46343
▁գալիս	-8.46361
▁քաղաքի	-8.46434
▁նախատեսված	-8.46456
▁դրանց	-8.4697
▁Արցախի	-8.47266
յում	-8.47369
▁ՀՀԿ	-8.4745
▁Ու	-8.47561
▁այնպես	-8.48239
▁կազմում	-8.48803
▁նպատակով	-8.48878
▁գործ	-8.48905
▁ծրագրի	-8.49133
ությունն	-8.4914
▁Հայաստանը	-8.49206
e	-8.4943
▁գործունեության	-8.49526
▁նախարարության	-8.49823
▁պատրաստ	-8.50361
▁փոքր	-8.5051
▁սահմանված	-8.50528
▁ծառայության	-8.50595
▁վարչապետ	-8.50858
▁անվտանգության	-8.50961
▁Հայոց	-8.51027
▁ճիշտ	-8.5148
կա	-8.51567
▁եկել	-8.51683
▁քիչ	-8.51864
Թ	-8.51909
▁անց	-8.51945
▁արտաքին	-8.5201
րի	-8.52143
▁դեպի	-8.52192
Դ	-8.52244
քի	-8.52254
▁ով	-8.52324
▁քրեական	-8.52546
▁ամենա	-8.52773
▁Զ	-8.53204
▁արդյունքում	-8.53363
▁կյանքի	-8.53615
▁խորհրդի	-8.53636
▁երկրների	-8.54094
՞	-8.541
u	-8.54241
ին՝	-8.5445
Լ	-8.54567
▁անձանց	-8.54706
▁Ըստ	-8.54749
▁փորձ	-8.54755
▁հ	-8.54912
▁գտնվում	-8.54934
արկ	-8.5497
▁Երեւանում	-8.55088
▁շ	-8.55107
փ	-8.55254
▁կենտրոն	-8.55268
վելու	-8.55556
»։	-8.55784
▁քեզ	-8.56289
ացման	-8.56359
▁թվում	-8.56366
▁այնքան	-8.56761
▁էջ	-8.56767
▁դու	-8.56917
▁կառավարման	-8.57021
▁Նրա	-8.57422
▁սոցիալական	-8.57544
▁օրենքի	-8.57711
▁Դուք	-8.57763
▁նույնիսկ	-8.57909
▁խմբի	-8.58168
▁երկար	-8.58284
▁մարզի	-8.58286
▁պաշտոնական	-8.58872
▁ցանկանում	-8.59032
▁Մեծ	-8.59058
՛	-8.59182
▁ընկերության	-8.59191
▁ունեցած	-8.59599
սի	-8.59603
▁պատգամավոր	-8.5964
▁քո	-8.59724
▁գտնվող	-8.59757
▁անում	-8.60324
ստ	-8.60369
▁պիտի	-8.61016
մամբ	-8.61101
անք	-8.61441
որդ	-8.6145
▁աշխատանքի	-8.61722
▁Չ	-8.61937
▁տնօրեն	-8.61939
▁գործում	-8.62234
▁﻿	-8.62339
▁բազմաթիվ	-8.62557
▁շրջանակներում	-8.6262
▁S	-8.62912
իք	-8.62959
▁որն	-8.6299
նա	-8.63696
ալի	-8.63715
▁ստացել	-8.63775
▁առավել	-8.63821
▁կարծում	-8.63931
▁մասնակցել	-8.63991
▁Սարգսյանի	-8.64381
լի	-8.6474
▁Օ	-8.64808
▁կապ	-8.65035
▁ընդունել	-8.65174
▁համակարգի	-8.65563
"	-8.65574
▁ներկայացնում	-8.65781
▁հաճախ	-8.66075
աբ	-8.66144
րա	-8.66157
▁սեփական	-8.66176
վա	-8.66223
ությունների	-8.66252
▁տվել	-8.66384
▁թիվ	-8.66468
▁պարզ	-8.66754
▁ակտիվ	-8.66932
t	-8.66998
▁հոդվածի	-8.67039
▁հայտնում	-8.67205
ուս	-8.6724
վեր	-8.6727
▁աշխարհում	-8.67641
▁շարունակ	-8.67699
▁մլն	-8.6793
▁դարձել	-8.68084
ելի	-8.68178
▁դ	-8.68224
▁արագ	-8.68347
▁գրում	-8.6853
▁ժամ	-8.68819
շտ	-8.68832
”	-8.69018
o	-8.69256
ապ	-8.6929
▁աշխատանքային	-8.69483
▁օրինակ	-8.6951
ուկ	-8.69546
▁հարցը	-8.69576
▁N	-8.69603
ություններ	-8.69617
▁պար	-8.69641
▁նվիրված	-8.69754
իա	-8.70006
▁Լուրեր	-8.70073
անի	-8.70108
▁բնակարան	-8.70117
▁նշանակում	-8.7028
▁M	-8.70342
▁ինքն	-8.70432
▁տան	-8.70618
▁Կարեն	-8.70906
▁համայնքի	-8.71346
▁ողջ	-8.71578
▁հարցում	-8.71618
եկ	-8.71877
▁պետ	-8.72004
▁բերել	-8.72154
▁տալ	-8.72665
▁ուղղությամբ	-8.72915
▁պատասխան	-8.73059
▁ՌԴ	-8.73084
er	-8.73319
▁ժողովրդի	-8.73578
▁որոշում	-8.73732
▁շրջանում	-8.73907
▁իրավունքների	-8.74139
▁հասարակական	-8.74811
▁մասը	-8.7482
ետ	-8.74893
▁վարչական	-8.74993
▁իրավունք	-8.7519
▁փակ	-8.75376
▁հարց	-8.75559
▁իրական	-8.75842
▁"	-8.75955
▁ուրիշ	-8.76248
)։	-8.7632
անց	-8.76325
▁ինչը	-8.76677
Ե	-8.76713
▁գրել	-8.76858
▁ցանկացած	-8.7693
▁լուրջ	-8.76947
▁այլն	-8.76953
▁չունի	-8.77048
▁ոստիկանության	-8.77169
▁առկա	-8.77209
▁կուսակցության	-8.77696
եռ	-8.78056
ԱԿ	-8.78211
▁է՝	-8.78225
▁դոլար	-8.78496
բեր	-8.79017
▁C	-8.7906
▁մարտի	-8.79348
▁Ձեզ	-8.79396
ֆ	-8.79593
▁խ	-8.79706
ՈՒՄ	-8.79711
▁միլիոն	-8.7978
▁համագործակցության	-8.79781
▁ուղղված	-8.80038
ուլ	-8.80089
ոց	-8.80189
▁նշված	-8.80451
ացի	-8.8056
com	-8.80594
Խ	-8.806
▁տարածքում	-8.8062
▁“	-8.80899
▁գործող	-8.81246
▁հանրագիտարան	-8.81347
▁Երբ	-8.81564
ությունից	-8.81569
▁ներկայացրել	-8.81676
▁ռազմական	-8.81809
ջ	-8.81833
▁Վիքիպեդիա	-8.82145
▁ապրիլի	-8.82148
▁հատկապես	-8.82208
▁Հայկական	-8.82355
▁օրվա	-8.82553
▁A	-8.82567
▁սկսել	-8.82676
ապես	-8.82786
ացված	-8.82865
ԱՐ	-8.82932
▁փորձում	-8.82944
▁չենք	-8.82969
ոյ	-8.83015
եյ	-8.83244
▁գր	-8.83548
▁երիտասարդ	-8.83584
▁հետեւանքով	-8.83602
▁առաջնորդ	-8.83708
▁դժվար	-8.83722
▁Փաշինյանը	-8.83928
աբար	-8.83993
▁պատմության	-8.84171
▁այնպիսի	-8.84193
▁փոխ	-8.84348
▁պահին	-8.84387
▁Սուրբ	-8.84405
▁դեկտեմբերի	-8.84509
▁համատեղ	-8.84521
Ո	-8.84557
▁ոլորտում	-8.84756
C	-8.85102
▁նույնպես	-8.8519
▁գնում	-8.85276
▁մամուլի	-8.8547
այն	-8.85524
տի	-8.85609
▁շաբաթ	-8.85681
▁սեպտեմբերի	-8.85936
ացնել	-8.86006
▁այնտեղ	-8.86147
r	-8.86191
քս	-8.86341
▁հանձնաժողովի	-8.86529
▁գումար	-8.86563
նք	-8.86863
▁ունենալ	-8.8689
▁հարաբերությունների	-8.87119
▁հոկտեմբերի	-8.87124
▁խնդիրներ	-8.87198
▁վատ	-8.87387
▁P	-8.87406
▁հասարակության	-8.87539
▁Ե	-8.87567
▁դեսպան	-8.87577
▁Նրանք	-8.8759
▁մայիսի	-8.87611
ակի	-8.87615
▁հարցերի	-8.8783
▁տուն	-8.87866
▁ք	-8.87943
ացած	-8.87997
▁B	-8.88342
▁կատարելու	-8.88352
▁ինքը	-8.88487
յու	-8.88609
▁Ռ	-8.88724
▁Ծ	-8.88811
▁տեսնում	-8.88865
▁Փ	-8.8888
▁Առաջին	-8.88886
▁զրույցում	-8.89034
▁հաջորդ	-8.89106
ոլ	-8.89155
▁ներկա	-8.89209
▁Արթուր	-8.89637
երում	-8.89644
▁որոշակի	-8.89663
▁աշխատել	-8.89832
▁վերջ	-8.8988
▁կազմակերպության	-8.90015
ացնում	-8.90202
▁Ինչ	-8.90255
▁ծանր	-8.90465
▁պետության	-8.90772
Ես	-8.90912
▁սույն	-8.91055
▁շրջան	-8.91133
▁վստահ	-8.91197
▁այդպես	-8.91223
▁կերպ	-8.91258
յալ	-8.91534
▁ստեղծել	-8.91574
▁կոչ	-8.91638
f	-8.91657
աթ	-8.91753
Շ	-8.91802
▁շարունակում	-8.91848
▁դպրոց	-8.91921
▁այլեւ	-8.91968
▁ամիս	-8.92033
▁աշխատում	-8.92227
i	-8.92241
ութ	-8.92355
▁ար	-8.92472
▁հստակ	-8.92732
▁անկախ	-8.92784
▁մեկն	-8.92785
իայի	-8.928
▁ապրում	-8.92826
▁լինում	-8.92917
▁այժմ	-8.93038
իլ	-8.93042
▁երեխաների	-8.93361
▁նախորդ	-8.93641
in	-8.93799
▁դիմել	-8.94033
▁նոյեմբերի	-8.9418
▁հարկ	-8.9423
▁Իրանի	-8.94242
▁վարչության	-8.94321
l	-8.9441
ԻՆ	-8.94978
ութեան	-8.95206
▁հաշվի	-8.95271
▁շնորհիվ	-8.95306
արար	-8.95308
▁ֆինանսական	-8.95378
▁երկրում	-8.95403
▁Դավիթ	-8.95463
▁ներքին	-8.95542
▁համակարգ	-8.95614
▁մարզ	-8.95631
աք	-8.95676
▁մարմնի	-8.95778
%	-8.95878
▁աշխատանք	-8.96006
▁քայլ	-8.96237
գր	-8.96298
▁Լեւոն	-8.96309
▁վաղ	-8.96313
▁լրատվական	-8.96735
▁քաղաքացիական	-8.96804
▁արել	-8.96819
an	-8.96874
վեցին	-8.9689
ոմ	-8.96999
▁պատ	-8.9714
▁կենտրոնի	-8.97263
▁դառնում	-8.97352
▁քննչական	-8.97395
▁քաղաքում	-8.97537
▁կրթության	-8.9758
▁հունիսի	-8.97592
al	-8.97596
▁զ	-8.97609
ադ	-8.97615
▁ուժերի	-8.97702
▁հուլիսի	-8.97746
▁խնդիր	-8.97752
▁հանդիպում	-8.97933
▁մշակույթի	-8.98188
ացել	-8.98349
▁Ի՞նչ	-8.98636
▁Լեռնային	-8.9865
անա	-8.98676
Է	-8.98739
▁խոշոր	-8.98785
▁դատական	-8.99066
▁Արամ	-8.99419
▁իշխանության	-8.99481
A	-8.99527
նե	-8.99548
▁դիմում	-8.99687
▁կար	-8.99718
▁կմ	-8.99732
▁կարգով	-9.00167
▁հաղորդում	-9.00175
▁Գլխավոր	-9.00303
դի	-9.00385
▁Տիգրան	-9.00582
▁համաշխարհային	-9.00692
▁թեկնածու	-9.00882
▁հունվարի	-9.00966
M	-9.0099
▁երբեք	-9.01099
▁վերաբերում	-9.01111
▁խոսել	-9.0113
▁կողմ	-9.01164
երից	-9.01271
▁կանանց	-9.01272
▁դեռեւս	-9.01416
▁իրավական	-9.01454
▁ունենք	-9.01493
▁արդյունավետ	-9.01504
▁հերթական	-9.01593
▁ունեցավ	-9.01883
▁տեղակալ	-9.01954
ուղ	-9.01999
▁հեղինակ	-9.02168
T	-9.02174
▁անձի	-9.0238
տար	-9.02489
▁նշում	-9.02549
▁դիմաց	-9.02578
▁սիրում	-9.0264
անդ	-9.02702
▁Ֆ	-9.02995
▁դպրոցի	-9.03002
▁հետաքրքիր	-9.03031
▁խաղում	-9.03204
ԵՐ	-9.0328
▁հարցեր	-9.03346
▁ԵՄ	-9.03818
մի	-9.03979
ԱՆ	-9.03992
▁պահ	-9.04201
▁առումով	-9.04213
▁Տեր	-9.04298
▁կարիք	-9.04347
▁իրենք	-9.04399
▁Թե	-9.04469
կո	-9.04472
տեղ	-9.05023
▁ռուսական	-9.05263
S	-9.05423
▁վարչապետի	-9.05508
b	-9.05543
ar	-9.0556
▁դատարանի	-9.05671
▁պ	-9.05804
▁Վրաստանի	-9.06184
▁մինչ	-9.06221
երն	-9.06253
D	-9.06299
▁Եվրոպայի	-9.06323
▁խոր	-9.06359
▁հանրային	-9.06383
▁ընդամենը	-9.06436
▁տվյալ	-9.06529
եցի	-9.06569
▁կազմակերպությունների	-9.06672
ԱԿԱՆ	-9.06707
▁փոփոխություններ	-9.06891
▁քաղաքականության	-9.06931
▁ծրագրերի	-9.06976
▁էինք	-9.07074
վար	-9.07151
▁հա	-9.07295
▁խոսում	-9.07364
▁բժշկական	-9.07645
անոց	-9.07711
▁համարում	-9.07806
▁կրկին	-9.07845
▁Ամեն	-9.07974
հան	-9.08021
ացում	-9.08068
▁իրականացման	-9.0812
▁համալսարանի	-9.08231
▁ուշ	-9.08292
E	-9.08458
▁նախ	-9.08687
երին	-9.08697
▁երրորդ	-9.08719
▁Շատ	-9.08752
▁կոդը	-9.08927
ությունները	-9.0893
▁ժողովի	-9.09106
▁լույս	-9.09257
▁համ	-9.09619
▁միասին	-9.09693
▁կարողանում	-9.09695
▁փ	-9.09749
▁աշխատ	-9.10109
▁F	-9.10119
▁թող	-9.10146
k	-9.10175
▁վնաս	-9.10299
▁պատերազմի	-9.10365
Օ	-9.10526
▁մշակութային	-9.10547
▁Իր	-9.10756
▁գրեթե	-9.10953
▁կատարում	-9.10977
▁բավարար	-9.1107
▁Ալ	-9.11101
ոյի	-9.11126
or	-9.11143
▁կունենա	-9.1149
▁Գագիկ	-9.11821
]:	-9.11849
▁պատկեր	-9.11888
▁չափ	-9.11904
▁ազգ	-9.12298
▁խաղ	-9.1237
▁գործերի	-9.12448
▁ունենում	-9.12462
▁անձնական	-9.12515
▁դրական	-9.12535
▁տարիներին	-9.12559
▁փետրվարի	-9.12643
P	-9.12665
▁որքան	-9.12885
▁Բացի	-9.13113
▁ոչինչ	-9.13154
▁փող	-9.13495
d	-9.135
▁խնդիրը	-9.13652
▁հանդիպել	-9.13703
թթ	-9.13799
ցի	-9.13847
▁լուրեր	-9.1386
երով	-9.13912
▁գործով	-9.13984
անալ	-9.14003
▁պատճառ	-9.14067
▁պաշտպան	-9.14116
ագր	-9.1417
▁կենտրոնում	-9.14206
▁առանձին	-9.14278
▁Մար	-9.14396
▁ընտրությունների	-9.14442
▁րոպե	-9.14492
▁Թերթ	-9.14523
▁օրենքով	-9.14589
▁այլեւս	-9.14751
▁կոմիտեի	-9.14828
▁միության	-9.15001
▁դարձավ	-9.15028
տա	-9.15073
▁մեկի	-9.15083
սկ	-9.15119
մա	-9.15343
▁խաղի	-9.15369
իզ	-9.15381
c	-9.15383
▁առջեւ	-9.15407
▁կայքում	-9.15494
ուշ	-9.15667
▁փողոց	-9.15706
▁հանդեպ	-9.15773
B	-9.15808
ապետ	-9.15887
▁Հիշեցնենք	-9.15937
en	-9.16117
▁խմբագրել	-9.16223
տեր	-9.16229
▁տոկոս	-9.16382
▁պարզապես	-9.16419
▁հանդիպման	-9.16577
▁E	-9.16646
▁Ռոբերտ	-9.16723
▁ուրախ	-9.16789
արան	-9.168
▁անվճար	-9.1684
▁գեղեցիկ	-9.16876
ադր	-9.16876
ոզ	-9.16941
▁թթ	-9.16995
▁այսպես	-9.1701
▁օրերին	-9.17023
▁սխալ	-9.17047
քը	-9.1715
▁թե՛	-9.17197
▁կապակցությամբ	-9.17218
]։	-9.17335
▁գիտական	-9.17364
▁առաջարկ	-9.17384
▁բացի	-9.17471
▁աշխատանքներ	-9.17498
▁ռուս	-9.17603
▁ծ	-9.17658
▁Ղարաբաղի	-9.17677
▁հայտնվել	-9.17795
▁նախագահը	-9.17806
▁Իմ	-9.17854
իմ	-9.17978
Զ	-9.18007
▁միջին	-9.18181
▁վ	-9.18295
▁համարվում	-9.18302
▁մասնագիտական	-9.18367
▁ներկայացված	-9.18555
▁հիման	-9.18558
▁•	-9.18907
▁օգոստոսի	-9.19153
ութիւն	-9.19429
▁Գր	-9.19451
▁կյանքը	-9.19511
▁եկեղեցու	-9.19789
▁ընտանիքի	-9.19815
ափ	-9.19863
▁բիզնես	-9.1994
%-	-9.19941
▁միակ	-9.19991
ուզ	-9.20063
Մենք	-9.2014
▁խնդիրների	-9.20187
▁ծրագիրը	-9.20246
▁G	-9.20282
աբան	-9.20315
w	-9.20321
ողական	-9.20549
▁հակա	-9.20654
▁ծրագրեր	-9.2066
▁որոշման	-9.20712
▁D	-9.21091
▁բաժնի	-9.21195
▁տեղեկացնում	-9.21214
▁անունը	-9.21301
գն	-9.21473
▁գործի	-9.21476
▁այցելել	-9.21539
իան	-9.21583
▁ուժեղ	-9.21585
▁հին	-9.216
▁ներկայացնել	-9.21611
▁թիվը	-9.21626
▁մարմինների	-9.21706
▁հիմնականում	-9.21754
▁ուղղակի	-9.21794
եան	-9.21861
▁բնական	-9.21998
ուհի	-9.22033
▁Ջ	-9.2209
▁գտնել	-9.22126
▁տես	-9.22127
▁T	-9.22253
աւ	-9.22354
▁փոխարեն	-9.2238
ուտ	-9.22497
▁խաղը	-9.22557
իտ	-9.22567
▁գալ	-9.22594
յուր	-9.22611
▁միավոր	-9.2263
▁խորհրդարանական	-9.2266
'	-9.22675
▁ավագանու	-9.22709
▁տ	-9.2271
▁հատ	-9.22866
Ֆ	-9.22911
▁կարգավորման	-9.22929
Ր	-9.23088
▁ստանալու	-9.23189
▁նախարարի	-9.23205
▁ուսումնական	-9.23302
▁Միացյալ	-9.23476
▁մնում	-9.23476
ությանը	-9.23653
▁ոլորտի	-9.23747
▁կազմ	-9.2381
▁ձայն	-9.23832
▁հիմնադրամի	-9.23912
▁ՄԱԿ	-9.23982
▁դաս	-9.24034
▁դեր	-9.2413
▁երկ	-9.24327
եզ	-9.2437
ատու	-9.24685
ագիր	-9.24742
▁ստանում	-9.24749
▁շրջանի	-9.2478
▁իհարկե	-9.24799
▁Փաշինյանի	-9.25008
▁դեպք	-9.25134
Չ	-9.25155
▁հույս	-9.25234
▁ձեռնարկ	-9.25335
O	-9.25609
re	-9.25807
Ծ	-9.25824
▁պակաս	-9.25844
_	-9.25889
իստ	-9.25891
▁ընկերությունը	-9.25932
ավար	-9.26045
▁կազմել	-9.26074
▁աշխարհ	-9.26136
ՄԱՆ	-9.26169
▁ինչու	-9.26267
▁հավասար	-9.26317
▁խաղաղ	-9.26407
▁գեր	-9.26697
▁աշխատանքների	-9.26699
▁ցեղասպանության	-9.26712
▁կնոջ	-9.26762
▁հերթին	-9.26802
▁բարդ	-9.2688
▁լրագրողների	-9.26925
▁#	-9.27072
▁հրապարակել	-9.27172
▁Մայր	-9.27243
լին	-9.27285
▁նախագծի	-9.27368
րել	-9.27385
▁Հար	-9.27401
▁կառավարությունը	-9.27402
▁գործողությունների	-9.27503
Հայաստան	-9.27527
(	-9.27549
▁տեղական	-9.27589
▁պատմական	-9.27753
երեն	-9.27783
▁դե	-9.27805
▁մարզում	-9.27924
▁Լի	-9.27946
le	-9.27986
▁խմբակցության	-9.28051
▁ինչի	-9.28084
▁[	-9.28147
բի	-9.28165
ացավ	-9.28319
▁սպասում	-9.28327
▁H	-9.2834
դր	-9.28527
▁մասնավորապես	-9.28585
▁նամակ	-9.288
այլ	-9.28804
▁բավականին	-9.28819
▁ծանոթ	-9.28855
▁քաղաք	-9.28919
▁Ֆրանսիայի	-9.2905
▁մաս	-9.2911
▁Դե	-9.29223
I	-9.29402
▁իրար	-9.29529
ույթ	-9.29553
▁տեսակ	-9.29622
▁Բոլոր	-9.2973
▁փաստ	-9.29776
▁ասած	-9.29855
▁մասի	-9.2987
իվ	-9.29988
▁դատարան	-9.30006
եցինք	-9.30055
▁կրթական	-9.30119
▁գոյություն	-9.30173
ահար	-9.30346
▁խորհուրդ	-9.30358
▁տեղում	-9.30527
▁եվրոպական	-9.30552
▁Ամ	-9.30618
▁պահանջ	-9.30759
օ	-9.30761
▁խնդիրները	-9.3084
▁լայն	-9.30852
▁հավաք	-9.30864
▁արդյոք	-9.30926
▁որոշումը	-9.31203
▁ծառայությունների	-9.31218
▁Աստված	-9.31232
▁պայքարի	-9.31257
▁Հայկ	-9.31357
▁բնակչության	-9.31436
▁ոք	-9.31464
▁միջոցների	-9.31476
▁ուժի	-9.3155
զի	-9.31573
▁քաղաքացիների	-9.31664
ագույն	-9.31664
▁ժամանակակից	-9.31682
▁նպատակ	-9.31726
▁հոր	-9.31757
▁իրականացնել	-9.31762
▁ստանալ	-9.31838
կար	-9.32053
▁պայմանավորված	-9.32285
վան	-9.32447
▁տարիների	-9.32563
▁պատրաստվում	-9.32595
նդ	-9.32598
▁մասնակցում	-9.32666
▁վճար	-9.32699
▁ճ	-9.32708
▁աշխատանքը	-9.32721
▁խումբ	-9.32742
ինգ	-9.32751
Ար	-9.32889
▁նկար	-9.32922
▁տարիներ	-9.33043
րան	-9.33045
յուն	-9.3305
▁փոքրիկ	-9.33068
ing	-9.33111
մեր	-9.33475
▁կարծիք	-9.33546
▁հասկանում	-9.33577
▁տալու	-9.33754
գործ	-9.33797
թա	-9.33879
▁միջոց	-9.34099
Ան	-9.34111
▁տա	-9.34188
▁արդյունք	-9.34262
▁տվյալների	-9.34267
մար	-9.34275
▁մասնակցելու	-9.34277
▁համեմատ	-9.34398
▁պայմաններում	-9.34438
▁հիմք	-9.3448
▁սահման	-9.34511
L	-9.34542
Ռ	-9.34571
▁օտար	-9.34658
▁գյուղի	-9.34663
▁ունենալու	-9.34676
▁կյանքում	-9.34723
▁―	-9.34943
▁զինված	-9.3499
▁ԵՎ	-9.35051
▁ապրել	-9.35084
▁աշխատանքները	-9.35153
▁բավական	-9.35243
▁արվեստի	-9.35311
▁հայտ	-9.35358
▁Ժ	-9.35453
▁Նախագահ	-9.35475
եթ	-9.35548
▁հզոր	-9.357
▁էջում	-9.35829
▁պարտավոր	-9.35921
▁պատասխանատու	-9.36012
ացնելու	-9.36022
▁օգտագործել	-9.36053
▁տեղափոխվել	-9.36069
▁խոսքով	-9.3614
▁լինեն	-9.36181
▁բանկի	-9.36184
ագետ	-9.36186
րե	-9.36429
▁թե՞	-9.3648
րո	-9.36681
▁չունեն	-9.36705
▁առթիվ	-9.36721
▁հայտարարեց	-9.36798
▁հարցին	-9.36903
Հայաստանի	-9.37008
▁Հոդված	-9.3703
▁հրապարակ	-9.37128
▁հարաբերությունները	-9.37134
▁R	-9.37139
▁Ավելի	-9.37227
▁հայերեն	-9.3723
▁Հովհաննես	-9.37241
չի	-9.37342
կի	-9.37362
▁օրենսգրքի	-9.37396
▁իրականացնում	-9.37534
▁անցել	-9.37536
▁տեսակի	-9.37615
խմբագրել	-9.37653
տես	-9.37658
▁բն	-9.37667
▁քարտուղար	-9.37783
▁գնալ	-9.3781
▁կատարված	-9.37896
▁Հիմա	-9.37896
▁Աս	-9.37926
▁շրջանակում	-9.37976
▁մնալ	-9.38059
▁հերոս	-9.38071
օր	-9.38162
▁պահանջում	-9.38175
▁դառնալ	-9.3823
▁դրանից	-9.38265
▁գործակալություն	-9.38503
▁միջոցառումների	-9.38568
քեր	-9.38578
p	-9.38702
Հայ	-9.38769
▁եւ՛	-9.3878
▁երեխայի	-9.38787
▁Հա	-9.39002
▁ծավալ	-9.39077
▁ընդունում	-9.39153
ur	-9.39201
▁մասով	-9.39369
G	-9.39447
▁Մեկ	-9.3945
▁լուսանկար	-9.39695
Ջ	-9.39818
▁որոշել	-9.39899
▁ընտրական	-9.3995
▁հավաքականի	-9.39999
▁քննարկել	-9.40137
▁տեսնել	-9.40192
նեն	-9.402
▁հոգեւոր	-9.40201
ով՝	-9.40228
իշ	-9.40233
ապատ	-9.40261
▁պարտադիր	-9.40292
▁դարի	-9.40458
▁ֆ	-9.40459
▁ուժ	-9.40571
▁ելույթ	-9.406
▁զինվորական	-9.40603
ch	-9.40723
▁պատմություն	-9.4073
▁ԵԱՀԿ	-9.408
▁առաջարկում	-9.40902
ումներ	-9.40974
▁ներկայացուցիչ	-9.40992
տե	-9.41006
▁երկիր	-9.41057
▁Ազատ	-9.4117
▁ընտր	-9.41214
իդ	-9.4122
on	-9.41503
▁թեմայով	-9.41619
▁մշտական	-9.41671
▁դեպ	-9.41744
տո	-9.41782
▁խիստ	-9.41987
▁Վարդան	-9.42003
▁առնելով	-9.4201
▁Սամվել	-9.42034
▁կախված	-9.42146
▁կլինեն	-9.42193
▁վտանգ	-9.42216
▁Այստեղ	-9.42226
▁քաղաքապետ	-9.42277
▁Արա	-9.42308
▁Ոչ	-9.42451
▁հայոց	-9.42464
▁հիշատակ	-9.42625
▁կատարվում	-9.42638
բան	-9.42732
▁հետագա	-9.42755
Ց	-9.42786
▁տրվում	-9.42876
դա	-9.42917
▁սկսում	-9.42927
▁կարգի	-9.42983
ra	-9.43016
▁միջոցներ	-9.43034
▁հայերի	-9.43066
▁ընկեր	-9.43159
▁տվեց	-9.43217
▁կտա	-9.43275
▁Ձ	-9.43389
▁հայտարարություն	-9.43417
▁թիմի	-9.43464
▁կգ	-9.43506
▁երեկ	-9.43525
▁բռն	-9.43533
Յ	-9.43551
▁կին	-9.43647
▁աշխատակազմի	-9.43742
R	-9.43936
ՆԵՐԻ	-9.43962
▁տնտեսության	-9.44008
▁ավագ	-9.44057
at	-9.44264
▁ճանապարհ	-9.44439
▁վայր	-9.44572
ՈՒ	-9.44682
▁>	-9.44785
արտ	-9.44999
ՈՐ	-9.45004
ում՝	-9.45051
▁տար	-9.45054
▁ցանկություն	-9.45124
ապահ	-9.45262
▁գործունեությունը	-9.45295
կամ	-9.45367
«	-9.454
ՙ	-9.45451
Ժողովուրդ	-9.45469
▁ցավ	-9.45533
▁եկավ	-9.45601
▁ձեւ	-9.45751
▁ԼՂՀ	-9.45826
▁տոն	-9.45864
▁հեշտ	-9.45974
▁քննարկում	-9.46104
▁կապերի	-9.46191
▁նորից	-9.46262
ՈՒԹՅԱՆ	-9.46269
▁խոսքը	-9.46291
▁իրավիճակը	-9.46368
▁Որ	-9.46418
m	-9.46424
▁հարմար	-9.46627
ՀՀ	-9.46701
մանը	-9.46742
▁երգ	-9.4676
▁պես	-9.46773
▁արդար	-9.4684
▁առաջնության	-9.46877
▁գործը	-9.46929
▁համակարգը	-9.47017
▁ենթակա	-9.47125
▁հակամարտության	-9.47152
▁L	-9.47183
▁չորս	-9.47195
▁հանգիստ	-9.47237
▁հանդիպումը	-9.47339
ամբ	-9.47385
▁մարդը	-9.47388
▁երկրներում	-9.47528
▁այդքան	-9.47532
▁վերադարձ	-9.4756
ացումը	-9.47689
▁գիտության	-9.47746
▁լրագրող	-9.48028
▁ընտրել	-9.48134
▁հրապարակում	-9.48146
▁արտահերթ	-9.48171
▁Ց	-9.48179
▁շահ	-9.48208
▁ռե	-9.48269
▁հող	-9.48324
ԱՍ	-9.48365
Ու	-9.48424
Ձ	-9.48566
▁չափով	-9.48568
▁էլեկտրոնային	-9.48617
գի	-9.48734
▁Օր	-9.48776
и	-9.48824
▁բերում	-9.48965
▁արդյունքները	-9.48997
▁մահացել	-9.49088
▁ամերիկյան	-9.49102
▁իրավունքի	-9.49103
▁դեպքերում	-9.49182
▁ծրագիր	-9.49246
▁մեղադրանք	-9.49356
▁տեղեկատվության	-9.49361
▁կարծես	-9.49482
նել	-9.49503
▁ուղղ	-9.49503
ումների	-9.49604
▁լ	-9.49608
ատուն	-9.49646
▁կինը	-9.49661
▁չեք	-9.49739
▁գործել	-9.49791
▁սահմաններում	-9.49911
▁դաշտ	-9.50043
▁ստիպված	-9.50196
ԱՄ	-9.50239
աբեր	-9.50305
▁Էլ	-9.50321
լուսանկարներ	-9.50328
’	-9.50383
▁Նորություններ	-9.50421
▁կարճ	-9.50451
▁Կա	-9.50524
▁սպասվում	-9.50544
▁ապահովել	-9.5056
▁հիվանդ	-9.506
▁մահվան	-9.50642
▁այդպիսի	-9.50698
ատար	-9.50716
▁տարբերակ	-9.50854
▁I	-9.50871
▁Ահա	-9.50998
g	-9.51063
▁հարկային	-9.51227
▁սեւ	-9.51267
▁թուրքական	-9.5128
արդ	-9.51331
▁մտածում	-9.51355
▁զգում	-9.51359
▁պահել	-9.51364
լա	-9.51387
it	-9.51553
▁վերա	-9.51584
▁խոսք	-9.51605
▁Ալեքսանդր	-9.51638
▁համալսարան	-9.51662
դեր	-9.517
▁նշան	-9.51724
▁տեղեկատվական	-9.51741
▁փորձել	-9.51756
տու	-9.51811
▁ունենա	-9.51926
▁ուր	-9.5194
▁Դու	-9.51961
հա	-9.51962
▁հանդիսանում	-9.52057
▁իրականացվում	-9.52078
▁ձեւով	-9.52095
▁Նշենք	-9.52166
▁Վլադիմիր	-9.52213
▁տեխնիկական	-9.52214
▁երկիրը	-9.52231
▁թափ	-9.52246
▁բանակի	-9.52268
▁Կենտրոնական	-9.52271
z	-9.52363
▁արտակարգ	-9.52416
F	-9.52452
▁մրցույթ	-9.52478
▁Վերջին	-9.52551
այում	-9.52551
▁կերպով	-9.52583
▁Լա	-9.52595
ակալ	-9.52607
▁հասել	-9.52615
ացրել	-9.52632
ո՞ւմ	-9.52742
▁գույքի	-9.52759
▁կայուն	-9.52821
▁լսել	-9.5285
ինք	-9.52865
▁ադրբեջանական	-9.52908
▁ստեղծված	-9.52944
▁օգտագործման	-9.52984
եդ	-9.53133
▁կատարած	-9.53138
▁K	-9.53163
▁ԵՊՀ	-9.53246
քան	-9.53281
▁անցյալ	-9.53305
▁կայացած	-9.53416
▁մնացել	-9.53424
▁Գրիգոր	-9.53446
▁ծնվել	-9.53464
▁նախա	-9.53466
ed	-9.53514
ողների	-9.5355
▁առնվազն	-9.53625
եգ	-9.53691
▁չնայած	-9.53721
▁կապի	-9.53771
▁գազ	-9.53802
ԱՏ	-9.5383
▁ապահովում	-9.53903
▁ամենը	-9.53911
▁ՀԿ	-9.53935
▁հեռու	-9.53959
▁վիճակում	-9.54019
▁V	-9.54025
▁ֆիզիկական	-9.54161
▁Եվրոպական	-9.54202
▁թուրք	-9.54279
AM	-9.54381
▁մասնակից	-9.54421
▁երբեմն	-9.54444
▁Եր	-9.54451
ասաց	-9.54614
▁պետություն	-9.54621
▁խոսքով՝	-9.54734
▁կոնկրետ	-9.54815
▁ավել	-9.54815
;	-9.54875
▁աճ	-9.54921
▁թարգման	-9.54982
▁մոր	-9.55098
▁կենտրոնական	-9.55098
▁Թուրքիան	-9.5521
▁մար	-9.55248
▁մայր	-9.55249
չական	-9.55267
▁ո՛չ	-9.55271
▁մտ	-9.55281
▁ծառայություն	-9.5533
▁չէին	-9.55452
▁մնացած	-9.55464
▁քայլեր	-9.55479
▁հարցի	-9.55488
▁հոգ	-9.55521
▁W	-9.55578
▁թվականից	-9.55578
ինչ	-9.55635
▁աստիճան	-9.55686
▁Գերմանիայի	-9.55727
▁հայտնեց	-9.55727
▁տարածքային	-9.55743
▁նախագիծը	-9.55864
տր	-9.55889
յո	-9.55895
▁անդամների	-9.55918
ավան	-9.55919
▁սենյակ	-9.5594
զա	-9.55979
▁տարածք	-9.55993
▁դրան	-9.55998
▁Հարությունյանը	-9.56019
▁կես	-9.56038
▁գյուղ	-9.56056
▁առաջատար	-9.56171
▁ուղեւոր	-9.56172
.)	-9.56253
թեր	-9.5627
▁դերասան	-9.5632
ԵԼ	-9.56322
▁սկսած	-9.56342
▁Մարտի	-9.56454
▁շենքի	-9.56513
▁գրող	-9.56529
▁չար	-9.56567
▁տեսել	-9.56666
▁ազդեցություն	-9.56703
ոգ	-9.56703
▁հիվանդանոց	-9.56739
▁հետագայում	-9.56789
▁հո	-9.568
▁Գործ	-9.56949
▁սկսեց	-9.56972
▁կարգ	-9.57
▁ունեմ	-9.57035
▁ավելին	-9.571
▁անմիջապես	-9.57193
աձեւ	-9.57244
▁որում	-9.57334
▁ընդ	-9.57341
▁իշխանությունների	-9.57344
▁ջերմ	-9.57434
▁ուղիղ	-9.57526
յակ	-9.5756
անալու	-9.57624
H	-9.57649
գան	-9.57668
ենտ	-9.5772
Մի	-9.57772
պես	-9.57786
▁հաղթանակ	-9.57827
▁միջ	-9.57977
▁քննարկման	-9.58003
տան	-9.58009
▁կազմակերպել	-9.5805
▁կատարվել	-9.58119
▁Ադրբեջանը	-9.58123
▁տեր	-9.58136
▁Դրա	-9.58194
▁համերգ	-9.58302
▁ճանաչում	-9.58465
▁բաժին	-9.58516
դե	-9.5852
▁Համ	-9.58547
▁(«	-9.58665
▁որին	-9.58688
▁ՊՆ	-9.58722
՚	-9.58741
—	-9.58807
▁տարին	-9.58897
▁աղ	-9.5891
▁զենք	-9.58918
▁սիր	-9.59088
▁դպրոցում	-9.59236
՜	-9.5933
▁մանրամասն	-9.59358
ՆԵՐ	-9.59392
h	-9.59434
լո	-9.5945
▁ջրի	-9.5949
▁հինգ	-9.59512
▁Աշոտ	-9.59672
ակից	-9.59828
թե	-9.59916
▁հասնել	-9.59946
▁անցնում	-9.59974
▁ղեկավարի	-9.60012
▁չպետք	-9.6005
▁տեխնոլոգիաների	-9.6005
▁նյութեր	-9.60075
▁ընդհանրապես	-9.60087
us	-9.60087
ոդ	-9.60114
▁գործընթացը	-9.60136
▁ընտրություններին	-9.60173
▁նպատակն	-9.60256
▁գործողություններ	-9.60274
▁տարբերություն	-9.60309
▁ապահովման	-9.60321
▁ամբողջական	-9.60407
▁Գեւորգ	-9.60414
▁լի	-9.60536
▁պահպանման	-9.60553
▁միեւնույն	-9.60583
վե	-9.6064
տոն	-9.60678
▁չես	-9.60716
▁Կարապետյանը	-9.60726
▁որից	-9.60757
▁պարագայում	-9.60809
▁վիճակը	-9.60827
▁Նյու	-9.60855
▁սեր	-9.60912
▁Ընդ	-9.60945
գա	-9.60956
▁աշխատող	-9.60972
▁ինքնա	-9.61038
▁հրամանատար	-9.6104
▁ԵՐԵՎԱՆ	-9.61077
մեն	-9.61079
▁իսկապես	-9.61126
▁ահա	-9.61229
is	-9.61309
նիկ	-9.61372
նչ	-9.6144
▁առողջ	-9.61473
▁Մոսկվայի	-9.61497
▁գործունեություն	-9.61543
Ժ	-9.6159
▁իրականում	-9.61592
▁սարք	-9.61629
▁ուղարկել	-9.61641
▁գրավ	-9.61679
▁նախարարությունը	-9.61716
▁կո	-9.6173
▁ՀՅԴ	-9.61761
▁ՄԱՍԻՆ	-9.61794
▁մարզիչ	-9.61808
▁արտասանություն	-9.61829
▁անցած	-9.6184
▁հի	-9.62018
▁մոդել	-9.62228
▁քաղաքացի	-9.62318
▁մարդկային	-9.62342
լանդ	-9.62437
▁միասնական	-9.62454
աճ	-9.62514
նենք	-9.62521
▁մլրդ	-9.62587
▁լուծման	-9.62594
անգլ	-9.62724
ավորված	-9.62903
▁Ռուսաստանը	-9.62943
+	-9.62959
о	-9.63004
▁դատավոր	-9.63137
е	-9.63185
▁վիճակի	-9.63201
▁պատասխանեց	-9.63263
▁պնդում	-9.63297
առն	-9.63316
el	-9.63482
▁դեպքի	-9.63495
ասեր	-9.63515
լե	-9.63533
▁Կարող	-9.63542
▁վախ	-9.63567
Իմ	-9.636
▁բողոքի	-9.63667
▁պատճառը	-9.63848
▁Կր	-9.63876
▁ներկայացուցիչների	-9.63908
▁զոհ	-9.6407
▁ներքո	-9.64099
▁Կար	-9.64145
ՈՂ	-9.64166
▁փողոցում	-9.64185
▁վիճակ	-9.642
▁հարեւան	-9.64206
▁[...]	-9.64213
▁բանաստեղծ	-9.64219
▁հակառակ	-9.64229
▁տանը	-9.6433
▁անձինք	-9.64364
▁հաշվով	-9.6453
▁տեղը	-9.64609
▁կեղծ	-9.64834
▁ընկերությունների	-9.64849
▁կյանք	-9.64893
անկ	-9.64971
▁Սիրիայի	-9.64997
▁չեմպիոն	-9.65104
▁գալու	-9.65142
▁միմյանց	-9.65185
Այս	-9.65214
▁Երկրորդ	-9.65367
▁կուսակցություն	-9.65375
▁ինչո՞ւ	-9.65395
▁No	-9.65445
ավորման	-9.65456
▁չափազանց	-9.65525
▁խնդրի	-9.6556
▁Ստ	-9.65582
▁պետությունների	-9.656
‎	-9.65651
▁հասանելի	-9.65673
▁Քոչարյանի	-9.6569
գեն	-9.65706
▁երաժշտական	-9.65768
եի	-9.65847
▁Ճ	-9.6598
▁օգտակար	-9.66004
▁կատարման	-9.66159
▁ցածր	-9.66169
անտ	-9.6626
▁անհատական	-9.66282
▁on	-9.66291
ավորում	-9.66312
▁Վի	-9.66333
▁կոր	-9.66384
▁հաստատ	-9.66388
▁Սույն	-9.66406
ԱԼ	-9.66409
▁կայքը	-9.66437
▁Բա	-9.6645
▁Պետք	-9.66457
▁գործարար	-9.66487
▁կողմը	-9.66492
▁հաշվարկ	-9.66639
▁Ման	-9.66681
▁իրավիճակ	-9.66728
▁սիրելի	-9.66756
▁կինո	-9.66816
▁բոլորը	-9.66845
ացող	-9.66848
▁ամբողջությամբ	-9.66909
▁մարզպետ	-9.66909
ռն	-9.66974
ագործ	-9.66987
▁Նման	-9.67012
▁ստացվել	-9.67075
▁կանգնած	-9.67228
▁Այլ	-9.67259
▁լեզվի	-9.67275
▁եղանակ	-9.67282
▁ակումբի	-9.67285
պատ	-9.67302
ոնի	-9.67361
▁փոխել	-9.67416
▁կաթ	-9.67462
▁երեւույթ	-9.67463
▁քար	-9.67469
սպ	-9.67471
աւոր	-9.6755
▁իրականացնելու	-9.67553
Ելք	-9.67579
Երեւան	-9.67602
▁ԱԱԾ	-9.67628
յանն	-9.67632
▁սպիտակ	-9.67639
▁առիթ	-9.67646
▁վտանգավոր	-9.67663
Փ	-9.67702
▁լրացուցիչ	-9.67704
▁Ղ	-9.67735
▁գիշեր	-9.67748
ուդ	-9.67812
▁բաներ	-9.67908
▁ստեղծվել	-9.67917
▁մակարդակի	-9.67936
▁փուլում	-9.67988
▁ստեղծման	-9.68003
▁վառ	-9.68099
▁գոնե	-9.68125
▁բարձրագույն	-9.68143
▁բարի	-9.68193
▁մասն	-9.68212
▁նշանակություն	-9.68214
▁տեղեկություններ	-9.68252
▁Սերգեյ	-9.68291
▁ընկած	-9.68297
պի	-9.68304
ոթ	-9.68334
▁սահմանափակ	-9.68381
ԱՌ	-9.68393
▁Արտասանել	-9.68528
▁ամսվա	-9.68583
▁որոշմամբ	-9.68703
կեր	-9.68751
▁ջր	-9.68758
▁ինչպե՞ս	-9.68807
▁Վեր	-9.68842
▁Շիրակի	-9.6885
▁միաժամանակ	-9.68884
▁մնաց	-9.68887
րին	-9.68933
▁Կան	-9.68955
▁լիազոր	-9.6902
օգտագործ	-9.69061
▁քաշ	-9.69075
▁կարծիքով	-9.6916
▁շնորհ	-9.69191
▁ծննդյան	-9.69211
▁ուներ	-9.69219
▁դրությամբ	-9.69264
▁լուծում	-9.69309
▁հասկանալ	-9.69341
▁դատարանը	-9.69371
▁մեկնել	-9.69553
▁գործընթաց	-9.69574
▁հավատ	-9.69639
մբ	-9.69712
▁անհատ	-9.69744
▁նախնական	-9.69746
▁օնլայն	-9.69769
▁գործադիր	-9.69774
▁որոնցից	-9.69834
▁ժողովրդական	-9.69872
▁պայմանագիր	-9.69895
▁վերջո	-9.69931
▁գաղափար	-9.69942
▁փաստաբան	-9.69951
▁Իհարկե	-9.70022
ՈՎ	-9.70022
▁եվրո	-9.70095
ախոս	-9.70264
▁ծառայությունը	-9.70272
▁հաստատել	-9.70323
▁ընտրության	-9.70325
▁Նույն	-9.70405
▁անձ	-9.70629
▁օրեր	-9.7079
▁կրում	-9.70814
а	-9.70824
▁կանայք	-9.7089
▁նախարարը	-9.70935
աստ	-9.70967
▁Սարգսյանն	-9.7099
▁կարգավիճակ	-9.70999
▁Հարավային	-9.71032
▁ՓԲԸ	-9.71134
▁ցանկ	-9.71192
▁դար	-9.71201
ափոխ	-9.7127
▁ջուր	-9.71316
տակ	-9.71635
▁ֆուտբոլիստ	-9.7175
▁մետր	-9.71856
▁արտադր	-9.71934
▁մեթոդ	-9.71949
▁աս	-9.72075
▁օգնել	-9.72115
▁հարթակ	-9.7222
▁պատմ	-9.72344
Արմենպրես	-9.72346
▁հարցերով	-9.72347
▁Կենտրոն	-9.72374
▁ուշադրություն	-9.72382
▁սահմանադրական	-9.7242
▁հիմնադիր	-9.72656
▁Ինձ	-9.72662
▁արեւ	-9.72717
▁բնակիչ	-9.72745
▁իրավաբանական	-9.72796
▁ավարտել	-9.72882
▁զոր	-9.73064
րու	-9.73094
▁տաք	-9.73108
▁հայտնաբերվել	-9.73161
▁ենթարկվել	-9.73163
▁Որոշ	-9.73265
▁բազմ	-9.73265
աբանական	-9.73287
▁Սարգսյան	-9.73311
եխ	-9.7337
▁ստեղծում	-9.73441
▁ինստիտուտի	-9.73461
ՈՒԹՅՈՒՆ	-9.73522
▁ֆեյսբուքյան	-9.73528
▁Ռա	-9.73537
▁պլան	-9.73629
▁Նրանց	-9.73705
▁պայմանագրի	-9.73706
ԱՅ	-9.73707
ԱՀ	-9.73724
,—	-9.73736
▁գյուղում	-9.739
▁բանակ	-9.73997
▁News	-9.74007
▁վիրավոր	-9.74079
▁առաջիկա	-9.74096
▁խոս	-9.74116
▁հանրապետության	-9.74122
▁Չնայած	-9.74125
▁շարունակել	-9.74129
▁օգտագործում	-9.74148
▁համա	-9.74186
▁դասարան	-9.74187
ri	-9.7419
եին	-9.7431
▁J	-9.74355
▁մասնավոր	-9.7439
արի	-9.74402
▁պատմությունը	-9.74421
▁խնդրում	-9.74426
▁չկան	-9.74432
▁մշտապես	-9.74484
▁մայրաքաղաք	-9.74509
▁ժողովուրդը	-9.74513
շի	-9.74521
▁Հյուսիսային	-9.7453
▁իրականացվող	-9.74535
▁նիստը	-9.7456
▁իշխանությունները	-9.74594
▁Մա	-9.74672
լան	-9.74673
▁շրջ	-9.74708
▁Աստծո	-9.74725
▁հարաբերություններ	-9.74762
▁սենյականոց	-9.74786
▁թվում՝	-9.74973
գար	-9.74975
▁մեկին	-9.7499
ագիտական	-9.75145
▁երեխա	-9.7518
▁սովորել	-9.75316
▁որակ	-9.75359
▁տասնյակ	-9.75364
▁մասնագետ	-9.75376
▁բա	-9.7544
▁ներկայացուցիչներ	-9.75466
▁Պետական	-9.7551
▁փոփոխությունների	-9.75517
▁իրականացնող	-9.75566
սա	-9.75586
▁մուտք	-9.75636
ահան	-9.75646
▁գտնում	-9.75675
▁Հովհաննիսյանը	-9.75777
▁առողջության	-9.75779
▁պաշտոն	-9.75831
▁փուլ	-9.75847
բա	-9.75873
▁հան	-9.75902
դիր	-9.75948
▁Յ	-9.76107
գո	-9.76119
▁շարժման	-9.76138
▁կողքին	-9.76153
▁ժամանակահատվածում	-9.76238
▁օրինական	-9.76319
▁ներկայացրեց	-9.76332
Ճ	-9.76384
▁նշվում	-9.76472
▁գոլ	-9.76475
աչ	-9.76482
ru	-9.76528
▁հայաստանյան	-9.76531
▁արտադրության	-9.76556
րոն	-9.76566
▁բար	-9.76568
▁Հոկտեմբերի	-9.76586
Մանչեսթեր	-9.76621
▁փոփոխություն	-9.76649
ad	-9.7667
համ	-9.76707
▁հանրության	-9.7674
▁թարմ	-9.76806
▁պատմում	-9.76886
▁մտնում	-9.76898
▁Հայտնի	-9.7692
▁սպաս	-9.76934
▁նախկինում	-9.76942
▁Սար	-9.77041
▁պատասխանել	-9.77152
▁Ռուբեն	-9.77168
▁ուժերը	-9.77178
հար	-9.77187
▁վար	-9.77257
▁ֆիլմի	-9.77266
▁գնաց	-9.77295
▁գուցե	-9.77296
▁գա	-9.77321
▁Հանրային	-9.77341
▁գրառում	-9.77344
▁են՝	-9.77426
ահայ	-9.77445
▁գնա	-9.77484
N	-9.77518
▁անձը	-9.77612
եպ	-9.7763
ԱՎ	-9.77836
▁պատմել	-9.7787
Եթե	-9.77903
ութիւնը	-9.77916
▁աջակցություն	-9.77924
▁օ	-9.78025
j	-9.78066
▁թեեւ	-9.78144
ԻՐ	-9.78157
իկա	-9.78184
ագրեր	-9.78219
տիկ	-9.78223
▁քաղաքականություն	-9.78262
▁խումբը	-9.78302
▁հարված	-9.78399
▁կտր	-9.78414
▁Կո	-9.78433
▁համայնքների	-9.78439
▁տվյալները	-9.78447
▁ջան	-9.78461
էն	-9.78518
▁կը	-9.78561
▁Էջմիածնի	-9.78612
▁ապրանքների	-9.78612
ստր	-9.78625
ագրի	-9.78638
▁իշխանությունը	-9.78727
ենց	-9.78758
▁Զրուցարան	-9.78758
ագրություն	-9.78779
).	-9.7883
▁փոխանցում	-9.78873
▁անելու	-9.78897
գլ	-9.78904
ոկ	-9.78907
▁այսօրվա	-9.78911
▁ժողովրդին	-9.78977
▁Կառավարության	-9.79038
անգ	-9.79054
▁ՆԱՏՕ	-9.79077
▁ընդդիմադիր	-9.79083
աշար	-9.79156
▁մաքսային	-9.79171
▁շուտ	-9.79184
սը	-9.79217
▁խորհրդարանի	-9.79341
la	-9.79388
▁մարտական	-9.79407
▁նկատել	-9.79414
▁անդամները	-9.79468
▁գնահատում	-9.79468
աստան	-9.79476
▁գործիչ	-9.79588
արձակ	-9.79634
ակարգ	-9.79667
կին	-9.79718
▁երեկոյան	-9.7975
նջ	-9.79774
▁եղավ	-9.79794
▁շնորհակալություն	-9.79831
▁գրադարան	-9.79847
▁բողոք	-9.79881
▁ապահով	-9.79908
լու	-9.79965
ոք	-9.79969
▁կդառնա	-9.80129
▁բաները	-9.80132
▁ուրեմն	-9.80153
▁էջը	-9.80265
▁դաշինքի	-9.80313
պեր	-9.80316
▁տոկոսը	-9.80318
▁մանր	-9.80324
x	-9.80334
▁ավանդ	-9.80394
▁բացասական	-9.80518
▁աչքի	-9.80552
▁հայտարարում	-9.80587
▁ճանաչել	-9.80602
▁հարուստ	-9.80616
ունակ	-9.80743
▁նշանակվել	-9.80776
ic	-9.80853
▁շարունակվում	-9.80892
▁ընտրություններ	-9.80893
▁արդարադատության	-9.80943
եհ	-9.80954
▁հրաժարվել	-9.81006
▁մէջ	-9.81014
գեր	-9.81015
▁արդյունքների	-9.81023
▁Նախ	-9.81066
▁ահազանգ	-9.81078
▁կարգը	-9.81118
ԱԶ	-9.81174
▁զինծառայող	-9.81207
ro	-9.81224
▁առաջարկել	-9.81232
▁ներկայացնելու	-9.81279
դին	-9.81281
▁եղած	-9.81345
պր	-9.81395
▁արձագանք	-9.81404
▁պայմաններ	-9.81408
▁ծով	-9.81463
es	-9.81668
▁միջավայրի	-9.81736
▁գործընկեր	-9.81761
▁պահպանել	-9.81835
▁օգնության	-9.81868
▁զոհերի	-9.81883
▁Թուրքիայում	-9.81888
▁ընկերություն	-9.8189
▁հիշում	-9.81994
տն	-9.81999
▁ծնված	-9.82006
Նոր	-9.82121
▁Ո	-9.82128
▁արտասանել	-9.82154
կոն	-9.8226
▁The	-9.82287
▁գնահատել	-9.82296
եցնել	-9.82303
քն	-9.82306
ԵՆ	-9.82307
▁աշխատակիցների	-9.82329
▁Տես	-9.82337
Ծառուկյան	-9.82367
յով	-9.82396
▁մա	-9.82588
օրյա	-9.82613
▁հաղորդ	-9.82657
▁►	-9.82671
▁ԱԳՆ	-9.82684
▁համակարգում	-9.8274
▁սր	-9.82748
▁դիրք	-9.82766
֊	-9.82797
վածք	-9.82836
▁հարցերը	-9.82859
▁Ապրիլի	-9.82902
ջի	-9.82914
▁էդ	-9.82959
▁Դի	-9.83086
▁Այժմ	-9.83095
▁եմ՝	-9.83098
▁Սիր	-9.83161
▁հետեւում	-9.83179
▁ցանց	-9.83234
▁դրամի	-9.83265
▁առեւտրային	-9.83329
ակը	-9.83356
▁սկսվել	-9.83392
▁ժ	-9.83402
Մեր	-9.83402
▁օպերատիվ	-9.8341
▁որով	-9.83437
▁հարկավոր	-9.83467
un	-9.83507
▁պատերազմ	-9.83556
ֆոտո	-9.83596
▁լուծել	-9.83637
▁լս	-9.8365
աժ	-9.83673
▁իրականացվել	-9.83702
▁վարձ	-9.83773
▁խոսնակ	-9.83782
▁նշելով	-9.83801
իստական	-9.83895
▁հետեւ	-9.83902
▁թվով	-9.83904
▁Քանի	-9.83987
▁դի	-9.83988
▁հայտարարության	-9.8399
▁ճանապարհը	-9.84009
▁ռեժիսոր	-9.84012
ագրական	-9.84088
▁Ին	-9.84152
▁սովորական	-9.84182
▁Գրիգորյանը	-9.84208
▁ծառայություններ	-9.84259
եստ	-9.8426
▁հար	-9.8428
▁մասնակցությամբ	-9.84285
րեց	-9.84297
▁տեսք	-9.84308
▁հաղթող	-9.84391
▁Chat	-9.84394
▁առեւտրի	-9.84491
▁միջոցառումներ	-9.84519
▁ԲՀԿ	-9.84527
արգ	-9.8457
▁Նախարար	-9.84595
ացնի	-9.84623
▁դր	-9.84647
▁անդրադարձել	-9.84665
▁Սեպտեմբերի	-9.84686
▁ՀԱՊԿ	-9.84698
▁անգլերեն	-9.84712
▁երգեր	-9.84774
▁իմաստ	-9.84843
▁Երկու	-9.84897
et	-9.84908
▁հագուստ	-9.8492
▁բնույթ	-9.84991
ամաս	-9.85008
▁լուսանկարներ	-9.85035
ե՛ք	-9.8512
▁մասնակիցների	-9.85209
▁ուշադրության	-9.85211
▁թերթը	-9.85227
▁ղեկավարը	-9.85238
▁Կարծում	-9.85247
▁պատժ	-9.85342
▁դառնա	-9.85362
երգ	-9.85429
ունի	-9.8545
▁ապօրինի	-9.85451
ացու	-9.85483
▁գլխ	-9.85491
▁անընդհատ	-9.85491
▁բուժ	-9.85493
▁զբաղվել	-9.85564
▁Թրամփի	-9.85589
▁գումարը	-9.85648
▁վարչապետը	-9.85745
▁անվանում	-9.85759
կատ	-9.85812
ագիտության	-9.85876
▁կազմակերպում	-9.85878
▁եկեղեցին	-9.85903
▁նիստի	-9.8599
▁նրանից	-9.86034
օրինակ	-9.86071
▁կր	-9.86091
▁նվազագույն	-9.86132
▁Ուկրաինայի	-9.86141
▁փոխնախագահ	-9.86151
▁մարմինը	-9.86182
▁ներկայացվել	-9.86215
▁կայքի	-9.86257
▁դեպքերի	-9.8626
Հրապարակ	-9.86263
U	-9.86277
▁կապիտալ	-9.86278
V	-9.86295
st	-9.86337
▁գրքի	-9.86394
վազ	-9.86421
▁արտգործնախարար	-9.8643
W	-9.86508
տոր	-9.86514
▁Միայն	-9.86547
▁Միջազգային	-9.86606
աջ	-9.86795
նես	-9.86806
▁մշակ	-9.86835
▁պարոն	-9.86849
Սա	-9.8688
▁նախարարություն	-9.86901
▁նպաստ	-9.86992
т	-9.87049
▁սպան	-9.87054
▁աջակցության	-9.87095
▁պաշտոնում	-9.87096
▁տեղեկատվություն	-9.87124
▁քաղ	-9.87146
▁երեխաներին	-9.87177
▁Վան	-9.87209
▁գրական	-9.87209
ակցություն	-9.8729
▁առավոտյան	-9.87315
▁հանձնաժողով	-9.87323
▁ապագա	-9.87359
▁ընտանիք	-9.8736
▁դիմ	-9.87413
][	-9.87448
▁գիտությունների	-9.87457
▁դիտ	-9.87469
▁ճանապարհով	-9.87507
▁ներկայացուցիչները	-9.8753
▁դոլարի	-9.87555
▁Ինչպե՞ս	-9.87585
▁ստացած	-9.87623
▁անունով	-9.87632
▁հետեւել	-9.87648
ույն	-9.87653
▁հոդվածներ	-9.87657
▁կազմակերպման	-9.87718
▁արտա	-9.87745
թար	-9.87755
▁պաշտոնը	-9.87902
▁վերաբերող	-9.87946
▁վերջնական	-9.87977
▁տրված	-9.88005
▁բառ	-9.88008
▁գործընթացի	-9.88019
▁Ջոն	-9.88053
▁զբաղվում	-9.88061
▁խաչ	-9.88086
▁ԱՐՄԵՆՊՐԵՍ	-9.88144
ատան	-9.8815
ol	-9.88259
▁հեռաց	-9.88353
▁դարձ	-9.88387
ատր	-9.88453
ուռ	-9.88463
▁գող	-9.88534
ի՛ր	-9.88562
▁նպատակը	-9.8867
▁հավաքական	-9.88685
սպառ	-9.88735
▁գրված	-9.88766
▁տրամադրել	-9.88872
սան	-9.88875
▁գրանցվել	-9.88892
as	-9.88918
▁նիստում	-9.88951
մե	-9.89009
▁թվականներին	-9.89026
▁ընդունվել	-9.89064
▁հեռախոս	-9.89086
ից՝	-9.89121
▁Աննա	-9.89123
տին	-9.89134
▁Գրիգորյանի	-9.89145
v	-9.89184
▁դարձնել	-9.89191
▁տված	-9.89234
▁քաղաքապետարանի	-9.89249
um	-9.89263
▁այսպիսի	-9.89296
պար	-9.89302
ույ	-9.89304
▁pp	-9.89325
▁օգտվել	-9.89337
▁հռչակ	-9.89345
ԱՅԻՆ	-9.89387
▁անցնել	-9.89428
▁Հանրապետությունում	-9.89447
ացվել	-9.89477
▁նախագահական	-9.89502
▁Թրամփը	-9.89564
▁աղբյուր	-9.8957
Ժամանակ	-9.8958
▁մահ	-9.89614
▁Մարդու	-9.89624
ստան	-9.8966
▁Լոռու	-9.89681
▁բյուջեի	-9.8969
▁կոչում	-9.89792
ենի	-9.89803
▁բոլորին	-9.89827
с	-9.89837
▁շրջանների	-9.89845
▁ընդգծել	-9.89915
▁գաղտնի	-9.8993
ույս	-9.89991
▁մտածել	-9.9003
▁կազմակերպված	-9.9011
▁ցուցադր	-9.90119
լեր	-9.90121
▁բեմ	-9.90126
▁ծառ	-9.90155
▁օգնում	-9.90188
▁Երեկ	-9.90258
անկար	-9.90262
դեն	-9.90265
▁Նոյեմբերի	-9.90307
▁կրակ	-9.90318
▁հաճելի	-9.90416
▁ներառում	-9.90442
▁Քո	-9.90454
ia	-9.90488
▁ազատության	-9.90626
▁հանել	-9.90636
բաց	-9.90643
▁գրականության	-9.90679
▁Հենց	-9.90725
▁գիտ	-9.90763
▁ֆիլմ	-9.90772
▁տեսանկյունից	-9.90789
ուխ	-9.90844
▁վերջերս	-9.90886
▁ԽՍՀՄ	-9.90933
արանի	-9.91
▁Արդեն	-9.91044
▁ընդունված	-9.91064
▁գնել	-9.91073
▁կատար	-9.91085
▁Արարատ	-9.91145
▁հոգի	-9.91161
յին	-9.91166
▁Տարոն	-9.91216
մին	-9.91367
▁մասում	-9.91425
▁ամենամեծ	-9.91436
▁հասնում	-9.91443
կային	-9.91505
▁Հաջորդ	-9.91514
▁համալիր	-9.91575
▁Թա	-9.91602
▁հաղթել	-9.9164
▁գտնվել	-9.91692
▁մտքեր	-9.91717
▁օգնություն	-9.91767
▁երեւում	-9.91778
▁ակնհայտ	-9.91835
▁գտել	-9.91858
պտ	-9.9186
▁ինստիտուտ	-9.91867
▁Comments	-9.91886
դու	-9.91917
▁գծով	-9.91922
▁փրկ	-9.92141
▁եռ	-9.92144
▁վաղուց	-9.92158
▁Կարապետյանի	-9.92258
▁քաղաքապետի	-9.92272
▁գեներալ	-9.92295
▁Off	-9.92297
▁արյուն	-9.9235
▁հատվածում	-9.92426
ոսի	-9.9253
▁Չի	-9.92538
▁կողմի	-9.92541
ռա	-9.92597
▁մեղավոր	-9.92599
▁աստղ	-9.92658
▁բժիշկ	-9.92736
▁նայում	-9.92746
▁պաշտոնակատար	-9.92848
▁թէ	-9.92885
ագրում	-9.92906
▁ձգտում	-9.92912
▁ուստի	-9.92952
▁գլուխ	-9.93021
▁Հարց	-9.93025
ուհու	-9.93059
▁+	-9.93078
▁բացման	-9.93112
▁որդին	-9.93137
▁որակի	-9.93149
▁իմանալ	-9.93171
▁փաստեր	-9.93253
▁բացառիկ	-9.93255
անքի	-9.93322
▁տարում	-9.93347
ախտ	-9.93353
▁հիմնավոր	-9.93382
▁անկախության	-9.93386
▁մարմին	-9.93434
▁ունենալով	-9.93441
▁ավանդույթ	-9.93453
▁Ռո	-9.93496
աձ	-9.93513
▁մեկում	-9.93514
▁այնուհետեւ	-9.93542
▁խաղալ	-9.93571
▁թանգարան	-9.93572
▁Տար	-9.9358
▁թատրոնի	-9.9358
▁արժեք	-9.93587
անձ	-9.93603
▁ծախս	-9.93618
▁Ռուսաստան	-9.93644
▁հղում	-9.93668
▁առողջապահության	-9.93757
▁նախաձեռնությամբ	-9.93759
▁ոլորտներում	-9.9379
▁պայքարում	-9.93851
▁առաջադրվել	-9.93858
ազար	-9.93858
▁Արման	-9.93879
▁թաղ	-9.93902
▁Մոսկվայում	-9.93968
▁ապահովելու	-9.94004
▁աշխարհը	-9.94012
▁Գիտ	-9.94047
պա	-9.94146
▁ՀԱՅԱՍՏԱՆԻ	-9.94175
խտ	-9.94232
▁ժամանակին	-9.9424
▁օրն	-9.94278
▁պայքար	-9.94287
▁գազի	-9.9432
▁նեղ	-9.9436
▁իշխանություն	-9.94382
▁զգալի	-9.94389
▁կասկած	-9.944
▁Մայիսի	-9.94407
▁հրդեհ	-9.94432
th	-9.94458
▁հանրապետական	-9.94486
▁ներկայիս	-9.94493
▁Ամենայն	-9.94511
պետ	-9.9453
վելով	-9.94578
յանին	-9.94623
▁շատերը	-9.94648
K	-9.94694
ոյանը	-9.94698
▁թանկ	-9.947
▁նախագիծ	-9.94767
▁դրված	-9.94793
▁իրավունքը	-9.94927
▁բարեփոխումների	-9.94934
▁Ամերիկայի	-9.94986
▁→	-9.95018
▁գործողությունները	-9.95057
խր	-9.95082
▁բնորոշ	-9.95101
▁բանկ	-9.95101
ԱՑ	-9.95126
▁դիվանագիտական	-9.95156
ականների	-9.95175
զմ	-9.9518
▁կիրառել	-9.95183
▁նախընտրական	-9.95208
▁գտն	-9.95268
▁ուժեր	-9.95274
▁նախատեսվում	-9.95301
սեն	-9.95336
▁ինչքան	-9.95377
▁կետեր	-9.95495
▁լինելով	-9.95506
▁Հանդիպման	-9.95521
▁բերելու	-9.95529
▁հանուն	-9.95536
ay	-9.95555
▁Պատ	-9.95564
▁հավ	-9.95604
▁Հանրապետական	-9.95621
▁ավանդական	-9.95668
▁ուսանողների	-9.95675
▁տարածաշրջանային	-9.95713
▁սրտի	-9.95713
▁պատվիրակության	-9.95731
ակն	-9.95876
▁մատ	-9.95986
▁յուր	-9.95994
▁հասնելու	-9.9603
▁վարորդ	-9.96039
▁ՍՊԸ	-9.96079
▁երեխաները	-9.96108
▁հաց	-9.96108
▁ստորագրել	-9.96136
▁հրաման	-9.96189
▁Մանվել	-9.9619
▁ԶԼՄ	-9.96207
▁լուծումներ	-9.96228
▁մարտ	-9.96256
ամա	-9.96262
Հայկական	-9.96279
▁սեռական	-9.963
▁կրկն	-9.96383
▁տարածաշրջանում	-9.96431
▁շուտով	-9.96442
▁́	-9.96446
▁ընդուն	-9.9646
▁Արսեն	-9.96556
▁գյուղատնտեսության	-9.96575
կե	-9.96643
▁հոդված	-9.96663
▁կրթություն	-9.96671
▁Առ	-9.96729
▁հայտարարությունը	-9.96739
▁քննության	-9.96749
սեր	-9.96776
▁տանում	-9.96791
▁ՀԱՆՐԱՊԵՏՈՒԹՅԱՆ	-9.96852
▁դերը	-9.96874
▁ղեկավարների	-9.96994
▁կարմիր	-9.97025
ուհին	-9.97038
▁այցի	-9.97039
▁երեխան	-9.97069
▁O	-9.9709
▁գրասենյակի	-9.97095
▁կազմակերպություն	-9.9712
▁Ռուս	-9.97123
ուած	-9.97127
▁խաղերի	-9.97127
▁Արցախում	-9.97142
▁սահմանում	-9.97187
▁տարբերակը	-9.97188
▁խնդրել	-9.97195
վիր	-9.97207
▁Պար	-9.97287
▁տարածել	-9.97287
▁լիարժեք	-9.97312
▁փաթեթ	-9.97319
▁միջնակարգ	-9.97344
▁կողմերի	-9.9736
▁աղջիկ	-9.97369
▁հարավ	-9.97403
աշեն	-9.97519
▁հաշվին	-9.97557
▁Սան	-9.97559
▁Մինչեւ	-9.97597
▁գործակալության	-9.97629
▁համոզված	-9.97644
▁պարզել	-9.97672
?	-9.97697
▁բեր	-9.97709
▁հարյուր	-9.97729
▁գործիք	-9.97744
ուժ	-9.97784
ողը	-9.97813
▁կաս	-9.97867
▁Պուտինի	-9.97921
նակ	-9.9798
▁տեսանյութ	-9.98011
շա	-9.98039
▁Հարությունյան	-9.98055
▁արեց	-9.9807
▁մարզային	-9.98121
▁չէ՞	-9.98136
▁ամերիկացի	-9.98192
▁ճանաչ	-9.98229
▁Մինսկի	-9.98231
▁կոչվում	-9.98245
▁բացել	-9.98247
▁վաճառք	-9.98258
կալ	-9.98284
▁քաղաքացու	-9.9829
▁շենք	-9.98298
▁կառույցների	-9.98335
▁ճանապարհին	-9.98353
▁Կոն	-9.98376
▁ֆուտբոլի	-9.9842
վոր	-9.98421
▁կայան	-9.98499
որոշ	-9.98513
▁դուր	-9.98551
▁ստեղծելու	-9.98612
▁Սարգսյանին	-9.98617
▁Սյունիքի	-9.98676
▁հրաշալի	-9.987
▁հանդիպումներ	-9.98713
▁ֆակուլտետ	-9.98784
▁գիշերը	-9.98809
Ռեալ	-9.98832
▁անցկացնել	-9.98863
ողները	-9.98886
եշ	-9.98893
▁սրբ	-9.98902
il	-9.98952
շին	-9.98964
▁շուկայում	-9.98995
աբանության	-9.99039
▁բացահայտ	-9.99112
▁բռնության	-9.99154
▁երիտասարդական	-9.99196
▁անկեղծ	-9.992
▁Արտակ	-9.99216
▁ավարտին	-9.99221
ոռ	-9.99307
▁թիմը	-9.99322
▁պարունակում	-9.9941
▁Մո	-9.99424
երկր	-9.99436
▁կարողանա	-9.99451
ա՛	-9.99475
▁պատշաճ	-9.99504
▁Ռուսաստանում	-9.99519
▁փոխվել	-9.9965
ԵՄ	-9.99666
▁Video	-9.9968
▁կայք	-9.99681
մո	-9.99685
▁արժեքը	-9.99792
▁հյուր	-9.99853
▁ձեւավորման	-9.99887
▁Զա	-9.99907
▁քաղաքականությունը	-9.99934
▁թեթեւ	-9.99984
▁բառեր	-9.99993
▁այսինքն	-10.0003
▁հիմն	-10.0008
▁մասնագետների	-10.0008
ent	-10.001
ելուց	-10.0011
▁ինքնաթիռ	-10.0013
Սասնա	-10.0013
▁վարույթ	-10.0017
▁Կամ	-10.0028
▁փողոցի	-10.003
ֆի	-10.0031
▁հայտարարություններ	-10.0034
▁պատկանում	-10.0038
▁կոչված	-10.0038
▁վճարել	-10.004
աքար	-10.004
▁բաժնում	-10.0041
▁ալիք	-10.0041
▁նորմալ	-10.0041
▁Հայաստանն	-10.0042
▁Սահակ	-10.0043
▁փոփոխվել	-10.0043
նող	-10.0046
▁մտած	-10.0046
▁հաստատում	-10.0055
▁Մեզ	-10.0059
▁զին	-10.0066
▁վկայում	-10.0067
▁Հակոբյանը	-10.0068
▁հայտնաբերել	-10.0074
▁խանութ	-10.0074
▁ենթարկել	-10.0075
▁կենդանի	-10.0079
▁օրենք	-10.0082
▁արժանի	-10.0095
▁լիներ	-10.0096
▁Փաշինյան	-10.0096
▁հարցերին	-10.0103
ՈՒՆ	-10.0104
▁շփման	-10.0106
▁իշխան	-10.0106
▁chat	-10.0106
▁այր	-10.0108
▁անտառ	-10.0108
ողի	-10.0112
▁տոկոսով	-10.0116
▁քնն	-10.0117
▁ընտանեկան	-10.012
▁սիրո	-10.012
▁քննություն	-10.0121
▁գրքեր	-10.0121
▁Սահակյանը	-10.0122
▁մակնիշի	-10.0124
▁ներսում	-10.0125
▁օրենքը	-10.0134
▁Լավ	-10.0135
▁այլընտրանք	-10.0136
▁հավատում	-10.014
նեմ	-10.0143
▁քաղաքը	-10.0143
▁բերված	-10.0147
▁եկամուտ	-10.0153
▁իրավիճակի	-10.0156
▁պատասխանատվության	-10.0158
ները՝	-10.0162
▁Էդուարդ	-10.0163
▁տր	-10.0165
▁Գարեգին	-10.0166
▁Սահմանադրության	-10.017
մոն	-10.0174
▁Հովիկ	-10.0175
▁հաջող	-10.0176
▁անշարժ	-10.0185
▁մրցաշար	-10.0201
▁Մինչ	-10.0203
▁Դրանք	-10.0205
▁հանձն	-10.0209
▁հեռ	-10.0216
▁Օրինակ	-10.0217
▁Ինչո՞ւ	-10.0218
▁արձակ	-10.0218
▁համաձայնագրի	-10.022
պո	-10.0221
▁կենտրոնը	-10.0222
▁Ընդհանուր	-10.0223
▁նայել	-10.0224
▁շահերի	-10.023
▁Ոստիկանության	-10.0232
▁լուծ	-10.0236
▁մթնոլորտ	-10.0237
կայ	-10.0247
▁ծրագրերը	-10.0249
▁տպավորություն	-10.0251
▁Արարատի	-10.0253
▁լուս	-10.0254
▁համապատասխանում	-10.0256
▁պայմանների	-10.0265
▁ավելացնել	-10.0266
▁ստացված	-10.0268
▁մրցույթի	-10.0268
▁օդ	-10.0273
▁Սպիտակ	-10.0278
▁սպասարկման	-10.0283
▁of	-10.0283
▁հայց	-10.0288
ստեր	-10.029
▁Խաղալ	-10.029
▁տղամարդկանց	-10.0292
▁հրավիրել	-10.0295
▁Վահան	-10.0297
▁արժանացել	-10.0303
▁ժամանել	-10.0304
րջ	-10.0305
▁իրավունքները	-10.0306
այր	-10.0312
մաս	-10.0315
ուստ	-10.0318
▁Այսպիսով	-10.0321
ացրեց	-10.0321
առու	-10.0324
▁դնում	-10.0325
▁պատասխանատվություն	-10.0329
▁եզրափակիչ	-10.0336
▁Նահանգներ	-10.0338
▁աճել	-10.0339
▁Ռե	-10.0341
▁Հետ	-10.0344
▁գործեր	-10.0345
▁Արմավիրի	-10.0346
▁Հակոբ	-10.0352
▁առմամբ	-10.0353
▁հանգամանք	-10.0357
▁դատախազ	-10.0359
Կար	-10.036
թոն	-10.0361
իջ	-10.0362
▁ներդրումների	-10.0366
▁Դեկտեմբերի	-10.0366
▁աջ	-10.037
ացան	-10.0372
ումից	-10.0377
▁իսկական	-10.0378
▁գետ	-10.0383
թան	-10.0383
ակետ	-10.0385
▁համաձայն՝	-10.0386
▁լիգայի	-10.0396
▁Յուրաքանչյուր	-10.0397
▁↑	-10.0405
▁համագործակցությունը	-10.0408
▁Վանաձորի	-10.0417
▁պատկանող	-10.042
▁Հետո	-10.0423
▁լրաց	-10.0427
▁առարկա	-10.043
▁ուսանող	-10.0435
!	-10.0436
բար	-10.0449
▁ժամանակավոր	-10.0453
▁դաշտում	-10.0453
▁Նախագահի	-10.0462
▁ալ	-10.0463
▁հնարավորություններ	-10.0468
▁մեղք	-10.047
ամյակին	-10.0479
▁կուսակցությունը	-10.0479
▁տնօրենի	-10.0483
▁միջնորդ	-10.0484
▁հյուսիս	-10.0485
▁ինքնուրույն	-10.0486
լոր	-10.049
▁ընտրությունները	-10.0491
▁հոգու	-10.0492
▁անպայման	-10.0493
▁Քրիստոսի	-10.0499
▁կկարողանա	-10.0506
▁միլիարդ	-10.0507
կր	-10.0509
▁քարտ	-10.0513
լավ	-10.0518
փոխ	-10.0521
▁Դոնալդ	-10.0532
▁Էջմիածին	-10.0532
▁մնա	-10.0534
բր	-10.0539
մունք	-10.0539
▁ճակատ	-10.0539
▁խորհուրդը	-10.054
▁կերպար	-10.0545
▁հարակից	-10.0552
li	-10.0554
▁երգի	-10.0554
▁Աղ	-10.0556
▁ավարտ	-10.0567
▁կարողացել	-10.0567
ագրության	-10.0568
▁անհայտ	-10.0572
▁ֆիլմը	-10.0573
▁Ավ	-10.0575
▁ներդրումային	-10.0575
▁Լե	-10.0581
եռն	-10.0585
▁պատահական	-10.0593
▁համարել	-10.0593
նար	-10.0594
▁Փոքր	-10.0603
քում	-10.0604
ա՞	-10.0605
▁ընթացիկ	-10.0609
▁քննարկ	-10.0609
▁կազմակերպ	-10.0611
կտ	-10.0616
ե՞լ	-10.062
եքս	-10.0623
▁Սեր	-10.0628
գիտ	-10.0629
▁Այսինքն	-10.0633
▁Հուլիսի	-10.0634
▁ինչն	-10.0634
▁Հիսուս	-10.0635
▁ընդգրկված	-10.0637
կով	-10.0639
▁սպանության	-10.0642
▁խաղեր	-10.0643
ընթաց	-10.0644
ացնող	-10.0648
▁իբրեւ	-10.0651
▁կետի	-10.0652
▁հարուցվել	-10.0657
▁գերազանց	-10.0659
▁ուսումնասիր	-10.0662
▁տրանսպորտային	-10.0663
▁Ավելին	-10.0664
▁տեսքով	-10.0672
▁ներդրում	-10.0672
▁հիմնարկ	-10.0675
▁քննարկվել	-10.0675
▁իրականություն	-10.0679
н	-10.0681
▁Գրիգորյան	-10.0692
▁մարդուն	-10.0694
▁թվի	-10.0704
▁արտահայտ	-10.0705
▁ԵԱՏՄ	-10.0708
▁›	-10.0711
▁հն	-10.0712
▁փաստաթղթերի	-10.0716
▁փորձի	-10.0719
▁վարպետ	-10.072
▁բռնություն	-10.0725
▁գործնական	-10.0725
▁փաստաթղթեր	-10.0731
դար	-10.0733
▁դնել	-10.0734
▁ֆիլմեր	-10.0738
անան	-10.0738
▁բարձրացման	-10.0741
▁դառնալու	-10.0749
▁կարդալ	-10.0751
▁Արեւելյան	-10.0752
եփ	-10.0752
▁մաքր	-10.0752
▁իրականացված	-10.0763
▁պրոֆեսիոնալ	-10.0763
▁ո՞վ	-10.0769
ուք	-10.0771
▁բանակցությունների	-10.0773
▁Նարեկ	-10.0781
▁մտադիր	-10.0798
▁կլիներ	-10.0801
▁անձամբ	-10.0803
▁չէի	-10.0811
▁ազդեցության	-10.082
▁ինտերնետ	-10.0821
իայում	-10.0822
▁ծեր	-10.0822
Ոսկե	-10.0825
▁Այնուհետեւ	-10.0829
▁Արցախ	-10.0831
▁ռազմավարական	-10.0833
▁Վարչապետ	-10.0836
քաղաքական	-10.0836
վեք	-10.0841
արմ	-10.0841
եցնում	-10.0842
▁մանկական	-10.0843
անուն	-10.0849
▁օրենքում	-10.0851
րեք	-10.0854
om	-10.0855
ոբ	-10.0856
▁Հունիսի	-10.0859
▁ԱՆ	-10.0862
▁տեղեկացրել	-10.0864
▁գործարան	-10.0865
▁պետի	-10.0868
▁տեքստ	-10.0868
սոն	-10.0871
սկի	-10.0872
տամ	-10.0875
▁օգտագործվում	-10.0876
▁կրոնական	-10.0876
խորհրդ	-10.0879
գու	-10.0889
▁միանգամից	-10.089
▁գլխավորությամբ	-10.0891
▁իրադարձությունների	-10.0891
կու	-10.0897
▁զոհվել	-10.0905
▁ներդր	-10.0906
▁փաստը	-10.0912
▁ԱԳ	-10.0925
▁քվեարկության	-10.0928
▁մետաղ	-10.0928
▁Մասնավորապես	-10.0928
▁տրամադրում	-10.0929
ունդ	-10.0933
ոչ	-10.0934
▁նյութերի	-10.0935
▁խոսքեր	-10.0935
▁դեղ	-10.0937
▁Լո	-10.0939
▁տեսա	-10.0941
▁արգել	-10.0941
▁թերեւս	-10.0956
▁առաջընթաց	-10.0963
▁հավաքել	-10.0966
▁ընտրություններում	-10.0967
▁մրցանակ	-10.0969
▁պահում	-10.0975
▁Բար	-10.0986
▁փորձը	-10.099
▁գիրք	-10.0991
▁մատչելի	-10.0992
ականության	-10.0999
իզմի	-10.1
▁քայլը	-10.1001
▁հրա	-10.1003
▁տղամարդու	-10.1005
▁պրոֆեսոր	-10.1006
ir	-10.1007
▁հպարտ	-10.1009
▁փուլի	-10.1014
▁Տավուշի	-10.1015
ժան	-10.1016
▁կանաչ	-10.1016
▁բաղկացած	-10.1018
▁Եւ	-10.1019
▁Հովհաննիսյան	-10.1023
▁Հակոբյան	-10.1031
lo	-10.1039
▁տաճար	-10.104
▁ասելով	-10.1047
▁երեխաներ	-10.105
▁ընդունեց	-10.1051
▁ժամկետում	-10.1051
se	-10.1056
▁բուհ	-10.1056
▁տվյալներ	-10.1058
▁պարբերաբար	-10.1062
▁ժողով	-10.1064
մատ	-10.1067
▁նկատի	-10.1078
▁վաճառքի	-10.1078
▁գանձ	-10.1079
▁աշխատելու	-10.108
▁ներգրավված	-10.108
▁առնչվող	-10.1082
հրա	-10.1099
▁լսում	-10.1108
▁դարձնում	-10.1109
▁դրանով	-10.1111
▁Քաղաք	-10.1112
▁տրանսպորտի	-10.112
▁բախվել	-10.1123
արա	-10.1129
▁ընթանում	-10.1131
▁հոդվածը	-10.1132
փորձ	-10.1133
▁նշ	-10.1135
▁աղբ	-10.1151
խան	-10.1152
▁բանաձեւ	-10.1159
իկի	-10.116
▁Եվրոպա	-10.1163
▁հասկաց	-10.1164
▁զրուցել	-10.1164
▁ուսումնասիրել	-10.1165
▁Որպես	-10.1166
▁Օգոստոսի	-10.1167
▁զուգահեռ	-10.1169
▁պահանջել	-10.1172
▁նիստ	-10.1172
▁կառուցել	-10.1174
▁կազմված	-10.1181
▁Բու	-10.1185
▁լեզու	-10.1185
ֆեր	-10.119
▁վարկ	-10.1194
▁Արեւմտյան	-10.1195
▁ընտրություն	-10.1203
▁հագ	-10.1203
▁դեպքեր	-10.1204
▁զարգացում	-10.1219
▁ներառյալ	-10.1224
▁վերջինիս	-10.1224
▁դրել	-10.1228
▁ամփոփ	-10.1228
▁մրց	-10.1229
▁ձեւեր	-10.1229
ավայր	-10.1238
roulette	-10.1239
▁Նախորդ	-10.1239
▁Քոչարյանը	-10.1252
▁կանոն	-10.1253
▁Սիրիայում	-10.1253
▁ներկայացնող	-10.1254
▁բարեկամ	-10.1255
▁գրավոր	-10.1261
▁Armenia	-10.1262
▁մանրամասներ	-10.1263
▁հր	-10.1263
▁ակումբ	-10.1265
▁հաս	-10.127
▁տեղյակ	-10.1273
▁ՄԱՄՈՒԼ	-10.1273
▁գիրքը	-10.1276
▁վարկային	-10.1279
▁​​	-10.1283
▁բլոգ	-10.1285
ումները	-10.1289
երդ	-10.1291
Շիրակ	-10.1291
անիշ	-10.1292
Հա	-10.1294
▁նրանցից	-10.1299
▁մշակման	-10.1301
▁դասընթաց	-10.1308
▁խառն	-10.1309
մայի	-10.131
▁հե	-10.131
▁պարտ	-10.1312
որի	-10.1315
ռո	-10.1315
▁քննադատ	-10.1316
▁խաղաղության	-10.1324
▁եկեղեցի	-10.1329
իկայի	-10.1334
▁գնացել	-10.1337
՞ր	-10.1338
▁առաք	-10.1343
▁դասախոս	-10.1353
▁կայանալիք	-10.1354
▁խախտում	-10.1356
▁երաժշտության	-10.1357
դան	-10.136
ediamall	-10.1365
▁շրջանակ	-10.1365
բե	-10.1366
▁օրս	-10.1367
▁ամուսնու	-10.1368
▁տեղեկություն	-10.1371
▁կառույց	-10.1371
թուրքական	-10.1371
Արական	-10.1374
▁Հարությունյանի	-10.1378
▁իմաստով	-10.1378
▁վանք	-10.138
դիմ	-10.1384
op	-10.1385
▁որոշումներ	-10.1388
▁մասնակիցները	-10.1389
▁Վազգեն	-10.1391
լոգ	-10.1392
▁փորձագետ	-10.1393
▁այնուամենայնիվ	-10.1394
▁բյուջե	-10.1401
▁պահպանության	-10.1405
▁քանակը	-10.1409
▁տիկին	-10.141
▁գեղարվեստական	-10.1412
▁աջակցությամբ	-10.1412
նայ	-10.1416
▁ինքնակառավարման	-10.1419
▁երեւի	-10.1421
▁Այ	-10.1428
▁երջանիկ	-10.1431
▁սկս	-10.1432
▁կգա	-10.1432
▁նախաձեռնության	-10.1437
▁Կբ	-10.1438
▁պաշտոնապես	-10.1439
▁ասված	-10.144
▁գրանցման	-10.1445
▁ուղերձ	-10.1447
▁կռ	-10.1447
անակ	-10.1449
իչը	-10.1449
▁երազ	-10.1452
▁Փետրվարի	-10.1455
▁աշխատավարձ	-10.146
▁կանոնակարգ	-10.1461
▁քարոզ	-10.1464
▁տարածված	-10.1464
▁ասեմ	-10.1464
▁Բեր	-10.147
▁p	-10.1475
▁առաջարկներ	-10.1478
▁թողնում	-10.1479
▁ապրող	-10.1479
▁Մյուս	-10.148
ֆր	-10.1483
ատես	-10.1487
▁լրիվ	-10.1488
▁ստեղծագործական	-10.1492
▁Ռի	-10.1496
այական	-10.1498
▁միջոցները	-10.1501
▁ձախ	-10.1511
հաշվ	-10.1512
▁հմտություններ	-10.1517
▁ԼՂ	-10.1517
▁գնդակ	-10.1523
▁առավելագույն	-10.1523
▁մշակում	-10.1525
▁թագավոր	-10.1526
▁կիս	-10.1532
կոտ	-10.1535
ութիւններ	-10.154
▁գործընկերների	-10.154
▁Հիշ	-10.155
▁սոցիալ	-10.1551
▁առիթով	-10.1551
▁կարեւորագույն	-10.1552
А	-10.1555
եւի	-10.1557
▁յոթ	-10.1557
▁դասեր	-10.1562
Դա	-10.1563
▁մեկնաբան	-10.1567
▁ոսկե	-10.1573
▁ՈՒ	-10.1573
▁փոխանցել	-10.1575
▁խմբեր	-10.1579
▁Կոտայքի	-10.1582
▁Ղարաբաղից	-10.1583
▁Վար	-10.1583
▁սկսվում	-10.1584
▁հրաժարական	-10.1584
▁զանգ	-10.1584
▁բնագավառում	-10.1589
▁բնության	-10.1589
▁անձրեւ	-10.1593
▁անդամներ	-10.1593
ակա	-10.1596
ղա	-10.1601
▁հարձակվող	-10.161
▁իրավիճակների	-10.1619
▁մեղմ	-10.1619
▁քաղաքային	-10.162
▁ստ	-10.1627
▁ջ	-10.1633
▁հետազոտությունների	-10.1634
▁Ֆր	-10.1634
▁Նրան	-10.1635
▁պայմանները	-10.1637
խա	-10.1641
▁թուլ	-10.1641
▁ուժը	-10.1642
քաղաք	-10.1643
▁X	-10.1645
▁առաջանում	-10.1646
▁հիմնված	-10.1647
▁մատուց	-10.165
▁օրակարգ	-10.1655
ի՞	-10.1656
▁ընկել	-10.1663
▁աճի	-10.1664
▁սուրբ	-10.1665
իոն	-10.1667
բեկ	-10.1669
▁անհրաժեշտության	-10.1669
▁ընկնում	-10.167
▁Պուտինը	-10.1678
▁տարածքը	-10.1684
ացեք	-10.1689
▁Համաձայն	-10.169
▁ժամկետ	-10.1704
▁ներս	-10.1707
▁ՙ	-10.1708
▁մասնակցության	-10.1708
▁քանզի	-10.171
▁կուրս	-10.1711
▁հիանալի	-10.1713
▁պապ	-10.1714
▁Խաչատրյանը	-10.1718
▁հարցով	-10.1719
թող	-10.172
▁եղբայր	-10.1724
▁ՊՈԱԿ	-10.1728
▁նշանակության	-10.1732
▁Գյումրու	-10.1732
▁շուկայի	-10.1734
▁Պի	-10.1744
▁երկրներ	-10.1751
▁արձանագր	-10.1752
▁զարգացմանը	-10.1752
▁այսինքն՝	-10.1752
▁բանակցություններ	-10.1757
▁խորհրդական	-10.1759
▁պաշտոնատար	-10.1761
▁հարցազրույց	-10.1767
▁Բրիտանիայի	-10.1768
▁Մարդ	-10.177
▁լուսավոր	-10.1772
▁կտրուկ	-10.1773
իզմ	-10.1779
▁Ադրբեջանում	-10.1785
▁բիզնեսի	-10.1786
▁Եղ	-10.1787
յուս	-10.1792
▁ասուլիս	-10.1801
▁Բակո	-10.1801
▁տուրք	-10.1804
▁գինը	-10.1808
▁երաշխավոր	-10.1811
դալ	-10.1812
▁նահանգի	-10.1815
▁սպասել	-10.1817
▁դարում	-10.1819
▁ներդրումներ	-10.1824
▁տղա	-10.1827
▁եկամուտների	-10.1834
մայ	-10.1835
▁հավաքածու	-10.1836
անձն	-10.1836
▁միջավայր	-10.1837
մալ	-10.1838
տալ	-10.1839
▁կիսապաշտպան	-10.184
▁թիմ	-10.1843
▁հայեր	-10.1844
▁հանդիպմանը	-10.1845
▁մակարդակով	-10.1846
▁գնահատման	-10.1846
▁պատրաստել	-10.1847
տվ	-10.1849
▁Այո	-10.1849
▁վերջինս	-10.1852
ադրում	-10.1853
▁Վիգեն	-10.1853
▁հասցե	-10.1857
▁ելք	-10.1858
ՐԱ	-10.1863
աֆ	-10.1865
նոր	-10.1865
▁գույք	-10.1871
▁ժամանակի	-10.1874
▁զանգվածային	-10.1877
▁Հունվարի	-10.1884
▁անցկացրել	-10.1884
▁հետաքրքրություն	-10.1887
▁Իսրայելի	-10.189
▁եզր	-10.1891
te	-10.1892
ԱՊ	-10.1894
պորտ	-10.1895
▁Յու	-10.1897
▁երիտասարդների	-10.1898
▁հատված	-10.1906
րտ	-10.1909
▁գրանցված	-10.191
▁տվյալներով	-10.1916
▁զանգված	-10.1919
▁ազատվել	-10.1919
▁տուր	-10.1919
ut	-10.192
▁թեմաներ	-10.1921
եկան	-10.1923
▁բանի	-10.1926
▁նախագծեր	-10.1929
▁ընտրվել	-10.1929
▁մեկնարկել	-10.1931
չության	-10.1932
Կամ	-10.1934
▁Free	-10.1936
գնահատ	-10.194
▁ինչպիսին	-10.194
▁վնասվածք	-10.1941
▁հովանավոր	-10.1943
▁նպաստել	-10.1945
ներ՝	-10.1946
▁ռադիո	-10.1946
▁Փաշինյանն	-10.1947
▁թվական	-10.1947
▁օգնությամբ	-10.1951
▁հարկի	-10.1952
▁in	-10.1956
▁գովազդ	-10.1956
▁Մալ	-10.1962
▁տարածքի	-10.1965
լայ	-10.1966
▁բազմա	-10.1969
▁հասարակայնության	-10.1975
կենտրոն	-10.1976
▁հարցն	-10.198
▁սահմանել	-10.1987
աչափ	-10.1989
տեն	-10.199
▁ընկերներ	-10.1991
արվեստ	-10.1994
▁բանկային	-10.1998
▁աշակերտ	-10.1999
▁ելնելով	-10.1999
▁Աշխարհի	-10.2
ենս	-10.2008
▁ՊԵԿ	-10.2011
ամի	-10.2013
▁Եվրամիության	-10.2016
ախաղ	-10.2016
▁դպրոցը	-10.2018
քով	-10.2021
▁տեղափոխ	-10.2028
կիր	-10.2032
▁Հնարավոր	-10.2032
բլ	-10.2034
▁յ	-10.2035
▁պետությունը	-10.2044
▁ձերբակալվել	-10.2052
▁իրավասության	-10.206
▁ծառայությունից	-10.2061
▁լրացնել	-10.2062
▁աջակցել	-10.2064
▁զարգացումը	-10.2068
▁նկարագր	-10.2068
▁Գեղարքունիքի	-10.2071
▁տունը	-10.2073
▁տարածաշրջանի	-10.2078
▁արվեստ	-10.208
▁զինվոր	-10.2082
Նա	-10.2082
▁Երկ	-10.2085
▁ամսագիր	-10.2086
▁կանգ	-10.2086
ագիծ	-10.2088
▁անցկացման	-10.2092
▁արտադրող	-10.2092
▁կազմակերպությունը	-10.2094
▁զորքերի	-10.2098
▁ունեք	-10.21
▁ինչպիսիք	-10.2103
▁Երիտասարդ	-10.2104
▁մեդալ	-10.2104
▁շտապ	-10.2106
▁իրականացրել	-10.2107
սին	-10.2107
▁բացառապես	-10.2109
▁կառավարում	-10.2109
▁Գյումրիում	-10.2109
▁օտարերկրյա	-10.2118
լիս	-10.212
▁Սարգիս	-10.212
▁տնտեսություն	-10.2122
նո	-10.2124
▁սպանել	-10.2125
▁կանխ	-10.2127
▁ստեղծ	-10.2128
▁պալատ	-10.2129
ադիր	-10.2133
ոյան	-10.2135
▁ծագում	-10.2138
▁U	-10.2138
▁տառ	-10.2138
▁կհ	-10.2145
▁մասեր	-10.2146
▁Իրան	-10.2148
▁տպագր	-10.2149
▁նյութ	-10.2153
▁սկսեցին	-10.2153
▁աշխատակիցները	-10.2154
▁զվարճալի	-10.2158
▁կազմակերպություններ	-10.2158
▁ասվում	-10.216
▁աչք	-10.2161
պոլի	-10.2164
▁դժվարություններ	-10.2165
▁վերջում	-10.2167
▁St	-10.2169
я	-10.2171
ոստ	-10.2171
▁Հանրապետություն	-10.2171
▁ուղեկց	-10.2173
▁օրենսդրական	-10.2182
▁Վրաստանում	-10.2182
▁կոն	-10.2182
▁Միքայել	-10.2184
▁Times	-10.2185
ԱՂ	-10.2185
▁համալր	-10.2186
ակներ	-10.2186
news	-10.2187
▁սովոր	-10.219
ՅԱՆ	-10.2193
▁օժանդակ	-10.2193
▁հաստատված	-10.2195
ագիրը	-10.2196
հրատարակ	-10.2205
▁իրավա	-10.2205
հայ	-10.2206
միջ	-10.2206
▁խմբակցություն	-10.2218
▁վայրեր	-10.2222
▁հարազատ	-10.2223
▁հանկարծ	-10.2223
▁համակարգերի	-10.2224
▁պահանջները	-10.2224
զան	-10.2229
▁վայրում	-10.2231
▁սպորտի	-10.2231
▁բարոյական	-10.2236
▁խոչընդոտ	-10.2243
▁ճամբար	-10.2244
▁վճարում	-10.2245
▁Հո	-10.2246
▁գործիքներ	-10.2247
▁դաշինք	-10.2248
▁մանկ	-10.2248
մտ	-10.225
արք	-10.2251
▁դատարանում	-10.2251
▁հաջողության	-10.2252
▁անցկացնելու	-10.2252
անյան	-10.2254
▁ավարտվել	-10.2257
▁ենթադրում	-10.2262
▁հազարավոր	-10.2263
▁խորհրդային	-10.2263
▁հաջողություն	-10.2264
▁կաթողիկոս	-10.2265
▁հսկայական	-10.2265
▁բերման	-10.2265
▁Աբ	-10.2267
▁գրասենյակ	-10.2274
▁բոլորովին	-10.2276
▁պայքարը	-10.2277
▁բոլորի	-10.2278
▁պարտք	-10.2279
▁մաքուր	-10.2279
▁կազմի	-10.228
▁ֆինանսների	-10.228
իլի	-10.2284
▁քրիստոնյա	-10.2288
տային	-10.2289
▁ԳԱԱ	-10.229
▁Սանկտ	-10.2291
▁դրամական	-10.2295
▁Հենրիխ	-10.2295
▁շարժ	-10.2302
м	-10.2303
▁խմբերի	-10.2303
▁Բո	-10.2305
▁հայր	-10.2308
▁մեքենա	-10.231
▁ազգի	-10.2314
▁պատրաստված	-10.2318
▁վերջապես	-10.2324
▁հանգ	-10.2325
▁Ուս	-10.2326
▁շրջակա	-10.2328
▁Ակ	-10.233
խախտ	-10.2331
▁փաստացի	-10.2332
▁տեղակայված	-10.2334
▁օրերի	-10.2334
ղեկ	-10.2343
▁chatting	-10.235
▁տարած	-10.235
▁փակել	-10.2353
▁ավտո	-10.2353
▁գիտակց	-10.2354
▁ոճ	-10.2358
▁ժամկետը	-10.2358
թյան	-10.2368
աման	-10.2369
▁զրույց	-10.2373
վին	-10.2375
▁հնարավորությունները	-10.2379
▁ընկերների	-10.2379
▁պահպան	-10.2382
▁բջջային	-10.2384
▁կառուց	-10.2389
▁արդյո՞ք	-10.239
▁հայրը	-10.2391
▁քարտեզ	-10.2395
▁Մաս	-10.2396
▁Կաթողիկոս	-10.2397
պահ	-10.2399
▁Չինաստանի	-10.2401
▁ապագայի	-10.2404
▁Հրանտ	-10.2405
▁թեման	-10.2406
եֆ	-10.241
այդ	-10.2411
▁*	-10.2411
к	-10.2412
▁հանձնել	-10.2414
▁Բանկ	-10.242
▁հավաքականը	-10.242
▁դասական	-10.2422
▁Ներ	-10.2424
▁դիրքեր	-10.2433
▁Առաջ	-10.2436
ահատ	-10.2436
▁հիշ	-10.2441
▁կառուցման	-10.2442
▁կալանավոր	-10.2443
▁սովորաբար	-10.2444
երս	-10.2447
ԻԿ	-10.2449
▁դպրոցական	-10.2453
▁արյան	-10.2461
▁թիրախ	-10.2469
▁որդու	-10.2471
▁անունից	-10.2472
▁Վայոց	-10.2473
▁իրոք	-10.2475
▁նվիր	-10.2481
X	-10.2481
չին	-10.2489
ոշ	-10.2489
▁նստած	-10.249
▁հանգամանքը	-10.249
▁ճանապարհի	-10.2493
▁նկարներ	-10.2493
▁հեղափոխության	-10.2493
▁Arm	-10.2495
▁տո	-10.2497
▁սփյուռքի	-10.2502
▁Անահիտ	-10.2504
▁արժե	-10.2506
▁պալատի	-10.2506
▁աշակերտների	-10.251
▁բարեգործական	-10.2511
աբանություն	-10.2511
▁մակարդակը	-10.2512
▁մշակել	-10.2512
▁շարունակելու	-10.2513
▁մատն	-10.2521
ta	-10.2531
▁դատ	-10.2532
▁հասցրել	-10.2535
▁իրավապահ	-10.2538
▁ձի	-10.2539
▁ոստիկանություն	-10.2539
▁կառույցներ	-10.2541
հետաքրքր	-10.2542
▁նյութական	-10.2544
▁Խաչատրյանի	-10.2545
ամյակի	-10.2546
▁չոր	-10.2549
▁առցանց	-10.255
դիտ	-10.2551
Արարատ	-10.2557
▁ճանաչվել	-10.2562
ul	-10.2562
▁Փաշինյանին	-10.2563
ադրբեջանական	-10.2565
▁կրթահամալիր	-10.2566
▁կրոն	-10.2574
վո	-10.2575
ստի	-10.2577
▁անուն	-10.2581
▁հոսք	-10.2584
▁վերահսկողության	-10.2585
ազգ	-10.2585
▁հանք	-10.2589
▁նստ	-10.2591
▁հարթ	-10.2597
▁պարբերական	-10.2598
▁մտնել	-10.2599
▁նկատեց	-10.26
▁s	-10.2601
▁մակարդակ	-10.2607
▁Ժամանակ	-10.2611
▁համաժողով	-10.2613
▁քն	-10.2617
Y	-10.2619
արժան	-10.2622
▁փնտրում	-10.2623
▁հայրենիքի	-10.2625
▁շահագործման	-10.2627
Ղ	-10.2634
▁նկարիչ	-10.2635
▁ծայրահեղ	-10.2636
▁ետ	-10.264
ալու	-10.2643
▁Բաց	-10.2644
▁կիրառման	-10.265
ակում	-10.2658
▁զոհված	-10.2662
▁մտքի	-10.2665
▁համանախագահ	-10.2669
▁ամենայն	-10.267
▁սուր	-10.267
▁ծածկ	-10.2675
▁ճաշ	-10.2677
▁ընտանիքը	-10.2677
▁Նորք	-10.2681
▁չկար	-10.2683
դո	-10.2685
▁ներմուծ	-10.2686
▁պահելու	-10.269
▁սկզբում	-10.2691
▁Պա	-10.2698
▁դիտարկում	-10.2699
▁լիովին	-10.27
▁Բր	-10.27
▁մշակույթ	-10.2702
▁գրավել	-10.2703
▁երբեւէ	-10.2708
սե	-10.2708
▁հաստատելու	-10.2711
▁տեղեկությունների	-10.2714
▁համախմբ	-10.2715
▁կոռուպցիայի	-10.2717
▁երեխային	-10.2717
▁խորհրդարանում	-10.2722
նկ	-10.2724
▁Արայիկ	-10.2727
▁բուժման	-10.2728
յուղ	-10.2731
▁ժամանակը	-10.2732
▁փոփոխության	-10.2732
▁վերցնել	-10.2735
▁սկիզբ	-10.2739
▁կիսա	-10.2739
▁արտիստ	-10.2743
▁թողել	-10.2746
▁Գյումրի	-10.275
իչներ	-10.2752
▁լեզուն	-10.2752
▁Հեղինակ	-10.2752
շան	-10.2752
▁տարածում	-10.2754
ռուսական	-10.2755
▁Խաղ	-10.2755
▁թվեր	-10.2759
▁Աթոռ	-10.2762
▁անհնար	-10.2762
▁վաճառել	-10.2763
առատ	-10.2764
▁Մխիթարյանը	-10.2772
մեկ	-10.2773
▁հաղորդագրություն	-10.2776
▁Գեր	-10.2777
▁մրցանակի	-10.2779
▁զգաց	-10.2779
ապա	-10.278
▁տեղադրել	-10.278
▁ներառ	-10.2782
ջել	-10.2782
▁այցը	-10.2782
▁նետ	-10.2786
▁աշխատանքից	-10.2787
▁համայնք	-10.279
▁եկած	-10.279
քին	-10.2797
ՈՆ	-10.2802
▁Վա	-10.2802
▁մայրը	-10.2803
▁թողնել	-10.2807
▁ժողովածու	-10.2812
▁կրել	-10.2813
արժեք	-10.2816
▁պատասխանը	-10.2816
▁ամուր	-10.2817
▁Ստեփան	-10.2819
երորդ	-10.282
▁դժգոհ	-10.2821
▁Անդրանիկ	-10.2821
▁կենդանիների	-10.2822
▁առաջացնում	-10.2823
▁գործոն	-10.2825
▁սպառնալիք	-10.2825
ողության	-10.2826
▁դպրոցների	-10.2828
▁ռուսերեն	-10.2828
▁եղբոր	-10.283
▁հյուրեր	-10.2831
▁բառը	-10.2833
▁աստված	-10.2833
▁միտում	-10.2837
▁ընդդեմ	-10.2838
▁կրող	-10.284
▁կայաց	-10.284
▁Հան	-10.284
դել	-10.2841
▁կայքեր	-10.2845
տրի	-10.2854
▁Արմենիա	-10.2862
▁մտել	-10.2863
ոպ	-10.2863
▁օգտին	-10.2865
▁տրամադր	-10.2866
▁դաժան	-10.2869
քային	-10.2869
▁ԱՊՀ	-10.2869
▁ճարտարապետ	-10.287
▁համակարգեր	-10.2874
▁անդրադառնալով	-10.2877
▁ճնշում	-10.2879
▁վերադառնալ	-10.288
մն	-10.2884
▁հայրեն	-10.2886
ԱԳ	-10.2888
▁պայթյուն	-10.289
▁նվազել	-10.2891
▁ծախսերի	-10.2894
▁պարգեւ	-10.2896
▁Կապ	-10.2898
▁քաղաքացիներ	-10.2899
▁մո	-10.2901
հայտ	-10.2902
▁բացատր	-10.2903
▁պատգամավորների	-10.2903
▁Համաշխարհային	-10.2907
▁Այսպես	-10.2917
ոհ	-10.2921
▁խոհանոց	-10.2923
▁հանրահավաք	-10.2923
▁հետեւաբար	-10.2925
ամարտ	-10.2927
▁տեղադրված	-10.2927
ասել	-10.2927
▁գետի	-10.294
▁ապրանք	-10.2941
▁քննիչ	-10.2945
▁երթ	-10.2947
ՎԱԾ	-10.2947
‏	-10.2948
գամ	-10.295
րած	-10.2952
sh	-10.2953
▁Աշխատ	-10.2955
▁Դպրոց	-10.2957
▁պահի	-10.2958
▁Խաչատրյան	-10.296
▁լեզվով	-10.2961
▁ծռեր	-10.2963
▁պայմանագիրը	-10.2969
▁տրվել	-10.2972
ատոր	-10.2973
▁փաստաթղթերը	-10.2979
գին	-10.298
▁կից	-10.298
Հար	-10.2983
▁Վե	-10.2984
▁քննարկումներ	-10.2988
▁հուշարձան	-10.2988
▁հաշվետվություն	-10.2988
արյան	-10.2989
▁Քա	-10.2993
▁հանգստ	-10.2995
▁մեն	-10.2998
▁Էդվարդ	-10.2999
▁նիստին	-10.3001
րակ	-10.3002
ոփ	-10.3004
▁համալսարանում	-10.3005
▁գործառույթներ	-10.3008
▁մեթոդներ	-10.301
▁գոհ	-10.3013
▁անձն	-10.3014
▁նմանատիպ	-10.3017
▁անցկացվել	-10.302
▁ցուցահանդես	-10.3023
▁հիմնադրամ	-10.3024
▁եկան	-10.3024
▁փոխարինել	-10.3024
▁ծախսերը	-10.3025
ներս	-10.3028
▁խորագրով	-10.3035
▁հանդիսատես	-10.3036
▁պատվիր	-10.3041
▁հիմնադր	-10.3042
▁նավ	-10.3045
▁հնարավորինս	-10.3047
▁մոտեցումներ	-10.305
▁խնդիրն	-10.3054
▁ծնողների	-10.3062
ցած	-10.3063
▁համատեքստում	-10.3066
▁հայերը	-10.3069
▁վկայ	-10.3074
▁երազանք	-10.3074
▁դոկտոր	-10.308
▁տեղափոխել	-10.3081
զին	-10.3082
▁հավանական	-10.3086
▁արդյունքներ	-10.3093
▁կողմերը	-10.3094
▁ակցիա	-10.3096
▁Բան	-10.3097
▁Սուրեն	-10.3099
▁օգնական	-10.3104
▁բնակիչների	-10.3106
գիր	-10.3109
▁մոտեցում	-10.3112
▁կենսա	-10.3112
▁այցով	-10.3116
▁Անգլիայի	-10.312
▁վերաբերվում	-10.3121
▁Գյուղ	-10.3121
▁‎‡	-10.3124
▁պաշտպանել	-10.3126
▁կողք	-10.3126
▁վարում	-10.3126
ԱԽ	-10.3126
▁Սբ	-10.3127
▁Այնպես	-10.313
▁կանգնել	-10.3131
Փաստ	-10.3138
▁Խորհրդային	-10.3149
▁հանձնաժողովը	-10.3156
▁կետ	-10.3156
▁Քար	-10.3157
▁հուշ	-10.316
▁ձայնը	-10.3161
▁աղքատ	-10.3162
▁հոդվածով	-10.3163
▁ստացվում	-10.3163
▁ղարաբաղյան	-10.3167
▁հասարակություն	-10.3168
▁Շահ	-10.3173
▁առաջարկություններ	-10.3175
▁ֆակուլտետի	-10.3175
ժե	-10.3178
▁ապր	-10.3179
▁երգիչ	-10.318
գոր	-10.3185
▁խմբագիր	-10.3187
▁միջուկային	-10.3188
րեն	-10.3193
▁դիտել	-10.3194
ֆոն	-10.3195
անս	-10.3195
▁կամք	-10.32
▁շնորհավորել	-10.3206
դոն	-10.3209
▁գործողության	-10.3211
▁պահպանում	-10.3212
ԵՍ	-10.3212
վեստ	-10.3215
▁ուսուցման	-10.3217
▁խուսափել	-10.322
ard	-10.322
▁երիտասարդության	-10.3221
▁հասցնել	-10.3224
▁հավանաբար	-10.3225
▁անվտանգ	-10.3229
▁զգալ	-10.3231
▁ամբիոնի	-10.3236
ույք	-10.3236
▁ազդեցությունը	-10.3237
ak	-10.3242
գալ	-10.3254
▁ներկայումս	-10.3259
սել	-10.3264
աբնակ	-10.3266
վայ	-10.3267
եւան	-10.3268
▁հասց	-10.3271
▁մենակ	-10.3273
▁կիրառ	-10.3275
▁Անի	-10.3276
▁պաշտոնից	-10.3279
▁բերեց	-10.3281
▁բնույթի	-10.3284
ընտր	-10.3287
իկը	-10.3291
info	-10.3294
▁գաղտնիք	-10.3296
ազատ	-10.3299
Ինչպես	-10.33
ազրկ	-10.33
▁երկկողմ	-10.3302
▁տեղեկ	-10.3303
▁դրամով	-10.3304
▁զբաղեցնում	-10.3306
▁պրո	-10.3307
▁ասենք	-10.3308
▁տոնի	-10.331
խո	-10.3311
▁տասն	-10.3313
բու	-10.3314
▁հոգեբանական	-10.3314
▁վախենում	-10.3317
▁զույգ	-10.3319
▁անմիջական	-10.3321
▁ցուցանիշ	-10.3322
կուլ	-10.3325
ab	-10.3336
▁սննդի	-10.3337
▁չունենք	-10.3338
ույց	-10.3338
թղթ	-10.334
▁Տր	-10.3343
na	-10.3343
▁յուրահատուկ	-10.3344
▁հիմքեր	-10.3348
յաց	-10.3348
▁էներգետիկ	-10.335
▁մազեր	-10.3351
▁Թող	-10.3353
ւած	-10.3353
▁զգացում	-10.3357
ացիայի	-10.3357
շիկ	-10.3361
▁բնակավայրեր	-10.3368
▁տանել	-10.337
▁սկսվեց	-10.3372
▁Սեյրան	-10.3374
▁գիտեն	-10.3375
▁հղումներ	-10.3376
▁Իսրայել	-10.3377
▁չգիտեմ	-10.3384
ation	-10.3386
▁բարձրաստիճան	-10.3387
▁օդանավակայան	-10.3389
▁մինչդեռ	-10.339
»,–	-10.3394
▁տարօրինակ	-10.3398
▁գումարի	-10.34
▁ընդգծեց	-10.3401
▁իբր	-10.3402
▁Բաքվի	-10.3402
▁տղամարդ	-10.3407
ԿԱ	-10.341
▁դաստիարակ	-10.3411
=	-10.3415
ադի	-10.3421
▁հայտնվում	-10.3425
▁սեղանի	-10.343
▁Իսպանիայի	-10.3436
▁Ներկայ	-10.3437
ԵԿ	-10.3442
▁Բիզնես	-10.3442
▁Հայաստանին	-10.3443
▁հաշվառման	-10.3445
ամուտ	-10.345
▁կայացել	-10.3451
▁ադրբեջանցի	-10.3456
▁հեռուստա	-10.3456
▁գրականություն	-10.3459
▁սեփականության	-10.3461
▁դերասանուհի	-10.3462
▁Facebook	-10.3464
▁Ծառուկյանի	-10.3465
▁հիվանդությունների	-10.3468
▁նկարահան	-10.3472
▁շար	-10.3476
▁փոխնախարար	-10.3482
▁առաջիկայում	-10.3485
▁Home	-10.3486
ge	-10.3486
▁սկզբին	-10.349
▁խոսքի	-10.3493
լիկ	-10.3497
առաջ	-10.3499
▁տալով	-10.3499
▁Ալիեւի	-10.3504
▁Դաս	-10.3508
▁Ասում	-10.3508
co	-10.3508
հի	-10.3509
▁առողջական	-10.3511
▁օրենսդրությամբ	-10.3511
▁դատարկ	-10.3515
▁համայնքային	-10.3516
▁Ծրագրի	-10.3516
▁Չեմ	-10.3519
▁ժառանգ	-10.353
▁Մարգարյանը	-10.3533
եղեն	-10.3534
▁վայրի	-10.3534
▁օրվանից	-10.3536
▁ընդունման	-10.3536
▁անվանումը	-10.354
▁անհրաժեշտություն	-10.3544
▁հայտարար	-10.3544
բուրգ	-10.3546
▁կեր	-10.3551
▁սրա	-10.3552
Հայրենիք	-10.3554
▁վերականգնման	-10.3557
▁հայրենիք	-10.3561
▁շարունակական	-10.3562
▁հասարակ	-10.3565
▁Բաղրամյան	-10.3568
▁Վերջինս	-10.3568
▁ձգ	-10.3569
▁մեխանիզմներ	-10.357
▁գործած	-10.3575
▁աղջկա	-10.3581
▁կառավարություն	-10.3584
▁արված	-10.3584
▁h	-10.3588
▁մասնակցություն	-10.359
▁Մարիամ	-10.36
▁ռազմա	-10.3602
▁տներ	-10.3605
▁սիրահար	-10.3606
▁գործընթացում	-10.3607
▁արեւմտյան	-10.3609
ութեամբ	-10.3611
▁լց	-10.3612
ջեր	-10.3615
▁Լիլիթ	-10.3616
▁հայացք	-10.3622
▁Պարոն	-10.3625
▁արժեքների	-10.3625
▁հարձակում	-10.3627
ադաս	-10.3636
ամեն	-10.3636
▁ժողովուրդների	-10.3644
▁նախապես	-10.3645
▁ծառայել	-10.3646
▁ավտովթար	-10.3646
▁ցուցաբերել	-10.3646
▁ռեկտոր	-10.3648
▁Իտալիայի	-10.3648
▁լրացումներ	-10.3653
▁փոխարին	-10.3654
▁տարել	-10.3656
▁Եկեղեցու	-10.3656
▁Ճիշտ	-10.3658
▁սեն	-10.366
▁խաղացել	-10.3661
ցիների	-10.3663
▁բացվել	-10.3663
у	-10.3663
▁երկրներից	-10.3665
▁անդրադարձ	-10.3675
▁ներկայացրած	-10.3676
▁դուստր	-10.368
▁ոստիկանությունը	-10.3682
▁c	-10.3682
▁գնահատական	-10.3683
գետ	-10.3685
▁Հեր	-10.3686
ֆե	-10.3691
▁Նահանգների	-10.3692
հր	-10.3695
▁գյուղատնտեսական	-10.3697
տը	-10.3698
▁բացահայտել	-10.3701
▁տեսահոլովակ	-10.3701
▁հատվածի	-10.3701
հու	-10.3704
▁նվագ	-10.3704
▁վարել	-10.3705
▁ե՞ք	-10.3705
.«	-10.3707
▁կետով	-10.3708
▁առնչությամբ	-10.3714
▁տարածքների	-10.3718
▁դրոշ	-10.3719
ma	-10.372
▁օրենսդրության	-10.3725
րամ	-10.3727
ազոր	-10.3728
▁փառատոնի	-10.3732
▁կարծիքը	-10.3732
▁վերեւ	-10.3735
▁ծաղկ	-10.3735
▁շնորհակալ	-10.3736
ացվում	-10.3736
▁հողի	-10.3737
չյան	-10.3738
▁խոսքերով	-10.3741
ոցի	-10.3742
▁սերունդ	-10.3747
▁ոչնչաց	-10.3753
▁մղ	-10.3755
▁կառուցվածք	-10.3764
▁Պետ	-10.3764
▁Տեղ	-10.3766
▁թվականը	-10.3767
անալով	-10.3767
▁սրահ	-10.377
▁համաձայնության	-10.3772
▁հաշտ	-10.3772
ry	-10.3776
▁բարե	-10.3776
տրա	-10.3776
▁ուղեղ	-10.3779
to	-10.378
▁մերժել	-10.378
▁Էրդողանը	-10.378
▁շարքում	-10.3782
▁կուսակցությունների	-10.3783
▁ղեկավարության	-10.3786
▁Հնդկաստան	-10.3787
▁ցուցակում	-10.3789
▁ամիսներին	-10.379
բել	-10.3796
▁վավեր	-10.3806
▁հարկեր	-10.3808
▁սեղան	-10.3808
ողություն	-10.3808
▁ձեւավորում	-10.3808
▁Կարմիր	-10.3811
լատ	-10.3818
▁սիրով	-10.382
▁Կատեգորիա	-10.3824
ակիր	-10.3824
▁ապագայում	-10.3827
ԵԼՈՒ	-10.3834
▁անվանել	-10.3835
եցման	-10.3836
▁Նալբանդյան	-10.3838
▁անկյուն	-10.3844
▁առաջնային	-10.3844
այտ	-10.3847
▁գործընթացների	-10.3848
ամիտ	-10.3849
▁ստուգ	-10.3851
▁բնականաբար	-10.3855
▁երգը	-10.3856
▁ժամկետով	-10.3864
բո	-10.3866
ոխ	-10.3866
▁ընկ	-10.3867
▁Բնակարան	-10.3869
▁Միության	-10.3873
д	-10.3874
▁արձանագրել	-10.3874
կապ	-10.3875
▁բուժում	-10.3875
▁ստորագր	-10.3876
▁տեխնիկա	-10.3877
րում	-10.3878
▁ներկայ	-10.3883
▁Կարեւոր	-10.3883
իսկ	-10.3888
ցիա	-10.3892
▁Tert	-10.3893
▁երգչուհի	-10.3893
▁կտոր	-10.3897
▁գիտեմ	-10.3902
ենդ	-10.3905
▁գործիչներ	-10.3906
▁խմ	-10.3908
▁Աստծու	-10.391
ադարձ	-10.3913
▁բնապահպանական	-10.3915
▁Google	-10.3918
▁Բարսեղյան	-10.392
Յորք	-10.3922
▁հարցրեց	-10.3924
▁բարձրացնել	-10.3924
▁պատիվ	-10.3926
▁ժողովրդավարական	-10.3928
▁վաղը	-10.3929
▁Մեդիա	-10.3929
▁Ընտր	-10.393
▁մերժ	-10.393
▁ծիծաղ	-10.3931
հետ	-10.3933
▁հաղորդել	-10.3936
▁ցանցի	-10.3937
▁քննարկումների	-10.3938
▁ստեղծագործություններ	-10.3941
▁քանդ	-10.3942
▁ամբողջովին	-10.3943
▁աստիճանի	-10.3944
▁կառուցում	-10.3946
խոս	-10.3946
▁քաղաքացիները	-10.3948
Ալ	-10.395
▁Էդ	-10.395
լով	-10.3952
րոս	-10.3952
▁բաժան	-10.3953
▁թեմի	-10.3954
▁նպաստում	-10.3955
▁հակառակորդի	-10.3957
պան	-10.3958
▁համայնքում	-10.3958
ճի	-10.3961
▁հավաստի	-10.3962
քա	-10.3967
п	-10.3973
▁մասնակցությունը	-10.3974
▁գոտում	-10.3974
▁հրահանգ	-10.3975
▁ծանոթանալ	-10.3977
▁Պաշտպանության	-10.3978
▁Հայր	-10.3978
ինգի	-10.3983
▁նախատեսում	-10.3984
▁թափանցիկ	-10.3985
▁հրավիրում	-10.3986
իչների	-10.3986
▁Սեւ	-10.399
▁հեղինակը	-10.399
▁կառուցվել	-10.399
կոր	-10.3993
▁բեռ	-10.3994
▁աղյուսակ	-10.3994
էր	-10.3995
▁քվեարկ	-10.3998
me	-10.4001
ne	-10.4003
▁նվեր	-10.4005
▁ֆրանսիական	-10.4008
▁Գալ	-10.4008
▁միջոցներով	-10.4011
▁պաշտոններ	-10.4018
▁մեքենան	-10.4019
▁տոնական	-10.402
եալ	-10.402
▁իրավիճակում	-10.4023
▁տարբերվում	-10.4027
▁ֆուտբոլ	-10.403
▁ակտերի	-10.4034
▁‎	-10.4037
եբ	-10.4039
▁Մոսկվա	-10.4039
հաղորդ	-10.4043
▁թերթի	-10.4043
▁հետապնդում	-10.4045
▁հաջողվել	-10.4045
▁անհետ	-10.4046
▁Էս	-10.405
▁ուղղություններ	-10.4051
▁Խաչ	-10.4052
վածքներ	-10.4054
ag	-10.4057
▁ԱԻՆ	-10.4058
▁վայրկյան	-10.4059
▁կոմպոզիտոր	-10.406
▁փայտ	-10.4068
▁Պետրոսյանը	-10.4071
▁անջատ	-10.4072
դակ	-10.4073
▁ժողովուրդ	-10.4074
▁ապրելու	-10.4077
▁դրսեւոր	-10.4077
պիսի	-10.4078
ԵՎ	-10.4081
▁գործադր	-10.4085
▁Իս	-10.4088
▁գույն	-10.4094
▁մեքենայի	-10.4095
▁դահլիճ	-10.4095
արական	-10.4097
▁ծրագրում	-10.41
▁ձերբակալ	-10.4102
▁Եվրոպայում	-10.4105
ie	-10.4114
▁մատակարար	-10.4114
▁Նկար	-10.4116
▁հաղթեց	-10.4123
▁Կատար	-10.4124
ոֆ	-10.4126
▁Ֆրանսիա	-10.4128
▁Հիմնական	-10.413
▁այո	-10.4133
Համ	-10.4133
▁վարչություն	-10.4134
ՆԱ	-10.4134
ագա	-10.414
▁իմանա	-10.4143
▁լուծելու	-10.4143
Բարսելոնայի	-10.4143
▁զենքի	-10.4144
▁սովորող	-10.4148
▁հավելված	-10.4151
▁Համա	-10.4155
▁Մարտ	-10.4156
▁Աշխարհ	-10.4157
▁մակերես	-10.4158
▁թատրոն	-10.4168
▁բացակայության	-10.4168
▁Ուստի	-10.4169
▁առոգան	-10.4175
ac	-10.4179
խանյան	-10.4183
▁եկեղեցիներ	-10.4183
▁ուսուցիչ	-10.4183
ջան	-10.4188
▁Կաս	-10.419
▁Ադ	-10.4193
▁ցանկը	-10.4195
ter	-10.4197
ությա՞մբ	-10.4198
▁գնալու	-10.4201
Մար	-10.4203
գայ	-10.4204
եյն	-10.4204
▁ծրագրով	-10.4208
▁սերնդի	-10.4208
▁տասը	-10.4208
▁հրաշք	-10.4209
▁Չեմպիոնների	-10.421
այք	-10.4211
all	-10.4213
▁ամենից	-10.4214
▁սովորում	-10.4216
▁ընթերց	-10.4217
▁Ադրբեջանին	-10.4217
▁կանչ	-10.4218
▁Ջե	-10.4219
▁միջոցառում	-10.4223
ացիոն	-10.4225
▁ծառայ	-10.4226
▁վերահսկ	-10.4227
ասրահ	-10.423
▁նախագծ	-10.4232
▁Դո	-10.4236
Պետերբուրգ	-10.4238
▁Z	-10.4242
ակերպ	-10.4245
▁շաբաթվա	-10.4249
ha	-10.4251
▁բարելավման	-10.4251
▁Ջր	-10.4254
▁գաղափարներ	-10.4259
ti	-10.4259
▁ոտքեր	-10.4259
▁նախագահին	-10.426
▁ամսական	-10.4262
▁բուն	-10.4267
▁հեղափոխություն	-10.4269
▁ավտոբուս	-10.427
ուղարկ	-10.4272
ՈՍ	-10.4274
▁վերաբերմունք	-10.4276
▁ոնց	-10.4277
պէս	-10.4278
▁փոխադարձ	-10.4279
▁ծնունդ	-10.4282
▁փոփոխությունները	-10.4283
▁ՀԱԿ	-10.4285
հատ	-10.4286
▁հարմարավետ	-10.4288
որակ	-10.429
▁հավաստ	-10.4293
▁կադրեր	-10.4293
▁Եվրասիական	-10.4295
գուն	-10.4296
▁հանգամանքներ	-10.4298
▁Էրդողանի	-10.4307
▁Արդյունքում	-10.4307
▁գործերը	-10.4308
▁պահանջներին	-10.4314
▁հաստատման	-10.4314
▁կարգավորում	-10.4315
▁ճանաչման	-10.432
▁տեսական	-10.4327
▁ավելորդ	-10.4327
▁չորրորդ	-10.4332
իկյան	-10.4333
▁մարզերում	-10.4338
▁Դրանից	-10.4342
▁անդամներին	-10.4342
▁չափը	-10.4342
▁հանդիսացող	-10.4342
▁սցենար	-10.4347
ուբ	-10.4351
▁հղել	-10.4351
▁Al	-10.4352
▁իրենից	-10.4353
▁ընթերցող	-10.436
ակցության	-10.4366
▁ՀԱՅ	-10.4366
▁անցկացվում	-10.4369
▁վաճառ	-10.4369
ատի	-10.4378
▁ծնող	-10.438
▁բառերը	-10.4383
▁ընդդիմություն	-10.4385
▁ԱՀ	-10.4386
▁ռեստորան	-10.4387
▁քաղաքացիներին	-10.439
ԱՇ	-10.4391
▁Ցանկ	-10.4391
▁համաձայնագիրը	-10.4393
▁միավորում	-10.4394
▁գաղափարը	-10.4397
▁գիտաժողով	-10.4397
▁կմնա	-10.4399
յե	-10.4406
▁աղոթք	-10.4407
▁Պապ	-10.4408
▁Երկիր	-10.4409
ՈՒՐ	-10.4409
ow	-10.4412
▁անակնկալ	-10.4412
դաս	-10.4413
▁հիվանդություն	-10.4416
▁կայացավ	-10.4421
▁դարձնելու	-10.4421
▁Սահմանադրական	-10.4424
▁բազմիցս	-10.4426
▁սկզբունք	-10.4427
▁նրբ	-10.4427
▁ակումբը	-10.4428
▁անցնելու	-10.4428
▁ռեժիմի	-10.4429
▁աշխատողների	-10.4431
▁խախտել	-10.4432
▁ընտրված	-10.4434
ԻՄ	-10.4438
▁արխիվ	-10.444
աբա	-10.444
▁ընդառաջ	-10.4442
▁օրգանիզմ	-10.4447
▁ներկայացվում	-10.4448
▁հանրությանը	-10.4448
▁Հե	-10.4449
▁հիմքում	-10.4453
▁հնարավորությունը	-10.4453
▁վճարման	-10.4454
ալով	-10.4462
▁համակարգող	-10.4463
րտասանեք	-10.4465
▁Գու	-10.4466
▁բացառությամբ	-10.4468
▁ապացուց	-10.4471
▁մոտենում	-10.4475
▁Մարդիկ	-10.4488
▁մեքենաներ	-10.4489
▁բոլորս	-10.4492
▁լրատվամիջոցների	-10.4492
▁Փոխ	-10.4494
▁պայքարել	-10.4497
▁ակադեմիայի	-10.4498
▁ենթադր	-10.4502
▁հաղթ	-10.451
de	-10.4513
▁Բրա	-10.4516
▁գոտի	-10.4518
▁ամբիոն	-10.4521
▁հնչեց	-10.4526
▁համագործակցել	-10.4527
▁կունենան	-10.4528
▁տարրեր	-10.4528
▁գյուղական	-10.453
լեն	-10.453
▁լա	-10.4532
▁հեռավոր	-10.4535
▁մտահոգ	-10.4536
▁գլխավորած	-10.4543
ընդգրկ	-10.4544
▁հաջողություններ	-10.4545
▁ընթացքը	-10.4545
▁համարձակ	-10.455
and	-10.455
▁կառուցված	-10.4551
▁Յունայթեդ	-10.4551
ակով	-10.4557
կել	-10.4557
▁նկատ	-10.4558
▁ընտանիքում	-10.4564
▁թռիչք	-10.457
▁արձակուրդ	-10.457
▁մեկնաբանել	-10.4572
▁շրջաններում	-10.4572
՞ն	-10.4574
▁աղջիկը	-10.4576
▁չունեմ	-10.4578
փոփոխ	-10.4578
▁նիստերի	-10.458
▁կորցրել	-10.4582
▁գտնվելու	-10.4583
▁բանակը	-10.4586
▁քաղաքներում	-10.459
▁վարիչ	-10.4594
▁տեղեկացրին	-10.4596
▁Հատուկ	-10.4597
պե	-10.4597
▁ջոկատ	-10.46
▁Մակ	-10.4601
▁Հին	-10.4601
▁համարժեք	-10.4603
▁ավեր	-10.4605
▁դերակատար	-10.4605
▁մեդիա	-10.4609
Կո	-10.461
▁վաստակ	-10.4611
▁Բելառուսի	-10.4613
ադրության	-10.4613
▁արվում	-10.4614
▁b	-10.4615
▁ամենակարեւոր	-10.4616
ակցի	-10.4617
▁մեկնարկ	-10.4621
▁Վրաստան	-10.4623
▁Գեւորգյան	-10.4625
▁դասընթացներ	-10.4626
▁կառավար	-10.4627
в	-10.4627
ափակ	-10.4634
▁Այսինքն՝	-10.4637
▁էկրան	-10.4639
▁տրամադրված	-10.4643
▁նպատակներ	-10.4645
ենթարկ	-10.4647
▁վեց	-10.4648
▁դադարեց	-10.4649
▁Հետաքրքիր	-10.465
ացնելով	-10.4652
▁Մինչդեռ	-10.4655
▁համոզ	-10.4656
▁Աբրահամյանը	-10.4656
▁զուտ	-10.4656
արթ	-10.4659
▁դարձած	-10.466
▁համաձայնություն	-10.4661
▁ծրագրային	-10.4663
▁գրանցում	-10.4664
▁վկայական	-10.467
▁ծայր	-10.4671
լոն	-10.4675
ԵՐԻ	-10.4677
ամյակը	-10.4683
ւում	-10.4684
▁մուտքի	-10.4684
▁Տա	-10.4691
▁նշանակել	-10.4696
ավարտ	-10.4698
Այն	-10.4698
▁նշանավոր	-10.4698
▁պատերազմը	-10.4698
▁Նի	-10.4701
▁խմբագր	-10.4702
os	-10.4703
Այդ	-10.4704
▁մակ	-10.4704
▁այսքան	-10.4704
լար	-10.4705
արկում	-10.4706
▁պատուհան	-10.4706
▁ասես	-10.4708
▁Սե	-10.4713
▁ֆորում	-10.4713
▁հարաբերություններում	-10.4715
▁բանակցային	-10.4716
ծան	-10.4718
▁արշավ	-10.4718
q	-10.4719
▁ներկայացման	-10.4725
▁սերը	-10.4729
▁թեկնածուների	-10.4731
ոջ	-10.4732
▁դիրքորոշումը	-10.4736
▁Սփյուռքի	-10.4738
արշավ	-10.4739
սու	-10.4739
▁գործընկերության	-10.474
խել	-10.474
▁Սիթի	-10.4749
▁Երկրի	-10.4752
▁կկայանա	-10.4753
▁լար	-10.4754
▁Վահե	-10.4756
առաջադր	-10.4757
րեմ	-10.4757
▁զարմանալի	-10.476
▁ո՞ր	-10.4762
▁արտադրություն	-10.4762
▁գործակալությունը	-10.4764
▁ցեղ	-10.4767
▁ձեռնարկել	-10.4773
▁սնունդ	-10.4774
▁կնոջը	-10.4774
նորոգ	-10.4776
▁Արագածոտնի	-10.4777
▁Ազ	-10.4778
Երբ	-10.4778
▁խորհուրդներ	-10.4783
▁բացարձակ	-10.4785
▁Մոր	-10.4795
▁ներկ	-10.4796
▁Մանուկյանը	-10.4798
▁նահանգ	-10.4803
▁վարկանիշ	-10.4808
▁ֆոնդ	-10.4809
▁պատրաստում	-10.481
բոր	-10.4812
ատեսակ	-10.4813
▁ստացավ	-10.4813
▁հաստատությունների	-10.4815
Արցախ	-10.4818
ռան	-10.4819
▁բնակելի	-10.482
▁Ամենա	-10.482
▁Բարձր	-10.482
▁վիճակագրական	-10.4821
ակազմ	-10.4821
շատ	-10.4824
▁մանկավարժ	-10.4826
իկներ	-10.4826
▁Զոր	-10.4826
▁Մարտիրոսյանը	-10.4828
▁արտադրանքի	-10.4828
համար	-10.4828
յից	-10.4831
▁Re	-10.4831
հեռ	-10.4831
▁լուր	-10.4832
▁գնով	-10.4833
▁պայման	-10.4833
▁կլ	-10.4835
▁Վարդ	-10.4839
▁բանից	-10.4841
▁պատվ	-10.4842
▁Թեեւ	-10.4844
այսուհետ	-10.4844
▁ցանկալի	-10.4846
▁համագործակցություն	-10.4846
▁Ցեղասպանության	-10.4849
di	-10.4851
▁ամրապնդման	-10.4852
▁առանձնահատկությունները	-10.4857
▁չունե	-10.4859
▁բնակիչները	-10.486
▁Լու	-10.4861
տնտեսական	-10.4868
▁օրենքներ	-10.487
▁կրծք	-10.4873
▁ընդդիմության	-10.4875
▁հոտ	-10.4878
▁հաղթահարել	-10.4879
▁վերադարձել	-10.4884
ly	-10.4887
▁առաջնություն	-10.4888
▁պաշտոնի	-10.4893
րիկ	-10.4893
▁աջակցում	-10.4895
աղա	-10.4896
ե՞ս	-10.4898
հանգ	-10.4898
▁թեմայի	-10.4899
▁գո	-10.49
պրես	-10.4902
▁սպառնում	-10.4905
▁համար՝	-10.4906
գրանց	-10.4906
▁բնութագր	-10.4911
▁դիմումը	-10.4912
▁մարտահրավերներ	-10.4914
գտ	-10.4914
▁հիշել	-10.4914
▁կերակր	-10.4915
▁Պոլ	-10.4917
▁ձեւաչափ	-10.4917
▁կիրակի	-10.4921
անշ	-10.4922
▁Պետրոս	-10.4923
ձե	-10.4926
▁Որքան	-10.4931
▁լք	-10.4931
▁փոխվարչապետ	-10.4935
▁փառատոն	-10.4937
▁Կոր	-10.494
▁տուգանք	-10.494
▁նախագծերի	-10.4941
▁Կիր	-10.4942
▁աղջիկների	-10.4942
աժողով	-10.4945
ամպ	-10.4947
ովան	-10.4952
▁զբաղված	-10.4954
▁ոմանք	-10.4957
▁Միջին	-10.4959
▁Shabat	-10.496
▁սահմանին	-10.4962
▁աշխատակից	-10.4964
տում	-10.4964
▁բարեփոխումներ	-10.4964
▁արհեստական	-10.4967
▁խանգարում	-10.4968
ասն	-10.4969
▁Էր	-10.4969
ԱՐԴ	-10.4971
▁բերվել	-10.4971
▁շինարարության	-10.4973
▁քաղաքագետ	-10.4979
▁հաղթանակի	-10.4981
▁օլիմպիական	-10.4982
▁հարձակման	-10.4983
▁Բալ	-10.4984
▁երկրները	-10.4985
էք	-10.4987
տաս	-10.4991
ջա	-10.4991
▁ընթացակարգ	-10.4994
▁հանդերձ	-10.4996
▁դատավարության	-10.4996
ni	-10.4997
▁բաժինը	-10.4999
չափ	-10.5
▁ձեռքբերումներ	-10.5001
▁համաժողովի	-10.5004
▁անելով	-10.5007
▁հուզ	-10.5009
րավ	-10.501
▁Արեւ	-10.5012
▁խորհրդարան	-10.5012
▁հավատարիմ	-10.5014
▁հանդիսավոր	-10.5019
▁անցկացնում	-10.5019
ա՞ն	-10.5021
զոր	-10.5022
▁Հովհաննիսյանի	-10.5022
▁արդիական	-10.5023
կյան	-10.5024
▁Ar	-10.5024
▁ամառային	-10.5024
▁Միրզոյան	-10.5025
▁առայժմ	-10.5027
▁ընկերներին	-10.5033
▁Մարգարյանի	-10.5036
▁միանշանակ	-10.504
▁կազմակերպելու	-10.5041
▁էլեկտրական	-10.5049
▁գիտելիքներ	-10.5055
▁Աբրահամյանի	-10.5059
▁որտեղից	-10.506
▁ցուցակ	-10.506
▁Հաղորդ	-10.5062
▁համացանց	-10.5065
▁ընձեռ	-10.5066
▁ստվեր	-10.5067
▁բաժակ	-10.5067
▁Հոգ	-10.5068
▁նստել	-10.508
▁արվել	-10.5082
▁ռեսուրսների	-10.5084
▁կարեւորել	-10.5089
▁հավերժ	-10.5089
▁քոլեջ	-10.5093
▁պահից	-10.5093
▁անուններ	-10.5099
▁շոու	-10.5102
Ազատություն	-10.5103
▁միայնակ	-10.5105
▁հիմնադրամը	-10.5106
աքս	-10.5106
▁տիր	-10.5107
▁Վահրամ	-10.5108
▁Co	-10.5109
▁պահեստ	-10.5109
▁Արտ	-10.511
ենա	-10.5111
Արսենալ	-10.5113
▁Սո	-10.5114
▁Հռոմի	-10.5116
▁գծում	-10.5117
▁դաշնակից	-10.5119
▁մասնակիցներին	-10.512
▁Միջ	-10.512
▁the	-10.5121
▁բառարան	-10.5123
▁զբաղվող	-10.5124
▁In	-10.5126
▁ՀՔԾ	-10.5128
▁գարնան	-10.5128
▁փորձեր	-10.5128
▁պարզվել	-10.5129
▁գույներ	-10.513
▁Քիմ	-10.513
ազդ	-10.5132
▁տեղեկաց	-10.5134
▁պաշտոնյաների	-10.5135
Եր	-10.5135
▁քաջ	-10.514
▁ստանա	-10.5148
▁հետաձգ	-10.5148
▁հասկանալի	-10.5148
պաշտպան	-10.515
ակների	-10.515
▁պատասխանում	-10.5151
▁Մերձավոր	-10.5152
▁սերտ	-10.5152
▁վրայ	-10.5155
▁Երուսաղեմ	-10.5156
▁Ալի	-10.5158
▁իշխող	-10.5161
▁Հրազդան	-10.5162
▁Միաժամանակ	-10.5163
▁Ունեն	-10.5166
▁ֆուտբոլային	-10.5175
▁երեկո	-10.5176
▁պատիժ	-10.5177
▁հաստատվել	-10.5178
are	-10.518
▁Վարձով	-10.518
▁Իլհամ	-10.5184
▁ճանապարհային	-10.5185
սկու	-10.5188
▁շքեղ	-10.5192
▁եղբայրներ	-10.5198
▁Գորիս	-10.5201
▁Մրցույթ	-10.5202
տրոն	-10.5203
▁բնապահպանության	-10.5204
ւել	-10.5205
▁Բարի	-10.5207
ագրված	-10.5208
▁տիպի	-10.5212
▁խափանման	-10.5214
▁Կոմիտասի	-10.5215
▁Իշխան	-10.5224
ագիտություն	-10.5235
▁անցավ	-10.5236
▁կանգնեց	-10.5237
▁արտահանման	-10.5238
▁դիտորդ	-10.5239
ոսյան	-10.5239
▁շահերը	-10.524
▁շրջանառության	-10.5242
ելիս	-10.5245
հակ	-10.5246
▁տապալ	-10.5247
▁վարակ	-10.5248
▁Հետեւաբար	-10.5249
▁հասուն	-10.5252
Ուկրաինա	-10.5256
▁ինքս	-10.5256
▁արեւելյան	-10.5257
▁հավելյալ	-10.5258
ազան	-10.5258
ավր	-10.5262
▁համահայկական	-10.5266
▁հայտն	-10.5267
ՆԵՐԸ	-10.5267
▁ընթացող	-10.5268
▁կոմ	-10.5269
▁բացատրել	-10.5276
▁յուղ	-10.5278
▁Պրեմիեր	-10.5279
▁քանակ	-10.5281
▁վերց	-10.5285
▁տղայի	-10.5286
▁պատժամիջոցներ	-10.5292
▁շեղ	-10.5294
▁Անվճար	-10.5301
զգուշ	-10.5301
▁Մհեր	-10.5305
▁m	-10.5305
▁լող	-10.5305
▁ամենամյա	-10.5306
անքներ	-10.5306
▁երես	-10.5308
դիպ	-10.5308
ԵՑ	-10.5309
▁ահաբեկչական	-10.5309
▁հսկողության	-10.531
▁լինելը	-10.5315
▁դահլիճում	-10.5321
▁Քաղաքական	-10.5323
▁ապրիլյան	-10.5324
▁Վաղ	-10.5324
մս	-10.5325
▁աստղեր	-10.5325
▁ծառայությունները	-10.5327
▁աշխատանքներին	-10.5328
▁եկող	-10.5331
▁տեղեկատվությունը	-10.5331
▁հատակ	-10.5332
վարդ	-10.5338
▁փաստաթուղթ	-10.534
▁կիրառվում	-10.5341
▁Վարդանյանը	-10.5341
▁Նաեւ	-10.5342
▁մանկավարժական	-10.5344
▁թվականների	-10.5347
▁զինծառայողների	-10.5347
▁քմ	-10.5352
▁ընտանիքների	-10.5355
▁բացահայտում	-10.536
▁առկայության	-10.5361
▁ներկայաց	-10.5364
▁մարմինները	-10.5365
▁ճանաչված	-10.5366
ացա	-10.5368
▁Պատասխան	-10.537
▁առաջացել	-10.5373
▁օբյեկտիվ	-10.5374
▁ձեռ	-10.5375
▁տեղաշարժ	-10.5376
▁Միլ	-10.5377
տիպ	-10.5381
աշխարհ	-10.5382
▁պաշտոնյաներ	-10.5383
▁ակնկալում	-10.5386
▁եղանակով	-10.5387
▁առաջնությունում	-10.5388
▁Քրիստոս	-10.5389
▁հաղորդագրության	-10.539
▁մասնագետներ	-10.5393
▁հարցնում	-10.5393
▁փոխանց	-10.5399
▁կրթ	-10.54
▁ներդրման	-10.54
▁հարցազրույցում	-10.5403
▁Ծառուկյանը	-10.5407
▁Նաիրա	-10.5407
▁Ժողով	-10.5408
▁գործոններ	-10.5409
▁Ռու	-10.5412
▁Աստծուն	-10.5413
С	-10.5417
▁մահացած	-10.5418
▁անսպասելի	-10.5419
▁ընտրությունը	-10.5421
▁ապրանքներ	-10.5421
▁ֆեդերացիայի	-10.5422
▁երկաթ	-10.5422
իկների	-10.5423
ֆոր	-10.5424
▁հաշմանդամ	-10.5424
Համայնք	-10.5425
▁ավտոմատ	-10.5427
▁ակտ	-10.5429
հոգ	-10.5429
▁անկում	-10.543
▁մոլոր	-10.5437
▁հոգեկան	-10.5437
▁շատերի	-10.5438
▁կազմակերպվել	-10.5439
▁ուշադրությունը	-10.544
▁ծն	-10.5445
արանում	-10.545
▁հասկացա	-10.5451
սակ	-10.5451
▁արարողությունը	-10.5451
▁Մովսես	-10.5451
▁կրկնակի	-10.5453
▁ՏՏ	-10.5454
▁քիմիական	-10.5454
▁վարորդը	-10.546
▁կանխարգելման	-10.5461
▁Մարզ	-10.5461
▁ամրագր	-10.5462
▁սարքավորումներ	-10.5462
▁ելույթներ	-10.5464
▁նպատակների	-10.5465
ընդհատ	-10.5467
ունք	-10.5468
ընկալ	-10.5471
▁փոր	-10.5472
▁դարեր	-10.5473
ԵՂ	-10.5475
▁Դաշնության	-10.5478
▁Mo	-10.548
▁ոտք	-10.5484
▁ՊԲ	-10.5484
ՀԿ	-10.5484
▁գիտի	-10.5487
խար	-10.5487
▁Հարգելի	-10.5487
▁հորիզոնական	-10.549
▁Անդրադառնալով	-10.5493
▁գիծ	-10.5494
զե	-10.5494
▁հեքիաթ	-10.5494
▁վայրը	-10.5494
▁պատվեր	-10.5495
▁սպա	-10.5497
▁լաբորատոր	-10.5499
▁հնար	-10.5501
▁բանկերի	-10.5503
▁վերահսկողություն	-10.5507
▁մանկապարտեզ	-10.5507
ստա	-10.5509
▁հով	-10.5509
ացրած	-10.551
▁տեխնոլոգիական	-10.5511
▁հասարակությունը	-10.5514
▁Ընկերության	-10.5515
▁կողմնակից	-10.552
▁ժողովում	-10.553
▁Առաքելյան	-10.553
▁Փորձ	-10.5536
▁խորը	-10.5541
▁զեղչ	-10.5544
▁տղան	-10.5546
▁շախմատի	-10.5548
▁զեկույց	-10.5548
▁Կարդալ	-10.555
▁քահանա	-10.5552
▁դանդաղ	-10.5552
▁ավարտվեց	-10.5553
▁Գո	-10.5558
▁ծառայող	-10.556
▁պատկերացնում	-10.5566
▁հերթ	-10.5567
▁կիսվել	-10.5567
▁տարիքի	-10.557
▁հատվածը	-10.5572
ոյանի	-10.5573
▁մտնելու	-10.5573
▁շնչ	-10.5574
Իսկ	-10.5574
▁քվեարկել	-10.5574
▁Բաղդասարյան	-10.5575
▁Ո՞ր	-10.5575
▁գրանցել	-10.5577
▁մանդատ	-10.5578
ատեր	-10.558
Արմենիա	-10.5582
▁եզրակացություն	-10.5587
▁վերցրել	-10.5589
ot	-10.5591
▁Մուրադյան	-10.5596
▁կայ	-10.5599
▁այսօր՝	-10.56
▁կոռուպցիոն	-10.5601
▁պայմանագրեր	-10.5601
▁բնակվող	-10.5604
▁ծրագր	-10.5605
est	-10.5605
▁շինարարական	-10.5606
▁բալ	-10.5606
զո	-10.5608
▁աշխատակազմ	-10.5609
▁գործիչների	-10.561
▁դավաճան	-10.5611
▁Յուրի	-10.5612
▁դատախազություն	-10.5613
ԱՐԿ	-10.5614
▁մոռաց	-10.5615
▁որակավորման	-10.5617
ex	-10.5619
Առ	-10.5622
▁դիմակ	-10.5628
դայի	-10.5629
▁ծաղիկներ	-10.5629
ու՞մ	-10.5631
▁d	-10.5631
Р	-10.5633
▁բեռնել	-10.5633
ate	-10.5633
▁երաժշտություն	-10.5635
▁ավտոմեքենայի	-10.5636
դամ	-10.5637
▁թեկուզ	-10.5638
▁պաշտպանական	-10.5638
մոռանա	-10.5638
արկել	-10.5642
▁կանոնների	-10.565
▁զարգացումներ	-10.5654
▁ջանքեր	-10.5655
անքը	-10.566
▁ճգնաժամ	-10.5663
▁Ալիեւը	-10.5664
▁հրեա	-10.5668
▁Թումանյան	-10.5671
ընդ	-10.5674
ՊԵՏ	-10.5675
գե	-10.5676
▁Ch	-10.5677
▁իշխանություններին	-10.5679
տուր	-10.5683
▁ռեժիմ	-10.5683
▁ներկայացուցչի	-10.569
կուս	-10.5691
▁աթոռ	-10.5691
▁ձայներ	-10.5692
▁քաղաքացին	-10.5695
ԱՎՈՐ	-10.5697
▁հանցագործություն	-10.5701
▁Մոտ	-10.5702
▁գործերով	-10.5704
▁պրոցես	-10.5705
▁Ո՞վ	-10.5707
▁օգուտ	-10.5708
▁տրամադրություն	-10.5712
▁ինչպիսի	-10.5719
▁Ֆրանսիայում	-10.5724
▁արձակել	-10.5727
▁իրականացումը	-10.5729
▁օրհն	-10.5731
▁դրանցից	-10.5732
▁տարա	-10.5733
▁կազմը	-10.5736
▁Մատ	-10.5738
▁ջրային	-10.5744
▁ուշադիր	-10.5744
▁տեսանելի	-10.5746
▁ականատես	-10.575
ts	-10.5758
▁խորհրդանիշ	-10.5759
▁ճանապարհորդ	-10.5763
ԵՏ	-10.5764
արեւմուտք	-10.5766
▁Մարիա	-10.5766
▁արտասանությունը	-10.5767
Գր	-10.5767
վալ	-10.5776
▁Politik	-10.5779
▁Ինքն	-10.5781
▁բնակավայր	-10.5783
▁արած	-10.5787
բերգ	-10.5788
▁նվիրել	-10.5789
▁կարդում	-10.579
▁Հակոբյանի	-10.5791
▁Ռուսական	-10.5792
▁անցկաց	-10.5792
լը	-10.5795
▁ընտրողների	-10.5795
▁որոշեց	-10.5796
▁մարմիններ	-10.5797
▁ազատազրկման	-10.58
▁ստոր	-10.5803
▁վթարի	-10.5804
▁տեղեկացրեց	-10.5804
▁խրախուս	-10.5808
▁արձագանքել	-10.5811
▁Պաշտօնական	-10.5817
▁Աթոռոյ	-10.5817
▁Խոս	-10.5821
ՈՒՍ	-10.5822
▁ձեւը	-10.5822
ՍՏ	-10.5827
ցիոն	-10.5827
▁Օրվա	-10.5829
▁հարազատների	-10.583
▁գեղ	-10.5832
▁գործընկերներ	-10.5832
▁քրեակատարողական	-10.5832
▁լվաց	-10.5833
▁Բե	-10.5834
ջյան	-10.5835
▁թունավոր	-10.5839
ընկեր	-10.5846
▁Բեն	-10.5849
▁անունները	-10.5849
▁ֆրանսիացի	-10.5853
▁ցնց	-10.5853
▁պահանջների	-10.5853
արգել	-10.5854
▁սեփականատեր	-10.5854
▁միտքը	-10.5856
▁հունվար	-10.5857
▁գիտություն	-10.5857
▁գոյ	-10.5858
տել	-10.5864
▁հաղորդակց	-10.5867
▁ծնողները	-10.5868
▁որոշումների	-10.5869
▁Սեն	-10.5871
▁փնտրել	-10.5873
ասենյակ	-10.5876
▁Ծնվել	-10.5877
▁Տիրոջ	-10.5877
▁տղամարդիկ	-10.5879
▁հավելելով	-10.5879
եջ	-10.588
▁առանձնապես	-10.5881
▁բազմազան	-10.5887
ասար	-10.589
իգ	-10.589
▁հետեւանք	-10.5892
ցուց	-10.5894
▁մեքենաների	-10.5894
պահպան	-10.5896
▁կվեր	-10.5896
▁պատճենեք	-10.5897
yan	-10.59
▁խաբ	-10.5903
մլ	-10.5904
▁մեխանիզմ	-10.5907
▁վթար	-10.5908
▁կապեր	-10.591
▁լարված	-10.5911
▁հեռավորության	-10.5915
▁հայեցակարգ	-10.5916
▁Երրորդ	-10.5922
թյուն	-10.5922
պարտ	-10.5925
▁գոտու	-10.5929
▁ոստիկան	-10.5929
▁չունեցող	-10.593
▁կամուրջ	-10.593
▁տուրում	-10.5932
▁անօրինական	-10.5932
▁ասի	-10.5933
ոսը	-10.5935
▁մասնաճյուղ	-10.5944
▁կոշտ	-10.5945
▁պարտություն	-10.5946
▁կապում	-10.5952
▁խոսեց	-10.5954
▁ոլորտ	-10.5954
կազմակերպ	-10.5957
զիլ	-10.5957
▁վնասվածքներ	-10.5957
▁ծովի	-10.5959
▁Մանուկյան	-10.5959
▁հիվանդության	-10.5962
▁Տան	-10.5964
▁Աբովյան	-10.5972
▁արգելք	-10.5974
▁Նախագահը	-10.5975
▁կենսաթոշակ	-10.5978
▁ծիրան	-10.5982
ադրամ	-10.5983
▁նորություններ	-10.5984
▁իրավաբան	-10.5986
▁Հարցին	-10.5986
▁Այնուամենայնիվ	-10.5987
▁Փա	-10.5988
no	-10.5988
▁նախապատրաստ	-10.5989
ճար	-10.5989
▁Սասուն	-10.599
իտալ	-10.5991
Երկ	-10.5991
▁Նույնիսկ	-10.5992
ե՛	-10.5992
И	-10.5993
▁խաղացող	-10.5993
▁օպերատոր	-10.5998
▁թերթ	-10.6003
▁աջակցությունը	-10.6003
▁ներքեւ	-10.6003
▁հանդիս	-10.6004
▁խոսքերը	-10.6006
ցիները	-10.6008
▁կոմիտեն	-10.6009
օգտ	-10.6009
ետա	-10.6009
▁դուռը	-10.601
▁վերադառնում	-10.6012
▁գավառ	-10.6013
▁տնօրենը	-10.6015
▁նվաճել	-10.602
▁որակյալ	-10.6026
▁հոգե	-10.6026
խալ	-10.6029
էս	-10.6033
▁ապահովագրական	-10.6037
▁ՕՐ	-10.6038
ill	-10.6039
նետ	-10.6041
▁Օդ	-10.6042
▁կանոնները	-10.6042
▁գերմանական	-10.6044
▁Վիկտոր	-10.6045
▁Իրանը	-10.6045
▁Կալ	-10.6047
ատիվ	-10.6049
▁զորակոչ	-10.605
▁ձեւավորված	-10.6051
ՊԱՏ	-10.6051
Կյանք	-10.6051
▁An	-10.6051
▁Օլիմպիական	-10.6052
▁ուղիներ	-10.6054
ոնը	-10.6058
Ինչ	-10.6058
▁առանցքային	-10.6062
▁Միջոցառման	-10.6066
▁հաճախորդների	-10.6069
▁եկեղեցում	-10.6069
▁գործողություն	-10.607
▁ապագան	-10.6071
▁to	-10.6072
▁պարտականությունները	-10.6072
▁արտագաղթ	-10.6073
▁կց	-10.6073
եւը	-10.6074
▁դարպաս	-10.6076
▁խնդիրներին	-10.6078
▁մաշկի	-10.6079
▁մայրաքաղաքի	-10.6083
▁տղամարդը	-10.6084
log	-10.6084
▁Դեռ	-10.6087
▁ընդունելու	-10.609
ավանդ	-10.609
▁ընկերություններ	-10.609
▁փախ	-10.609
ack	-10.6092
ուլի	-10.6093
▁օրոք	-10.6094
▁դատախազության	-10.6099
▁բակ	-10.6101
▁խախտումներ	-10.6102
▁հանցավոր	-10.6103
▁փուլը	-10.6103
վածության	-10.6104
▁օգտագործվել	-10.6107
▁ճանաչելու	-10.6107
▁վայրերում	-10.6113
▁էներգիա	-10.6113
աթի	-10.6113
@	-10.6115
▁Հարություն	-10.6119
▁պատվիրակությունը	-10.6122
▁բազում	-10.6124
▁Չար	-10.6124
▁ցանցեր	-10.6126
▁տարածաշրջան	-10.6126
▁կատակ	-10.6129
▁նշանակալի	-10.6131
▁ջուրը	-10.6132
▁Արցախյան	-10.6135
▁կորուստներ	-10.6136
▁հանցագործության	-10.6136
▁ազդել	-10.6136
մարդ	-10.6137
▁նավթ	-10.6137
սպան	-10.6137
ամսյա	-10.6137
▁ամենաբարձր	-10.6138
▁կաշառք	-10.6139
▁դարձյալ	-10.6141
▁միություն	-10.6143
այս	-10.6143
կում	-10.6144
▁զեկուց	-10.6145
▁թր	-10.6145
▁աստիճանաբար	-10.6146
▁ներառված	-10.6148
▁խաղաղություն	-10.6149
▁Մարկ	-10.615
▁ակնարկ	-10.6152
ԻՑ	-10.6153
▁առավոտ	-10.6153
▁չափանիշներ	-10.6153
▁Գա	-10.6154
մեծ	-10.6158
չություն	-10.616
▁սիրել	-10.616
▁Պետրոսյան	-10.6162
▁Չէ	-10.6162
▁ենթա	-10.6163
▁ավարտից	-10.6165
▁Լոս	-10.6166
ь	-10.6166
▁տրանսֆեր	-10.6166
az	-10.6166
▁սմ	-10.6166
յոն	-10.617
բուս	-10.617
▁բաժանորդ	-10.6174
▁նախագծում	-10.6174
▁առնում	-10.6175
▁վարք	-10.618
▁ուսումնասիրություն	-10.618
▁գիտակցում	-10.6182
▁ներկայացուցիչը	-10.6185
▁մատուցել	-10.6185
art	-10.6187
▁թատրոնում	-10.6189
▁համայնքներում	-10.6189
AR	-10.619
▁դիզայն	-10.6191
▁ցեղասպանությունը	-10.6191
▁ուսումնասիրության	-10.6192
▁տրամադրման	-10.6193
vi	-10.6194
▁բացում	-10.6197
▁անձնակազմի	-10.6199
▁Պարզ	-10.62
tr	-10.6206
▁Խոր	-10.6208
ե՞ք	-10.6213
Ռեալի	-10.6214
վենք	-10.6215
հրապարակ	-10.6218
▁Մու	-10.6223
▁հանդիպ	-10.6223
▁եթերում	-10.6224
ացնեն	-10.6225
սիր	-10.6229
▁շուկա	-10.6229
▁պատգամավորներ	-10.623
▁Մոն	-10.623
▁Հաշվի	-10.6232
▁վայել	-10.6233
▁երկրից	-10.6235
▁Lurer	-10.6235
▁կոմսություն	-10.6237
▁զինվորների	-10.6238
▁մարմն	-10.6238
▁Լուս	-10.6239
▁հյուսիսային	-10.624
▁Էն	-10.624
▁Վահագն	-10.6241
▁ծխ	-10.6241
▁շարժում	-10.6243
▁ազդում	-10.6243
▁մեռ	-10.6245
▁Միեւնույն	-10.6246
ադրություն	-10.6246
▁ՄԻ	-10.6248
▁զարմաց	-10.625
Ղարաբաղ	-10.6252
▁էլ՝	-10.6254
▁կոտր	-10.6255
▁հրադադարի	-10.6255
▁վերած	-10.6256
▁զարգացնել	-10.6262
▁կնքել	-10.6262
▁քույր	-10.6265
▁դրսեւորում	-10.6271
▁զանգահարել	-10.6274
քշ	-10.6276
ություններով	-10.6278
▁կոնգրես	-10.6284
▁շեշտ	-10.6288
▁Պողոսյանը	-10.6289
▁պարզելու	-10.6289
▁սահմանների	-10.6293
▁բերան	-10.6294
▁թույլտվություն	-10.6298
▁կօգնի	-10.6298
▁հազ	-10.6299
▁հասցեին	-10.6301
անուշ	-10.6306
▁հարցաքնն	-10.6308
▁սահմանը	-10.6312
▁Մաշտոցի	-10.6314
▁հարաբեր	-10.6315
▁շտաբի	-10.6317
▁հասցեում	-10.6318
▁առհասարակ	-10.6319
ականներին	-10.6322
դեմ	-10.6325
անշան	-10.6325
▁կյանքին	-10.6328
▁մնալու	-10.6329
▁օրենքների	-10.6329
▁գիտենք	-10.6333
պետական	-10.6333
▁դեպքերը	-10.6334
▁հանցագործությունների	-10.634
▁արի	-10.6343
▁թվային	-10.6343
▁ապացույց	-10.6343
▁Ամբողջ	-10.6344
▁քանակությամբ	-10.6345
▁Քաղաքացիական	-10.6345
▁Արդ	-10.6345
▁քսան	-10.6345
▁համակարգչային	-10.6346
▁առնել	-10.6349
.),	-10.6349
▁առանձնահատուկ	-10.635
▁տոնը	-10.6356
թանգարան	-10.6356
▁Ամերիկյան	-10.6357
ա՜	-10.6357
Օր	-10.6359
▁մարդկության	-10.6359
ակայ	-10.6362
▁Երգ	-10.6367
▁օրինակ՝	-10.6368
▁հավելեց	-10.6368
▁իրականության	-10.6368
բուլ	-10.6371
▁գլոբալ	-10.6373
խնամ	-10.6373
▁հեռախոսահամար	-10.6375
շեն	-10.6375
▁աճը	-10.6375
▁աշխատակիցներ	-10.6376
▁լճի	-10.6377
▁անհրաժեշտությունը	-10.6378
պատմ	-10.6379
▁միջոցառման	-10.638
լեյ	-10.638
▁Առաջարկ	-10.6381
mo	-10.6384
▁բանտ	-10.6384
▁բաղադրիչ	-10.6386
▁ընկալում	-10.6388
▁լքել	-10.6388
▁Լին	-10.639
▁արդյունքը	-10.6392
▁էլեկտրա	-10.6395
▁գերեզման	-10.6396
ԱԳՐ	-10.6396
▁ապացույցներ	-10.64
▁Պո	-10.6409
▁Կու	-10.6413
եզեր	-10.6414
▁Լոնդոնի	-10.6415
▁կատարող	-10.6416
▁ծառեր	-10.6419
▁պատմեց	-10.642
Բա	-10.6421
կատար	-10.6422
▁տպ	-10.6422
▁դպրոցներում	-10.6424
▁ֆուտբոլիստներ	-10.6425
▁ժառանգության	-10.6425
տիվ	-10.6428
▁գծ	-10.643
լր	-10.6431
ունկ	-10.6431
▁մարմնական	-10.6431
▁բնակվում	-10.6432
▁սկզբունքների	-10.6432
▁հայտնվեց	-10.6433
Աս	-10.6434
▁Գար	-10.6439
▁Դեպքի	-10.6441
թիվ	-10.6446
ոքի	-10.6448
▁սուրճ	-10.6449
▁Հոլ	-10.645
▁անտարբեր	-10.6451
▁սեղմ	-10.6452
▁սահմանվում	-10.6455
▁աղետ	-10.6456
▁$	-10.6456
Ռուսաստան	-10.6457
id	-10.6457
▁վերլուծություն	-10.6457
▁թալան	-10.6457
▁մեկնաբանություններ	-10.6461
▁փլուզ	-10.6462
▁պաշտպանի	-10.6465
որդի	-10.6466
▁արտասահմանյան	-10.6466
▁Սեւակ	-10.6469
▁ֆիլմերի	-10.6469
▁իրադարձություններ	-10.6469
▁որդի	-10.6471
լուսանկար	-10.6472
▁ձեւավորվել	-10.6474
▁աշխատավարձի	-10.6475
անյանը	-10.6477
▁Սրա	-10.6482
▁դիրքորոշում	-10.6484
▁Մկրտչյանը	-10.6488
▁առօրյա	-10.6491
▁թեկնածուի	-10.6493
▁g	-10.6494
աթափ	-10.6496
▁Սաֆարյան	-10.6497
▁բաժանմունք	-10.6504
▁հիշեցնում	-10.6507
▁էժան	-10.6507
▁աղմուկ	-10.651
ագին	-10.651
ույր	-10.6512
▁հետեւից	-10.6512
▁պարտավորությունների	-10.6512
▁հղի	-10.6513
▁ժողովրդավարության	-10.6514
▁տեսակներ	-10.6515
▁գործելու	-10.6515
▁մրցաշարի	-10.6517
▁ունեցան	-10.6521
լամ	-10.6521
▁Ժամը	-10.6521
աշխ	-10.6522
▁բնակչությունը	-10.6523
▁Բաբայան	-10.6524
▁հայրենակիցներ	-10.6531
▁թեկնածուն	-10.6532
ԻՍ	-10.6532
▁խնդր	-10.6533
▁հետեւանքներ	-10.6535
ողներին	-10.6535
▁արարք	-10.6535
Նախ	-10.6539
▁Ուրեմն	-10.6539
▁արձանագրվել	-10.6541
▁գումարներ	-10.6543
▁հոսանք	-10.6543
▁աստերոիդ	-10.6547
▁հուն	-10.6548
б	-10.6548
▁www	-10.655
շե	-10.6551
▁այգի	-10.6552
▁գործին	-10.6559
▁հաղթանակը	-10.6559
▁հետաքրքրված	-10.6564
▁աննախադեպ	-10.6565
▁հոդվածում	-10.6566
▁ավտոմեքենան	-10.6568
▁էներգիայի	-10.6568
й	-10.6568
▁Արմ	-10.6572
ո՛ւ	-10.6572
▁ինֆորմացիա	-10.6573
▁առընթեր	-10.6574
▁միտք	-10.6574
▁մասնակցի	-10.6575
▁Պատմ	-10.6576
▁սեքս	-10.6577
▁Նշ	-10.6578
արանը	-10.6578
▁վերցնում	-10.6579
▁արժեքի	-10.6581
▁տեսնելու	-10.6581
▁թեւ	-10.6582
▁ծավալը	-10.6587
▁Mar	-10.6587
▁օգտագործելով	-10.6587
▁օպերայի	-10.6587
▁Վերա	-10.6589
եցրել	-10.6589
▁ինչից	-10.6592
ell	-10.6593
im	-10.6594
այից	-10.6599
լյան	-10.6599
▁Արտակարգ	-10.6603
▁հեղինակություն	-10.6605
▁հայտարարությամբ	-10.6605
▁ընթացք	-10.6606
▁դստեր	-10.6609
▁հեռուստաալիք	-10.6609
▁Հանդիպում	-10.6613
▁բանակում	-10.6614
ы	-10.6614
Ազգ	-10.6614
▁ալբոմ	-10.6616
ացույց	-10.6621
▁միջնորդություն	-10.6623
▁իրազեկ	-10.6623
▁Ջո	-10.6626
▁թշնամու	-10.6627
▁գործն	-10.6627
▁կարդաց	-10.6628
անջ	-10.6628
▁գավաթ	-10.6629
▁հաղթահար	-10.6634
՛՛	-10.6634
▁չլինի	-10.6636
իրավական	-10.6639
▁քվե	-10.6643
▁տեղամաս	-10.6644
▁խնամքի	-10.6645
փայ	-10.6651
▁Այսօր՝	-10.6659
net	-10.6661
ԱՆՑ	-10.6661
▁չան	-10.6662
▁սպասարկում	-10.6665
դատ	-10.6674
▁համագումար	-10.6674
ժամանակ	-10.6674
▁շենքեր	-10.6676
կայի	-10.6676
▁կրակոց	-10.6677
ամր	-10.6677
▁սարսափելի	-10.6677
▁հրապարակված	-10.6679
▁Ղազարյան	-10.6679
▁II	-10.668
AN	-10.6684
▁ներկայացնելով	-10.6685
▁Վալերի	-10.6686
չում	-10.6692
Հայոց	-10.6692
ov	-10.6696
▁ողջունել	-10.6697
▁Սալ	-10.6697
▁երկխոսության	-10.67
▁կոդ	-10.6701
▁թերություններ	-10.6703
▁Իրականում	-10.6703
▁Տու	-10.6704
Q	-10.6704
▁ցուցակը	-10.6705
ագրով	-10.6707
կոլ	-10.671
▁առաջադրել	-10.6711
Ադրբեջան	-10.6713
▁իրագործ	-10.6714
▁գլխի	-10.6714
▁կնքված	-10.6715
▁հանդիպեց	-10.6715
▁սուտ	-10.6715
▁երկրաշարժ	-10.6716
▁անհ	-10.6719
▁Սիմոնյան	-10.6721
▁տեխնոլոգիաներ	-10.6722
▁De	-10.6726
▁դադար	-10.6727
ca	-10.6728
▁տեղեկությունները	-10.6731
▁առաջադրված	-10.6733
▁հայտնաբեր	-10.6738
▁հավանականությամբ	-10.6738
▁ափ	-10.6738
▁վերականգնել	-10.6738
▁տոննա	-10.6738
▁Փարիզում	-10.6742
▁վերականգն	-10.6746
▁բացառվում	-10.6746
Եվրատեսիլ	-10.6748
▁ստուգումներ	-10.675
▁հարեւանությամբ	-10.6755
յլ	-10.6755
▁ֆինանսավորման	-10.6762
աշատ	-10.6762
tor	-10.6763
▁ԿԲ	-10.6763
գրավ	-10.6766
պառ	-10.677
▁քր	-10.677
անելի	-10.6777
▁գումարները	-10.6785
▁կարոտ	-10.6788
▁պետություններ	-10.6789
▁Օս	-10.6792
▁հոգեբան	-10.6792
▁Մինասյանը	-10.6792
ՏԻ	-10.6793
▁մայրիկ	-10.6794
▁ասուլիսի	-10.6795
­­­	-10.6796
▁մասնագիտություն	-10.6799
գրես	-10.68
ադրված	-10.6801
▁հետազոտություն	-10.6806
▁Մխիթարյանի	-10.681
▁վան	-10.6813
▁նրանով	-10.6816
ուսի	-10.6817
▁հանրապետություն	-10.6817
▁չգիտե	-10.6818
▁պատճեն	-10.6819
▁ներգրավ	-10.6822
▁եզակի	-10.6822
da	-10.6822
▁նկատում	-10.6823
▁տնտես	-10.6823
▁ոճի	-10.6826
▁ներուժ	-10.6826
▁տնային	-10.6832
▁պարկ	-10.6834
▁հաշմանդամություն	-10.6836
Լենին	-10.6839
▁ժամանած	-10.6839
▁բարձրաձայն	-10.6845
▁բախտ	-10.6846
▁Կարապետյան	-10.685
▁հատկաց	-10.6851
ատիկ	-10.6854
ո՞ւ	-10.6855
▁լիազորությունները	-10.6857
▁Խաչատուր	-10.6857
▁ընթացքի	-10.6858
▁ընդունելության	-10.6861
▁վճարող	-10.6863
▁հաշվետվություններ	-10.6869
աշրջան	-10.6869
ber	-10.687
արատ	-10.687
°	-10.6879
ցնի	-10.688
▁հնչում	-10.688
▁ձեւավոր	-10.6882
▁ԵՏՄ	-10.6882
▁շքանշան	-10.6884
▁Քոչարյան	-10.6885
մետ	-10.6891
▁աղջիկներ	-10.6892
bo	-10.6892
▁Ասատրյան	-10.6892
▁Մայիս	-10.6893
յար	-10.6894
Հյուսիս	-10.6895
▁մարզերի	-10.6896
▁սխալներ	-10.6899
▁Մովսիսյան	-10.6899
▁մոտավորապես	-10.6901
Ոչ	-10.6903
▁դիտում	-10.6903
ցեն	-10.6903
▁պատկերը	-10.6905
▁նյութի	-10.6905
▁ժամանակներում	-10.6908
(←	-10.6911
▁Կարելի	-10.6914
եո	-10.6914
▁Բաղ	-10.6914
▁վերսկս	-10.6915
▁Հայրապետական	-10.6916
▁սիրտ	-10.6917
▁Անկախ	-10.6917
ատկ	-10.6918
▁մեկտեղ	-10.692
▁կազմակերպիչ	-10.6921
▁հաջողությամբ	-10.6923
▁Սահակյանի	-10.6924
▁Մելիքյան	-10.6926
▁դեմքի	-10.6927
▁խախտման	-10.6929
▁հրավեր	-10.6931
տրամ	-10.6939
▁Sputnik	-10.6939
վատ	-10.694
▁ջերմաստիճանը	-10.6943
▁ցավոք	-10.6943
սո	-10.6945
արաններ	-10.6946
▁ռեժիմում	-10.6949
▁ՏԵՍԱՆՅՈՒԹ	-10.6953
▁հրաժարվում	-10.6953
▁հարգ	-10.6959
մաքս	-10.6959
▁Առանց	-10.6962
ակերտ	-10.6963
▁ձայնագր	-10.6964
▁հանդիպումների	-10.6966
▁շինություններ	-10.6966
▁կեսին	-10.697
▁կամավոր	-10.6972
▁վարկած	-10.6972
▁բացատրություն	-10.6973
▁լիազորությունների	-10.6973
▁կորցրած	-10.6974
▁ռիսկ	-10.6976
▁Դիմ	-10.6976
▁կառույցի	-10.6976
▁գործընթացին	-10.6977
▁արմատ	-10.6979
▁ցուցանիշներ	-10.6982
վիճ	-10.6983
▁բազա	-10.6984
▁անմեղ	-10.6985
▁փոխանցմամբ	-10.6989
▁Տնտեսական	-10.699
կշռ	-10.6992
▁նշաններ	-10.6994
▁Քր	-10.6994
ացիների	-10.6994
▁կայսրության	-10.6995
▁Հովսեփյան	-10.6995
▁տեղեր	-10.6995
▁փաստորեն	-10.6996
▁նախարարների	-10.7
▁պահանջարկ	-10.7001
ավետ	-10.7002
▁համացանցում	-10.7003
▁անցկացվող	-10.7006
▁ականջ	-10.7006
լետ	-10.7006
ե՛ր	-10.7007
▁համադր	-10.7009
▁Խան	-10.7009
կետ	-10.701
▁գյուղացի	-10.7011
our	-10.7013
▁քայլերը	-10.7015
▁հիշատակին	-10.7016
▁հարսանիք	-10.7016
հարձակ	-10.7017
▁Apple	-10.702
Մարդ	-10.7022
ոնե	-10.7023
▁Քրեական	-10.7024
▁արքայ	-10.7026
փոփ	-10.7034
▁աչքեր	-10.7034
▁Նշվում	-10.7036
▁առարկաներ	-10.7036
▁գլուխը	-10.7036
▁գծեր	-10.7036
▁բանկը	-10.7037
▁հեռանկար	-10.7039
▁վճիռ	-10.7041
▁de	-10.7042
▁քարեր	-10.7046
▁շենքը	-10.7047
▁կատարեց	-10.7048
դյան	-10.7049
▁տրամադրելու	-10.7049
▁կայացման	-10.7049
կարգ	-10.7052
▁դասարանի	-10.7053
▁կատարյալ	-10.7054
▁հեր	-10.7056
մենտ	-10.7059
▁մասնագետները	-10.7059
▁Կայք	-10.7061
▁այց	-10.7063
▁ունեին	-10.7063
ap	-10.7064
հե	-10.7064
▁առաքելություն	-10.7064
րկ	-10.7066
▁Սու	-10.7067
▁Գուցե	-10.7069
▁Ջա	-10.707
do	-10.7071
ացրեք	-10.7072
▁կորուստ	-10.7075
ամետ	-10.7076
▁դժբախտ	-10.7078
ամս	-10.7079
▁խելացի	-10.708
▁տարածվում	-10.7081
▁իրավունքներ	-10.7081
▁ուսանողական	-10.7082
▁մեղադրել	-10.7083
▁այսուհետ	-10.7083
քերի	-10.7083
▁նստավայր	-10.7085
ճան	-10.7087
Ֆեյսբուք	-10.7088
▁մեղ	-10.709
▁պարտադր	-10.7091
▁ստանդարտ	-10.7092
▁օրակարգում	-10.7095
▁անհաջող	-10.7103
▁ծառայում	-10.7106
▁ապացուցել	-10.7108
▁երեւույթներ	-10.7108
ահավաք	-10.7109
▁հեշտությամբ	-10.711
▁բրենդ	-10.7119
▁կյանքն	-10.7121
▁շենքում	-10.7121
▁պահանջը	-10.7121
▁Be	-10.7121
▁ավելացել	-10.7123
▁Քարդաշյան	-10.7125
▁մարզական	-10.7127
▁Բարձրագույն	-10.7128
▁Գերմանիայում	-10.7128
▁եթեր	-10.7129
շու	-10.7131
երկու	-10.7132
▁ցուցադրել	-10.7132
▁Սովոր	-10.7135
զոն	-10.7139
ավորվել	-10.7139
▁գործակալ	-10.7143
▁զարգացած	-10.7144
▁արդյունավետության	-10.7145
▁վճռական	-10.7149
▁տարեկանում	-10.7149
л	-10.7152
▁օրերս	-10.7152
▁հոգին	-10.7155
▁ռեժիմը	-10.7156
▁վարչությունից	-10.7158
▁Գերագույն	-10.7159
News	-10.7161
ացիա	-10.7162
▁ուշագրավ	-10.7162
▁Արտա	-10.7162
▁շերտ	-10.7163
▁ընտրություններից	-10.7164
Երկիր	-10.7166
կոս	-10.7167
▁տեղադր	-10.7169
▁կտան	-10.717
▁դիտարկ	-10.717
▁Վանաձոր	-10.7173
▁փչ	-10.7173
▁բաժանում	-10.7173
▁ամիսների	-10.7174
▁էներգետիկայի	-10.7175
▁հաղորդման	-10.7175
▁բոլորիս	-10.7177
ովիչ	-10.7178
▁Կառավարությունը	-10.718
Ինտեր	-10.7181
▁հավաքվել	-10.7181
Ամեն	-10.7184
▁գրա	-10.7184
▁անցկացված	-10.7185
▁Ադրբեջան	-10.7191
▁Կորեայի	-10.7191
▁Բաքվում	-10.7193
▁վերաբեր	-10.7195
Նովոստի	-10.7197
կրա	-10.7205
▁կախ	-10.7209
▁կիրառում	-10.721
▁ընդունվում	-10.7213
▁ղեկավարները	-10.7213
Բար	-10.7217
▁օգն	-10.7217
▁պատճառներ	-10.7218
▁մեծամասնությունը	-10.722
▁ամենուր	-10.722
▁ուղղություն	-10.7221
ո՛	-10.7222
▁ազնիվ	-10.7222
Սփյուռք	-10.7223
▁կոնֆլիկտ	-10.7224
▁վաստակավոր	-10.7229
va	-10.7229
▁աղոթ	-10.723
▁Աղբյուր	-10.7232
ՄԻ	-10.7233
▁հավատարմագր	-10.7234
Կա	-10.7241
Եվ	-10.7243
Այսօր	-10.7246
▁տուժած	-10.7249
ցիայի	-10.725
▁նյութերը	-10.725
▁շենքերի	-10.7251
▁կրտսեր	-10.7252
▁Հասմիկ	-10.7256
Սիր	-10.7259
գծ	-10.726
▁փառք	-10.7261
▁ԳՈՐԾ	-10.7261
▁անիմաստ	-10.7261
▁նորանշանակ	-10.7263
▁Այնտեղ	-10.7263
Տեսանյութ	-10.7268
սպաս	-10.7269
▁հրապարակման	-10.727
▁մասամբ	-10.7271
▁Խմբագրական	-10.7272
▁փոխելու	-10.7275
▁մեկնաբանություն	-10.7276
▁Շարմազանովը	-10.7277
▁աճում	-10.7277
▁Համակարգ	-10.728
▁արդյունաբերության	-10.7282
▁դդ	-10.7283
▁Operativ	-10.7283
▁Առավել	-10.7285
Լույս	-10.7286
▁զիջում	-10.7287
եվ	-10.7292
▁զբոսաշրջության	-10.7293
ցե	-10.7293
▁ազատություն	-10.73
▁գործարք	-10.7304
▁ժանր	-10.7306
▁Ներկայումս	-10.7307
▁ձեւակերպ	-10.7308
զր	-10.7308
▁նախօրեին	-10.7309
▁հեռանալ	-10.7312
ub	-10.7313
▁Դանիելյան	-10.7314
▁գյուղը	-10.7315
▁Ուր	-10.7317
▁գալուստ	-10.7319
▁Շարմազանով	-10.732
▁մարզիկներ	-10.7322
▁կայացրել	-10.7323
ռե	-10.7323
քար	-10.7325
ահարկ	-10.7326
ությ	-10.7329
ացվի	-10.7329
▁դաշինքը	-10.733
▁կողմից՝	-10.7333
ԱՆԻ	-10.7335
եւոր	-10.7335
▁Ավետիսյան	-10.7338
▁մեղադր	-10.734
ապատկեր	-10.7343
րիմ	-10.7344
▁Սաուդյան	-10.7345
▁հեռուստաընկերություն	-10.7349
Դիլիջան	-10.735
շահ	-10.7361
▁թոռ	-10.7362
▁հատվածներ	-10.7369
▁ռեսուրսներ	-10.737
▁Աղա	-10.737
▁ուսանողները	-10.737
զար	-10.7371
▁ամրոց	-10.7371
▁Իվան	-10.7376
▁ներքաղաքական	-10.7378
դես	-10.738
▁խուսափելու	-10.7382
▁ահաբեկչության	-10.7385
▁հայտարարագր	-10.7387
▁բանակցությունները	-10.7388
եթե	-10.7391
▁Մահ	-10.7392
▁Յո	-10.7393
▁պաշտպանություն	-10.7393
կուն	-10.7396
▁գրքում	-10.7396
▁նշանակ	-10.7397
ci	-10.74
▁հնարավորությունների	-10.74
▁ընտրում	-10.7401
▁Մելիք	-10.7407
▁մի՛	-10.7408
▁Միքայելյան	-10.741
▁հագեցած	-10.7411
▁ցանկում	-10.7417
▁մեկնում	-10.7417
ցու	-10.7417
▁հաճույք	-10.7418
▁կոմիտե	-10.7418
▁մոլ	-10.742
▁Շար	-10.742
▁ուրիշների	-10.7422
▁Ազատության	-10.7422
▁ոլորտը	-10.7425
վես	-10.7427
▁արտահայտել	-10.7433
▁տեխնիկայի	-10.7433
ատուր	-10.7433
շակ	-10.7434
▁ԵԽԽՎ	-10.7435
▁Ֆե	-10.7438
▁Բանկի	-10.7439
աբաշխ	-10.7439
▁անվտանգությունը	-10.7441
տանի	-10.7441
▁պնդել	-10.7444
վարկ	-10.7447
▁Թո	-10.7448
ers	-10.7448
▁եղան	-10.7448
▁հասավ	-10.7449
▁քարտուղարի	-10.7449
ստիկ	-10.7452
▁տուրի	-10.7456
▁պատվավոր	-10.7458
▁բժշկի	-10.7458
▁հասկանա	-10.7459
կաց	-10.7459
▁քննարկելու	-10.746
▁տերմին	-10.7461
▁երկարատեւ	-10.7461
Իգական	-10.7461
▁Անգլերեն	-10.7463
▁սկսելու	-10.7463
▁հետքեր	-10.7464
▁ծառայողների	-10.7464
▁տիրապետ	-10.7464
ver	-10.7465
▁խոստացել	-10.7466
▁Թուրքիա	-10.7467
▁պատահար	-10.7469
▁քամ	-10.747
ե՜	-10.7471
▁ձեռքը	-10.7472
▁այդտեղ	-10.7474
▁եկամտ	-10.7475
▁քննարկվում	-10.7475
եցնելու	-10.748
▁քաղաքներ	-10.748
ալյան	-10.7481
Չելսի	-10.7482
▁Դոն	-10.7482
▁Հարկ	-10.7485
▁շփվել	-10.7492
▁որոշումները	-10.7498
▁արարողությանը	-10.7498
▁համառ	-10.7499
▁թափուր	-10.7499
ատակ	-10.7504
▁ազգերի	-10.7504
▁Թուրք	-10.7504
▁խմբում	-10.7508
▁զրուցակից	-10.7509
▁ուսուցում	-10.7509
▁օրական	-10.7512
սալ	-10.7514
▁գծի	-10.7518
▁դեմք	-10.7519
եկտոր	-10.7519
Արմավիր	-10.752
▁ճյուղ	-10.7522
ամոր	-10.7522
ղճ	-10.7523
բայ	-10.7524
Մեծ	-10.7525
▁բժշկ	-10.753
▁եռամսյակ	-10.7531
ԱՄՆ	-10.7532
▁կարծիքներ	-10.7533
▁Ով	-10.7534
▁հնագույն	-10.7536
Ազգային	-10.7538
ագծեր	-10.7538
▁ստիպում	-10.7539
▁Բաղդասարյանը	-10.7539
ասիրություն	-10.7541
այով	-10.7542
ԱԾ	-10.7545
▁հանցագործ	-10.7546
▁գործարկ	-10.7547
▁Կայ	-10.7548
▁բարձրացում	-10.755
Հասկ	-10.7551
▁Ապա	-10.7553
▁ավտոճանապարհի	-10.7554
▁տեսակետ	-10.7554
▁զնն	-10.7554
չեն	-10.7555
▁արդյունքներով	-10.7555
▁հեռուստաընկերության	-10.7556
▁Րաֆֆի	-10.7559
▁հատկանիշներ	-10.756
▁ԹՎԱԿԱՆԻ	-10.7562
▁տեղեկություններով՝	-10.7562
▁ԿԳ	-10.7563
▁հետեւողական	-10.7564
երբ	-10.7564
▁սպանություն	-10.7565
▁Խորհրդի	-10.7567
▁առաջարկը	-10.757
▁սատար	-10.757
բալ	-10.7571
▁Ժան	-10.7572
▁Սահման	-10.7573
ագրել	-10.7574
▁գիտնական	-10.7575
▁ՔԿՀ	-10.7578
▁Իրաք	-10.7578
ճա	-10.7578
▁երկխոսություն	-10.7578
▁հավաքագր	-10.7579
▁գերազանցում	-10.7585
թվ	-10.7586
Հետք	-10.7588
Շատ	-10.7588
▁հարցերում	-10.7589
մոտ	-10.759
▁Մամուլ	-10.759
▁պահպանվել	-10.7596
լյա	-10.7596
▁տարածքներ	-10.7596
▁հետազոտություններ	-10.7598
▁վերոնշյալ	-10.7601
ադա	-10.7601
▁տվեցին	-10.7601
հետախուզական	-10.7606
թափանց	-10.7607
▁բեռն	-10.7609
▁տարածքներում	-10.7612
▁ցուցա	-10.7612
▁հաճախորդ	-10.7613
ho	-10.762
ուչ	-10.7621
▁ոտքի	-10.7621
▁ծառայողական	-10.7621
▁Թումանյանի	-10.7622
▁Օսմանյան	-10.7623
▁Մեն	-10.7624
▁ոստիկանների	-10.7627
բերի	-10.7628
▁ենթարկվում	-10.7628
▁գնահատականներ	-10.7628
▁Պեր	-10.7633
▁կատարվող	-10.7634
▁Մխիթարյան	-10.7634
▁գիտեք	-10.7635
▁զերծ	-10.7636
▁Հանրա	-10.7636
▁թշնամի	-10.7637
▁ստեղծվում	-10.7639
▁բակում	-10.7639
▁Գալստյան	-10.7646
▁տարբերակները	-10.7646
▁թեստ	-10.765
▁yerkir	-10.7652
▁աչքերը	-10.7654
▁ուսուցիչների	-10.7661
▁ձեւավորել	-10.7664
շեր	-10.7664
▁վերաբերմունքը	-10.7664
▁Ղարաբաղյան	-10.7667
em	-10.7668
­­	-10.767
▁անչափահաս	-10.7671
ածին	-10.7673
դոր	-10.7675
նախարար	-10.7681
▁փրկել	-10.7682
▁Դիտվ	-10.7684
▁հրապարակային	-10.7684
ine	-10.7685
ԱԼԻՔ	-10.7689
▁հեն	-10.7691
▁Ջորջ	-10.7696
Առավոտ	-10.7697
▁դատապարտյալ	-10.77
աձայն	-10.7701
▁բանավեճ	-10.7701
▁ամենեւին	-10.7704
▁լեռներ	-10.7705
▁վերածվել	-10.7705
▁աճուրդ	-10.771
▁քրդեր	-10.771
▁Հայելի	-10.771
▁ուսանողներ	-10.7711
▁բխում	-10.7712
▁սարքեր	-10.7712
▁ֆունկցիա	-10.7714
▁բացակայում	-10.7716
▁աշխարհին	-10.7717
▁Առաքելական	-10.7718
▁Էդմոն	-10.772
▁պաշարների	-10.7722
ահեր	-10.7731
▁հետաքրքրում	-10.7734
▁հիվանդություններ	-10.7735
մեդ	-10.7735
▁Գյուլ	-10.7737
▁Չա	-10.7737
▁ունենան	-10.7738
▁Y	-10.774
▁հեռացել	-10.7742
▁իրադարձությունները	-10.7743
▁Տո	-10.7745
գրադ	-10.7747
▁ակադեմիական	-10.7751
▁Նազարյան	-10.7755
▁օդանավ	-10.7757
▁աուդիտ	-10.7759
▁Նե	-10.7764
▁ռեկորդ	-10.7764
▁եղեք	-10.7767
▁հետազոտության	-10.7768
▁հիմար	-10.7769
▁Գալուստ	-10.7776
▁միջադեպ	-10.7777
▁Հրապարակ	-10.7778
▁երթեւեկության	-10.7778
▁երկրպագուների	-10.7782
▁ժամեր	-10.7783
ացին	-10.7785
▁ափին	-10.7789
▁ամսին	-10.779
▁հոդվածների	-10.7792
▁մասնաճյուղի	-10.7792
▁առաջացած	-10.7793
անքով	-10.7794
▁Պաշտոնական	-10.7795
J	-10.7795
▁օբյեկտ	-10.7796
▁Մադրիդի	-10.7797
զու	-10.78
▁Անհրաժեշտ	-10.7801
▁շաքար	-10.7801
▁կողմում	-10.7804
▁ամենաշատ	-10.7804
▁համաձայնեց	-10.7805
ԵՔ	-10.7808
▁երկարաժամկետ	-10.7809
բին	-10.7809
▁միանգամայն	-10.7811
▁««	-10.7816
▁սկզբանե	-10.7817
▁լրագրողներ	-10.7818
լս	-10.7819
▁ստանձնել	-10.782
▁ոլորտների	-10.7821
▁թեմա	-10.7822
լուծ	-10.7824
▁արարողություն	-10.7828
▁Ուզում	-10.7828
▁կորցնում	-10.783
▁ԵՆ	-10.7834
▁Աշխատանքային	-10.7834
▁համաձայնագիր	-10.7836
▁Նալբանդյանը	-10.7836
Առաջին	-10.7836
▁լուսանկարները	-10.7838
ղջ	-10.784
▁սիրտը	-10.7843
▁արձանագրություն	-10.7845
▁միկրո	-10.7845
▁Օրաթերթ	-10.7847
։—	-10.7848
▁գին	-10.7852
▁շահույթ	-10.7854
▁սպորտ	-10.7854
▁պատրաստակամություն	-10.7854
▁լաց	-10.7855
ահասակ	-10.7855
▁Հր	-10.7856
▁ողբերգական	-10.7859
▁հավատալ	-10.7859
կուր	-10.786
▁գտնելու	-10.7861
▁լրագրողներին	-10.7863
▁ԲԿ	-10.7865
▁ստեղծագործություն	-10.7865
▁նախաձեռնությունը	-10.7866
▁ուղղել	-10.7867
▁ծրագրին	-10.7869
▁ընտանիքներ	-10.787
ոցներ	-10.7871
▁ուղին	-10.7872
ակները	-10.7872
▁ուտել	-10.7873
Ի՞նչ	-10.7873
▁Դր	-10.7874
▁պողոտայում	-10.7874
▁բառերով	-10.7874
▁սկզբից	-10.7875
▁մամուլում	-10.7875
▁Շառլ	-10.7876
▁Արդարադատության	-10.7878
▁ինտեգր	-10.7879
▁դասի	-10.788
▁բեռնատար	-10.7881
▁գրավում	-10.7882
▁գրոհ	-10.7882
րբ	-10.7883
▁ճամփորդ	-10.7887
▁հարկում	-10.7889
չել	-10.789
video	-10.789
▁պարտավորություն	-10.7891
▁բնագավառ	-10.7891
▁հանգստի	-10.7892
ագնաց	-10.7893
ve	-10.7895
օս	-10.7897
Փյունիկ	-10.7899
▁տող	-10.7899
▁հարգանք	-10.7901
▁հողամաս	-10.7903
▁թանգարանի	-10.7905
Բարսելոնա	-10.7906
▁համայնքը	-10.7906
▁վստահության	-10.7908
▁լեզվում	-10.791
▁Զաքարյան	-10.791
▁հուշարձանների	-10.791
▁դեմքեր	-10.7911
▁շփ	-10.7912
▁արտասահման	-10.7913
▁տեսություն	-10.7914
▁փոխվում	-10.7914
▁վտանգի	-10.7916
▁պաշտպանելու	-10.7917
▁զգեստ	-10.7918
▁ցեղասպանություն	-10.7918
▁կառ	-10.7919
հիշ	-10.7919
▁վստահություն	-10.7921
արտացոլ	-10.7926
▁Զարուհի	-10.7926
▁նախագահների	-10.7926
ակտ	-10.7928
▁վարժարան	-10.793
▁երեւանյան	-10.7931
չա	-10.7932
▁կազմակերպությունները	-10.7933
ip	-10.7937
▁ֆիլմում	-10.7938
▁հյուրընկալ	-10.794
▁դոլարով	-10.7942
պլ	-10.7943
▁ֆինանսավոր	-10.7945
▁պահեր	-10.7945
▁ընդգրկվել	-10.7953
Աշտարակ	-10.7954
ռչ	-10.7954
▁միջոցառումները	-10.7954
ՔԻ	-10.7956
▁կարծիքով՝	-10.7959
▁առկայությունը	-10.7959
▁կա՛մ	-10.796
Շանթ	-10.7961
▁օրերը	-10.7962
М	-10.7964
իթի	-10.7966
▁հայության	-10.7967
▁սրճարան	-10.7973
▁թանկարժեք	-10.7974
▁օրգան	-10.7974
▁տիրապետում	-10.7974
▁լուծումը	-10.7977
▁գործադրել	-10.7977
▁խոտ	-10.7979
▁Գոռ	-10.798
ik	-10.798
▁կային	-10.7982
▁կիսամյակ	-10.7985
▁Կարա	-10.7986
▁ռազմավարություն	-10.7986
▁Ռուսաստանից	-10.7988
▁Լիբանանի	-10.7988
▁NEWS	-10.799
▁Մելքոնյան	-10.799
բոլ	-10.7991
▁Տեսանյութ	-10.7992
▁Խմբ	-10.7995
▁կյանքից	-10.7996
▁ենթարկված	-10.7997
▁պաշտպանում	-10.7998
▁պայմանագրով	-10.8001
▁մասնակի	-10.8003
▁մանուկ	-10.8006
▁մեծագույն	-10.8008
▁սեփականություն	-10.8008
▁տարե	-10.8008
▁ժպիտ	-10.8009
բիլ	-10.8012
▁ասոցիացիայի	-10.8012
▁միս	-10.8013
ցնել	-10.8013
▁Նշված	-10.8014
գրամ	-10.8014
ություններից	-10.8019
▁փոստ	-10.8027
▁Տարբեր	-10.8028
▁Երբեմն	-10.8029
▁տոկոսադրույք	-10.803
▁ցր	-10.8031
▁Բիլ	-10.8034
▁Վստահ	-10.8035
▁հիմնադրվել	-10.8035
▁Օրինակ՝	-10.8037
up	-10.804
▁Խնդրում	-10.8041
▁հարուցված	-10.8045
▁բժիշկների	-10.8045
▁Լուսինե	-10.8047
ֆիկ	-10.805
▁Երկար	-10.8055
▁լարվածություն	-10.8055
▁List	-10.8056
▁Հակառակ	-10.8058
▁Մեսրոպ	-10.806
▁Ձոր	-10.8062
▁Գայանե	-10.8062
տեխնիկ	-10.8063
▁մաշկ	-10.8066
գել	-10.8066
՞ք	-10.8069
▁դատախազի	-10.8071
▁օգտագործելու	-10.8074
▁Կարո	-10.8076
▁ընտանիքին	-10.808
▁պատճառներով	-10.8081
▁դաշտի	-10.8081
▁պատմություններ	-10.8083
▁պան	-10.809
▁սահմանափակումներ	-10.809
▁ավիա	-10.8091
▁ձորի	-10.8091
▁սկզբնական	-10.8092
▁Ալեքսանյան	-10.8093
վր	-10.8093
▁Ցուց	-10.8094
ity	-10.8097
բաղ	-10.8099
▁նո	-10.8101
▁ուխտ	-10.8106
ՈՒՅ	-10.8107
▁տխուր	-10.8107
▁խոշորագույն	-10.8108
▁լինենք	-10.8109
գեղ	-10.8109
▁ենթակառուցվածքների	-10.811
▁աջակցելու	-10.8112
Ազատության	-10.8112
Պատ	-10.8114
▁մանավանդ	-10.8116
▁մեկը՝	-10.8118
▁ճարպ	-10.8119
▁շնորհավորական	-10.8122
արակ	-10.8128
▁գոյության	-10.813
▁զրկ	-10.8131
▁տանող	-10.8132
▁անշուշտ	-10.8133
▁Այդպես	-10.8133
▁ղեկավարությունը	-10.8137
▁պատկերացնել	-10.8137
▁գերմանացի	-10.8137
▁իրանական	-10.8138
▁Սպաս	-10.8139
▁պատեր	-10.814
▁արտադրական	-10.8142
ավորել	-10.8143
▁գլխին	-10.8144
զարմ	-10.8144
ոլո	-10.8144
▁պոտենցիալ	-10.8146
ՀԱՅԱՍՏԱՆ	-10.8149
▁լսարան	-10.815
▁շահառու	-10.815
▁ձայների	-10.8153
▁մեկնարկային	-10.8153
▁ուղե	-10.8153
▁ծխախոտ	-10.8159
ահա	-10.8159
▁Ստացվում	-10.816
▁պաշտոնյա	-10.816
։[	-10.8161
▁Մասիս	-10.8162
▁Հաճախ	-10.8164
▁տվեք	-10.8168
▁Իրավա	-10.8169
▁սահմանի	-10.817
Հրա	-10.817
ետիկ	-10.8171
հրավիր	-10.8172
▁քրիստոնեական	-10.8173
▁սերիալ	-10.8174
▁ժամանց	-10.8176
▁քայլերի	-10.8178
▁հիմնադրման	-10.8179
▁հանրաքվե	-10.818
▁Ղուկասյան	-10.818
լիմ	-10.8181
▁կստանա	-10.8183
▁դատապարտ	-10.8185
միր	-10.8185
ֆա	-10.8186
ոգեւոր	-10.8187
▁ակտիվորեն	-10.8196
▁հրավիրված	-10.8196
▁հրամանով	-10.8196
Արտ	-10.8196
▁զոհեր	-10.8197
▁պատճառները	-10.8198
▁շրջանակներ	-10.8199
▁հիշեց	-10.8201
man	-10.8205
▁ռեսուրս	-10.8206
▁հիմնարար	-10.8207
▁տղաների	-10.8212
Երեւանի	-10.8215
▁մէկ	-10.8216
▁ազդ	-10.8219
սմ	-10.822
▁ճգնաժամի	-10.8221
▁համոզմունք	-10.8222
▁ամենօրյա	-10.8223
անման	-10.8223
▁օգտագործումը	-10.8224
րիպ	-10.8229
▁կծ	-10.8232
▁կինոյի	-10.8234
▁Հոկտեմբեր	-10.8234
▁ուղարկում	-10.8234
▁Հասան	-10.8237
▁դեսպանատան	-10.824
▁նվազեցնել	-10.824
երես	-10.8242
▁Ղազախստանի	-10.8242
▁կարգախոս	-10.8243
▁հակառակը	-10.8244
հիմն	-10.8246
▁Սեւան	-10.8246
▁պատրիարք	-10.8248
▁Ma	-10.8249
բանկ	-10.8251
▁Պետրոսյանի	-10.8251
ст	-10.8256
ՄԱ	-10.8257
փո	-10.8257
▁Փոստանջյան	-10.8259
Ավտո	-10.8261
▁կանոններ	-10.8265
▁ապստամբ	-10.8265
▁դժգոհություն	-10.8266
▁հանրաքվեի	-10.8266
▁խփել	-10.8269
▁Արաբկիր	-10.8269
▁կատա	-10.827
▁տիրող	-10.827
▁ճանապարհներ	-10.8272
▁մտահոգություն	-10.8272
▁տարբերակներ	-10.8272
կած	-10.8273
ներկայաց	-10.8275
ԱՍՏ	-10.8275
▁Վալ	-10.8282
▁պողոտա	-10.8283
▁դրեց	-10.8284
▁սպորտային	-10.8286
կոյի	-10.8286
▁քառ	-10.8289
▁հեղափոխական	-10.8289
▁Մխիթար	-10.829
▁Դար	-10.8291
▁հեռանում	-10.8291
▁հարավային	-10.8292
▁տուժող	-10.8292
ռում	-10.8294
▁շնորհավորում	-10.8296
▁փորձեց	-10.8296
▁Հրաչյա	-10.83
▁մշակույթը	-10.83
զել	-10.8305
▁արհեստ	-10.8306
▁շրջանավարտներ	-10.8306
արձան	-10.8312
Հիմն	-10.8314
▁ժամանակով	-10.8318
▁Ստեղծ	-10.832
▁հայերին	-10.8322
io	-10.8322
▁գրաֆիկ	-10.8323
▁ցուցանիշը	-10.8323
▁ջրեր	-10.8324
▁ծանոթացել	-10.8328
▁կապը	-10.8328
▁Թորոսյան	-10.8333
▁խոնարհ	-10.8333
▁Վարդանյան	-10.8334
▁տաղանդ	-10.8336
▁գյուղերի	-10.8338
▁մերկ	-10.8339
▁հանդիպումից	-10.8339
▁սիրիական	-10.8339
▁բույսեր	-10.834
▁փայլ	-10.8344
սափ	-10.8346
▁գները	-10.8347
▁մերժում	-10.8347
այցել	-10.8348
▁հյուրանոց	-10.8348
▁Հասցե	-10.8348
սեպտեմբեր	-10.8349
▁k	-10.8349
▁հաստատեց	-10.8349
բուժ	-10.8354
ig	-10.8355
▁Մայ	-10.8356
տյան	-10.8362
IV	-10.8364
▁Խոսքը	-10.8368
▁եպիսկոպոս	-10.8368
տեխնիկական	-10.837
▁պատերազմում	-10.8371
անկյուն	-10.8373
▁Ցավոք	-10.8373
▁դեղեր	-10.8374
▁նավթի	-10.8374
թույլատր	-10.8376
▁չեզոք	-10.8377
▁Օլ	-10.8378
ացիան	-10.8381
Պետրոսյանի	-10.8383
▁պատասխանատվությունը	-10.8385
ասիր	-10.8386
▁հավաքված	-10.8388
▁գաղթ	-10.8389
▁վիրավորներ	-10.8389
կոմի	-10.8391
ակր	-10.8391
▁անհապաղ	-10.8392
▁պարզաբանում	-10.8394
▁իրավասու	-10.8395
▁ինչի՞	-10.8395
▁հանգամանքները	-10.8399
▁Gisher	-10.8401
▁նվազում	-10.8407
▁Իրաքի	-10.8408
▁տիտղոս	-10.8408
▁վարչ	-10.8409
ՊՀ	-10.8412
տատ	-10.8413
▁բարեկամներ	-10.8413
▁խստ	-10.8415
▁դատապարտել	-10.8417
▁հարյուրավոր	-10.8418
▁Վիր	-10.8418
▁գների	-10.842
▁բերք	-10.8421
▁Գե	-10.8421
▁պատճառաբան	-10.8422
▁տհաճ	-10.8423
▁ոստիկանները	-10.8425
▁Դեմ	-10.8425
▁գնաճ	-10.8426
▁բնակ	-10.8426
▁իշխանական	-10.8428
▁ունեցվածք	-10.843
▁ցուցարարների	-10.8432
▁ուղղորդ	-10.8438
▁Հայերեն	-10.844
tal	-10.8441
▁տարածություն	-10.8441
▁ուղարկվել	-10.8441
▁մեջբերում	-10.8445
▁զանազան	-10.8448
▁անհասկանալի	-10.8448
▁Գեղ	-10.8449
▁դեմքը	-10.845
▁շարժումը	-10.845
տեխնոլոգիա	-10.8451
▁հատկություններ	-10.8454
▁մեղադրում	-10.8455
ակար	-10.8456
արկման	-10.8458
կմ	-10.846
▁ժողովը	-10.846
ատեղի	-10.8462
▁Հիմնադրամ	-10.8463
▁սառը	-10.8467
pe	-10.8474
Մե	-10.8477
▁քաղաքապետարան	-10.8478
▁կպ	-10.8478
▁կոտոր	-10.8479
ահեղ	-10.848
▁փաստաթղթի	-10.8481
▁աղբյուրների	-10.8483
▁iPhone	-10.8483
▁ջրա	-10.8484
▁ընկերոջը	-10.8485
▁հաշվետու	-10.8485
▁փախստականների	-10.8489
▁հումոր	-10.8491
ive	-10.8492
▁թեժ	-10.8494
▁ընդլայնման	-10.8495
ԵՆՔ	-10.8495
▁հակամարտություն	-10.8496
▁գնալով	-10.8496
ավճար	-10.8497
▁ակումբներ	-10.8497
▁տոկոսի	-10.8498
▁դիտարկել	-10.8498
սոնի	-10.8498
▁ելույթը	-10.8499
▁միացել	-10.8499
▁գրողների	-10.8501
é	-10.8501
▁հանում	-10.8502
խու	-10.8503
Ջավախք	-10.8504
ապար	-10.8505
հանրա	-10.8508
▁դեպքում՝	-10.8512
▁շունչ	-10.8513
▁րոպեին	-10.8513
▁վարչապետին	-10.8513
▁կինոփառատոն	-10.8515
▁Կոմ	-10.8515
▁Առողջապահության	-10.8517
▁դադարեցնել	-10.8518
uc	-10.8519
մակ	-10.852
ռու	-10.852
հավատ	-10.8521
▁Դրան	-10.8523
▁պահը	-10.8525
▁ղեկավարում	-10.8527
▁ներողություն	-10.8529
ախմբի	-10.853
▁սեմինար	-10.8532
խոզ	-10.8533
▁գնի	-10.8533
▁մոտակայքում	-10.8542
▁վերանորոգման	-10.8542
▁կողմն	-10.8544
▁փոխանակման	-10.8544
▁տանիք	-10.8545
▁երազում	-10.8551
▁զավակներ	-10.8554
▁ձեռքով	-10.8554
▁ընդունելով	-10.8555
Նուբարաշեն	-10.8557
▁հրապարակվել	-10.8558
ce	-10.856
▁Ընտրական	-10.8561
▁հայրենի	-10.8562
▁Ֆրանկոֆոնիայի	-10.8564
քմ	-10.8564
▁Որովհետեւ	-10.8565
▁մայիս	-10.857
▁կետում	-10.8571
ակտիվ	-10.8572
դիս	-10.8573
▁կորած	-10.8573
▁Ca	-10.8574
▁Իրանում	-10.8576
▁պատկերասրահ	-10.8577
գոռ	-10.8578
ԳՐ	-10.8581
պարունակ	-10.8581
▁մեղադրյալ	-10.8583
▁աչքերի	-10.8584
իստների	-10.8586
լյու	-10.8586
Թուրքիա	-10.8586
▁վիրավորվել	-10.8586
▁Խաղեր	-10.8589
▁արդի	-10.859
կառավար	-10.8592
▁հղ	-10.8599
▁արդյունաբերական	-10.86
▁առաջնահերթություն	-10.8601
ԱԴ	-10.8601
▁Էրեբունի	-10.8602
▁Ապ	-10.8603
▁քաշային	-10.8608
▁խայտառակ	-10.8609
Իրավունք	-10.8609
▁պատկերացում	-10.861
մահ	-10.8611
▁բյուջետային	-10.8612
Կապան	-10.8613
▁Sh	-10.8614
Լուրեր	-10.8614
▁Տեգեր	-10.8616
vo	-10.8618
▁Վարչապետը	-10.8618
▁ձոր	-10.862
▁մամլո	-10.8624
▁հանրապետությունում	-10.8625
▁ներկայացուցիչներին	-10.8626
▁երաշխիք	-10.8627
շահագործ	-10.8628
ապահով	-10.8629
▁նկարահանվել	-10.8629
▁Անց	-10.863
▁ձյուն	-10.863
▁Տարածք	-10.8632
▁անձին	-10.864
Շնորհակալ	-10.8642
ղմ	-10.8644
▁Համալսարան	-10.8645
▁բարենպաստ	-10.8647
▁կարեւորությունը	-10.8653
▁գործառույթ	-10.8653
▁Փարիզ	-10.8655
▁պատմաբան	-10.8657
▁Շուշան	-10.8661
վերլուծ	-10.8663
▁ցույցեր	-10.8664
▁զգացմունքներ	-10.8665
ավանք	-10.8667
▁լրա	-10.8668
▁ներկայացվող	-10.867
▁հաշիվներ	-10.867
անո	-10.8672
▁Փաստաբան	-10.8674
▁քաղաքից	-10.8677
▁ընդգրկում	-10.8679
▁թատերական	-10.868
▁իրավապաշտպան	-10.8684
▁լճ	-10.8685
բեկյան	-10.8686
IN	-10.8686
▁հազիվ	-10.8687
▁Սիրիա	-10.8688
▁ստուգել	-10.8691
▁Դատ	-10.8691
▁կտավ	-10.8693
բեմադր	-10.8693
▁Մարգարյան	-10.8694
կործան	-10.8695
▁առաջացման	-10.8697
▁ամռանը	-10.8699
▁Անվտանգության	-10.8702
▁օդային	-10.8703
з	-10.8709
մշակ	-10.871
ակցական	-10.8715
▁փորձագետներ	-10.8716
▁խմբ	-10.8716
▁թիմեր	-10.8717
▁հաստ	-10.8717
▁ակցիաներ	-10.8727
զբ	-10.8727
▁վաստակել	-10.8728
▁արմատներ	-10.873
▁չվերթ	-10.8731
▁Ավան	-10.8732
▁աշակերտները	-10.8733
▁զարգաց	-10.8735
▁ժամանակահատված	-10.8735
▁շինարարություն	-10.8736
▁դատի	-10.8738
▁Լավագույն	-10.8738
▁Մոսկվան	-10.8739
ռուս	-10.874
▁Game	-10.8745
▁Տոն	-10.8746
▁կարգավորող	-10.8746
▁խանութներ	-10.8746
▁խոսքում	-10.8755
▁ձեռքբերման	-10.8757
▁վճարումներ	-10.8759
▁ավտոմեքենա	-10.876
▁բացառ	-10.8761
▁պրեմիերա	-10.8761
ba	-10.8761
▁շեշտել	-10.8762
▁այլընտրանքային	-10.8762
արտադր	-10.8763
▁գավաթի	-10.8763
օգն	-10.8764
խմբ	-10.8764
▁գահ	-10.8766
▁Instagram	-10.8766
▁կենտրոններ	-10.8767
ian	-10.877
▁ստորաբաժանումների	-10.877
▁ԿԸՀ	-10.8773
վանից	-10.8775
▁մտավոր	-10.8775
▁Մարության	-10.8776
գյուղ	-10.8777
ՎԱ	-10.8779
ամերիկյան	-10.8782
զյան	-10.8783
հաս	-10.8783
տիր	-10.8784
▁առանձնահատկություններ	-10.8784
▁պահպանելու	-10.8788
Լիվերպուլ	-10.8789
▁ստաց	-10.879
▁Հունաստան	-10.8792
արժ	-10.8792
▁կկ	-10.8793
▁պետքարտուղար	-10.8796
▁զորամասեր	-10.8798
Ընկեր	-10.8799
▁խոստանում	-10.88
▁ցուցադրություն	-10.8801
▁Արփինե	-10.8803
▁WhatsChat	-10.8805
▁եկեղեցական	-10.881
▁փուլեր	-10.881
▁սահ	-10.8815
▁առաքելության	-10.8826
Հայերեն	-10.8829
▁ոստիկանապետ	-10.8832
▁վիրահատություն	-10.8832
▁հետեւանքները	-10.8833
▁բացառում	-10.8835
ասում	-10.8835
▁Քննչական	-10.884
դարձ	-10.8843
▁ակումբում	-10.8844
հայտարար	-10.8845
▁ձեռքբերում	-10.8847
sa	-10.8849
▁վճռ	-10.885
▁միավորով	-10.885
▁ձերբակալել	-10.8851
▁բնակիչներ	-10.8852
▁ջարդ	-10.8853
▁վերադառնալու	-10.8856
tion	-10.8857
▁մարդասիրական	-10.8857
▁սմարթֆոն	-10.8858
▁պատանի	-10.8859
▁ՊԵՏԱԿԱՆ	-10.8863
▁արգելափակ	-10.8863
▁առանձն	-10.8865
▁ջանքերը	-10.8865
▁սրահում	-10.8865
▁միջավայրում	-10.8865
յուլ	-10.8865
մուր	-10.8866
▁նկարել	-10.8867
▁ներդաշնակ	-10.8873
▁հաշիվ	-10.8874
▁անցում	-10.8877
▁You	-10.8878
▁հրաժարականի	-10.888
▁որակը	-10.8881
▁նույնքան	-10.8883
▁աշխատատեղեր	-10.8883
▁Օրենքի	-10.8883
ստուդիա	-10.8883
▁Գեղամ	-10.8883
▁երջանկություն	-10.8885
րոյ	-10.8885
▁&	-10.889
Պատերազմ	-10.8891
ավորների	-10.8891
▁այդպիսին	-10.8892
▁նորմատիվ	-10.8893
▁բռնել	-10.8894
ջին	-10.8895
▁արձանագրություններ	-10.8898
▁Սմբատ	-10.89
▁ճշտ	-10.8902
▁ստուգում	-10.8903
զեն	-10.8903
port	-10.8906
▁մասնակցող	-10.8906
▁ժամկետի	-10.8911
▁օգտվում	-10.8912
▁Շնորհակալություն	-10.8914
▁խթան	-10.8915
▁Ապրիլ	-10.8915
▁Արդյո՞ք	-10.8916
▁ճշգրիտ	-10.8916
▁օգտվելու	-10.8918
▁Ժիրայր	-10.8921
ասիրության	-10.8922
▁մրցակից	-10.8922
▁ապրիլին	-10.8923
▁քաղցր	-10.8924
▁գործարանի	-10.8925
ՈՒԹՅՈՒՆԸ	-10.8927
▁տեղեկանք	-10.8929
ՅԱՆԻ	-10.8929
▁գնահատականը	-10.893
▁Սեֆիլյան	-10.893
դյու	-10.8932
▁հետեւանքների	-10.8933
▁ուժով	-10.8934
ord	-10.8935
▁պայմանավորվածություններ	-10.8935
▁կարգավոր	-10.8935
▁կենսաթոշակային	-10.8938
▁լեզուների	-10.8938
▁վարձակալ	-10.8938
▁սահմանային	-10.894
աձոր	-10.8946
▁հեղինակային	-10.8952
▁առել	-10.8956
▁գցել	-10.8956
▁Այդպիսի	-10.8957
▁բանաստեղծություններ	-10.8959
ԱՐԻ	-10.8959
ՏԵՂ	-10.8959
▁ճնշման	-10.8961
▁կրակի	-10.8961
▁թեյ	-10.8962
▁Թու	-10.8962
▁ճառագայթ	-10.8963
▁ծաղր	-10.8964
▁Արեւմուտքի	-10.8965
▁վերարտադր	-10.8967
վելուց	-10.8967
▁Խոշոր	-10.8967
▁հեղինակավոր	-10.8968
▁Փարիզի	-10.8969
▁օգտատերերի	-10.8971
▁գնդի	-10.8973
▁եզրակացության	-10.8977
▁կարգավիճակի	-10.8981
▁որդուն	-10.8983
▁ակադեմիա	-10.8984
Ժառանգություն	-10.8989
▁պաշտպանված	-10.8991
ԿԱՆ	-10.8991
▁վեբ	-10.8992
համաձայն	-10.8992
աջակց	-10.8993
▁Արծրուն	-10.8993
հանձնարար	-10.8993
▁նկարահանում	-10.8996
▁փաստաթղթ	-10.8998
▁հաստատություն	-10.8998
▁փայլուն	-10.8998
ԱԲ	-10.8998
po	-10.8999
▁հաջորդող	-10.9001
▁Ստեփանյան	-10.9001
▁ՀԱՄԱՐ	-10.9002
▁Հետագայում	-10.9003
▁ներկայացում	-10.9003
անչ	-10.9009
▁սարսափ	-10.901
▁Արտաքին	-10.901
ամբար	-10.9012
▁հանդիպումները	-10.9012
▁նվերներ	-10.9016
▁Ճապոնիայի	-10.9019
▁Հոր	-10.9022
VI	-10.9023
ացմամբ	-10.9024
▁տարածման	-10.9024
եանը	-10.9025
▁ոռոգման	-10.9025
▁հետապնդ	-10.9026
▁գիտա	-10.9029
▁քաղաքների	-10.903
արկղ	-10.903
▁պահանջով	-10.9032
▁տեսարան	-10.9033
▁գործունեությամբ	-10.9033
▁իրադարձություն	-10.9035
▁էլեկտրաէներգիայի	-10.904
ֆիլմ	-10.904
▁ալկոհոլ	-10.904
▁պահվածք	-10.9042
▁կանոնավոր	-10.9044
▁ենթադրել	-10.9046
պահանջ	-10.9054
լեռ	-10.9055
▁որոշումն	-10.9056
▁լրատվության	-10.9057
▁Հեռ	-10.9057
տանք	-10.9058
▁դարձան	-10.9059
▁ռիսկեր	-10.9061
համակարգ	-10.9064
ացնենք	-10.9066
▁Կոմիտաս	-10.9066
▁Կուր	-10.9068
▁ներգրավել	-10.9068
▁շարժիչ	-10.9068
ադաշտ	-10.9069
▁արձակվել	-10.9069
ER	-10.907
▁Կրթության	-10.9076
▁արտադրանք	-10.9077
▁զբաղեցրել	-10.9083
▁Ավագյան	-10.9083
▁հավատք	-10.9085
▁Վենետիկ	-10.9085
▁բնականոն	-10.909
▁հետազոտական	-10.9093
▁Էդգար	-10.9093
▁խոսակցություններ	-10.9099
▁պարագաներ	-10.9099
▁շուկաներ	-10.9102
ga	-10.9104
▁զինվորի	-10.9105
▁ուսումնասիրություններ	-10.9106
▁կռիվ	-10.9109
ե՞ն	-10.9109
▁սար	-10.9109
▁հասակ	-10.9114
▁մամուլ	-10.9115
▁Տաթեւ	-10.9117
per	-10.9118
▁զարգացումների	-10.9119
Գազպրոմ	-10.9121
օղ	-10.9121
գլխ	-10.9122
▁համագործակցում	-10.9123
▁Պաշտպան	-10.9123
К	-10.9123
▁հատոր	-10.9124
▁բյուջեն	-10.9125
▁բուռն	-10.9135
▁գիտելիք	-10.9135
▁ինքներդ	-10.9136
▁սպանվել	-10.9138
▁ծնողներ	-10.9139
▁քարոզարշավ	-10.9141
▁կոնֆերանս	-10.9147
վաս	-10.9148
▁եվ	-10.915
▁ընտրելու	-10.915
▁Քիչ	-10.9154
Զվարթնոց	-10.9154
▁արգելոց	-10.9155
տնօրին	-10.9156
▁հարցման	-10.9156
▁տուժածներ	-10.9158
▁Թիֆլիս	-10.9159
ec	-10.9161
▁յուրօրինակ	-10.9163
ավառ	-10.9164
▁իջեց	-10.9167
▁վերացման	-10.917
▁կարիքների	-10.917
▁փորձառու	-10.917
ուցիչ	-10.917
▁Ավետիսյանը	-10.9173
▁տեսնելով	-10.9174
Քաղաքացիական	-10.9175
▁առողջություն	-10.9175
Ինձ	-10.9178
▁զավակ	-10.9184
▁տրամադրվում	-10.9184
մրց	-10.9184
▁Ստեփանակերտի	-10.9188
▁կուզե	-10.9188
▁մահը	-10.9189
mp	-10.919
▁երկրաշարժի	-10.9193
▁ճաշակ	-10.9196
▁խաղացողներ	-10.9198
▁օրվան	-10.9198
av	-10.9198
Մխիթար	-10.92
he	-10.92
պտղ	-10.9201
▁անդրադառնալ	-10.9201
▁օրաթերթը	-10.9202
▁ե՛ւ	-10.9202
▁հարվածել	-10.9202
▁ֆոնդի	-10.9202
▁փոխանցմամբ՝	-10.9204
▁առավելություն	-10.9208
▁զարգանում	-10.9214
▁Մաքսային	-10.9214
▁հրաժեշտ	-10.9216
հաստատ	-10.9216
▁հղումը	-10.9219
▁ժողովուրդն	-10.9219
պել	-10.9219
▁Տնտես	-10.9219
▁սահմանամերձ	-10.9224
▁Թովմասյան	-10.9226
▁քվեարկություն	-10.9226
կերտ	-10.9226
▁չուներ	-10.9227
ԵՌ	-10.9229
▁ազատամարտիկ	-10.9232
▁բառի	-10.9232
▁կարեւորում	-10.9232
▁հարգանքի	-10.9233
ակցել	-10.9234
▁շփումներ	-10.9234
▁ընդհանր	-10.9238
ովսկի	-10.9239
▁բացառել	-10.9241
▁Կանադայի	-10.9241
▁օրաթերթի	-10.9243
▁Ֆուտբոլի	-10.9243
▁փորձագետների	-10.9247
▁առաջնությունը	-10.925
▁պրակտիկա	-10.925
▁հիշողություն	-10.9252
▁ցուցահանդեսը	-10.9252
▁Ալբերտ	-10.9253
▁Մարտին	-10.9256
▁տատիկ	-10.926
age	-10.9261
US	-10.9261
▁Միհրան	-10.9262
▁Վարկ	-10.9264
ժող	-10.9265
▁Նիկ	-10.9265
▁զորք	-10.927
▁նախարարությունում	-10.9272
▁Սեւանա	-10.9272
փր	-10.9273
ast	-10.9275
▁ջերմաստիճան	-10.9275
▁ընկերությունները	-10.9277
▁շփոթ	-10.9277
▁ձկն	-10.9278
▁տարածվել	-10.9281
Գլխաւոր	-10.9281
մշակութային	-10.9282
▁դրսեւորումներ	-10.9282
▁շարժվել	-10.9283
▁Խաչիկ	-10.9284
▁Ադամ	-10.9287
բարձր	-10.9292
պաստ	-10.9293
ադրող	-10.9293
▁կուսակցական	-10.9294
ատիպ	-10.9295
ապատիկ	-10.9295
▁բաժանել	-10.9298
դիկ	-10.9298
▁ամսագրի	-10.93
▁դասակարգ	-10.9302
▁թուրքերի	-10.9302
տղ	-10.9305
▁լրատվամիջոցներ	-10.9305
պայ	-10.9308
▁ստիպել	-10.9309
▁նամակներ	-10.9309
▁Ֆա	-10.9309
▁ՔԿ	-10.931
▁Տեղի	-10.9311
▁սիրված	-10.9312
▁Ցանկացած	-10.9312
▁Յան	-10.932
պատրաստ	-10.9321
▁արգելել	-10.9322
հոկտեմբեր	-10.9324
IT	-10.933
▁չտալ	-10.9331
▁Պատկեր	-10.9331
▁օդի	-10.9334
▁Իտալիա	-10.9335
▁միջով	-10.9336
▁կոլեկտիվ	-10.9337
ռազմ	-10.9339
▁ամփոփում	-10.934
▁երիտասարդներ	-10.9342
▁օբյեկտների	-10.9343
▁արագությամբ	-10.9345
▁Հանրապետությունը	-10.9347
▁հեռախոսազրույց	-10.9349
▁հայհոյ	-10.9349
▁Ալեք	-10.935
▁վկայություն	-10.935
▁վերանորոգված	-10.9352
անյութ	-10.9353
կլ	-10.9354
▁վերապատրաստման	-10.9355
▁ցուցմունք	-10.9358
▁Մարտիրոսյան	-10.9359
▁բրիտանական	-10.9359
▁Մանուկյանի	-10.936
▁կահույք	-10.9361
▁վերլուծաբան	-10.9361
▁որքանով	-10.9364
▁անդրադարձավ	-10.9365
հարց	-10.9367
ադրել	-10.9367
հեմ	-10.9368
▁շահագրգիռ	-10.9368
▁Վերջերս	-10.9368
ժամ	-10.9369
▁Գեւորգյանը	-10.937
▁լուսանկարը	-10.9371
▁հյուպատոս	-10.9373
Նովա	-10.9374
▁Ժամ	-10.9375
▁ո՞րն	-10.9375
▁պատրաստման	-10.9376
▁Արցախը	-10.9377
արդար	-10.9377
▁պահանջներ	-10.9377
sp	-10.9378
▁ինքնությունը	-10.9379
▁խոստովանել	-10.9379
հոլ	-10.938
▁մուտքը	-10.938
ֆիլ	-10.9382
ահանդես	-10.9382
▁ներկայանալ	-10.9383
▁թղթակից	-10.9383
▁պատկերված	-10.9384
ֆան	-10.9385
հաղթ	-10.9385
▁Սեբաստացի	-10.9385
▁ՀՕ	-10.9386
▁հարստաց	-10.9386
▁պարզվում	-10.9389
ստեղծ	-10.939
▁մարզիկ	-10.939
ant	-10.9394
ՄԿ	-10.9397
բուր	-10.9398
▁սարքավորումների	-10.9399
▁Եգիպտոս	-10.94
▁համալիրի	-10.9401
▁խնդրին	-10.9403
▁վայելել	-10.9403
und	-10.9403
▁կայսրություն	-10.9405
▁ՀՖՖ	-10.9407
¬	-10.9412
սար	-10.9414
▁Իսահակ	-10.9415
▁հավանություն	-10.9417
▁վերաքննիչ	-10.942
▁Աշխատանք	-10.9422
▁Կովկասի	-10.9427
▁Դմիտրի	-10.9432
▁փառատոնը	-10.9432
ՈՒՑ	-10.9433
▁ամուսինը	-10.9436
կենդան	-10.944
▁թելադր	-10.9442
եինք	-10.9443
ԱՔ	-10.9451
▁Խորհուրդ	-10.9452
▁օրենսգրքում	-10.9452
արագ	-10.9453
▁մոլորակի	-10.9453
▁հակամարտ	-10.9453
▁ֆրանսերեն	-10.9455
▁բացվեց	-10.9455
հետեւ	-10.9455
▁Ըն	-10.9455
▁միտված	-10.9456
▁հրեշտակ	-10.9457
▁ՍԴ	-10.9458
▁նախաձեռնող	-10.946
▁Կարինե	-10.946
▁ընկերական	-10.9463
▁ժառանգություն	-10.9463
աքանակ	-10.9464
▁խորհրդարանը	-10.9464
▁Մաք	-10.9466
▁ինստիտուտը	-10.9466
▁սովորողների	-10.9467
▁ընտրող	-10.9469
г	-10.9474
խոր	-10.9474
▁Դժվար	-10.9476
▁տարածքները	-10.9477
▁Դրանց	-10.9482
▁տվյալներով՝	-10.9483
Բայց	-10.9484
▁անվ	-10.9484
ավարական	-10.9486
▁Կորեա	-10.9486
ոյին	-10.9487
զեր	-10.9488
▁բխող	-10.9493
▁Նոյեմբեր	-10.9493
▁ֆինանսավորում	-10.9495
▁կրակոցներ	-10.9496
▁ուղղություններով	-10.9498
▁գրպան	-10.9499
▁մատնանշ	-10.9499
▁ուրախություն	-10.9499
▁մշակված	-10.9499
▁Գյումրիի	-10.9502
ek	-10.9504
▁բարեկամական	-10.9504
▁պատերազմից	-10.9505
▁կլոր	-10.9511
▁միգուցե	-10.9511
▁խնամք	-10.9512
սոնը	-10.9513
▁անորոշ	-10.9515
▁փորձաքննություն	-10.9515
▁լիազորված	-10.9515
▁Մկրտչյան	-10.9516
▁գյուղապետ	-10.9516
▁Շաբաթ	-10.9518
▁որոնում	-10.9524
▁ավարտվում	-10.9524
▁and	-10.9525
▁ներդնել	-10.9526
▁շտաբ	-10.9527
▁գրավիչ	-10.9528
▁պահանջվում	-10.953
սկին	-10.9531
▁հեռացնել	-10.9531
▁ստորեւ	-10.9532
▁լիցենզիա	-10.9532
▁Հայրապետյանը	-10.9533
▁անընդունելի	-10.9533
▁կենցաղային	-10.9533
կառուց	-10.9534
▁կգնա	-10.9535
▁հնարավորության	-10.9536
▁սպառնալիքներ	-10.954
▁մոտեցումը	-10.9542
բեռն	-10.9544
▁հավելել	-10.9545
▁փողոցների	-10.9545
▁ընդարձակ	-10.9548
▁գիտնականների	-10.9552
▁բո	-10.9554
ՌՇԼ	-10.9555
tic	-10.9555
անցք	-10.9556
▁ազնվ	-10.9556
▁Երվանդ	-10.9558
▁երգում	-10.9558
▁գոտիներ	-10.956
▁by	-10.956
ԱԺ	-10.9561
▁ֆուտբոլիստը	-10.9565
▁Այվազյան	-10.9565
▁բարերար	-10.9568
ալեզու	-10.9569
▁տասնամյակ	-10.9572
visit	-10.9573
▁դիմելու	-10.9573
համագործակց	-10.9574
▁քաղցկեղ	-10.9574
▁Արտաշատ	-10.9576
շխ	-10.9576
▁օղակ	-10.9578
▁սաղ	-10.9578
▁խմել	-10.9579
▁հանրահայտ	-10.958
)[	-10.9581
▁Յա	-10.9582
▁առարկայի	-10.9582
▁պատժամիջոցների	-10.9582
▁Կոդ	-10.9583
▁թույլատրել	-10.9585
▁Երեք	-10.9587
Բանանց	-10.9588
▁հիվանդանոցում	-10.9588
▁ճակատամարտ	-10.9588
▁բաժնետոմսեր	-10.959
ect	-10.9592
▁սահմանները	-10.9593
▁Սեւանի	-10.9593
▁Քեզ	-10.9596
▁Քե	-10.9597
▁Վիլ	-10.96
▁արժանաց	-10.9603
հոս	-10.9604
▁վարդապետ	-10.9605
▁Ֆինանսական	-10.961
▁խորհրդակցություն	-10.9611
▁Կիպրոս	-10.9612
▁բազայի	-10.9613
▁միջոցը	-10.9613
▁միանալ	-10.9614
▁քարտեր	-10.9615
▁Լեհաստան	-10.9617
բաժան	-10.9617
oc	-10.9617
▁ճյուղեր	-10.9619
▁հայտնաբերված	-10.962
աշխատ	-10.9623
Տեղեկ	-10.9624
▁բնակության	-10.9625
▁փորձաքննության	-10.9625
Դուք	-10.9625
▁կետը	-10.9627
▁Տեխնիկական	-10.9627
▁երաժիշտ	-10.9631
▁ընկերոջ	-10.9634
▁բարձրացնում	-10.9639
▁օգնությունը	-10.9639
▁զբոսաշրջիկների	-10.9639
▁Գերմանիա	-10.9642
▁Օսիպյան	-10.9645
ра	-10.9646
իզմը	-10.9647
▁գինի	-10.9648
▁Բել	-10.9651
▁ջնջ	-10.9651
▁առաքելությունը	-10.9653
▁Փաստ	-10.9654
ե՞ր	-10.9655
▁Լեհաստանի	-10.9656
ամոլ	-10.9656
▁ատյանի	-10.9657
ԱՆԴ	-10.9657
▁բովանդակության	-10.9658
▁թվաց	-10.9659
▁Հատկապես	-10.966
▁չեղարկ	-10.9661
ույթներ	-10.9662
▁հավանականությունը	-10.9662
▁տնտեսությունը	-10.9665
▁Նո	-10.9665
▁տրամաբանական	-10.9666
սահման	-10.9667
▁Պալ	-10.9668
▁միջանցք	-10.9668
▁միջադեպի	-10.9669
▁Վարչապետի	-10.9669
▁հարուց	-10.9671
▁կապույտ	-10.9673
ուկներ	-10.9674
▁քարոզարշավի	-10.9675
Իր	-10.9676
▁Վանեցյան	-10.9678
▁խմբավորում	-10.9678
շո	-10.9679
բուծ	-10.9682
▁տեղեկացնել	-10.9685
▁դինամիկ	-10.9685
Ռոս	-10.9685
▁Դեկտեմբեր	-10.9685
▁հաստատության	-10.9687
▁զբաղվելու	-10.9688
▁բովանդակությունը	-10.9688
▁Աբրահամ	-10.9689
▁սկզբունքով	-10.9689
▁որդիներ	-10.9689
▁մահից	-10.9689
▁անընդմեջ	-10.969
▁տեղեկություններով	-10.9691
▁դեսպանը	-10.9691
▁Վարդանյանի	-10.9692
▁հանգեցնել	-10.9692
▁քանակի	-10.9693
▁հասկանալու	-10.9694
▁արգելված	-10.9696
▁մատուցում	-10.9697
▁ներկայացել	-10.9699
▁Մադրիդ	-10.9699
▁Շո	-10.9701
▁կեսը	-10.9702
▁ուսանողներին	-10.9702
հավասարակշռ	-10.9702
▁նիստեր	-10.9704
▁ԶՈՒ	-10.9705
▁խախտումների	-10.9706
▁աղբյուրը	-10.9706
▁բովանդակությամբ	-10.9708
▁ակցիայի	-10.971
▁առաջացնել	-10.971
▁խնդիրներից	-10.9712
ess	-10.9716
▁դառնալով	-10.9717
▁անարդար	-10.9717
▁գնդապետ	-10.972
▁Pro	-10.972
▁Կարապետյանն	-10.9721
▁նուրբ	-10.9723
▁սահմանափակում	-10.9727
▁միությունը	-10.9728
▁մյուսների	-10.9729
▁մահացու	-10.9731
▁կալանքի	-10.9732
ձեռն	-10.9736
բաս	-10.9737
▁ընկնել	-10.9738
▁կառուցելու	-10.9738
▁վկայակոչելով	-10.9741
▁Ադրբեջանական	-10.9742
ՈԼ	-10.9742
▁նախարարին	-10.9745
բախ	-10.9746
▁Լիգա	-10.9746
▁Ամերիկա	-10.9747
▁տեղումների	-10.9753
▁Սիրելի	-10.9755
▁ապաստան	-10.9756
▁Արարատյան	-10.9758
սիա	-10.9761
▁խմելու	-10.9768
▁ինքնիշխան	-10.9769
▁կանխել	-10.9769
բազ	-10.9772
▁TV	-10.9773
▁կոպիտ	-10.9774
▁այցելում	-10.9775
▁հայտարարվել	-10.9777
մասնագիտ	-10.9781
պոկ	-10.9785
ձոր	-10.9785
▁առողջապահական	-10.9786
▁ուղղաթիռ	-10.9791
իկական	-10.9792
Տարվա	-10.9793
▁ծանոթանալու	-10.9793
▁ժամանակաշրջանում	-10.9794
▁վրացական	-10.9798
▁Yerevan	-10.9799
▁պարունակող	-10.9799
▁Տվյալ	-10.9801
ԱՐԱՐ	-10.9803
մեկուսաց	-10.9804
ou	-10.9807
AS	-10.9808
▁անչափ	-10.9811
▁ազատել	-10.9813
▁կառավարությունն	-10.9813
▁զգալիորեն	-10.9815
▁գորգ	-10.9815
ծա	-10.9816
▁մոռանալ	-10.9816
▁հաշ	-10.9817
▁Ամիրյան	-10.9817
▁նվազեց	-10.9818
▁ցուցակներ	-10.982
▁տեսանյութեր	-10.982
ավեր	-10.9822
ձախող	-10.9826
▁ամառ	-10.9827
▁ԳԱ	-10.9828
▁կատարելագործ	-10.983
▁կամքի	-10.9832
արեն	-10.9833
ատեսակներ	-10.9833
org	-10.9833
▁հողեր	-10.9833
Արեւմուտք	-10.9835
▁Մասնակց	-10.9835
▁պարապ	-10.9835
▁հյուս	-10.9836
ակցում	-10.9837
լուծար	-10.9839
Ալաշկերտ	-10.9847
▁պայծառ	-10.985
▁Պրո	-10.9851
▁մարմիններին	-10.9851
▁Կոլ	-10.9854
▁կստանան	-10.9854
▁դրվել	-10.9856
▁թիկունք	-10.9857
▁հազվադեպ	-10.9857
եցնող	-10.9858
▁փոխհատուցում	-10.9858
▁ճշմարիտ	-10.986
▁Վրաստանը	-10.986
▁հյութ	-10.986
▁ջանքերով	-10.9865
▁բաղադրիչներ	-10.9868
▁առեւտուր	-10.9871
▁Ներքին	-10.9874
▁գույքը	-10.9874
▁մայրաքաղաքում	-10.9875
▁ժամանակաշրջան	-10.9875
▁ներառել	-10.9879
▁կանցկացվի	-10.9881
▁ցուցահանդեսի	-10.9881
Ընտանիք	-10.9883
էլ	-10.9883
▁աղջկան	-10.9885
▁ասելու	-10.9886
▁պէտք	-10.9886
▁կառավարական	-10.9886
▁գյուղից	-10.989
▁Հանձնաժողովի	-10.989
պիտ	-10.9891
▁վարկերի	-10.9891
▁երկինք	-10.9894
▁միջպետական	-10.9894
▁ծախսել	-10.9895
▁կիլոմետր	-10.9896
▁ապահովագր	-10.9896
▁դիպլոմ	-10.9898
▁La	-10.9899
▁անձնակազմ	-10.9902
▁Le	-10.9903
դարյան	-10.9903
▁համանախագահների	-10.9904
min	-10.9904
▁ծեծ	-10.9906
հավան	-10.9907
▁նպատակին	-10.9908
▁խմբակ	-10.991
ՄՏՍ	-10.991
ելիք	-10.9911
go	-10.9912
բանասիրական	-10.9913
▁փա	-10.9914
վեյ	-10.9914
Միլան	-10.9915
▁ստեղծումը	-10.9916
ճշգրտ	-10.9916
ԱՆԿ	-10.9917
▁Բոլ	-10.992
խաղ	-10.9924
▁խոսելու	-10.9924
ամիջոց	-10.9925
թուն	-10.9928
փակ	-10.9928
▁մրցունակ	-10.9929
▁խաղա	-10.9931
▁համակ	-10.9932
▁օրենսգրքով	-10.9932
պարգեւատր	-10.9932
աբե	-10.9935
▁Չեն	-10.9943
р	-10.9943
▁պայմանավորվածություն	-10.9943
▁սկիզբը	-10.9945
▁Սոնա	-10.9949
Մեղրի	-10.9952
հուս	-10.9953
▁պրոդյուսեր	-10.9955
▁հերթապահ	-10.9959
▁Լյու	-10.9962
լիզ	-10.9964
ի՞ց	-10.9965
▁վերաբերմունքի	-10.9966
▁Պատրաստ	-10.9968
շրջ	-10.997
▁Խու	-10.997
մատակարար	-10.9972
ч	-10.9976
▁ներմուծման	-10.9976
▁Նիկոլայ	-10.9976
իկները	-10.9978
▁ուսուցիչներ	-10.9983
▁անխուսափելի	-10.9984
▁Սեպտեմբեր	-10.9985
▁Իտալիայում	-10.9986
£	-10.9986
▁ներշնչ	-10.9986
Իրան	-10.9986
▁Պողոսյան	-10.9991
▁մրցաշրջանում	-10.9991
ոգեշնչ	-10.9991
ցնում	-10.9994
▁պատկերացումներ	-10.9994
անվան	-10.9996
▁արեւելք	-10.9996
▁ամբաստանյալ	-10.9997
▁Քրիստ	-10.9997
▁իրականացում	-10.9997
▁այգում	-10.9998
▁ընդլայնել	-10.9998
Որ	-10.9998
▁զինվորներ	-11.0008
▁պետականության	-11.0008
▁թերթեր	-11.001
խնդր	-11.0011
▁քաղաքացիություն	-11.0012
▁գործարարների	-11.0012
▁խմբային	-11.0012
be	-11.0013
▁երկնքի	-11.0017
▁հիմնախնդրի	-11.002
▁գեղեցկության	-11.0021
▁հայտնելով	-11.0022
▁ապրիլ	-11.0024
▁Երեխաների	-11.0025
▁ուրբաթ	-11.0025
▁վնասակար	-11.0026
ՏԱՐ	-11.0028
▁մտերիմ	-11.0029
Դե	-11.0031
▁fun	-11.0032
▁երկիրն	-11.0033
▁քառօրյա	-11.0034
▁սկզբունքները	-11.0034
յոր	-11.0035
▁Սիմոնյանը	-11.0035
ատիրոջ	-11.0036
▁սովորելու	-11.0036
ֆոտոշարք	-11.0038
▁տոմս	-11.0038
▁կարո՞ղ	-11.0038
▁գիտելիքների	-11.0039
րանք	-11.0044
▁շատերն	-11.0045
▁հանրակրթական	-11.0046
▁համարվող	-11.0046
▁վերադարձնել	-11.0048
մոլ	-11.0049
▁մեծապես	-11.005
▁՛՛	-11.0051
Կառավարություն	-11.0052
▁Արեւելքի	-11.0055
▁հակված	-11.0057
▁ինչու՞	-11.0058
▁մեկնարկեց	-11.0058
▁խաղաց	-11.0061
▁նյութը	-11.0061
▁քչ	-11.0063
պալ	-11.0063
▁ոսկու	-11.0067
▁Շարունակ	-11.0068
▁գրքերի	-11.007
▁շարժվում	-11.007
▁հաճախակի	-11.0071
▁ապահովված	-11.0072
▁Մշակույթի	-11.0073
▁Համայնքի	-11.0074
Բելառուս	-11.0077
▁հավաքում	-11.0078
Արմ	-11.0078
▁To	-11.0078
ագո	-11.0079
▁կոնյակ	-11.0079
mi	-11.0081
▁տուժել	-11.0087
հետազոտ	-11.0088
վտանգ	-11.0088
▁տեղեկությունը	-11.009
սիոն	-11.0094
▁ԿԵՆՏՐՈՆ	-11.0096
Մարաշ	-11.0096
▁համոզել	-11.0098
ոլոգ	-11.0099
▁մրցաշրջանի	-11.0099
ղար	-11.0101
▁գագաթնաժողովի	-11.0102
▁առավելագույնը	-11.0103
▁երկուսը	-11.0105
▁խնդրեց	-11.0109
լաս	-11.011
▁համարյա	-11.011
▁Me	-11.0114
▁ստեղծագործության	-11.0114
կոմ	-11.0115
▁ամրագրված	-11.0117
▁գնացք	-11.0118
▁Գիտական	-11.0127
▁կմասնակցի	-11.013
խոստովան	-11.0131
▁պարտավորությունները	-11.0131
անքների	-11.0131
▁արվեստը	-11.0133
▁վերլուծական	-11.0138
▁նոտար	-11.0142
▁հերոսների	-11.0142
lur	-11.0143
▁բերած	-11.0143
ite	-11.0146
▁վերականգնում	-11.015
▁Հունաստանի	-11.015
▁Լուսավորիչ	-11.0151
ցիներ	-11.0152
▁Սոցիալական	-11.0152
▁Գոր	-11.0153
ռել	-11.0153
▁օժտված	-11.0156
▁հսկողություն	-11.0156
▁դատապարտված	-11.0157
end	-11.0158
▁Ֆիլիպ	-11.0159
▁կազմակերպվում	-11.0161
▁Օրենք	-11.0165
▁դյուր	-11.0165
▁Աբովյանի	-11.0168
▁Պարզապես	-11.0169
▁սկանդալ	-11.017
▁հիվանդների	-11.0173
ացուցիչ	-11.0174
ակոչ	-11.0175
ազարդ	-11.0176
▁չգիտեն	-11.0177
▁Հավատ	-11.018
▁ՏԻՄ	-11.018
▁համեղ	-11.0183
▁մրցանակներ	-11.0184
▁վարած	-11.0185
▁վերլուծության	-11.0189
▁բժշկության	-11.0189
եցեք	-11.019
▁նկատվում	-11.0191
▁սկզբ	-11.0193
▁Ֆուտբոլ	-11.0195
▁համալսարանը	-11.0196
ախնդիր	-11.0196
▁ձեռնարկությունների	-11.0196
▁ձերբակալված	-11.0197
▁դիրքերը	-11.0198
▁համապատասխանաբար	-11.0199
▁Կանանց	-11.02
▁Սամ	-11.02
▁Վոլ	-11.02
▁Բրիտանիա	-11.0201
▁միավորներ	-11.0202
▁Կառլ	-11.0203
▁այցելու	-11.0204
▁ամուսնություն	-11.0204
▁ՀՆԱ	-11.0211
▁երանգ	-11.0213
▁ամրապնդել	-11.0213
ացիները	-11.0214
▁մասնակիցներ	-11.0216
▁զգա	-11.0218
▁վեճ	-11.0219
▁Սարոյան	-11.0219
▁հացադուլ	-11.0219
▁կառավարել	-11.0221
▁տաղանդավոր	-11.0222
▁կոչվող	-11.0222
ֆորմատ	-11.0225
▁վայելում	-11.0226
պոր	-11.0226
▁Ավագ	-11.0227
▁գեղանկար	-11.0228
▁հասցնելու	-11.023
▁տաղավար	-11.0233
▁մութ	-11.0236
▁փոխանցման	-11.0239
▁վարժ	-11.024
▁հեղուկ	-11.0241
SA	-11.0242
▁համեմատաբար	-11.0243
▁հանդիսանալ	-11.0245
▁ասոցիացիա	-11.025
▁բարձրանում	-11.025
▁այգու	-11.0251
der	-11.0253
▁դռներ	-11.0256
Պար	-11.0258
▁ՆՈՐ	-11.0258
▁Meet	-11.026
▁Have	-11.026
▁մասնակցեց	-11.0261
▁հասկացել	-11.0263
րայ	-11.0263
▁թանգարանում	-11.0265
▁անծանոթ	-11.0266
▁նախքան	-11.0267
ner	-11.0267
▁հաշիվը	-11.0269
▁Իրական	-11.027
▁առնչություն	-11.027
▁առանձնաց	-11.0275
եցրեց	-11.0276
կայան	-11.0278
▁անդրադառնում	-11.0278
▁պատկանել	-11.0281
▁գիտնականները	-11.0282
▁քայքայ	-11.0283
▁նպատակներով	-11.0288
թափ	-11.0288
▁պայմանագրային	-11.0289
▁ծեծի	-11.0294
▁Օհանյանը	-11.0294
ֆիզիկա	-11.0294
В	-11.0297
▁երիտասարդները	-11.0297
▁ջանքերի	-11.03
▁նպատակային	-11.03
▁ստեղծած	-11.0302
▁ակտի	-11.0307
Gold	-11.0307
▁Չգիտե	-11.0307
▁ուսումնասիրում	-11.0308
▁աշխատավարձը	-11.0311
▁գնորդ	-11.032
▁կայունության	-11.032
Աբրահամյան	-11.0321
▁փոփոխությունը	-11.0324
▁հասակում	-11.0324
Տղամարդ	-11.0326
▁աւելի	-11.0332
▁հիմնել	-11.0334
Թադեւոսյան	-11.0337
▁նշանակությունը	-11.0338
հավաք	-11.0339
▁նախընտրում	-11.0344
▁արտահայտում	-11.0348
▁արդարության	-11.0352
ment	-11.0352
ՎԻ	-11.0352
ty	-11.0357
▁ֆուտբոլիստների	-11.0359
վճար	-11.0363
▁հիմքով	-11.0365
▁մասնակց	-11.0365
▁վարչությունում	-11.0366
▁փրկարար	-11.0367
▁չհ	-11.037
▁եկեք	-11.0371
▁կրթությունը	-11.0374
ջուկ	-11.0382
▁դրանում	-11.0382
▁ժամերին	-11.0385
▁արժեքավոր	-11.0385
▁ստորագրված	-11.0387
▁կասեցված	-11.0391
ԳԻՏ	-11.0391
▁կիրառումը	-11.0391
▁պատգամավորները	-11.0391
▁Ռեջեփ	-11.0393
▁փոխանակ	-11.0394
▁Շենգավիթ	-11.0394
▁Ղազարյանը	-11.0395
▁շեշտեց	-11.0397
▁խոց	-11.0401
▁հարձակվել	-11.0404
▁ձմեռային	-11.0407
▁բացումը	-11.0409
▁ինտենսիվ	-11.0409
▁ԱԱՀ	-11.0411
▁ստեղծագործ	-11.0412
Photo	-11.0412
▁զորավարժություններ	-11.0413
▁շուկան	-11.0415
▁Ջան	-11.0416
▁գնելու	-11.0416
▁​	-11.0418
▁Հասարակական	-11.0418
▁պայմանական	-11.0419
▁ծագման	-11.042
▁տեւական	-11.042
▁կօգնեն	-11.0421
▁քառորդ	-11.0423
▁բախումներ	-11.0424
դեկտեմբեր	-11.0424
▁նորմերի	-11.0424
ազգային	-11.0427
▁քանդակ	-11.0428
▁մեղադրանքներ	-11.0428
▁տարեդարձի	-11.0428
▁հարկանի	-11.0429
▁անցկացվեց	-11.0429
▁Հալեպ	-11.0431
քննարկում	-11.0432
զբաղ	-11.0439
▁կարծ	-11.0439
ՎՏԲ	-11.044
ԻԱ	-11.044
▁արժեքներ	-11.044
ացվեց	-11.0444
Ոստիկան	-11.0446
▁տույժ	-11.0447
▁գործողությունը	-11.045
▁եկա	-11.0452
▁Ռամ	-11.0452
▁ենթակետ	-11.0454
▁երկուսն	-11.0454
▁փորձագիտական	-11.0454
արդյունավետ	-11.0454
ՐՈ	-11.0456
▁երկրպագու	-11.0458
▁կոճակ	-11.0458
▁հարկադիր	-11.0461
ազատագր	-11.0464
▁ոլորտներ	-11.0467
▁միջոցառումը	-11.0467
▁Գոհար	-11.0467
▁երկուսի	-11.0473
▁ԱԱ	-11.0473
▁խմիչք	-11.0475
էկ	-11.0478
▁կայքէջ	-11.048
▁օգտատեր	-11.0483
▁մասնավորապես՝	-11.0486
▁կոչել	-11.049
▁ամոթ	-11.0491
▁շարունակեց	-11.0493
▁նախաձեռնություն	-11.0494
▁ավտոմեքենաներ	-11.0495
անաք	-11.0495
▁Թիմ	-11.0497
▁դարաշրջան	-11.0497
▁Աստվածածին	-11.0501
▁վերանայ	-11.0501
▁կազմող	-11.0501
▁հայազգի	-11.0505
▁մարզպետարանի	-11.0505
Զեյթուն	-11.0507
▁ծրագիրն	-11.0508
ո՞վ	-11.0512
▁ընդգրկել	-11.0512
▁իրականացրած	-11.0513
▁նվագախմբի	-11.0513
▁գործարքների	-11.0514
ng	-11.0514
▁սերմ	-11.0516
▁Բանն	-11.0517
▁գալիք	-11.0518
▁Յունայթեդի	-11.0518
▁անտես	-11.0519
▁արքա	-11.052
▁տիրույթ	-11.0521
ight	-11.0521
▁հասցեն	-11.0522
ՌԻԱ	-11.0524
▁գնման	-11.053
▁Թուրքական	-11.0532
▁վաճառվում	-11.0534
▁Կապանի	-11.0536
▁առաջարկեց	-11.0537
տրանսպորտ	-11.0537
▁Daily	-11.0537
▁Ավետ	-11.0538
▁վարկեր	-11.0539
▁սեռ	-11.054
▁համընդհանուր	-11.054
▁մտադրություն	-11.0541
Ալիեւ	-11.0542
▁Պատգամավոր	-11.0543
▁Ջեյմս	-11.0543
▁տնտեսագետ	-11.0544
▁ելույթում	-11.0548
ոյթ	-11.0548
▁Դեսպան	-11.0552
▁վիտամին	-11.0554
▁Ավետարան	-11.0555
ep	-11.0556
Լոռի	-11.0556
▁սեռի	-11.0557
ասուն	-11.0557
▁ուսման	-11.0558
▁Ոստիկանությունը	-11.0559
▁հակադր	-11.0562
ացանք	-11.0562
▁անունն	-11.0562
եժ	-11.0563
▁սուբյեկտ	-11.0565
▁ավարտը	-11.0567
▁երաժշտ	-11.0567
▁Վճռաբեկ	-11.0567
▁կառավարիչ	-11.0568
բարեփոխ	-11.0569
▁կիրառվել	-11.0569
▁Իսլամական	-11.0572
▁սահմանած	-11.0572
▁արցախյան	-11.0573
▁աշակերտներ	-11.0573
▁Ro	-11.0578
▁Էյ	-11.0582
▁սպառողների	-11.0585
▁Մել	-11.0586
▁խոչընդոտներ	-11.0587
▁տարիքում	-11.0588
▁մոտակա	-11.059
▁խնդրանքով	-11.0591
▁փաստաթուղթը	-11.0591
▁Ֆրանսիան	-11.0591
▁Եկեղեցին	-11.0596
գոն	-11.0596
▁հանրությունը	-11.0597
▁երաժշտությունը	-11.06
▁Դիտումներ	-11.0601
սուլ	-11.0601
▁լեզուներով	-11.0602
Հաղթանակ	-11.0606
▁իրավունքով	-11.0607
▁Այսպիսի	-11.0609
այա	-11.0609
Ման	-11.0613
▁ոգին	-11.0619
▁հերքում	-11.062
▁համեստ	-11.0621
▁սկզբունքներ	-11.0624
▁Աշոտյան	-11.0625
ԱՐԱ	-11.0625
▁ցանկացել	-11.0627
▁դիմադր	-11.0629
▁պաշտպանությունը	-11.0629
▁երկրա	-11.063
▁լավատես	-11.063
Ռադիո	-11.0632
▁գնումների	-11.0633
▁գտած	-11.0634
▁օրգանիզմի	-11.0635
զգայ	-11.0637
Բժիշկ	-11.0639
▁Հետազոտ	-11.0639
▁Բաքու	-11.0639
ասան	-11.064
rt	-11.064
▁կարողությունների	-11.064
▁ամփոփել	-11.0643
▁շտեմարան	-11.0645
▁դիրքը	-11.0645
▁գրասենյակը	-11.0645
▁շահերից	-11.0646
▁քննադատել	-11.0646
▁Բաբայանը	-11.0647
▁իրացման	-11.0648
▁վիրուս	-11.0648
▁վառելիք	-11.0651
▁Պողոս	-11.0651
▁գիտահետազոտական	-11.0653
▁խորհրդատվություն	-11.0653
Բախշյան	-11.0653
▁ուտում	-11.066
▁օրենսգիրք	-11.0661
▁հատվածներում	-11.0663
▁Անուշ	-11.0665
▁բարելավում	-11.0665
▁Տուր	-11.0666
▁Շա	-11.0667
hy	-11.0668
հմ	-11.0669
մարզ	-11.0669
▁նյարդ	-11.067
Վեր	-11.0673
▁դարպասապահ	-11.0674
▁կոչման	-11.0674
▁հաշվե	-11.0675
▁պահպանվում	-11.0679
▁Դավթյան	-11.068
▁Omegle	-11.0681
▁զայր	-11.0681
▁Փաստորեն	-11.0681
օպերա	-11.0684
si	-11.0684
▁արդյունավետությունը	-11.0689
ԱԴՐ	-11.069
Բարսելոնան	-11.0691
▁տեսլական	-11.0692
աղանդ	-11.0693
րոպ	-11.0693
դադար	-11.0694
▁հանքավայր	-11.0695
▁դասընթացների	-11.0696
▁դանակ	-11.0697
▁Ռաֆայել	-11.0697
▁Բլ	-11.0698
▁այգիներ	-11.07
▁Կազմակերպության	-11.0701
ակայան	-11.0701
▁So	-11.0701
▁իսլամ	-11.0703
վաճառք	-11.0704
▁զգացողություն	-11.0704
ank	-11.0705
ԱԹ	-11.0706
▁նորագույն	-11.0707
▁կանխատեսում	-11.0708
▁Տէր	-11.0709
▁անենք	-11.0711
▁օվկիանոս	-11.0711
▁արժեքները	-11.0713
▁Չէ՞	-11.0714
▁միջնադարյան	-11.0714
▁մտավ	-11.0715
tt	-11.0716
▁եղբայրը	-11.0717
▁ուղարկեք	-11.072
ՎԵԼ	-11.0721
▁հորդոր	-11.0721
պարզ	-11.0723
▁դաստիարակության	-11.0726
տանջ	-11.0727
▁անհանգստաց	-11.0727
ակիցների	-11.0728
▁տիեզերք	-11.0728
▁հասցնում	-11.073
▁կգան	-11.0731
Net	-11.0733
▁կապերը	-11.0734
▁Հայրապետ	-11.0735
թիւ	-11.0737
ԲԵՐ	-11.0738
Վերջ	-11.0738
▁գունավոր	-11.0742
▁Հաջորդը	-11.0742
▁բրոնզե	-11.0745
▁երկուշաբթի	-11.0747
▁բարելավել	-11.0748
▁կարողանանք	-11.0749
·	-11.075
▁բացվում	-11.0752
▁Անձն	-11.0753
▁արձանագրված	-11.0754
▁գերազանցել	-11.0756
▁առաջացրել	-11.0758
▁անգլիական	-11.0759
▁←	-11.0759
չե	-11.0761
▁Ծաղկաձոր	-11.0761
էտ	-11.0763
Տար	-11.0764
▁շոգ	-11.0764
▁վարկի	-11.0766
▁կանչել	-11.0767
▁մասշտաբ	-11.0767
▁արժեթղթեր	-11.0767
▁ստանալով	-11.0769
▁նշանակված	-11.0772
դեմոկրատական	-11.0773
▁Դանիել	-11.0774
ka	-11.0778
սփյուռք	-11.0779
վեին	-11.078
▁տրամադրվել	-11.0783
▁վերացնել	-11.0783
▁դպրոցներ	-11.0785
II	-11.0786
Լուսավոր	-11.0788
▁Բաքուն	-11.0788
▁վկա	-11.079
▁ֆոնին	-11.0792
▁տարով	-11.0794
▁Մարուքյան	-11.0794
▁հավելվածի	-11.0794
▁կարողանան	-11.08
▁բաժնետիրական	-11.0804
▁բարեկարգ	-11.0807
▁վերահսկել	-11.0809
շկ	-11.0811
Այո	-11.0811
▁խոնավ	-11.0812
անդամակց	-11.0812
bi	-11.0816
▁ռիսկի	-11.0816
▁համարանիշի	-11.0817
▁ուղեցույց	-11.082
ատոմ	-11.0821
▁հակամարտությունը	-11.0821
▁քաղցկեղի	-11.0821
հունիս	-11.0822
▁խաղից	-11.0823
▁մասնագիտացված	-11.0826
▁սահմանվել	-11.0827
ԴՐ	-11.0833
ռաս	-11.0834
պատասխան	-11.0835
▁անվերջ	-11.0836
ուրան	-11.0837
▁դիզայներ	-11.0837
▁տեսակների	-11.0837
▁հանձնարարական	-11.0839
▁խանգար	-11.084
ՀԺ	-11.0841
▁կերպարներ	-11.0843
▁գագաթաժողով	-11.0843
▁Ունի	-11.0843
▁բնակչ	-11.0844
▁ժամանակացույց	-11.0844
▁ոչնչացնել	-11.0848
▁Սայաթ	-11.0849
day	-11.0849
▁իտալական	-11.0853
▁Նրանցից	-11.0853
▁կյանքով	-11.0854
հայկական	-11.0857
...»:	-11.0861
Որեւէ	-11.0863
▁ստացան	-11.0864
փոշ	-11.0864
▁տարատեսակ	-11.0865
ни	-11.0867
we	-11.0868
ապաշտ	-11.0868
▁մաղթում	-11.0868
▁բարձրացնելու	-11.0869
▁համոզմամբ	-11.0869
▁ստորագրում	-11.0869
պիր	-11.0874
▁Ամանորի	-11.0874
▁գերագույն	-11.088
▁որում՝	-11.0883
▁ընտրատեղամաս	-11.0885
▁սփյուռքահայ	-11.0886
▁տարեց	-11.0891
փիլիսոփա	-11.0894
▁վեհաժողով	-11.0894
▁բացահայտվել	-11.09
Նաիրի	-11.0901
դոյան	-11.0902
▁նպատակահարմար	-11.0902
▁լիճ	-11.0903
press	-11.0904
▁Խաղաղ	-11.0904
▁անցկացրեց	-11.0904
լինգ	-11.0905
բաշխ	-11.0905
▁դիակ	-11.0905
▁ձեւաչափով	-11.0908
▁վիդեո	-11.0909
բնակ	-11.0911
▁թաքնված	-11.0914
▁կշարունակի	-11.0917
▁գրած	-11.0917
▁առաջարկվում	-11.0917
▁խմբավորման	-11.0917
▁ապրանքանիշ	-11.092
▁հույն	-11.0922
▁պատասխանատվությամբ	-11.0922
▁անելիքներ	-11.0927
▁Թր	-11.093
▁շարժումներ	-11.0932
անամ	-11.0937
Քոչար	-11.0937
▁պատվիրակություն	-11.0937
▁Ընկերությունը	-11.0938
▁զբաղեցնելու	-11.0938
▁Ազնավուրի	-11.094
на	-11.0943
▁որոնցով	-11.0943
▁բացակայությունը	-11.0945
րաֆ	-11.0946
▁չգիտի	-11.0946
ash	-11.0946
ud	-11.0946
▁կայարան	-11.0947
բեն	-11.0949
▁դրույթ	-11.095
▁մեկնարկը	-11.0951
▁Վերաքննիչ	-11.0954
▁մրցակցության	-11.0955
▁մոտենալ	-11.0955
Մանկական	-11.0957
▁Մասնակից	-11.0957
▁կանխատեսել	-11.0957
▁հուսալի	-11.0958
▁համբեր	-11.096
երեք	-11.0961
▁խելք	-11.0961
▁Պողոսյանի	-11.0962
▁կերպարը	-11.0962
▁Արոնյանը	-11.0964
▁Էջ	-11.0964
փրկարարական	-11.0964
ass	-11.0965
▁իմաստը	-11.0965
▁անցնող	-11.0966
▁սրանք	-11.0967
▁հայտնված	-11.097
▁տոների	-11.0971
▁աշխարհաքաղաքական	-11.0971
▁Ֆոր	-11.0972
▁փոխում	-11.0973
▁իրականությանը	-11.0973
▁Կրեմլ	-11.0974
▁գովազդային	-11.0975
▁ԶՈւ	-11.0976
▁պարտքը	-11.0978
▁գիտեի	-11.0979
▁առաջարկվող	-11.0981
▁չի՞	-11.0981
▁հնչել	-11.0981
▁տեսանյութը	-11.0985
au	-11.0985
վեմ	-11.0988
▁ընդգծելով	-11.0988
▁շրջապատի	-11.0989
▁արեւային	-11.0992
▁դնելու	-11.0992
վակ	-11.0992
յուզ	-11.0995
▁ուղեկցությամբ	-11.0996
▁զարդ	-11.0996
▁արտոնագր	-11.0997
▁մենաշնորհ	-11.1
▁Մես	-11.1
▁կող	-11.1001
▁արտահայտություններ	-11.1001
▁Արշակ	-11.1003
▁լեռան	-11.1003
▁Պլա	-11.1005
▁ֆիքս	-11.1008
▁ծախսեր	-11.1011
▁համակարգչի	-11.1016
▁Գավառ	-11.1017
▁թաղամասում	-11.1017
հասարակ	-11.1017
Առաքել	-11.1017
▁բորսա	-11.1019
▁Անցած	-11.102
▁ճշմարտություն	-11.102
Սեբաստիա	-11.1022
փեր	-11.1024
▁ընդլայնված	-11.1024
Թանգարան	-11.1026
▁ցանկության	-11.1028
▁Մնացականյան	-11.1028
▁հեռանկարներ	-11.1035
ացուցակ	-11.1035
տարած	-11.1037
ist	-11.1038
▁Աշխատանքի	-11.1038
արեւելյան	-11.1039
▁բռնկ	-11.104
փս	-11.104
▁կատարողական	-11.1042
▁բերդ	-11.1043
Սուրբ	-11.1046
▁փաստաբանների	-11.1047
▁գալով	-11.1048
▁հանելու	-11.1052
▁Գիտությունների	-11.1054
▁կառուցվածքը	-11.1058
▁նախընտր	-11.1059
▁Ռուսաստանն	-11.1062
▁ցուցակի	-11.1062
▁Սկզբում	-11.1065
▁այլոց	-11.1067
▁Դատական	-11.1068
▁վերափոխ	-11.1069
▁Ժամանակակից	-11.1071
▁մասնագիտության	-11.1072
▁խոցելի	-11.1074
▁ենթարկելու	-11.1074
▁ընկերները	-11.1074
▁լուռ	-11.1075
▁օգտագործող	-11.1077
▁Ձմեռ	-11.1077
▁մանրամասները	-11.1078
▁գերակա	-11.1078
▁ապահովության	-11.108
▁գործնականում	-11.1082
mail	-11.1087
աբերություն	-11.1087
▁թողարկում	-11.1088
▁սոցցանց	-11.1089
▁առավելություններ	-11.1089
▁օրինակներ	-11.109
▁քրոջ	-11.1092
les	-11.1092
▁գաղութ	-11.1093
▁մօտ	-11.1094
▁Յորքում	-11.1097
▁գագաթ	-11.1097
▁Սրբ	-11.11
▁կարտոֆիլ	-11.11
▁Բրյուսելում	-11.1101
▁հրատապ	-11.1105
▁ռազմավարության	-11.1106
ացանկ	-11.1107
▁տեսախցիկ	-11.1108
▁կներկայացնի	-11.1109
▁ստուգման	-11.111
▁ժայռ	-11.1112
▁ձեռնարկատեր	-11.1113
▁վերահաստատ	-11.1116
▁որոշեցի	-11.1116
աշվիլի	-11.1118
▁վրաերթի	-11.1121
▁ինքնավար	-11.1122
հանձն	-11.1122
▁ընկավ	-11.1122
վերջին	-11.1124
▁հիշողության	-11.1124
Անձ	-11.1125
▁ձմռան	-11.1126
▁առաջնահերթ	-11.1128
արդյուն	-11.113
▁օդանավակայանում	-11.113
▁բորբոք	-11.1132
▁իրողություն	-11.1136
▁մատուցման	-11.1137
▁կարիերայի	-11.1137
▁անհնարին	-11.1138
▁HTML	-11.1138
▁Ռիչարդ	-11.1138
▁արվեստագետ	-11.1139
▁չափից	-11.1139
նախա	-11.114
▁ՀԱՐՑ	-11.1141
▁ասպարեզում	-11.1141
▁հարս	-11.1143
▁Ռոնալդուն	-11.1143
▁դրամաշնորհ	-11.1143
IS	-11.1144
▁Աղվան	-11.1145
▁ճակատագրի	-11.1146
▁Հիսուսի	-11.1147
▁միջամտություն	-11.1151
hi	-11.1152
▁հաշվարկներ	-11.1152
ՐԴ	-11.1152
▁Սոչի	-11.1153
▁պայմաններով	-11.1153
ah	-11.1155
Սեւան	-11.1161
▁դռները	-11.1162
խեղդ	-11.1164
բոս	-11.1165
▁արտահայտվել	-11.1166
▁կարողացավ	-11.1167
պրո	-11.1168
▁շարքային	-11.1168
▁թեկնածությունը	-11.117
▁դատա	-11.117
ID	-11.1171
▁էներգա	-11.1174
աթերթ	-11.1175
The	-11.1176
▁բանջարեղեն	-11.1177
▁լրացում	-11.1178
▁նորակառույց	-11.1179
▁Սահմանադրություն	-11.1182
վստահ	-11.1185
▁թողնելով	-11.1186
▁կանխելու	-11.1187
▁Պարզվել	-11.1187
▁սեզոն	-11.1188
▁ցանկանա	-11.1188
▁հաշվառում	-11.1188
▁բուհերի	-11.1189
հնազանդ	-11.119
▁Ասիայի	-11.1194
▁դրսում	-11.1194
▁հիմքերը	-11.1195
▁ժամանակահատվածի	-11.1197
▁ավտոմեքենաների	-11.1199
▁Ուրախ	-11.1199
▁Զոհրաբյան	-11.1199
▁օրենսդիր	-11.1199
▁դարձրել	-11.12
▁փոխանակում	-11.12
▁չկայ	-11.1202
▁սերն	-11.1204
▁Պահ	-11.1205
▁ռոք	-11.1207
▁պարտականություն	-11.1208
▁ձվ	-11.1209
▁բացահայտումներ	-11.1209
▁խաղերը	-11.121
▁կա՞	-11.121
Դատարան	-11.1213
▁այդմ	-11.1214
▁ներդրումը	-11.1216
▁Էրիկ	-11.1216
▁հաճախորդներին	-11.1216
▁կեղտ	-11.1217
▁գրվել	-11.1218
▁անդամներից	-11.1218
▁տարածած	-11.1219
▁հերքել	-11.122
աշինության	-11.1221
▁հիասթափ	-11.1223
▁հայտարարությունները	-11.1223
▁Ադրբեջանն	-11.1224
ion	-11.1225
▁նայեց	-11.1226
գրաֆ	-11.1229
▁Նախորդը	-11.1231
▁սպառող	-11.1235
ցրել	-11.1237
Դու	-11.1241
ace	-11.1242
▁համայնքներ	-11.1242
▁ճակատագիրը	-11.1244
▁օրակարգի	-11.1245
▁համապարփակ	-11.1246
ֆորմ	-11.1248
▁նախաձեռնություններ	-11.125
▁նախապատրաստական	-11.1253
▁Խորհրդ	-11.1256
▁արթնաց	-11.1256
▁վերանորոգ	-11.1259
▁Պատարագ	-11.1261
ագծի	-11.1262
▁գործուն	-11.1263
ունակության	-11.1263
▁տարիքային	-11.1263
▁Կիրակոսյան	-11.1267
▁պատրաստվել	-11.1268
▁կրակել	-11.1268
եոն	-11.1273
▁Ղարաբաղում	-11.1274
ոլոգիական	-11.1275
▁ընդունակ	-11.1277
▁արժույթ	-11.1282
▁Ֆրանս	-11.1282
▁կարիերան	-11.1284
▁խոսելով	-11.1284
▁վերջնականապես	-11.1284
▁համաձայնությամբ	-11.1284
ՍԻ	-11.1285
▁Ներսիսյան	-11.1287
▁Նիստ	-11.1288
բրո	-11.1289
▁Աղջիկ	-11.1291
▁ՀԵՏ	-11.1292
▁Երեւի	-11.1293
▁խավար	-11.1294
▁հաջողվեց	-11.1296
▁հանցանք	-11.1296
▁տուգան	-11.1298
Խոսք	-11.1299
▁պայքարելու	-11.1299
▁տարաձայնություններ	-11.1299
▁պայմանագրերի	-11.1299
▁պատկերներ	-11.13
▁մեղր	-11.1301
▁տեղադրում	-11.1303
▁խնձոր	-11.1305
▁Գաբրիել	-11.1307
▁այցելուների	-11.1311
▁Կոստանյան	-11.1318
▁արտացոլում	-11.1318
քննարկ	-11.1324
▁կախարդ	-11.133
▁ԹԵ	-11.1332
▁կոմպ	-11.1332
▁նմուշներ	-11.1332
▁հաջողվում	-11.1333
Օսկար	-11.1334
▁գումարների	-11.1335
▁դասավոր	-11.134
օլիգարխ	-11.1341
▁ակտիվիստներ	-11.1342
▁կառուցվածքային	-11.1343
▁առաքյալ	-11.1344
տետ	-11.1345
▁ուղերձը	-11.1347
▁Ռոբ	-11.1348
▁հակասում	-11.135
▁սննդ	-11.1352
▁սիրուն	-11.1357
ամերձ	-11.136
▁ճարտարապետության	-11.1361
~	-11.1361
▁անհիմն	-11.1364
▁միջոցառմանը	-11.1365
մուծ	-11.1365
▁ճարտարապետական	-11.1366
▁թղթակցի	-11.1367
▁երիտասարդներին	-11.1369
Արսենալի	-11.137
▁Զեյնալյան	-11.137
▁հիմնախնդիրներ	-11.1371
▁ընդունվեց	-11.1372
▁Վանաձորում	-11.1373
▁ապրանքի	-11.1374
ՐԱՆ	-11.1374
▁ստեղծեց	-11.1376
հայր	-11.1377
▁բողոքը	-11.1378
▁վաճառող	-11.1379
▁հարվածներ	-11.138
▁Արեւելքում	-11.138
▁կղզիներ	-11.1388
▁փոխհարաբերություններ	-11.1388
րեյ	-11.139
▁գոլի	-11.1391
▁Բեռն	-11.1392
▁ստորագրություն	-11.1394
Ո՛չ	-11.1394
▁աչքերով	-11.1394
▁նշանակելու	-11.1394
Իսլամական	-11.1398
▁օգնելու	-11.1399
▁կայացնել	-11.14
պուլ	-11.14
▁հաջողությունների	-11.14
▁ցանկացող	-11.14
▁վերադառնա	-11.1401
▁գործարքի	-11.1405
▁սարքերի	-11.1406
▁հանգեցնում	-11.1407
▁անկախությունը	-11.1408
▁մտա	-11.1409
▁չհա	-11.1409
▁մեծամասնություն	-11.141
▁Յուն	-11.1411
▁մրցույթին	-11.1412
▁բարեկամության	-11.1412
նախագահ	-11.1413
▁մաքրել	-11.1413
▁անասնա	-11.1415
պատվաստ	-11.1417
▁Եղիազարյան	-11.1418
▁Անկախության	-11.1419
▁հանձնաժողովների	-11.142
եցիր	-11.142
▁սակագներ	-11.1424
▁ԿԱՌԱՎԱՐՈՒԹՅԱՆ	-11.1424
▁ներդրողների	-11.1426
▁ձեռնտու	-11.1427
կրճատ	-11.1428
▁նահանգում	-11.1429
▁Գասպար	-11.143
▁ագրեսիվ	-11.143
վախ	-11.1432
▁ջանք	-11.1432
▁հայրենիքը	-11.1432
ահաբեկ	-11.1433
▁Նախնական	-11.1434
▁բժիշկները	-11.1434
ph	-11.1437
ֆորդ	-11.1437
Օգտագործ	-11.1439
ծաղիկ	-11.144
▁պատարագ	-11.1441
sk	-11.1441
սուն	-11.1445
▁շարժական	-11.1448
▁տրամաբանություն	-11.145
▁Ստամբուլի	-11.1451
▁գիշերային	-11.1453
▁մասնագիտությամբ	-11.1454
հուլիս	-11.1455
▁զատ	-11.1456
▁թողեց	-11.1458
▁արմատական	-11.1459
▁Sport	-11.1459
▁ցերեկը	-11.1463
▁անվտանգություն	-11.1463
▁ընթացքին	-11.1463
▁թագավորի	-11.1464
▁պրոբլեմ	-11.1469
▁Ծննդյան	-11.1472
▁կոշիկներ	-11.1472
▁կնպաստի	-11.1475
▁ճշմարտությունը	-11.1475
▁Բոր	-11.1476
▁ղեկավարել	-11.1476
▁ստորաբաժանումներ	-11.1476
▁Արդյոք	-11.1478
▁Անդր	-11.1479
▁Թագավորություն	-11.1482
▁նկարահանել	-11.1482
▁տեղեկանում	-11.1484
▁հարուցել	-11.1485
պարտեզ	-11.1485
▁պարգեւատրվել	-11.1485
քր	-11.1486
իւր	-11.1487
էջ	-11.1492
▁եռանդ	-11.1493
ներմուծում	-11.1494
▁Զինված	-11.1494
▁Աշ	-11.1495
▁սնանկ	-11.1496
▁մտավորական	-11.1496
▁Իսպանիա	-11.1501
▁հավելում	-11.1501
▁շահագրգռված	-11.1502
▁Գրա	-11.1505
▁որակավորում	-11.1505
▁Լոնդոնում	-11.1505
▁հաղորդագրություններ	-11.1505
▁ձեռքերը	-11.1505
▁Փետրվար	-11.1506
Սկս	-11.1508
▁ստանալուց	-11.151
▁դրույթները	-11.1512
▁Մոս	-11.1513
▁կենդանիներ	-11.1514
▁զարգացնելու	-11.1514
▁լիգա	-11.1518
▁կիրառելու	-11.1519
▁տեսավ	-11.152
▁Աշոտյանը	-11.1521
▁աշխատանքով	-11.1522
▁ավագանի	-11.1522
Т	-11.1523
▁արտերկրում	-11.1523
▁դոցենտ	-11.1523
▁սոց	-11.1524
▁Պարույր	-11.1524
▁ժամանակաշրջանի	-11.1524
▁հումանիտար	-11.1526
▁լիազորություններ	-11.1526
▁սադրանք	-11.1529
▁բացատրում	-11.1531
▁բջիջներ	-11.1532
▁ընդունած	-11.1533
փար	-11.1534
▁խաղերում	-11.1536
▁վճռաբեկ	-11.1538
▁կայացվել	-11.1539
բարելավ	-11.1541
Յուվենտուս	-11.1541
▁հանր	-11.1542
▁ներկայությամբ	-11.1543
▁ցերեկ	-11.1544
▁ունես	-11.1545
*	-11.1547
▁պաշար	-11.1548
▁նվիրում	-11.1549
պաս	-11.155
▁ներկայությունը	-11.155
▁Չեխիայի	-11.1558
▁հայտնեցին	-11.1559
▁Կովկասում	-11.1561
▁զբաղեցրած	-11.1563
▁քննությունը	-11.1563
տեղակայ	-11.1564
▁Դեռեւս	-11.1566
▁Օգոստոս	-11.1568
▁խառնում	-11.1569
▁Մանե	-11.1569
ադատ	-11.157
▁Անդրեյ	-11.1571
▁նահատակ	-11.1574
▁Մեկնաբանությունները	-11.1576
▁զգացմունք	-11.1577
▁Կոնգրեսի	-11.1578
▁հրաժարականը	-11.1579
▁պարզվեց	-11.158
▁նախաձեռնել	-11.1584
▁Շահումյան	-11.1585
գաղ	-11.1585
▁մշակվել	-11.1586
դոկ	-11.1586
▁ճկուն	-11.1588
▁զբոսաշրջային	-11.159
տնտես	-11.159
▁ուժային	-11.1591
▁առեւտրական	-11.1593
▁Վարուժան	-11.1593
▁գույնի	-11.1596
▁շուկայական	-11.1599
▁հսկա	-11.16
▁գրառումներ	-11.1602
▁ծնողներին	-11.1604
▁ՀԲԸՄ	-11.1605
▁զբոսաշրջիկ	-11.1606
▁մրցանակը	-11.1606
ev	-11.1607
▁մրցաշարում	-11.1608
▁նախաձեռն	-11.1609
▁տաքսի	-11.1612
▁բարկ	-11.1613
Ազատ	-11.1614
▁ռեալ	-11.1614
▁Գիտնականներ	-11.1618
▁բաժանմունքի	-11.1618
▁Գետ	-11.1619
րագր	-11.1619
arm	-11.162
▁Բաժին	-11.1624
ագրման	-11.1624
ագար	-11.1624
▁հատկանիշներով	-11.1624
▁Չարենցի	-11.1626
▁կազմակերպած	-11.1627
▁Read	-11.1627
▁մարգարե	-11.1629
▁Հասարակություն	-11.1631
▁ընտրատարածք	-11.1632
▁խլ	-11.1634
▁ուղղակիորեն	-11.1635
▁Թբիլիսիի	-11.1635
▁ամիսներ	-11.1639
▁իրավիճակին	-11.164
ռավ	-11.1643
Լարս	-11.1643
▁Bo	-11.1644
▁լուրը	-11.1649
▁տարածքից	-11.1649
▁Գարիկ	-11.1651
եկտ	-11.1651
▁անապահով	-11.1653
▁Հիվանդ	-11.1654
▁մասնիկ	-11.1655
▁մասնաշենք	-11.1657
▁ավազակ	-11.1661
▁Հետեւ	-11.1663
ջար	-11.1663
▁աղտոտ	-11.1663
▁երաշխիքներ	-11.1664
▁գնահատվում	-11.1664
▁գյուղերում	-11.1664
▁սեքսուալ	-11.1665
▁ափսոս	-11.1666
▁Ad	-11.1671
Ավստրիա	-11.1673
▁Ներկա	-11.1673
▁ընդգծ	-11.1674
▁Փար	-11.1675
▁ծեծել	-11.1676
▁Ճանապարհ	-11.1676
▁մարտահրավեր	-11.1681
▁Գերմանիան	-11.1683
pl	-11.1684
▁դիմավոր	-11.1684
▁օգտվող	-11.1685
if	-11.1685
գոյ	-11.1687
▁նախանձ	-11.1687
▁Ապահով	-11.1688
▁պլաստիկ	-11.1688
▁չափերի	-11.1689
ԱՐՏ	-11.169
▁իրագործման	-11.1691
բլի	-11.1691
▁վարձակալության	-11.1692
▁տնտեսվարող	-11.1694
▁չինական	-11.1695
▁գրություն	-11.1695
▁էկոնոմիկայի	-11.1697
▁կարգապահական	-11.1697
▁նկարում	-11.1698
▁Կիմ	-11.1699
▁զբաղվ	-11.17
▁գոյատեւ	-11.17
▁լարվածության	-11.1701
▁ձեւավորվում	-11.1703
գաս	-11.1704
ունջ	-11.1706
▁ինտերնետային	-11.1706
▁Vi	-11.1709
▁սերունդների	-11.1711
▁բաժնից	-11.1712
▁հանձնելու	-11.1712
լադ	-11.1712
▁լեռնային	-11.1713
▁Ալեքսանյանը	-11.1714
▁ժամացույց	-11.1715
▁կիրառումներ	-11.1717
▁կայանում	-11.1717
▁բացված	-11.1718
▁լայնածավալ	-11.1718
▁Ներսես	-11.1718
ադրման	-11.172
ax	-11.1722
▁մմ	-11.1724
▁հանձնարարել	-11.1727
▁քրդական	-11.1728
▁հոսպիտալ	-11.173
▁պարբերականը	-11.1732
▁Գուրգեն	-11.1734
▁դասախոսներ	-11.1736
▁ե՞րբ	-11.1737
▁շերտեր	-11.1738
ապարտ	-11.1739
▁Բերդ	-11.1742
▁վեճեր	-11.1745
▁խոստումներ	-11.1747
▁ազդեցիկ	-11.1749
▁ընկերությունն	-11.175
▁օձ	-11.175
▁ստեղծագործությունները	-11.1751
▁չէինք	-11.1754
▁տարր	-11.1754
ՈՑ	-11.1755
Վաշինգտոն	-11.1756
Գազ	-11.1758
▁սննդամթերքի	-11.1758
▁հղիության	-11.1758
▁ռուբլի	-11.1762
▁սխեմա	-11.1762
▁Վարկանիշ	-11.1762
▁սովորություն	-11.1765
▁հայացքից	-11.1769
▁հովիվ	-11.177
▁բացեց	-11.1772
▁կատարվեց	-11.1774
▁Տեղեկատվական	-11.1777
▁ամենահայտնի	-11.178
▁Էմ	-11.1781
▁երգել	-11.1782
▁հայտեր	-11.1784
ա՛յ	-11.1785
>	-11.1785
▁ողջունում	-11.179
▁Mercedes	-11.179
▁կաթոլիկ	-11.1793
▁տարելիցին	-11.1794
▁վիրահատ	-11.1794
▁Ստեփանակերտ	-11.1795
▁Նախկին	-11.1795
▁հաստատություններ	-11.1796
▁հիմնվել	-11.1798
▁վիզա	-11.1799
Ամուսն	-11.1801
▁վարվել	-11.1804
▁ՀԱՄԱ	-11.1805
▁դադարում	-11.1807
▁օրինագիծ	-11.1808
Ռո	-11.1808
▁ոսկի	-11.1811
Կարծում	-11.1811
▁դրսեւորել	-11.1811
▁արաբական	-11.1811
Հայտն	-11.1812
▁կենտրոնների	-11.1813
▁Էջմիածնում	-11.1814
▁Լուսանկար	-11.1815
▁քայլել	-11.1817
▁թշնամիներ	-11.1827
▁իմաստուն	-11.1831
▁նվազեցման	-11.1832
▁ֆինանս	-11.1833
▁դրույքաչափ	-11.1833
▁Անգամ	-11.1836
▁փորձելով	-11.1837
▁Մամ	-11.1839
▁մատակարարում	-11.1839
▁խորք	-11.184
▁Եվրո	-11.1841
▁հայտարարված	-11.1843
▁Ուկրաինայում	-11.1846
▁թատեր	-11.1848
Գիտ	-11.1849
▁Քլ	-11.1849
պայքար	-11.1851
▁տեսակետներ	-11.1853
▁քննարկումները	-11.1859
▁Ջերմուկ	-11.186
ւան	-11.1861
▁մղում	-11.1862
▁տեսակետը	-11.1862
ամե	-11.1862
Աղ	-11.1865
▁Հունվար	-11.1867
▁քամու	-11.1871
▁Sa	-11.1875
ֆո	-11.1875
▁բնակիչներին	-11.1875
Ներ	-11.1875
▁հասցեով	-11.1877
▁Վարչական	-11.1879
▁Գասպարյանը	-11.1881
▁մարմնավոր	-11.1881
▁հանձնվել	-11.1882
▁բողոքում	-11.1887
▁մազ	-11.189
▁Կինո	-11.189
Կազմակերպ	-11.1892
օգոստոս	-11.1893
▁հյուրանոցի	-11.1893
▁մատակարարման	-11.1895
▁նորընտիր	-11.1901
▁հերոսներ	-11.1901
▁այդպիսով	-11.1902
▁Հարցազրույց	-11.1905
▁ՔՊ	-11.1906
▁տեքստային	-11.1908
od	-11.1909
▁սենյակում	-11.1909
▁տարբերակով	-11.1912
▁Տարիներ	-11.1913
▁թղթի	-11.1913
լեգ	-11.1914
Մաս	-11.1914
կենցաղ	-11.1915
▁Ֆրանսերեն	-11.1915
ка	-11.1916
▁ատամներ	-11.1916
▁պողոտայի	-11.1916
վետ	-11.1918
▁միլիոնավոր	-11.1918
կողմ	-11.1919
▁քույրեր	-11.1919
նոյեմբեր	-11.1922
ՎԵՐ	-11.1923
▁պիտակ	-11.1923
▁արտոնություններ	-11.1927
վագ	-11.1932
▁Արաբական	-11.1933
պոլ	-11.1935
▁Քեր	-11.1936
ue	-11.1936
▁հակակոռուպցիոն	-11.1936
▁հիմնա	-11.1938
ացումից	-11.1939
▁Աստուած	-11.194
▁Զոհրաբյանը	-11.194
ob	-11.1941
▁Posted	-11.1943
▁դեռահաս	-11.1943
ՎԱՐ	-11.1944
▁ենթակայության	-11.1946
▁տրամադրվող	-11.1947
▁հարստություն	-11.1949
▁կառուցողական	-11.1952
▁Ռոման	-11.1954
▁կենսական	-11.1954
▁պաշտոնավարման	-11.1955
եյլ	-11.1957
աղբյուր	-11.1957
Ռուս	-11.1958
▁տնից	-11.1959
▁կալանք	-11.1959
▁երկարաձգ	-11.1961
▁բացահայտման	-11.1963
ice	-11.1964
▁կազմելու	-11.1964
▁Մուս	-11.1965
սառեց	-11.1965
▁թոշակ	-11.197
▁Միշտ	-11.197
▁նշանակման	-11.1974
▁շախմատիստ	-11.1974
▁մեղադրվում	-11.1979
▁բարձրացել	-11.198
▁բարձրակարգ	-11.198
▁թատրոնը	-11.198
խփ	-11.1981
▁ունենանք	-11.1982
մարտ	-11.1983
▁ուսումնասիրությունների	-11.1984
▁Ինչու	-11.1984
▁տվող	-11.1985
▁ընտանիքներին	-11.1987
▁Continue	-11.1987
▁արվեստագետներ	-11.1988
▁սովետական	-11.199
▁Սարյան	-11.1991
▁արտադրանքը	-11.1991
▁գրասենյակում	-11.1991
▁հորդորում	-11.1993
▁աշխարհագրական	-11.1994
▁սկզբունքը	-11.1994
ինտեգրման	-11.1997
ang	-11.1997
▁հավատացյալ	-11.1998
▁Հայրիկ	-11.2005
▁Աստվածաշունչ	-11.2006
մայոր	-11.2006
▁ինքդ	-11.2007
▁ամէն	-11.2009
ադրվել	-11.2014
▁Բայ	-11.2016
▁մեծանում	-11.2016
▁երաժիշտներ	-11.2017
▁ուսումնա	-11.2018
▁Ռեյ	-11.202
սուր	-11.202
▁ցուցաբերում	-11.2022
▁կամրջի	-11.2023
ԴԻ	-11.2024
ավալ	-11.2025
▁Եգիպտոսի	-11.2025
▁մեծամասնության	-11.2028
ախմբեր	-11.2028
խե	-11.203
▁գիտելիքները	-11.2031
Հաջող	-11.2032
▁մուտքագր	-11.2033
▁առաջարկություն	-11.2033
Ղազախստան	-11.204
▁կինոթատրոն	-11.2041
▁գավառում	-11.2042
▁խթանել	-11.2044
▁աշխատություններ	-11.2045
մոտիվ	-11.2046
▁ռադիոկայանի	-11.2047
լեյտենանտ	-11.205
▁Արծվիկ	-11.205
▁թույլտվության	-11.205
▁ակտեր	-11.2051
▁Այր	-11.2051
oo	-11.2056
▁Չինաստանում	-11.2057
▁ստացվեց	-11.2058
աստիճան	-11.2058
▁Արտաշես	-11.206
▁նետել	-11.2063
▁սահմանելու	-11.2064
▁մրցակցի	-11.2065
one	-11.2069
▁իմացություն	-11.2069
int	-11.2071
▁նորաձեւության	-11.2071
▁more	-11.2073
▁Մկրտչյանի	-11.2074
▁Անվան	-11.2074
▁դատավորների	-11.2078
▁վստահությունը	-11.2078
Պետրոսյանը	-11.2081
▁հարցազրույցը	-11.2081
ամար	-11.2083
▁ճնշումներ	-11.2083
▁ինչպէս	-11.2083
ուղղ	-11.2083
▁Ենթադր	-11.2084
▁սահմաններից	-11.2085
▁հանգստյան	-11.2086
▁Չե	-11.2087
▁հաղորդավար	-11.2088
▁ցան	-11.2089
ՆԻ	-11.209
▁հումք	-11.2091
▁վաճառում	-11.2091
▁արտահանում	-11.2091
▁խավ	-11.2093
միտ	-11.2095
ԵԶ	-11.2097
▁վերանայել	-11.2098
NEWS	-11.2098
շարժ	-11.2098
▁ապահովագրության	-11.2099
օղլու	-11.2099
▁պատասխանները	-11.21
աշնորհ	-11.21
▁Պարզվում	-11.2102
▁ավարտական	-11.2104
▁կեղծիք	-11.2104
▁հաստատություններում	-11.2106
▁ժամկետային	-11.2107
▁կտրել	-11.2107
Բարգավաճ	-11.2108
Եվրասիա	-11.2108
▁լրատվամիջոցները	-11.2109
▁բուսական	-11.211
վաղ	-11.2111
▁National	-11.2111
պոս	-11.2111
Գործ	-11.2112
▁հետաքննություն	-11.2116
ԱՓ	-11.2117
▁կրելու	-11.2117
▁ստեղծվեց	-11.2118
Պետական	-11.2118
▁էֆեկտ	-11.2119
▁մոռացել	-11.2119
▁կունենանք	-11.2122
▁Լս	-11.2122
▁Ղարաբաղը	-11.2122
▁այցելեց	-11.2128
О	-11.2137
▁կիսում	-11.2137
▁պատասխանելով	-11.2137
▁մեզանից	-11.2138
▁Առանձն	-11.2138
▁գրելու	-11.214
▁թաքցնել	-11.2143
▁Լիգայի	-11.2143
▁ընտրվելու	-11.2146
ատերեր	-11.2147
շշ	-11.2148
▁մտածելու	-11.2149
▁սոսկ	-11.215
▁տխր	-11.215
sc	-11.2151
▁գործարքներ	-11.2153
▁ղեկավարությամբ	-11.2154
▁ռոմանտիկ	-11.2154
▁Արաբիայի	-11.2155
▁թարգմանիչ	-11.2156
▁չափորոշիչներ	-11.2156
▁տառապանք	-11.2159
▁մոմ	-11.216
▁տեսակետից	-11.2161
▁ստացող	-11.2163
▁մակարդակում	-11.2164
▁փողոցներում	-11.2166
▁Քեն	-11.2166
սրտ	-11.2168
▁Ավելաց	-11.2168
▁մայրեր	-11.2169
▁կխ	-11.217
Սովետական	-11.2172
▁պապի	-11.2173
պեն	-11.2173
▁ներուժը	-11.2174
▁քաղբանտարկյալ	-11.2175
▁ամրա	-11.2176
chat	-11.2176
ապան	-11.2178
▁այցելություն	-11.2179
▁Մալաթիա	-11.2179
▁Բնականաբար	-11.218
դուկ	-11.2183
▁կոչվել	-11.2184
▁միանալու	-11.2185
▁խաչմերուկ	-11.2186
▁ներկայացվեց	-11.2186
▁Եհովայի	-11.2189
▁արձագանքեց	-11.2191
▁ՆԱԽ	-11.2192
ատվություն	-11.2193
▁հորիզոնականը	-11.2194
▁մարզպետարան	-11.2194
qu	-11.2195
▁մտահոգություններ	-11.2195
▁դաշնային	-11.2198
che	-11.2199
▁զորամասի	-11.2199
▁տագնապ	-11.2204
Ուսանող	-11.2207
▁պլաններ	-11.2207
տրո	-11.2208
▁Նախագծի	-11.2209
▁պարտականությունների	-11.221
աշյան	-11.2211
▁Տեղադրել	-11.2211
▁հաշվապահ	-11.2211
ազանց	-11.2212
շինարար	-11.2214
Քննարկում	-11.2215
Z	-11.2215
▁մտցնել	-11.2215
▁Անտ	-11.2217
▁վայրից	-11.2217
Plus	-11.2217
օջախ	-11.2218
▁անձնագիր	-11.2221
▁թագավորության	-11.2222
▁Թայիփ	-11.2224
▁Շուշիի	-11.2225
line	-11.2228
▁Նախատեսվ	-11.2229
▁Ավետիսյանի	-11.2231
con	-11.2232
Բոլոր	-11.2232
▁դրվագ	-11.2232
▁Համար	-11.2232
▁նմուշ	-11.2233
ies	-11.2233
▁տեղափոխվեց	-11.2234
▁տառապում	-11.2237
▁հոգատար	-11.2237
▁տեսած	-11.2241
▁հյուրանոցում	-11.2242
▁շահեր	-11.2243
▁շուն	-11.2244
▁մասնակցեցին	-11.2245
▁Նավ	-11.2246
Н	-11.2246
▁խնայ	-11.2249
▁Ծրագիրը	-11.225
▁տեղափոխվում	-11.2251
▁հինգերորդ	-11.2251
▁բաժիններ	-11.2253
▁դիրիժոր	-11.2253
▁ազդանշան	-11.2253
▁Ողջ	-11.2253
▁վերջիններիս	-11.2258
▁Ծրագր	-11.2258
▁ՊՊԾ	-11.2259
ափառ	-11.226
▁բանավոր	-11.226
▁երեւա	-11.226
▁ամուսին	-11.2262
▁գինու	-11.2263
▁Բրիտանական	-11.2266
լենդ	-11.2269
▁Տեխաս	-11.2272
▁Բագրատ	-11.2273
▁շրջագայ	-11.2276
▁հողերի	-11.2277
ակաց	-11.2279
▁ամենակարեւորը	-11.2282
▁դրույթներ	-11.2287
▁եղանակներ	-11.2289
▁նախաքննություն	-11.2289
▁վերացնելու	-11.229
▁Սիմոն	-11.229
ՐԻ	-11.2295
Էրեբունի	-11.2296
ակյան	-11.2296
▁հուսահատ	-11.2299
Այ	-11.2303
▁ամպրոպ	-11.2305
▁հայացքներ	-11.2307
▁դեղին	-11.2308
▁ազատությունը	-11.2309
պայման	-11.231
կուսակցական	-11.2311
og	-11.2311
▁հեղափոխությունը	-11.2313
դաշնակ	-11.2318
▁իրագործել	-11.2321
▁առնչվում	-11.2321
▁խոստում	-11.2322
▁գագաթնաժողով	-11.2323
▁բարձունք	-11.2323
▁Կանադա	-11.2324
▁տոմսեր	-11.2325
▁Բրե	-11.2328
▁մյուսները	-11.2329
Տեղական	-11.233
▁պատգամ	-11.2331
▁անապատ	-11.2331
▁անցկացրած	-11.2332
▁ցուրտ	-11.2335
▁հատկացնել	-11.2335
▁մրցակցություն	-11.2337
▁Ge	-11.2337
խեն	-11.2337
ai	-11.2339
▁հարձակումներ	-11.234
▁կրճատել	-11.2343
▁դափնեկիր	-11.2344
▁հաջողակ	-11.2346
▁վկաներ	-11.2346
▁չափերով	-11.2347
ազերծ	-11.2354
▁Գասպարյանի	-11.2354
▁ՄԻԵԴ	-11.2354
▁վիրավորում	-11.2357
▁մարքեթինգ	-11.2357
▁համբավ	-11.2358
▁սիրիահայ	-11.2358
▁քանիսը	-11.2359
▁ճեմարան	-11.2361
▁Պետերբուրգում	-11.2363
▁չարաշահումներ	-11.2365
▁հաղորդակցության	-11.2365
▁մրցակիցներ	-11.2368
▁ARM	-11.2368
եցիք	-11.2368
▁տեսության	-11.237
ey	-11.2374
▁բավարարել	-11.2375
մփ	-11.2376
▁հողատարածք	-11.2377
▁Խոսելով	-11.2378
ախումբը	-11.2378
▁Թանկ	-11.2384
▁Լրատվական	-11.2384
▁վերածել	-11.2385
▁կապել	-11.2387
▁անսահման	-11.2387
▁Բադալյան	-11.239
▁պատահել	-11.2391
▁Ֆեր	-11.2391
▁Բնական	-11.2392
▁խոսակցություն	-11.2393
▁բալետի	-11.2396
▁քիմիա	-11.2396
▁դատապարտվել	-11.2396
▁Անդրե	-11.2398
▁թաղամասի	-11.2398
▁հարգելի	-11.2399
▁Մնացականյանը	-11.24
▁պահվում	-11.2401
▁Բալայան	-11.2401
▁Կողմ	-11.2402
▁ոճով	-11.2404
▁ոտնահար	-11.2405
▁Նախա	-11.2406
ՈՒԹՅՈՒՆՆԵՐԻ	-11.2407
▁վճարելու	-11.2409
▁հետաքննության	-11.241
▁ազատվելու	-11.241
▁ներկայացումներ	-11.241
▁Windows	-11.241
▁պատրաստակամ	-11.2411
▁աստիճանով	-11.2412
▁մահմեդական	-11.2413
▁սթրես	-11.2413
▁առաքելական	-11.2414
▁կոտրել	-11.2416
▁գաղափարների	-11.2418
▁արքեպիսկոպոս	-11.242
▁Ալեն	-11.2421
▁գործընթացները	-11.2422
ըմբռն	-11.2423
▁Մինասյան	-11.2426
արդյունաբերական	-11.2426
▁վիրտուալ	-11.2427
▁գիտնականներ	-11.2427
▁Թբիլիսիում	-11.2428
▁դրույթների	-11.2429
▁COUNTY	-11.243
▁Զուրաբյան	-11.243
▁թուղթ	-11.243
▁ընդգծում	-11.2431
գուր	-11.2432
▁ռեյտինգային	-11.2433
▁Սեդրակ	-11.2433
հետախուզ	-11.2435
▁պատճառել	-11.2439
▁լոլիկ	-11.244
▁հակառակորդը	-11.244
▁քարոզչություն	-11.2441
▁Արմինե	-11.2443
▁մարտեր	-11.2444
ster	-11.2449
▁դարձնելով	-11.245
▁հանդուրժ	-11.2451
▁Նարինե	-11.2451
վնաս	-11.2452
▁Արցախից	-11.2456
Գանձասար	-11.2456
Մաթեւոսյան	-11.246
▁ապահովող	-11.2461
շար	-11.2462
▁ակտերով	-11.2464
▁Երկրա	-11.2467
▁ուսուցչի	-11.2468
▁հարաբերություն	-11.2468
▁առասպել	-11.247
▁բնագավառներում	-11.2472
▁հանդիպելու	-11.2473
▁համբուր	-11.2474
▁ներկայացումը	-11.2476
▁աշնան	-11.2477
▁Վաճառվում	-11.2477
▁ռիսկերի	-11.2479
▁աշխարհահռչակ	-11.248
▁կուտակային	-11.248
Քնն	-11.248
▁էթիկայի	-11.2481
▁վիճակագրություն	-11.2483
▁տոհմ	-11.2484
▁Ավետիք	-11.2486
կամաց	-11.2486
ամթերք	-11.2488
▁ծավալների	-11.2489
▁վերականգնելու	-11.2491
ՍԿ	-11.2493
▁շինություն	-11.2496
▁արգելվում	-11.2498
▁հիշեցնել	-11.2498
▁կանխիկ	-11.25
Մոսկվա	-11.25
▁փեսա	-11.2502
▁հույսեր	-11.2503
▁Կարապետ	-11.2503
▁ՊՍԺ	-11.2503
ton	-11.2503
▁տեսուչ	-11.2505
Պաշտոն	-11.2506
▁մարզադաշտում	-11.2508
▁մաղթել	-11.251
▁հեղինակների	-11.2511
▁համեմատել	-11.2512
▁Twitter	-11.2513
▁մրցույթում	-11.2514
▁ո՞նց	-11.2516
▁այցելելու	-11.2516
▁ընթացակարգեր	-11.2517
▁հրաժարվեց	-11.2517
▁Գրական	-11.252
▁ամենատարբեր	-11.2523
▁ջազ	-11.2524
▁Կարգ	-11.2525
▁Առցանց	-11.2526
▁Հունիս	-11.2528
▁օպտիմալ	-11.253
▁արտահայտությունը	-11.253
▁սատանա	-11.2531
▁ծննդ	-11.2533
▁խորհրդանշական	-11.2533
▁ավտոճանապարհներ	-11.2533
▁Դատարանը	-11.2533
եդոն	-11.2535
▁քարե	-11.2537
պնդ	-11.2537
▁սպանված	-11.2544
▁տարուց	-11.2547
դուր	-11.2547
▁Մայքլ	-11.255
gr	-11.255
▁մերձավոր	-11.255
▁ընդլայն	-11.2551
▁տարեվերջ	-11.2552
▁կարգավորել	-11.2557
▁Արզումանյան	-11.256
▁ՖՈՏՈՌԵՊՈՐՏԱԺ	-11.256
▁ոստիկանական	-11.2566
Վերջին	-11.2568
▁իրավասություն	-11.2569
Պահանջ	-11.2569
▁պատմամշակութային	-11.257
▁ստորագրվել	-11.2572
▁քնել	-11.2572
▁Բանակ	-11.2573
ուղեծրի	-11.2573
▁հանձնում	-11.2576
▁Ստորեւ	-11.2577
▁Հրանուշ	-11.2577
▁բազմակողմանի	-11.2577
▁գեղեցկություն	-11.2578
▁անկասկած	-11.258
▁տարրական	-11.2581
▁ծանուցում	-11.2581
▁ժամանակավորապես	-11.2582
▁Պու	-11.2582
▁Մեյ	-11.2583
▁Որպեսզի	-11.2583
դինգ	-11.2586
▁զորքերը	-11.2591
та	-11.2594
▁տողեր	-11.2594
▁կայսր	-11.2595
▁կրկնում	-11.2596
նդուն	-11.2597
▁տեղափոխում	-11.26
▁թվաքանակ	-11.26
▁հոբելյան	-11.2603
▁արդյունա	-11.2606
▁նստաշրջանի	-11.2607
▁Տոնոյանը	-11.2607
▁թիմերի	-11.2608
բուխ	-11.261
▁եթէ	-11.2611
▁վճարների	-11.2613
▁լեգիտիմ	-11.2614
▁մատուցող	-11.2614
▁ՄԻՊ	-11.2615
▁թեմատիկ	-11.2615
▁բասկետբոլ	-11.2617
▁մաքրման	-11.2619
▁գայլ	-11.2622
▁Տոնոյան	-11.2623
փե	-11.2624
▁նստաշրջան	-11.2624
▁տնակ	-11.2627
Կառավար	-11.2627
▁սիրած	-11.2632
վեցինք	-11.2633
Ապարան	-11.2634
▁հրշեջ	-11.2634
▁օլիմպիադա	-11.2634
▁խոչընդոտել	-11.2639
▁ակտիվություն	-11.264
▁Con	-11.264
▁ամսաթիվ	-11.2641
▁մտածելակերպ	-11.2642
▁Սրանք	-11.2642
▁Next	-11.2644
▁Իլ	-11.2644
ավարձ	-11.2644
OS	-11.2645
լիտ	-11.2647
▁ճանապարհների	-11.2647
▁ընկալել	-11.2647
▁նախաքննության	-11.2648
ՈՐԴ	-11.2648
▁կղզի	-11.2649
▁ինժեներ	-11.2649
▁անփոփոխ	-11.2651
▁ինստիտուտում	-11.2653
▁չափանիշներին	-11.2654
▁մկրտ	-11.2654
▁Արագած	-11.2655
▁աղքատության	-11.2656
▁բնութագրերը	-11.2656
ապէս	-11.2656
▁reading	-11.2657
▁Հաստատ	-11.2658
▁Փառատոն	-11.2661
▁ցուցարար	-11.2665
▁ավարտված	-11.2666
▁Կենս	-11.2666
▁լուսա	-11.2669
միկ	-11.2671
son	-11.2671
▁ազգանունը	-11.2672
▁զրկել	-11.2672
▁արջ	-11.2673
համա	-11.2673
▁Եսայան	-11.2674
փետրվար	-11.2675
▁հասած	-11.2678
▁Մարուքյանը	-11.2679
▁հնգ	-11.268
▁Վեհափառ	-11.2681
▁Դավթյանը	-11.2682
▁Խո	-11.2683
▁ձմեռ	-11.2684
©	-11.2685
▁հետաքնն	-11.2685
▁մեդալով	-11.2685
▁համակարգային	-11.2686
▁մտածեց	-11.2687
▁սրտա	-11.2688
Ւ	-11.2688
▁վարելու	-11.2689
▁համալիրում	-11.2691
▁Մադ	-11.2691
▁բարձրանալ	-11.2692
▁պանիր	-11.2694
▁Զախար	-11.2696
▁For	-11.2696
▁հանգստանալ	-11.2698
▁ՄԻԱՎ	-11.2698
▁շնորհանդեսը	-11.2698
▁ավելացնում	-11.2699
▁հաճախորդի	-11.2699
Br	-11.27
▁Անշարժ	-11.2701
▁Ընթերց	-11.2705
▁ընտրակարգ	-11.2708
▁ընթերցողների	-11.2709
ran	-11.271
▁մեծացել	-11.2711
▁քանդակագործ	-11.2711
▁էթնիկ	-11.2712
գուլ	-11.2715
դաշ	-11.2717
▁հեռանկարները	-11.2721
▁եվրոպացի	-11.2722
▁լինեին	-11.2724
ինչպես	-11.2724
П	-11.2725
▁համակարգով	-11.2727
մուտ	-11.2727
Օսկանյան	-11.2731
▁նստում	-11.2731
▁Նպատակ	-11.2732
մոբիլ	-11.2732
առողջ	-11.2733
▁ծավալները	-11.2733
▁Շվեյցարիայի	-11.2736
▁դեպարտամենտի	-11.2737
կենս	-11.2739
AL	-11.2739
▁պայթ	-11.2739
▁առանձնատուն	-11.274
▁տեւողությունը	-11.2741
▁Android	-11.2742
▁քննադատության	-11.2743
―	-11.2745
▁տղաները	-11.2745
▁Շուտով	-11.2746
▁եզդի	-11.2746
▁Beeline	-11.2749
հաջող	-11.275
%)	-11.2752
▁ուռուցք	-11.2753
▁լռություն	-11.276
▁փախստական	-11.2761
▁համաձայնագրեր	-11.2767
▁հրավիրվել	-11.2767
▁Ինքը	-11.2771
▁ամաչ	-11.2771
▁առաջնորդների	-11.2772
▁գիտակցության	-11.2772
▁հյուրերին	-11.2776
▁դրվում	-11.2778
▁Շարժման	-11.2779
▁սթափ	-11.2784
▁մղել	-11.2786
Թարգման	-11.2787
▁փաստում	-11.2788
ոկրատ	-11.2789
▁անբավարար	-11.2791
▁Սուր	-11.2793
▁ինքնության	-11.2794
▁օրիգինալ	-11.2794
▁ահռելի	-11.2794
Կանոն	-11.2794
▁անդամակցության	-11.2795
▁պայմանավոր	-11.2795
▁զարգացող	-11.2795
▁խաղարկության	-11.2795
▁ենթակառուցվածք	-11.2796
▁Անտոն	-11.2797
▁Մտցնել	-11.2797
▁քննվող	-11.28
▁տիեզերական	-11.2801
▁կաթիլ	-11.2801
▁ծանրաբեռնված	-11.2801
ձեւ	-11.2805
▁վերլուծել	-11.2807
▁հունական	-11.2808
▁կոալիցիա	-11.2811
▁խոսվում	-11.2812
▁հնչ	-11.2813
▁Ցավ	-11.2814
▁լրագր	-11.2814
▁վարորդների	-11.2818
▁նիստից	-11.2819
▁քաղաքապետարանը	-11.282
ke	-11.2824
Մեկ	-11.2824
▁դռան	-11.2826
▁կադրային	-11.2828
բացահայտ	-11.2829
fi	-11.2831
Մտած	-11.2831
▁գիտեր	-11.2832
▁տնկ	-11.2834
▁թագավորություն	-11.2836
▁դադարեցնելու	-11.2838
▁նախաձեռնությունների	-11.2838
մեքենա	-11.2838
▁Tr	-11.2838
▁ունեի	-11.2839
▁կալանավորված	-11.284
▁Post	-11.2841
▁զեկույցը	-11.2841
չար	-11.2842
▁ցուցադրում	-11.2848
▁շահագործում	-11.285
▁տեսեք	-11.2852
▁պատշգամբ	-11.2856
▁լեգենդ	-11.2856
▁լեզուներ	-11.2858
▁ռուսաստանցի	-11.2859
լուր	-11.2859
▁թաղամաս	-11.2861
▁ամուսնության	-11.2864
ճանաչ	-11.2866
▁տիկնիկ	-11.2866
հաշվառ	-11.2867
▁բարձ	-11.2868
▁տրվող	-11.2869
▁խորամանկ	-11.2873
▁կլան	-11.2875
համապատասխան	-11.2876
▁Հստակեցնել	-11.2876
▁ընդունելություն	-11.2878
▁նկարագրությունը	-11.2879
▁կանգնում	-11.2879
▁հուշում	-11.2881
կայանքներով	-11.2882
Աշխարհ	-11.2883
ասպան	-11.2883
▁հրազենային	-11.2883
▁Ակնհայտ	-11.2883
▁Բագրատյան	-11.2885
ատվության	-11.289
▁պայուսակ	-11.289
▁մթնոլորտում	-11.289
▁հնչյուն	-11.2891
mb	-11.2893
▁հետազոտող	-11.2893
▁փոխգործակցության	-11.2897
▁խորհրդատու	-11.2898
արտասան	-11.2898
▁դիրքորոշման	-11.2901
▁ջրամբար	-11.2902
▁աշխատատեղ	-11.2905
դաշնամուր	-11.2908
▁Ժնեւ	-11.2912
▁հաստատող	-11.2913
արեւմտյան	-11.2913
▁կպցրեք	-11.2914
▁քարոզչության	-11.2916
Media	-11.2916
▁Ինչու՞	-11.2923
ee	-11.2925
ածածկ	-11.2928
▁զորամաս	-11.293
անավ	-11.293
▁առաջադրանքներ	-11.293
▁Վճար	-11.2932
ութուն	-11.2935
ներխուժ	-11.2936
ջր	-11.2938
▁Մկրտիչ	-11.2939
▁Հուլիս	-11.294
▁արքայազն	-11.2943
▁Օրերս	-11.2944
նշեց	-11.2945
ոնյան	-11.2945
▁Դեր	-11.2946
ՏԵՍ	-11.2946
▁այցելության	-11.2948
ՐԵ	-11.2949
▁հաղթանակներ	-11.2951
▁ընդերք	-11.2953
▁աղբյուրներ	-11.2956
▁ժամկետներում	-11.2957
▁տուփ	-11.2959
▁թոք	-11.296
▁չկարողացա	-11.2961
▁Ձեռք	-11.2963
▁բարիք	-11.2966
х	-11.2967
▁չգիտես	-11.2967
տուժ	-11.2969
▁վիճարկ	-11.2969
**	-11.2971
iv	-11.2972
▁որոշվում	-11.2973
▁Մոլ	-11.2974
▁իդեալական	-11.2975
▁կցանկանայի	-11.2977
▁Հարկային	-11.2977
Լեռն	-11.2979
ջո	-11.298
զինամթերք	-11.2983
▁Տերյան	-11.2984
▁բանվոր	-11.2984
▁պարտատոմսեր	-11.2984
▁Ակումբ	-11.2985
▁ամենալավ	-11.2988
▁տեմպեր	-11.2988
Լավագույն	-11.2989
▁վերլուծություններ	-11.299
▁նվաճումներ	-11.2992
▁բանախոս	-11.2993
▁Բաբլոյանը	-11.2995
▁նախանշ	-11.2996
▁ձայնագրություն	-11.2998
▁Դրանցից	-11.2999
▁Քանաքեռ	-11.3002
▁կբերի	-11.3002
▁Նշան	-11.3002
▁հետախուզության	-11.3002
▁տարվում	-11.3004
▁ամրապնդ	-11.3006
խնայող	-11.3006
▁ամսում	-11.3006
▁մրցանակակիր	-11.3006
աբերդ	-11.3007
ակատար	-11.3008
▁մենամարտ	-11.301
▁Մրց	-11.301
ժար	-11.3011
▁Անցյալ	-11.3011
▁Աստղ	-11.3012
▁ղեկավարած	-11.3013
▁հոգնած	-11.3013
▁դասարանում	-11.3014
ՈՉ	-11.3015
▁վերցնելու	-11.3016
▁գրավեց	-11.3017
▁We	-11.302
▁սահմանապահ	-11.3021
▁ներգաղթ	-11.3023
▁թողարկել	-11.3026
▁անվավեր	-11.3026
▁ֆիզիկայի	-11.3027
▁պարտվել	-11.3033
կովկաս	-11.3033
▁ձեռներեց	-11.3033
▁իմացել	-11.3033
▁ԵԿՄ	-11.3034
▁վարքագիծ	-11.3034
▁աղբյուրները	-11.3037
▁կառավարությունում	-11.3039
ո՜	-11.304
▁կրճատում	-11.304
▁Գոլ	-11.3041
▁հրատարակություն	-11.3045
▁Իրենց	-11.3046
▁բլոգեր	-11.3046
▁Նախկինում	-11.3048
▁ԻՊ	-11.3048
▁Նախիջեւանի	-11.3049
աջր	-11.3051
▁պիես	-11.3056
▁հարգել	-11.306
▁աշխարհից	-11.3063
▁շախմատ	-11.3064
▁թիմում	-11.3065
▁տարավ	-11.3066
▁խաղողի	-11.3066
▁կասկածյալ	-11.3067
▁ապարատ	-11.3067
▁ISSN	-11.3068
դիա	-11.307
▁Կարս	-11.3071
Երիտասարդ	-11.3071
▁որոնման	-11.3075
▁հասնելով	-11.3075
▁համամասնական	-11.3075
▁Մելքումյան	-11.3075
▁Հրայր	-11.3076
▁դիմանկար	-11.3078
▁տարելիցի	-11.3078
▁բախում	-11.3079
▁here	-11.3079
▁Բախ	-11.3079
▁արտադրամաս	-11.3082
▁աշնանը	-11.3082
▁կբարձրանա	-11.3083
▁բողոքներ	-11.3083
▁քաշել	-11.3084
նշել	-11.3087
▁դիմորդ	-11.3087
▁սովորեց	-11.3087
▁վնասել	-11.3088
▁պայմանավորվել	-11.3089
▁Գեորգի	-11.309
վրացական	-11.309
▁Սպա	-11.309
տիկական	-11.3092
▁պարտքեր	-11.3095
▁հիմնախնդիրները	-11.3096
▁համերգային	-11.3096
▁Ստամբուլում	-11.3097
▁ցուցանիշները	-11.3099
▁ռոբոտ	-11.31
Պուտին	-11.3101
բայց	-11.3102
ահայեր	-11.3104
▁հազարամյակ	-11.3107
▁հրատարակչություն	-11.3107
▁կենսաբանական	-11.311
Պարոն	-11.3111
▁վերահսկում	-11.3112
▁ընտրակաշառք	-11.3114
▁հատկացված	-11.3114
կազմ	-11.3115
▁հավանության	-11.3116
▁դիտարկումները	-11.3118
▁հրթիռ	-11.312
րուս	-11.312
IC	-11.3121
արխ	-11.3123
Վրաստան	-11.3125
▁Լրագրող	-11.3126
ana	-11.3126
▁Life	-11.3129
▁վաճառվել	-11.313
▁Հրատարակ	-11.3132
▁օրենսդրություն	-11.3132
▁ո՞ւր	-11.3133
▁ձեւակերպում	-11.3134
▁Bl	-11.3135
▁բաժանվում	-11.3135
▁արտահ	-11.3135
▁հաշվապահական	-11.3135
▁Pa	-11.3137
այնություն	-11.3138
▁կամավորական	-11.3138
▁Previous	-11.3139
▁Di	-11.3144
▁Iravunk	-11.3146
▁լիակատար	-11.3147
ny	-11.3148
▁հաղթելու	-11.3149
▁անուղղակի	-11.315
▁ողբերգություն	-11.3153
▁Հայրենական	-11.3158
▁իրավիճակներում	-11.3158
▁Մանրամասներ	-11.3161
▁ինքնատիպ	-11.3161
այնության	-11.3161
▁դատապարտում	-11.3161
▁խաղադաշտ	-11.3162
▁վիրավորանք	-11.3163
▁հետաքննություններ	-11.3166
▁Հայրապետյանի	-11.3168
▁Online	-11.3171
▁հուշահամալիր	-11.3171
▁ձուկ	-11.3172
▁Բրիտանիայում	-11.3174
▁New	-11.3175
▁ջրով	-11.3175
▁շրջապատ	-11.3178
Մո	-11.3179
ki	-11.3182
▁լցնել	-11.3184
▁լրջորեն	-11.3184
▁Ձայն	-11.3185
▁Մարտիրոսյանի	-11.3187
ֆլ	-11.3188
▁վերանորոգում	-11.3188
▁խաչքար	-11.3191
▁համայնքապետ	-11.3192
▁Լոնդոն	-11.3193
ara	-11.3194
▁տեսչական	-11.3195
▁ավազան	-11.3196
▁յայտն	-11.3196
▁Ներկայացնում	-11.3196
res	-11.3197
▁ծնվում	-11.3203
▁անթույլատրելի	-11.3203
▁Բավական	-11.3204
մետրանոց	-11.3205
▁մտքով	-11.3206
▁անհեթեթ	-11.3207
▁թմրամիջոց	-11.3207
ԱՌԿԱ	-11.3209
▁չկարողացավ	-11.321
▁վարձով	-11.3211
▁խնդրանք	-11.3211
▁ունակություն	-11.3211
▁ընդլայնում	-11.3212
▁մոդելներ	-11.3213
▁խթանում	-11.3214
▁Տեսախցիկ	-11.3218
▁նախագծով	-11.3218
▁անվամբ	-11.3219
▁շեշտադր	-11.3221
յոլ	-11.3224
▁մոռանում	-11.3225
ES	-11.3227
▁օբյեկտներ	-11.3228
▁Սեմ	-11.3231
▁խողովակ	-11.3233
▁ապրելակերպ	-11.3234
▁Մինասյանի	-11.3236
Գիրք	-11.3236
▁լեզվաբան	-11.3237
ծառ	-11.3241
▁մարզադաշտ	-11.3243
CO	-11.3244
▁Բելգիայի	-11.3245
▁Հայտնաբերվել	-11.3246
▁Ախ	-11.3248
▁հաղորդմամբ	-11.3249
▁երազանքներ	-11.3249
▁խորհրդատվական	-11.325
▁պատուհաններ	-11.325
գոտ	-11.3251
▁փոքրամասնությունների	-11.3252
▁զիջել	-11.3253
կաշկանդ	-11.3253
▁Խաղային	-11.3254
Արթիկ	-11.3254
▁դրության	-11.3254
▁դերասաններ	-11.3256
▁չեղյալ	-11.3257
▁արտահայտություն	-11.3259
▁ամուսիններ	-11.3261
դոմ	-11.3262
▁աջակից	-11.3262
▁բացարձակապես	-11.3268
ստրուկ	-11.3269
▁օդաչու	-11.3271
▁Հայրապետյան	-11.3273
▁վիճակագրության	-11.3274
չես	-11.3274
աշարժ	-11.3275
▁հեռանալու	-11.3276
▁սոցիոլոգ	-11.3277
ox	-11.3279
▁կոնվենցիայի	-11.328
▁դիմեց	-11.3281
▁Շամ	-11.3283
▁բյուջեից	-11.3286
▁ՅՈՒՆԵՍԿՕ	-11.3289
▁ռադիոյի	-11.329
▁թողած	-11.3292
▁Այսօրվա	-11.3295
▁ավելանում	-11.3299
▁Sp	-11.3302
ստորագր	-11.3304
▁վատթար	-11.3304
▁Մարկոս	-11.3306
▁Շուշի	-11.3309
▁գործընկերոջ	-11.3309
հանգուցալուծ	-11.3311
▁անսովոր	-11.3313
▁հոգեւորական	-11.3314
▁բնավ	-11.3314
▁ստանդարտներ	-11.3314
▁դրություն	-11.3316
▁գարուն	-11.3318
▁գերատեսչությունների	-11.3318
▁նկատառում	-11.3318
ՆԱՍԱ	-11.332
▁միավորման	-11.332
▁ֆրանս	-11.332
▁խաչմերուկում	-11.332
▁հոբելյանական	-11.332
▁Միխայիլ	-11.3322
▁կրկնել	-11.3323
▁Պատրիարք	-11.3326
▁դաջվածք	-11.3326
▁չլիներ	-11.3326
հարկ	-11.3326
րաժ	-11.3329
Г	-11.3329
Հիմա	-11.333
▁Սահմանադրությամբ	-11.3333
Քաղաքական	-11.3333
▁Par	-11.3334
▁վերածվում	-11.3334
Վար	-11.3336
ջախջախ	-11.3336
▁ստանձնած	-11.3336
▁ֆունտ	-11.3336
▁ավարտելուց	-11.3337
▁սրտում	-11.3337
▁կանգառ	-11.3338
▁Ամուլսարի	-11.3339
ենալ	-11.3343
▁չլինել	-11.3343
ծննդաբեր	-11.3344
ազգանուն	-11.3344
օրէն	-11.3345
▁նվիրաբեր	-11.3345
▁անհարմար	-11.3348
▁հոգեբանության	-11.3351
▁քառակուսի	-11.3355
▁կոալիցիայի	-11.3355
▁հայրիկ	-11.3356
▁ԿԳՆ	-11.3356
▁բարեգործ	-11.336
ագործության	-11.3364
▁նորարարական	-11.3366
Կովկաս	-11.3367
▁կասկածում	-11.3368
▁դպրոցները	-11.3369
▁տարածքով	-11.3372
▁պահուստ	-11.3373
▁տնտեսագիտական	-11.3374
▁ազդակ	-11.3376
▁հուշարձաններ	-11.3377
▁Բուր	-11.3378
▁ամսից	-11.3379
▁տղաներ	-11.3379
▁արձանի	-11.3379
երէն	-11.3379
փոստով	-11.3379
▁Արխիվ	-11.338
▁վայրէջք	-11.338
▁սուպերմարկետ	-11.3384
▁իտալացի	-11.3384
▁Թոմ	-11.3384
▁պարզաբանել	-11.3384
▁կայացնելու	-11.3385
▁Կարճ	-11.3386
▁գրեց	-11.3396
փնտր	-11.34
▁տպավոր	-11.3402
▁իրավիճակից	-11.3402
▁մրցանակաբաշխության	-11.3402
▁ասելիք	-11.3402
▁լսումներ	-11.3405
▁հաստիք	-11.3406
▁Դիմում	-11.3408
▁Արգենտինայի	-11.3409
▁արարողության	-11.3411
▁վճարովի	-11.3412
▁լիցք	-11.3419
pa	-11.3421
▁երթուղի	-11.3422
▁Համերգ	-11.3423
▁Մբ	-11.3424
▁հուշագիր	-11.3426
▁Այո՛	-11.3427
իմաստ	-11.3427
▁Վաշինգտոնի	-11.3428
▁բարձրացրել	-11.3428
▁հրավերով	-11.3432
▁հեռուստացույց	-11.3435
կողմնորոշ	-11.3439
▁Lo	-11.344
▁Նայ	-11.3441
▁տեղադրվել	-11.3442
Տաշիր	-11.3442
▁արարած	-11.3443
Լուս	-11.3446
բերտ	-11.3446
▁Դաշնություն	-11.3449
առեւտուր	-11.3451
▁Բաբ	-11.3452
▁մուսուլման	-11.3453
▁եզրափակչում	-11.3453
ԵԼԻ	-11.3454
▁վերակառուց	-11.3456
▁թմրանյութ	-11.3458
Պետք	-11.3459
▁արծաթ	-11.3459
մպ	-11.3459
▁Մուշեղ	-11.346
▁տանելու	-11.3462
առանց	-11.3462
▁համահունչ	-11.3464
▁Հայտարարություն	-11.3467
▁ակադեմիկոս	-11.3468
▁արտահայտվում	-11.3471
▁փոշի	-11.3473
անանք	-11.3476
▁հավատաց	-11.3478
շղթայ	-11.348
▁համակարգիչ	-11.3481
գյուտ	-11.3482
ԱՅՆ	-11.3483
▁կատարելապես	-11.3483
▁Զոհրաբ	-11.3486
▁Ho	-11.3487
▁զգայուն	-11.3488
տեխ	-11.3489
▁կորցնել	-11.349
▁Ռուստամյան	-11.349
▁արտահոսք	-11.349
▁Կյանքի	-11.349
▁Դիանա	-11.3492
››	-11.3493
▁Ամերիկացի	-11.3495
▁Կարլ	-11.3496
Новости	-11.3497
▁վեհ	-11.3497
▁հասնի	-11.3498
▁III	-11.3501
▁մեդալներ	-11.3501
▁տեղերում	-11.3502
գրգռ	-11.3503
▁Բելգիա	-11.3503
▁պատանդ	-11.3506
▁ընտ	-11.3508
▁պսակ	-11.3508
▁հսկ	-11.3512
▁օգտագործվող	-11.3513
▁վերապր	-11.3513
▁ծավալով	-11.3515
▁կեցվածք	-11.3516
ացվեն	-11.3516
քա՜ն	-11.3516
նվաճ	-11.3516
▁շտապում	-11.3516
▁ազատելու	-11.3517
▁ահաբեկչություն	-11.3519
▁հյուրընկալել	-11.352
eg	-11.3525
Աստղիկ	-11.3526
▁վրայով	-11.3526
▁ոչխար	-11.3527
ՈՒԹՅՈՒՆՆԵՐ	-11.3527
ամուս	-11.3527
ժամկետ	-11.3528
▁բանտում	-11.3529
▁Հրաչ	-11.3532
▁գաղափարական	-11.3532
▁ըմբշամարտի	-11.3538
▁Բացառ	-11.354
▁Վերցված	-11.3541
միջամտ	-11.3542
հանդուրժող	-11.3544
▁տեւել	-11.3544
դեպ	-11.3546
▁դժվարությամբ	-11.355
▁պատմվածք	-11.355
▁մոնիթորինգ	-11.3552
տապ	-11.3556
▁գիտաշխատող	-11.3556
▁ներգրավվել	-11.3559
▁համայն	-11.356
▁առավելապես	-11.356
ոլոգիայի	-11.3563
▁դիտարկման	-11.3563
պս	-11.3563
▁եզրափակ	-11.3565
▁իսլամական	-11.3568
▁լեռնա	-11.3569
▁խորհրդակց	-11.3571
▁ասեց	-11.3572
▁դնելով	-11.3576
▁հուսով	-11.3577
Մամեդյարով	-11.3578
▁ՈՐՈՇՈՒՄ	-11.3578
▁Ֆո	-11.358
վաստ	-11.3581
▁սպասվող	-11.3582
▁կրթաթոշակ	-11.3582
▁արծաթե	-11.3587
Ծնող	-11.3589
▁Օբաման	-11.3589
▁լսելու	-11.3591
ish	-11.3593
Ցեղասպանություն	-11.3593
Վիճակ	-11.3594
ավարության	-11.3597
▁Անկարայի	-11.3597
▁դիմակայել	-11.3598
▁լուսանկարիչ	-11.36
▁ցավալի	-11.3602
▁պատմող	-11.3605
▁անցնի	-11.3608
▁նիհար	-11.361
▁Խոյ	-11.361
▁հրապարակած	-11.361
▁Փորձագետ	-11.3614
Բորուսիա	-11.3614
ագործություն	-11.3614
Դաշնակցություն	-11.3617
▁Դրամ	-11.3617
Մարտի	-11.3619
▁զինյալ	-11.3621
ԱՐԱՆ	-11.3622
արեւելք	-11.3627
iz	-11.3629
▁ծառայողները	-11.3632
▁բառից	-11.3633
▁տպավորիչ	-11.3637
▁Ոսկանյան	-11.3638
▁զգուշաց	-11.3641
ֆեյսբուք	-11.3641
▁ռուսաստանյան	-11.3642
▁Թեհրանի	-11.3642
▁ակնկալիքներ	-11.3643
▁թռչուններ	-11.3643
▁սկսված	-11.3646
▁փախուստի	-11.3649
Շնորհավոր	-11.3654
▁Ուսումնասիր	-11.3657
▁Ինտերնետ	-11.3657
▁Հուսով	-11.3657
▁պատերազմական	-11.3662
ms	-11.3662
կղ	-11.3662
ен	-11.3663
▁Լավրովը	-11.3664
▁հաղորդմամբ՝	-11.3666
ԵՊ	-11.3667
▁խեղճ	-11.3668
▁մրցակցային	-11.3668
ON	-11.3668
▁կոշիկ	-11.3669
▁Բեյ	-11.3671
▁BBC	-11.3673
▁ներկայում	-11.3673
Շվեդիա	-11.3675
▁բաժանվել	-11.3675
▁ամանորյա	-11.3675
▁Չեխ	-11.3675
▁համերգներ	-11.3676
▁բլոկ	-11.3679
չիկ	-11.3682
շնորհ	-11.3683
ԲԱ	-11.3685
Դեպի	-11.3687
▁ապացուցում	-11.3687
▁Հակա	-11.3687
World	-11.369
▁Օհանյանի	-11.3691
▁կանացի	-11.3693
▁ասա	-11.3696
▁ուղի	-11.3698
▁մթեր	-11.3699
▁դիվանագետ	-11.3701
▁փորձեք	-11.3701
▁կարդացել	-11.3703
նպատակ	-11.3704
▁ԿԱՏԱՐԵԼՈՒ	-11.3704
Իրավական	-11.3705
▁ստորին	-11.3705
▁եզրափակչի	-11.3705
▁օրացույց	-11.3711
▁Wi	-11.3713
▁զարգանալ	-11.3714
▁անձնավորություն	-11.372
▁դրվագներ	-11.3723
ղձ	-11.3725
▁դուռ	-11.3728
&	-11.3728
▁արձագանքում	-11.373
▁տասնամյակներ	-11.3731
▁ակնկալել	-11.3732
▁անասուն	-11.3736
մաթեմատիկական	-11.3739
▁կարճատեւ	-11.3739
Կանաչ	-11.374
▁Կոմիտե	-11.3743
▁ՄԱՐԶ	-11.3744
▁Թեմա	-11.3744
▁երթեւեկելի	-11.3745
▁արժողությամբ	-11.3747
▁դերակատարություն	-11.3747
▁Սոլ	-11.3749
▁երեւանցի	-11.3755
▁կասկածելի	-11.376
▁Ընդհանրապես	-11.3762
▁Բորիս	-11.3762
Դիտ	-11.3763
▁ինքնորոշման	-11.3766
▁դերեր	-11.3769
▁դիվանագիտության	-11.3773
▁կմասնակցեն	-11.3773
▁անտառային	-11.3775
◆	-11.3777
▁Դատավոր	-11.3783
videochat	-11.3785
▁որոշելու	-11.3785
▁ժամկետները	-11.3786
Արեւ	-11.3787
▁դիմահարդար	-11.3788
▁անգլիացի	-11.3792
▁հիշյալ	-11.3792
Միսս	-11.3793
Էրդողան	-11.3795
▁Սոֆի	-11.3795
▁հեղինակները	-11.3798
▁ծառայություններից	-11.3799
Բաց	-11.38
ock	-11.38
▁պտտ	-11.38
▁խմոր	-11.3803
աստղ	-11.3804
Հավաք	-11.3805
▁նյարդային	-11.3805
▁Նոյ	-11.3808
▁Թագավորության	-11.3809
▁մետա	-11.3814
▁հավակնորդ	-11.3815
▁Մի՞թե	-11.3815
ро	-11.3815
▁կորստի	-11.3816
▁ինչպիսի՞	-11.382
▁Թանդիլյան	-11.3822
▁գաղտնալս	-11.3822
▁հեռուստատեսության	-11.3822
▁համընկնում	-11.3823
▁պիտանի	-11.3826
Օհանյան	-11.3827
▁կլինիկական	-11.3827
▁արտահայտված	-11.3827
▁վրացի	-11.3828
▁կմեկնարկի	-11.383
բիզնես	-11.383
▁հանձնարարականներ	-11.3833
▁ազատությունների	-11.3833
զանգ	-11.3834
▁փափուկ	-11.3834
▁պատրաստելու	-11.3836
TV	-11.3836
ՀԱՏ	-11.3837
▁Բաբլոյան	-11.3837
դրամ	-11.3837
▁խօս	-11.3837
▁մարզչի	-11.3838
▁կողմերից	-11.3839
▁Չկա	-11.384
Թե	-11.3842
թուրք	-11.3842
Դրա	-11.3843
զայ	-11.3849
▁Դատախազ	-11.3849
▁խթանման	-11.385
▁թաքց	-11.3851
▁վերադարձնելու	-11.3851
▁մեկնելու	-11.3852
▁ՀԷԿ	-11.3853
▁հետեւորդներ	-11.3854
▁Տրանսպորտ	-11.3854
▁գիտակցել	-11.3857
▁Յիսուս	-11.3857
▁խոհարար	-11.386
▁փրկության	-11.386
▁բաղադրատոմս	-11.3863
▁ՓՄՁ	-11.3864
▁բարբառ	-11.3864
▁ունակություններ	-11.3866
▁հայրենիքում	-11.3869
▁Ուշ	-11.387
▁ավելացրեց	-11.3871
▁կատու	-11.3872
աձիգ	-11.3874
▁ինձնից	-11.3874
▁ծովային	-11.3878
▁սրտեր	-11.3881
ԿՈ	-11.3883
▁ՎԵՐԱԲԵՐՅԱԼ	-11.3883
իրանական	-11.3884
IP	-11.3885
▁անելիք	-11.3886
▁Աստ	-11.3887
▁բենզին	-11.3887
▁Ֆլ	-11.3888
ադո	-11.3888
ՅԱՆԻՆ	-11.3889
ահոս	-11.3891
▁Բողոք	-11.3891
▁հաշվետվության	-11.3895
▁նկարիչների	-11.3897
▁ծիծաղելի	-11.3897
▁սպասված	-11.3899
▁Հյուր	-11.39
▁զենքեր	-11.3901
▁զանգահար	-11.3902
▁թագուհի	-11.3903
▁ակամա	-11.3903
սլա	-11.3905
▁Առողջ	-11.3906
▁հեռուստատեսություն	-11.3906
▁գտա	-11.3907
ահաս	-11.3908
▁հրաժարվելու	-11.3913
▁ոչնչացման	-11.3913
▁պապիկ	-11.3916
▁նշվել	-11.3917
▁դեղորայք	-11.3918
▁Ստեփանակերտում	-11.3919
▁բավականաչափ	-11.3921
▁Պարտ	-11.3928
▁վերապատրաստում	-11.3929
▁արհամարհ	-11.3929
▁դրոշմ	-11.393
▁պարտվեց	-11.393
արժեւոր	-11.3931
▁եռամսյակում	-11.3931
▁ինդեքս	-11.3933
▁Տիր	-11.3934
Խորհրդարան	-11.3938
ավելի	-11.3938
▁Սիլվա	-11.3938
▁ուզած	-11.3939
▁նախադասություն	-11.3941
▁հակասություններ	-11.3942
▁մոլորակների	-11.3942
▁պարապմունքներ	-11.3945
առաջադիմ	-11.395
▁Մանուկ	-11.3952
▁կոչեր	-11.3953
ժա	-11.3955
BA	-11.3957
▁ուտելիք	-11.3957
ՀՄ	-11.3958
▁վավերագրական	-11.3958
▁քարոզչական	-11.3959
բուք	-11.3959
▁Ֆրանկ	-11.3961
ուղիներ	-11.3962
▁գեղեցկ	-11.3967
▁հեկտար	-11.3968
▁վախճան	-11.3969
▁մոնիտորինգ	-11.3972
▁\\(	-11.3976
ron	-11.3976
▁դիմող	-11.3977
▁կվերադառնա	-11.3979
▁դեսպանության	-11.3984
▁կանխատես	-11.3988
▁լցված	-11.3991
Չեմ	-11.3993
ժողովրդավար	-11.3994
եզր	-11.3996
▁ուժերով	-11.3996
ավայրեր	-11.3996
▁Բրյուսել	-11.3997
Մշակութային	-11.3999
▁ըմպելիք	-11.3999
▁սկզբունքային	-11.4
▁մեզնից	-11.4001
bl	-11.4002
▁հիշողություններ	-11.4002
▁մանկության	-11.4008
ԱՆՔ	-11.401
▁խուսափում	-11.4011
▁թեւեր	-11.4014
▁Եղիշե	-11.4014
▁մրցավար	-11.4016
դպրոց	-11.4019
▁բանալին	-11.4019
▁հանդիսացել	-11.4021
ом	-11.4023
▁չկարողանա	-11.4023
ունքներ	-11.4026
▁նվագախումբ	-11.4028
▁դադարեցման	-11.4029
Д	-11.403
UTC	-11.403
▁Կատ	-11.4031
▁ինքներս	-11.4031
oll	-11.4033
▁ֆոտոլրագրող	-11.4034
▁առանձնանում	-11.4035
▁վերականգնողական	-11.4036
▁խաղալու	-11.4037
պարկ	-11.4038
▁պայմանով	-11.4041
▁երեկվա	-11.4046
▁մեղադրվող	-11.4046
Պահպան	-11.4048
▁ներկայացուցչություն	-11.4049
▁ավելացրել	-11.405
անյութեր	-11.405
հափշտակ	-11.4052
Ապրանք	-11.4053
▁մահանում	-11.4058
▁դատավճիռ	-11.4061
▁հինգշաբթի	-11.4061
▁տեղեկացված	-11.4063
▁դեպս	-11.4063
▁Իշխանություն	-11.4066
▁կանչում	-11.4066
▁ձու	-11.4071
▁արդարացի	-11.4076
ալար	-11.4076
ՀԱՆ	-11.4076
▁հանգույց	-11.4078
▁զրո	-11.408
▁ուսուցչուհի	-11.408
▁որտե՞ղ	-11.4084
▁արձանագրում	-11.4087
▁ազդարար	-11.4091
ղեր	-11.4093
▁ավազ	-11.4096
▁բաղադր	-11.4097
▁գոլեր	-11.4098
Շինարար	-11.4098
▁դատավարություն	-11.41
▁վնասվածքներով	-11.4102
▁մակերեւույթ	-11.4104
of	-11.4104
▁նախատես	-11.4108
▁բարձրաձայնել	-11.4109
▁արժանացավ	-11.411
▁ներկայանում	-11.4112
▁հարգում	-11.4112
▁ազգայնական	-11.4116
▁Աբգար	-11.4118
▁Ջուր	-11.4119
▁Մարզպետ	-11.4121
▁մթերք	-11.4123
▁Սոս	-11.4126
ագիտ	-11.4127
▁անհանգստություն	-11.4128
▁Ուղե	-11.4128
▁բարդություններ	-11.4128
▁Գիշեր	-11.4128
▁ուտելու	-11.4131
▁հիմունքներով	-11.4132
▁խուսափ	-11.4132
▁վանական	-11.4133
բանտարկ	-11.4135
▁Ծիծեռնակաբերդ	-11.4135
▁անձեռնմխելի	-11.4135
▁պահպանվող	-11.4138
▁կանխատեսումներ	-11.4139
▁Դաշնային	-11.4139
▁ռազմաբազա	-11.414
▁թույլատրվում	-11.414
▁Ավստրիայի	-11.414
▁վստահեցնում	-11.414
▁գնանք	-11.4141
Մեքենա	-11.4142
▁Մարգարիտ	-11.4143
ՊԻ	-11.4145
▁Ֆիլմի	-11.4148
▁վերամշակ	-11.4149
▁ծնկ	-11.4154
▁վրեժ	-11.4155
▁չընդուն	-11.4155
▁Մեկնաբան	-11.4155
ազգեստ	-11.4155
▁անտեսել	-11.4155
▁նորանոր	-11.4156
▁ընթրիք	-11.4159
▁գետնին	-11.4159
▁կհասկանա	-11.4159
▁գդալ	-11.4164
▁ցմահ	-11.4164
▁հակադարձ	-11.4164
▁կրկնօրինակ	-11.4169
▁վերածնունդ	-11.4171
▁բացակայություն	-11.4174
Շահնազարյան	-11.4174
▁լծ	-11.4175
▁հիշեցրեց	-11.4176
▁քնած	-11.4177
▁Թայ	-11.4177
▁փրկարարների	-11.4177
▁ankakh	-11.4178
▁նստեց	-11.4179
▁Ավարտ	-11.4181
▁պատվիրել	-11.4186
▁զբաղեցնել	-11.4186
վերնախավ	-11.4186
վիլ	-11.4189
▁կեանք	-11.419
▁շրջակայք	-11.419
▁ամրապնդում	-11.4191
▁բաղկացուցիչ	-11.4194
▁Ժողովրդական	-11.4194
այժմ	-11.4196
▁Հավանաբար	-11.4198
▁մտավախություն	-11.4202
▁զիջ	-11.4206
▁ուղարկեց	-11.4207
ախտորոշ	-11.4207
▁փոխանցվել	-11.4208
▁երկարությունը	-11.421
▁իրավախախտումների	-11.4212
ֆար	-11.4215
Քրիստո	-11.4215
▁հրապարակումներ	-11.4218
▁թռչող	-11.4218
}}	-11.4218
տլանտ	-11.4219
ՀՀԿ	-11.4219
▁պահանջելով	-11.422
▁օրենքներով	-11.4221
Ալավերդի	-11.4222
օդ	-11.4223
Գյումրի	-11.4223
դիվ	-11.4224
▁պատերազմներ	-11.4224
սկավառակ	-11.4226
Մասնագետ	-11.4227
▁հոլովակ	-11.423
▁նորաձեւ	-11.423
▁հորմոն	-11.4234
▁գիշերվա	-11.4235
▁իրողություններ	-11.4236
▁Այդուհանդերձ	-11.4238
▁Ժոզե	-11.4238
▁Դիլիջանի	-11.4239
Ընդուն	-11.424
անհանգստ	-11.4241
▁Եղանակը	-11.4242
▁Մեսսին	-11.4242
▁Ասաց	-11.4243
▁Բարեւ	-11.4245
Վարդենիս	-11.4246
▁դասագրքեր	-11.425
▁ձեռնարկություններ	-11.425
▁տեղադրման	-11.425
ри	-11.4252
չեր	-11.4253
▁սյուն	-11.4259
Այցել	-11.4261
▁վեբկամերան	-11.4261
▁ադրբեջանցիների	-11.4263
▁այցելություններ	-11.4271
Տես	-11.4271
ոպոլ	-11.4271
▁միացյալ	-11.4273
▁կներկայացնեն	-11.4274
կայուն	-11.4277
▁Ամերիկայում	-11.4277
▁Վերջապես	-11.4277
Նաիրիտ	-11.4278
Բալասանյան	-11.4278
Էլեկտրա	-11.4283
▁բացառություն	-11.4283
▁սովորեցնում	-11.4288
▁‹‹	-11.4289
▁Մարդկանց	-11.4289
▁Հովսեփ	-11.429
AD	-11.4291
▁կտրվածքով	-11.4293
▁զեկույցում	-11.4295
▁ձյան	-11.4297
AT	-11.4298
մետր	-11.43
EN	-11.43
ագրվել	-11.4301
Մեդվեդեւ	-11.4301
▁Իգոր	-11.4302
RE	-11.4303
▁հաճույքով	-11.4304
▁Ճանապարհային	-11.4305
▁զինծառայողներ	-11.4306
▁Հեռախոս	-11.4306
▁զբաղվածության	-11.4306
▁որակական	-11.4309
▁տեղափոխելու	-11.4311
▁վաղվա	-11.4311
▁աստերոիդների	-11.4312
▁ԳԱԼԱ	-11.4313
▁հրամանագրով	-11.4314
▁թողարկման	-11.4315
▁ՄԱՍՆ	-11.4318
▁հորդորել	-11.4322
ook	-11.4323
ԵՀ	-11.4326
վերջ	-11.4328
▁բովանդակություն	-11.4332
արարություն	-11.4333
▁շնորհանդես	-11.4337
▁լրատվամիջոց	-11.4339
մատիկ	-11.434
▁Լեւ	-11.434
▁գործչի	-11.434
▁Te	-11.4341
Video	-11.4343
Ֆրանսիա	-11.4343
▁գետեր	-11.4344
▁շրջապատում	-11.4344
▁խաղային	-11.4345
▁Ուղիղ	-11.4345
▁կուտակված	-11.4345
▁ընդմիջում	-11.4345
▁բոնուս	-11.4345
▁Բուլղարիայի	-11.4346
▁իշխանություններն	-11.4346
▁Microsoft	-11.4349
▁մարդասպան	-11.4353
▁ամուսնանալ	-11.4353
gi	-11.4354
Մշակ	-11.4356
▁կասկածանքով	-11.4358
▁հանդարտ	-11.4361
▁խորհ	-11.4361
▁Արեւելք	-11.4362
▁դարերում	-11.4364
▁շրջանառություն	-11.4364
▁պտուղ	-11.4366
բացառությամբ	-11.4369
▁գերատեսչության	-11.4369
մագիստրոս	-11.4373
▁եվրոյի	-11.4373
▁վերջիններս	-11.4374
▁ամուսնացած	-11.4376
▁Հատկանշական	-11.4377
▁քրգործ	-11.4379
▁իմացա	-11.438
▁ոստիկաններ	-11.438
▁այցեր	-11.4381
▁զինատեսակներ	-11.4382
▁պաշտ	-11.4385
▁արտոնյալ	-11.4389
▁կազմակերպիչների	-11.4397
▁տեսչության	-11.4397
ախառն	-11.4397
▁Դեղ	-11.4398
սովոր	-11.4399
▁մենեջեր	-11.4401
թինգ	-11.4405
▁տրամադրության	-11.4407
ԲԱՐ	-11.4408
▁հարցազրույցներ	-11.441
մեղ	-11.4411
▁Մահացել	-11.4412
օրեն	-11.4417
սանիտարական	-11.4418
հակազդ	-11.4421
▁պատանեկան	-11.4422
Հանուն	-11.4422
▁բացելու	-11.4422
▁երկրամաս	-11.4422
ավարժ	-11.4423
▁համայնքապետարան	-11.4426
Թեղուտ	-11.4426
▁համազգային	-11.4427
▁առաջադրանք	-11.4429
Մեզ	-11.443
դառնալ	-11.4437
ult	-11.4439
▁տարիքը	-11.444
▁խզ	-11.4442
▁Աֆրիկա	-11.4444
▁պաշտոնեական	-11.4446
▁Նյութի	-11.4449
▁վերցված	-11.4449
par	-11.4452
▁փոխհատուցման	-11.4453
▁անցումային	-11.446
ե՛ս	-11.4461
▁հիմնավորված	-11.4462
▁Ֆրանսիական	-11.4463
աոճ	-11.4465
Բուլղարիա	-11.4466
▁Սիլ	-11.4468
▁ավելացման	-11.4471
▁ապրած	-11.4471
▁Շվեդիայի	-11.4475
▁անտառներ	-11.4478
▁հետաձգել	-11.448
▁գյուղացիների	-11.448
{{	-11.4482
▁արբանյակ	-11.4482
▁ճեպազրույց	-11.4486
▁կանոնադրություն	-11.4488
▁Մաքսիմ	-11.4491
International	-11.4495
▁հեծանիվ	-11.4495
▁գումարման	-11.4495
▁ընթերցմամբ	-11.4495
▁կիրառվող	-11.4496
▁Եղեգնաձոր	-11.4499
▁գաղափարախոսություն	-11.4499
ер	-11.45
»-«	-11.4503
բարե	-11.4504
քննություն	-11.4504
▁արտագնա	-11.4507
▁Ծռեր	-11.4507
▁խօսք	-11.451
Երազ	-11.4512
▁կասկածներ	-11.4513
▁Կլա	-11.4513
▁ուսումնարան	-11.4516
▁սեղմել	-11.452
ոիդ	-11.4522
▁եռյակ	-11.4523
▁շարադրել	-11.4524
եզրափակեց	-11.4524
▁Հանձնաժողով	-11.4528
ՉԻ	-11.4529
▁մտածողության	-11.453
▁Երգչուհի	-11.4531
▁հետաքրքրվեց	-11.4537
կորցնե	-11.4539
▁Սովորաբար	-11.4542
▁ասպարեզ	-11.4543
▁ակնհայտորեն	-11.4545
ատիրության	-11.4551
▁խորացման	-11.4552
▁չարիք	-11.4553
dy	-11.4553
ՅԱՆԸ	-11.4556
Ընտանեկան	-11.4556
▁Աջափնյակ	-11.4556
▁անմիջականորեն	-11.4557
▁տեղահան	-11.4559
Ճապոնիա	-11.4559
▁հռետոր	-11.456
ц	-11.4564
ая	-11.4565
▁կուտակում	-11.4568
▁հոգաբարձուների	-11.4569
▁Արաբիա	-11.4569
▁ինստիտուցիոնալ	-11.458
▁Արաքս	-11.4581
միլ	-11.4582
ՏՐ	-11.4583
▁Արկադի	-11.4584
▁հիմնարկների	-11.4585
▁սակավ	-11.4585
տե՛ս	-11.4588
▁Բնակչության	-11.4588
▁էկոլոգիական	-11.4589
Նախիջեւան	-11.4599
▁հրապարակումների	-11.4599
▁Description	-11.4601
ՅՈՒ	-11.4605
▁լիցքավոր	-11.461
▁հեթանոս	-11.4613
▁բաժնետեր	-11.4613
▁մակերեսով	-11.4613
▁ճապոնական	-11.4617
▁վերապահված	-11.4617
Օպերա	-11.4619
Հոգեբան	-11.4621
վադ	-11.4624
ԵՐԸ	-11.4625
▁Ընդամենը	-11.4626
▁եղեռն	-11.463
▁կազմակերպչական	-11.4633
▁Կազմակերպություն	-11.4633
կուտ	-11.4637
ծնվ	-11.4638
▁Լուկա	-11.4643
▁Մանկ	-11.4645
▁չվեր	-11.4646
ատառ	-11.4646
▁զգույշ	-11.465
▁քանակով	-11.4651
մայր	-11.4652
▁հանձնեց	-11.4653
▁Լուսանկարներ	-11.4654
▁փոստային	-11.4655
▁փոխվի	-11.4655
առաջարկ	-11.4656
▁Գործող	-11.4658
▁միակողմանի	-11.4663
▁մուլտֆիլմ	-11.4663
▁տիրոջ	-11.4663
պլա	-11.4664
▁անվանակարգում	-11.4667
▁կանցնի	-11.4669
▁երթեւեկ	-11.467
▁տրամաչափի	-11.4671
▁Ուղղակի	-11.4672
Լավ	-11.4673
▁Վերջինիս	-11.4673
▁El	-11.4678
▁Միակ	-11.468
kh	-11.4683
▁ֆորմալ	-11.4684
▁Աֆրին	-11.4688
▁կունենաք	-11.4688
▁ավետարան	-11.4688
▁պարզեց	-11.4689
▁խմբագրությամբ	-11.469
▁գրագետ	-11.4696
▁Ստալին	-11.4696
եւիչ	-11.4697
▁ձեռագրեր	-11.4697
▁անեմ	-11.4697
▁կազմավորման	-11.4697
ԱՅԻ	-11.47
▁ծխել	-11.4704
▁հրապարակախոս	-11.4705
▁հայաստանցի	-11.4706
▁տեսագր	-11.4707
▁հարաբերական	-11.4708
▁տրանս	-11.4709
փլ	-11.4709
անիստ	-11.471
▁կատեգորիայում	-11.471
▁թանգարաններ	-11.4711
Б	-11.4717
▁քվեարկելու	-11.4719
լոբ	-11.4723
▁հյուրանոցային	-11.4725
▁մսի	-11.4725
▁անպատասխան	-11.4726
▁մտերմ	-11.4726
▁Ապրիլյան	-11.4727
▁Փոքրիկ	-11.4728
▁մտահոգիչ	-11.4728
▁պուրակ	-11.4729
հարդար	-11.4729
▁եվրա	-11.473
▁կիրառական	-11.4732
ԱՆԱԿ	-11.4733
▁ինքնասպանություն	-11.4735
▁իսպանական	-11.4737
▁կանցլեր	-11.4737
▁վնասներ	-11.4739
▁մտավորականներ	-11.4739
▁Քարտ	-11.474
հռոմեական	-11.4742
▁ատրճանակ	-11.4746
ood	-11.4749
▁պաշտամունք	-11.475
▁հրաժարվ	-11.4753
▁մարման	-11.4753
որդեգր	-11.4762
▁տեւում	-11.4763
ль	-11.4763
▁միջամտել	-11.4764
ance	-11.4765
▁նախարարությունների	-11.4766
▁ՀԽՍՀ	-11.4767
▁կանոնադրության	-11.4768
▁բռնկվել	-11.477
Իջեւան	-11.4772
▁հանեց	-11.4776
▁փոխհատուց	-11.4776
▁Պրի	-11.4777
▁դրամատիկական	-11.4779
▁Բեկ	-11.478
▁ՃՈ	-11.4782
▁County	-11.4783
▁բրիտանացի	-11.4783
ռեգիստր	-11.4783
ելլա	-11.4784
▁վեպի	-11.4785
▁թագավորական	-11.4785
▁Li	-11.4786
▁հրատարակել	-11.4787
Պատվիր	-11.4795
▁վերադաս	-11.4799
▁He	-11.4799
▁փոխտնօրեն	-11.48
▁ավելացում	-11.4802
▁թեպետ	-11.4805
▁մեդալակիր	-11.4805
▁Համբարձում	-11.4807
լլա	-11.4808
▁մտածող	-11.481
▁ամուսնալուծ	-11.4817
▁կարագ	-11.482
▁Բրազիլիայի	-11.4825
▁պրակտիկ	-11.4826
▁հարազատները	-11.4826
▁դանակահար	-11.4827
▁օրգանական	-11.4828
ծանուց	-11.4828
▁անմահ	-11.4829
!!!	-11.4829
[...]
